<unk>	0
<s>	0
</s>	0
▁like	-4.44422
▁taste	-4.61004
▁good	-4.70099
▁product	-4.7604
▁one	-4.7735
▁flavor	-4.80724
▁great	-4.89655
▁would	-4.92666
▁coffee	-4.97326
▁love	-4.97521
▁tea	-4.99635
▁food	-5.18788
▁get	-5.24258
▁make	-5.28138
▁time	-5.38848
▁really	-5.40579
▁much	-5.47038
▁amazon	-5.48329
▁use	-5.50871
▁also	-5.55335
▁little	-5.5852
▁price	-5.60024
▁dog	-5.61487
▁bag	-5.62916
▁buy	-5.643
▁find	-5.67327
▁best	-5.67447
▁well	-5.69327
▁cup	-5.69949
▁tried	-5.70315
▁even	-5.70375
▁better	-5.73751
▁store	-5.74967
▁try	-5.75533
▁chocolate	-5.77774
▁box	-5.79144
▁sugar	-5.84268
▁day	-5.84429
▁water	-5.85667
▁drink	-5.859
▁eat	-5.86913
▁first	-5.89865
▁year	-5.90997
▁could	-5.93921
▁used	-5.94949
▁brand	-5.97355
▁sweet	-5.99084
▁found	-5.9931
▁way	-6.02478
▁made	-6.03688
▁treat	-6.06065
▁mix	-6.07092
▁bought	-6.07666
▁cannot	-6.08324
▁free	-6.08732
▁think	-6.09732
▁give	-6.12976
▁bit	-6.13427
▁thing	-6.1395
▁two	-6.14077
▁order	-6.15498
▁say	-6.17433
▁since	-6.18046
▁cat	-6.18456
▁know	-6.19738
▁add	-6.20216
▁still	-6.21062
▁lot	-6.2147
▁delicious	-6.23042
▁want	-6.23222
▁nice	-6.25392
▁favorite	-6.26517
▁ingredient	-6.27247
▁recommend	-6.27381
▁work	-6.27413
▁many	-6.27434
▁got	-6.27585
▁pack	-6.29612
▁bar	-6.30282
▁hot	-6.32535
▁never	-6.33333
▁milk	-6.33481
▁need	-6.34643
▁snack	-6.35441
▁something	-6.36328
▁stuff	-6.36715
▁come	-6.37411
▁keep	-6.38566
▁sauce	-6.39893
▁oil	-6.40955
▁every	-6.40998
▁without	-6.41712
▁review	-6.42003
▁quality	-6.43338
▁always	-6.44304
▁organic	-6.44533
▁right	-6.45292
▁le	-6.45363
▁package	-6.45845
▁different	-6.47796
▁back	-6.48574
▁enough	-6.48594
▁ever	-6.48733
▁however	-6.49252
▁take	-6.49532
▁fresh	-6.50055
▁easy	-6.51299
▁ordered	-6.51455
▁using	-6.51571
▁small	-6.52338
▁put	-6.52476
▁healthy	-6.52952
▁perfect	-6.5359
▁though	-6.53611
▁bottle	-6.54106
▁calorie	-6.54527
▁whole	-6.55579
▁sure	-6.55857
▁old	-6.55971
▁bad	-6.57248
▁long	-6.5782
▁month	-6.58074
▁hard	-6.58534
▁see	-6.61277
▁high	-6.61548
▁enjoy	-6.63243
▁green	-6.64067
▁eating	-6.6409
▁definitely	-6.64121
▁buying	-6.64136
▁last	-6.64594
▁local	-6.64733
▁candy	-6.65131
▁thought	-6.65139
▁smell	-6.66199
▁regular	-6.66587
▁size	-6.67375
▁problem	-6.67511
▁salt	-6.67623
▁strong	-6.68273
▁far	-6.68402
▁natural	-6.68419
▁looking	-6.6901
▁going	-6.69359
▁pretty	-6.70153
▁butter	-6.70515
▁tasty	-6.71044
▁bean	-6.72111
▁shipping	-6.72488
▁cereal	-6.73256
▁big	-6.73604
▁chicken	-6.73749
▁actually	-6.73885
▁cooky	-6.73911
▁item	-6.74039
▁another	-6.7415
▁rice	-6.75017
▁star	-6.75337
▁happy	-6.75597
▁quite	-6.75797
▁new	-6.75823
▁wonderful	-6.75944
▁look	-6.76058
▁fruit	-6.76407
▁people	-6.76599
▁feel	-6.7794
▁purchase	-6.78029
▁texture	-6.7966
▁may	-6.80567
▁low	-6.80914
▁tasted	-6.80996
▁real	-6.81198
▁kind	-6.81916
▁almost	-6.82073
▁gluten	-6.82919
▁excellent	-6.83031
▁grocery	-6.83857
▁per	-6.8396
▁highly	-6.84026
▁fat	-6.84718
▁purchased	-6.84803
▁amount	-6.84908
▁tasting	-6.85989
▁peanut	-6.86115
▁worth	-6.86811
▁coconut	-6.8685
▁half	-6.87326
▁anything	-6.87385
▁chip	-6.87561
▁around	-6.8761
▁diet	-6.89915
▁family	-6.90306
▁week	-6.91662
▁kid	-6.91723
▁dry	-6.91835
▁expensive	-6.91947
▁variety	-6.92223
▁company	-6.92295
▁added	-6.92316
▁came	-6.94314
▁blend	-6.94765
▁trying	-6.94975
▁case	-6.95228
▁probably	-6.96066
▁full	-6.9661
▁said	-6.96889
▁home	-6.97935
▁vanilla	-6.98348
▁soup	-6.98806
▁meal	-6.98839
▁friend	-6.9885
▁dark	-6.98993
▁received	-6.99476
▁several	-6.99619
▁getting	-7.00328
▁away	-7.00817
▁morning	-7.01377
▁bread	-7.01512
▁cheese	-7.01602
▁loved	-7.0176
▁protein	-7.02461
▁usually	-7.02745
▁piece	-7.03167
▁minute	-7.03521
▁might	-7.03935
▁recipe	-7.04293
▁help	-7.04443
▁making	-7.05257
▁ounce	-7.05842
▁top	-7.07415
▁juice	-7.07451
▁cost	-7.08193
▁light	-7.08747
▁arrived	-7.09682
▁seems	-7.09914
▁black	-7.10147
▁nut	-7.10786
▁money	-7.11342
▁serving	-7.11715
▁three	-7.11852
▁health	-7.12089
▁honey	-7.12289
▁available	-7.12527
▁nothing	-7.13422
▁especially	-7.14096
▁flavored	-7.14351
▁instead	-7.14671
▁able	-7.14812
▁large	-7.15185
▁drinking	-7.16521
▁syrup	-7.1673
▁save	-7.16993
▁disappointed	-7.17098
▁husband	-7.17348
▁pasta	-7.189
▁maybe	-7.19692
▁extra	-7.19814
▁least	-7.20111
▁fact	-7.20125
▁fine	-7.20274
▁gift	-7.20328
▁type	-7.20709
▁corn	-7.2094
▁spice	-7.212
▁cream	-7.21653
▁deal	-7.21914
▁packaging	-7.21983
▁let	-7.23121
▁bitter	-7.2354
▁white	-7.24497
▁cracker	-7.24582
▁powder	-7.24724
▁jar	-7.24752
▁either	-7.24951
▁next	-7.25321
▁second	-7.26339
▁others	-7.27513
▁breakfast	-7.27863
▁baby	-7.2801
▁decided	-7.28509
▁wish	-7.28553
▁absolutely	-7.28671
▁hand	-7.28715
▁liked	-7.29129
▁prefer	-7.29188
▁packet	-7.30007
▁couple	-7.30351
▁gave	-7.30381
▁chew	-7.30517
▁went	-7.30517
▁house	-7.31044
▁container	-7.31089
▁red	-7.31558
▁ago	-7.31726
▁smooth	-7.31771
▁energy	-7.31862
▁wanted	-7.31954
▁soft	-7.33088
▁although	-7.33165
▁meat	-7.3335
▁cheaper	-7.33924
▁roast	-7.34204
▁quickly	-7.35049
▁must	-7.35128
▁noodle	-7.35317
▁started	-7.35411
▁hair	-7.36458
▁plus	-7.36985
▁popcorn	-7.37049
▁can	-7.3713
▁read	-7.37467
▁longer	-7.37693
▁yet	-7.37774
▁recommended	-7.37871
▁open	-7.37935
▁rich	-7.38097
▁side	-7.3826
▁seem	-7.38748
▁fast	-7.39173
▁fan	-7.3983
▁stick	-7.39929
▁amazing	-7.39978
▁else	-7.40974
▁grain	-7.41208
▁ordering	-7.41526
▁wheat	-7.41812
▁cookie	-7.41828
▁everything	-7.42132
▁seed	-7.42182
▁hour	-7.42317
▁took	-7.42453
▁cake	-7.42656
▁anyone	-7.42707
▁cook	-7.4286
▁quick	-7.4332
▁part	-7.43337
▁pound	-7.43662
▁almond	-7.43747
▁rather	-7.44418
▁spicy	-7.44453
▁color	-7.44816
▁etc	-7.44833
▁leaf	-7.45111
▁version	-7.45233
▁mouth	-7.45425
▁market	-7.46723
▁difference	-7.47113
▁glad	-7.47166
▁son	-7.47219
▁reason	-7.47237
▁place	-7.47628
▁plastic	-7.47968
▁cooking	-7.48129
▁end	-7.4901
▁tell	-7.49119
▁cold	-7.49372
▁ginger	-7.49427
▁life	-7.495
▁pepper	-7.50339
▁ice	-7.50375
▁dried	-7.5161
▁value	-7.52861
▁issue	-7.52917
▁cinnamon	-7.53426
▁flour	-7.53823
▁sometimes	-7.54585
▁super	-7.54661
▁choice	-7.54815
▁everyone	-7.54834
▁mixed	-7.54987
▁apple	-7.55873
▁dish	-7.5597
▁gum	-7.5599
▁ground	-7.56261
▁bowl	-7.56475
▁weight	-7.5669
▁thank	-7.56963
▁lemon	-7.57179
▁online	-7.57395
▁start	-7.57493
▁fiber	-7.57592
▁vitamin	-7.58204
▁brown	-7.58303
▁bite	-7.5942
▁soda	-7.595
▁cut	-7.59762
▁alternative	-7.60428
▁machine	-7.60692
▁potato	-7.61201
▁slightly	-7.61303
▁line	-7.61364
▁believe	-7.61795
▁daughter	-7.61856
▁thanks	-7.62021
▁overall	-7.62392
▁crunchy	-7.62619
▁brew	-7.63222
▁often	-7.63326
▁yummy	-7.63514
▁run	-7.63535
▁heat	-7.63975
▁opened	-7.63975
▁sweetener	-7.64395
▁go	-7.64585
▁mean	-7.64712
▁easily	-7.6486
▁pod	-7.64987
▁soy	-7.65093
▁artificial	-7.65136
▁date	-7.652
▁100	-7.65285
▁enjoyed	-7.65434
▁formula	-7.65946
▁hope	-7.66203
▁oatmeal	-7.66893
▁salad	-7.66936
▁olive	-7.67935
▁beef	-7.68132
▁exactly	-7.68154
▁care	-7.68395
▁starbucks	-7.68439
▁left	-7.68593
▁result	-7.68813
▁guess	-7.6921
▁orange	-7.70188
▁original	-7.70255
▁wife	-7.70345
▁smaller	-7.71018
▁awesome	-7.71266
▁change	-7.71311
▁clean	-7.71469
▁reviewer	-7.71583
▁pet	-7.72037
▁experience	-7.72082
▁night	-7.72173
▁plain	-7.7231
▁course	-7.72516
▁pleased	-7.72676
▁similar	-7.73411
▁list	-7.73804
▁special	-7.7392
▁surprised	-7.7399
▁cherry	-7.74292
▁carry	-7.74362
▁sodium	-7.74385
▁canned	-7.74665
▁caffeine	-7.74922
▁content	-7.74969
▁cocoa	-7.7511
▁french	-7.75439
▁pay	-7.75887
▁aroma	-7.76337
▁seasoning	-7.76575
▁giving	-7.76694
▁recently	-7.76718
▁inside	-7.76885
▁teeth	-7.77196
▁salty	-7.7722
▁egg	-7.77316
▁four	-7.7746
▁label	-7.77484
▁aftertaste	-7.77845
▁espresso	-7.77869
▁simply	-7.78135
▁huge	-7.78304
▁wrong	-7.78644
▁sell	-7.79107
▁yes	-7.79278
▁contains	-7.79302
▁adding	-7.79768
▁glass	-7.7999
▁compared	-7.80088
▁close	-7.80212
▁keurig	-7.80286
▁past	-7.80286
▁single	-7.80385
▁someone	-7.80533
▁live	-7.80831
▁already	-7.81429
▁looked	-7.81779
▁saw	-7.8183
▁packaged	-7.82006
▁non	-7.82459
▁decaf	-7.82636
▁service	-7.83296
▁idea	-7.83423
▁daily	-7.83449
▁baking	-7.835
▁instant	-7.84217
▁vegetable	-7.8432
▁delivery	-7.84603
▁point	-7.84655
▁pot	-7.85043
▁fish	-7.85094
▁finally	-7.8525
▁expected	-7.85302
▁flavorful	-7.85536
▁subscribe	-7.85719
▁mild	-7.85901
▁ate	-7.86636
▁pop	-7.86636
▁chewy	-7.86689
▁bold	-7.86847
▁gram	-7.86873
▁child	-7.86952
▁fantastic	-7.87376
▁benefit	-7.87642
▁option	-7.87668
▁note	-7.87695
▁lunch	-7.88148
▁along	-7.88175
▁based	-7.88416
▁bulk	-7.88443
▁stay	-7.88523
▁stomach	-7.8855
▁tomato	-7.88577
▁body	-7.88765
▁due	-7.88819
▁customer	-7.8898
▁needed	-7.89088
▁unfortunately	-7.89142
▁granola	-7.89169
▁noticed	-7.89196
▁stock	-7.89467
▁gone	-7.89738
▁filling	-7.90337
▁raw	-7.91188
▁shipped	-7.91215
▁soon	-7.91907
▁later	-7.9199
▁feed	-7.92073
▁iced	-7.92101
▁liquid	-7.92296
▁name	-7.92408
▁done	-7.92967
▁mine	-7.93304
▁given	-7.93332
▁mint	-7.93445
▁convenient	-7.93586
▁strawberry	-7.93642
▁com	-7.93925
▁bottom	-7.9455
▁expect	-7.94636
▁mind	-7.95007
▁dinner	-7.95524
▁opinion	-7.96769
▁batch	-7.96827
▁completely	-7.96856
▁creamy	-7.97149
▁five	-7.97354
▁leave	-7.97412
▁seller	-7.97559
▁larger	-7.97618
▁eaten	-7.97647
▁maker	-7.97765
▁sold	-7.97794
▁please	-7.98
▁set	-7.98178
▁sweetness	-7.98207
▁turn	-7.98237
▁oat	-7.98266
▁rest	-7.98533
▁bone	-7.98562
▁blue	-7.988
▁sent	-7.98979
▁world	-7.99038
▁extremely	-7.99337
▁picky	-7.99696
▁sale	-7.99696
▁chai	-7.99756
▁hit	-7.99756
▁true	-7.99846
▁continue	-8.00268
▁vet	-8.00631
▁thick	-8.00661
▁wait	-8.00691
▁hint	-8.01147
▁skin	-8.01238
▁certainly	-8.01269
▁call	-8.0133
▁cheap	-8.01391
▁together	-8.01635
▁called	-8.01911
▁excited	-8.01911
▁allergy	-8.02064
▁anyway	-8.02126
▁area	-8.02372
▁medium	-8.02372
▁christmas	-8.02557
▁within	-8.03987
▁shelf	-8.05534
▁substitute	-8.05566
▁break	-8.05597
▁jerky	-8.05852
▁seemed	-8.05852
▁sour	-8.06268
▁today	-8.06653
▁veggie	-8.06814
▁waste	-8.06846
▁chili	-8.07202
▁purchasing	-8.0759
▁stop	-8.07785
▁normal	-8.07818
▁plant	-8.08668
▁effect	-8.08733
▁cooked	-8.08865
▁remember	-8.09029
▁addition	-8.09128
▁berry	-8.09657
▁easier	-8.09823
▁supermarket	-8.10089
▁shop	-8.10256
▁chemical	-8.10356
▁healthier	-8.10356
▁acid	-8.10456
▁contain	-8.1059
▁pancake	-8.1059
▁entire	-8.11059
▁told	-8.1116
▁pure	-8.11193
▁truly	-8.11295
▁packed	-8.11328
▁toy	-8.11396
▁difficult	-8.11497
▁unless	-8.11598
▁beat	-8.11869
▁garlic	-8.12073
▁level	-8.12073
▁twice	-8.1214
▁fit	-8.12208
▁hold	-8.12208
▁consistency	-8.12379
▁microwave	-8.12379
▁delivered	-8.12549
▁pouch	-8.12857
▁caramel	-8.12925
▁count	-8.12994
▁lower	-8.13062
▁shipment	-8.13165
▁simple	-8.13165
▁seen	-8.13268
▁decent	-8.13474
▁beverage	-8.13612
▁restaurant	-8.13785
▁blueberry	-8.14131
▁normally	-8.14374
▁source	-8.14513
▁offer	-8.14617
▁banana	-8.15562
▁pick	-8.15703
▁baked	-8.15844
▁clear	-8.15879
▁become	-8.16126
▁reading	-8.16339
▁refreshing	-8.1641
▁crunch	-8.16623
▁pill	-8.17193
▁matter	-8.17372
▁description	-8.17623
▁state	-8.17946
▁fun	-8.18343
▁kitchen	-8.18415
▁stevia	-8.18488
▁person	-8.1856
▁sort	-8.1856
▁tiny	-8.18597
▁discovered	-8.18669
▁particular	-8.18705
▁thin	-8.19032
▁throw	-8.19069
▁tuna	-8.19251
▁feeding	-8.19288
▁weak	-8.19397
▁totally	-8.198
▁shake	-8.20352
▁condition	-8.20462
▁locally	-8.20462
▁stopped	-8.20906
▁broken	-8.20981
▁roasted	-8.21278
▁drop	-8.21576
▁worked	-8.21688
▁lover	-8.21726
▁taking	-8.21951
▁licorice	-8.22138
▁yogurt	-8.22176
▁anymore	-8.22552
▁check	-8.22627
▁website	-8.22627
▁drinker	-8.23271
▁none	-8.23423
▁puppy	-8.23652
▁anywhere	-8.23728
▁combination	-8.24302
▁mom	-8.24302
▁six	-8.24494
▁pleasant	-8.24571
▁felt	-8.2484
▁perhaps	-8.2484
▁complaint	-8.25072
▁dollar	-8.25421
▁plan	-8.25576
▁feeling	-8.25732
▁immediately	-8.25849
▁okay	-8.26357
▁picture	-8.26513
▁raisin	-8.26553
▁turned	-8.26553
▁bland	-8.2667
▁nutrition	-8.26749
▁warm	-8.26906
▁finding	-8.27064
▁thinking	-8.27064
▁flavoring	-8.27103
▁loose	-8.28374
▁higher	-8.28494
▁ready	-8.28494
▁stale	-8.28735
▁perfectly	-8.29217
▁including	-8.29379
▁whatever	-8.29419
▁finish	-8.29621
▁number	-8.29662
▁short	-8.29824
▁onion	-8.29905
▁pumpkin	-8.29905
▁serve	-8.30189
▁mostly	-8.30271
▁us	-8.30966
▁carb	-8.3113
▁mess	-8.31541
▁notice	-8.31665
▁sandwich	-8.31789
▁reasonable	-8.31872
▁return	-8.31955
▁wine	-8.32121
▁word	-8.32204
▁nearly	-8.32245
▁quantity	-8.32245
▁bring	-8.32328
▁except	-8.32412
▁somewhat	-8.32453
▁heavy	-8.32578
▁salmon	-8.32578
▁unlike	-8.32578
▁dressing	-8.33331
▁peach	-8.33794
▁style	-8.33879
▁hate	-8.34217
▁wow	-8.34217
▁compare	-8.34514
▁otherwise	-8.34514
▁shampoo	-8.34642
▁summer	-8.34983
▁future	-8.35068
▁carbs	-8.35154
▁satisfying	-8.35454
▁standard	-8.35539
▁touch	-8.35754
▁fill	-8.35841
▁kick	-8.35841
▁supposed	-8.35884
▁direction	-8.3597
▁extract	-8.3597
▁craving	-8.36013
▁listed	-8.36013
▁shape	-8.36056
▁homemade	-8.36186
▁eats	-8.36575
▁expecting	-8.37272
▁brewed	-8.37316
▁total	-8.37403
▁mountain	-8.37622
▁balance	-8.37666
▁hoping	-8.37754
▁stand	-8.38149
▁individual	-8.38194
▁changed	-8.3837
▁instruction	-8.3837
▁moist	-8.38503
▁sample	-8.3868
▁hooked	-8.39213
▁horrible	-8.39213
▁trip	-8.39436
▁straight	-8.39928
▁pour	-8.40018
▁form	-8.40468
▁italian	-8.40558
▁terrible	-8.40739
▁double	-8.41101
▁awful	-8.41283
▁mother	-8.41511
▁gourmet	-8.41922
▁crazy	-8.42059
▁impressed	-8.42059
▁near	-8.42059
▁spread	-8.42059
▁vinegar	-8.42197
▁stronger	-8.42335
▁job	-8.42426
▁pricey	-8.42472
▁avoid	-8.42703
▁vegan	-8.42795
▁crisp	-8.42841
▁portion	-8.42934
▁fairly	-8.43165
▁stir	-8.43444
▁priced	-8.43537
▁supply	-8.43583
▁nutritional	-8.43676
▁tin	-8.43723
▁room	-8.44003
▁forward	-8.4419
▁control	-8.44471
▁switch	-8.44565
▁pie	-8.44612
▁test	-8.44895
▁office	-8.45083
▁show	-8.45083
▁blood	-8.45178
▁cool	-8.4532
▁paid	-8.4532
▁curry	-8.45415
▁yum	-8.45415
▁chewing	-8.45462
▁splenda	-8.45462
▁replacement	-8.45652
▁tree	-8.45699
▁tart	-8.45842
▁satisfied	-8.4589
▁party	-8.45937
▁pizza	-8.46415
▁agree	-8.46511
▁usual	-8.46559
▁chunk	-8.46606
▁outside	-8.46606
▁roll	-8.46606
▁tablespoon	-8.46606
▁lime	-8.46655
▁dessert	-8.46799
▁fair	-8.46895
▁site	-8.46943
▁knew	-8.47232
▁wrapped	-8.47232
▁shot	-8.47377
▁heard	-8.47959
▁chance	-8.48202
▁sea	-8.48446
▁raspberry	-8.48544
▁lid	-8.48593
▁process	-8.48739
▁coming	-8.48788
▁door	-8.48886
▁ship	-8.48936
▁personally	-8.48985
▁biscuit	-8.49132
▁kept	-8.49181
▁american	-8.49231
▁overly	-8.49231
▁coat	-8.4928
▁mango	-8.49329
▁consider	-8.49378
▁costco	-8.49724
▁claim	-8.49972
▁brewing	-8.50419
▁sealed	-8.50419
▁opening	-8.50469
▁important	-8.50769
▁solid	-8.50919
▁maple	-8.51169
▁paper	-8.5127
▁rating	-8.5132
▁pan	-8.51471
▁ball	-8.51622
▁hazelnut	-8.51925
▁possible	-8.52179
▁wet	-8.52331
▁eater	-8.52585
▁ended	-8.52789
▁actual	-8.52942
▁china	-8.53096
▁jelly	-8.53249
▁flake	-8.53454
▁sweetened	-8.53506
▁surprise	-8.53609
▁across	-8.53866
▁alone	-8.53918
▁adult	-8.54021
▁waffle	-8.54073
▁research	-8.5428
▁putting	-8.54331
▁convenience	-8.54383
▁sized	-8.54435
▁brought	-8.54539
▁fridge	-8.54643
▁send	-8.54643
▁nicely	-8.54695
▁brownie	-8.54851
▁melt	-8.55059
▁crystal	-8.55164
▁system	-8.55373
▁latte	-8.55635
▁litter	-8.55635
▁afternoon	-8.55845
▁update	-8.55898
▁traditional	-8.56056
▁upon	-8.56109
▁sitting	-8.56744
▁subtle	-8.56744
▁imagine	-8.56956
▁share	-8.57383
▁suggest	-8.57383
▁sensitive	-8.57597
▁plenty	-8.57865
▁unique	-8.57865
▁nature	-8.57918
▁trap	-8.5808
▁tend	-8.58187
▁filled	-8.58241
▁paste	-8.58457
▁grey	-8.58565
▁base	-8.58781
▁ask	-8.58835
▁kit	-8.58998
▁carrying	-8.59379
▁sick	-8.59379
▁teaspoon	-8.59433
▁expiration	-8.59488
▁frozen	-8.59543
▁whether	-8.59543
▁known	-8.59706
▁eye	-8.59925
▁bear	-8.6009
▁bake	-8.60255
▁worry	-8.60255
▁rate	-8.60365
▁fall	-8.6042
▁supplement	-8.6053
▁various	-8.6053
▁air	-8.60861
▁subscription	-8.61027
▁herb	-8.61083
▁scent	-8.61138
▁stuck	-8.6136
▁sorry	-8.61472
▁premium	-8.61527
▁mixing	-8.61583
▁boy	-8.61806
▁weird	-8.61806
▁mustard	-8.6203
▁yellow	-8.62198
▁sit	-8.62254
▁slight	-8.6231
▁thrilled	-8.6231
▁search	-8.6276
▁served	-8.62873
▁prepare	-8.63042
▁worst	-8.63042
▁creamer	-8.63212
▁guy	-8.63609
▁everyday	-8.63894
▁included	-8.64065
▁prime	-8.64236
▁spoon	-8.64351
▁trouble	-8.64351
▁heart	-8.64637
▁offered	-8.6504
▁switched	-8.6504
▁slice	-8.65098
▁main	-8.65156
▁overpowering	-8.65329
▁figured	-8.65503
▁processed	-8.65503
▁animal	-8.65561
▁understand	-8.65677
▁peppermint	-8.65735
▁lost	-8.65909
▁working	-8.65967
▁diabetic	-8.66026
▁basically	-8.66259
▁careful	-8.66434
▁bigger	-8.66493
▁pantry	-8.6661
▁manufacturer	-8.66786
▁wild	-8.66786
▁pocket	-8.66903
▁broth	-8.67256
▁grind	-8.67256
▁selling	-8.67315
▁muffin	-8.67492
▁preservative	-8.67729
▁running	-8.67847
▁beautiful	-8.67966
▁newman	-8.68085
▁considering	-8.68204
▁third	-8.68264
▁yeast	-8.68264
▁flower	-8.68442
▁gotten	-8.68562
▁mention	-8.68681
▁pork	-8.68681
▁prepared	-8.68681
▁freeze	-8.68861
▁negative	-8.68921
▁earl	-8.69041
▁comment	-8.69341
▁dairy	-8.69462
▁covered	-8.69764
▁likely	-8.69764
▁asked	-8.69885
▁gas	-8.69945
▁powdered	-8.70006
▁boost	-8.70066
▁average	-8.7037
▁grape	-8.7037
▁saying	-8.70736
▁turkey	-8.70736
▁crispy	-8.70858
▁generally	-8.70858
▁worse	-8.70858
▁mentioned	-8.70919
▁wonder	-8.71164
▁pea	-8.71225
▁information	-8.7141
▁produce	-8.7141
▁paying	-8.71533
▁toast	-8.71533
▁conditioner	-8.71964
▁bacon	-8.72026
▁sound	-8.72026
▁dip	-8.72212
▁watch	-8.72274
▁drank	-8.72336
▁mini	-8.72522
▁picked	-8.72522
▁lack	-8.72709
▁kibble	-8.72896
▁truffle	-8.72896
▁sticky	-8.73083
▁receive	-8.73145
▁general	-8.73271
▁safe	-8.73396
▁nasty	-8.73521
▁bunch	-8.73647
▁mill	-8.73836
▁helped	-8.74214
▁school	-8.74214
▁poor	-8.74278
▁mocha	-8.74341
▁bitterness	-8.74468
▁bud	-8.74594
▁steak	-8.74658
▁english	-8.74721
▁senseo	-8.74912
▁interesting	-8.75295
▁cranberry	-8.75359
▁earth	-8.75487
▁honestly	-8.75679
▁particularly	-8.76387
▁pre	-8.76387
▁table	-8.76452
▁buck	-8.76516
▁seriously	-8.76516
▁pleasantly	-8.76646
▁head	-8.77295
▁previous	-8.77557
▁admit	-8.77687
▁appreciate	-8.77687
▁holiday	-8.77753
▁message	-8.7795
▁miss	-8.78147
▁pretzel	-8.78212
▁birthday	-8.78344
▁vendor	-8.7874
▁filter	-8.78872
▁face	-8.78939
▁crust	-8.79071
▁root	-8.79537
▁fry	-8.79871
▁grew	-8.80206
▁basket	-8.80475
▁evening	-8.80677
▁fructose	-8.8115
▁finished	-8.81285
▁cent	-8.81693
▁keeping	-8.81693
▁mug	-8.81693
▁training	-8.8183
▁became	-8.81966
▁sip	-8.82034
▁girl	-8.8224
▁zero	-8.8224
▁allergic	-8.82377
▁individually	-8.82377
▁taco	-8.82377
▁herbal	-8.82789
▁walmart	-8.82858
▁seal	-8.82927
▁directly	-8.83272
▁typical	-8.83272
▁enjoying	-8.83342
▁tired	-8.8355
▁age	-8.83619
▁scoop	-8.83689
▁gummy	-8.83828
▁staple	-8.83828
▁fruity	-8.83897
▁smelled	-8.84037
▁ton	-8.84037
▁winter	-8.84106
▁brewer	-8.84176
▁via	-8.84176
▁purpose	-8.84246
▁book	-8.84386
▁threw	-8.84456
▁kitty	-8.84526
▁nutty	-8.84596
▁concerned	-8.84736
▁personal	-8.84877
▁figure	-8.84947
▁beer	-8.85018
▁usa	-8.85088
▁pain	-8.85229
▁country	-8.853
▁empty	-8.853
▁thai	-8.853
▁vegetarian	-8.85653
▁mistake	-8.85724
▁obviously	-8.85724
▁gravy	-8.85866
▁freezer	-8.86008
▁gold	-8.86222
▁business	-8.86293
▁lb	-8.86365
▁middle	-8.86365
▁saving	-8.86365
▁scalp	-8.86365
▁fix	-8.86508
▁spend	-8.86508
▁melted	-8.86579
▁guest	-8.86794
▁doubt	-8.86866
▁tip	-8.86937
▁cardboard	-8.87009
▁comparison	-8.87009
▁matcha	-8.87297
▁squeeze	-8.87586
▁indian	-8.87658
▁late	-8.87803
▁alot	-8.87947
▁travel	-8.87947
▁square	-8.88093
▁sprinkle	-8.88311
▁grown	-8.88456
▁oven	-8.88529
▁older	-8.88748
▁whenever	-8.89261
▁farm	-8.89335
▁season	-8.89335
▁hungry	-8.89408
▁apart	-8.89556
▁spot	-8.89556
▁deep	-8.89629
▁positive	-8.89629
▁front	-8.89777
▁according	-8.89999
▁realize	-8.89999
▁learned	-8.90221
▁pomegranate	-8.90221
▁asian	-8.9037
▁regularly	-8.9037
▁addicted	-8.90667
▁human	-8.90667
▁write	-8.90667
▁advertised	-8.90742
▁lovely	-8.91041
▁tooth	-8.91041
▁lab	-8.9119
▁golden	-8.91265
▁upset	-8.9134
▁car	-8.91415
▁provide	-8.91566
▁sleep	-8.91566
▁lose	-8.91716
▁bed	-8.91791
▁graham	-8.91867
▁dissolve	-8.92169
▁barely	-8.92245
▁despite	-8.92472
▁taken	-8.92472
▁choose	-8.92624
▁mail	-8.92852
▁carrot	-8.92928
▁term	-8.92928
▁nutritious	-8.93004
▁junk	-8.93157
▁fancy	-8.93386
▁strange	-8.93463
▁goodness	-8.9354
▁happened	-8.93616
▁inch	-8.93616
▁naturally	-8.93693
▁mixture	-8.9377
▁gallon	-8.93924
▁literally	-8.94001
▁movie	-8.94001
▁sweeter	-8.94387
▁temperature	-8.94387
▁lipton	-8.94542
▁folk	-8.94619
▁odd	-8.94774
▁sister	-8.9493
▁sardine	-8.95008
▁cover	-8.95163
▁finger	-8.95319
▁additive	-8.95397
▁steep	-8.95397
▁reminds	-8.95476
▁basis	-8.95554
▁lol	-8.95632
▁filler	-8.95789
▁flat	-8.96024
▁mushroom	-8.96182
▁breath	-8.9626
▁grade	-8.96339
▁missing	-8.96339
▁topping	-8.96418
▁disappointing	-8.96576
▁major	-8.96576
▁wellness	-8.96576
▁cashew	-8.96655
▁placed	-8.96655
▁cheddar	-8.96734
▁additional	-8.96814
▁enjoys	-8.96972
▁growing	-8.97052
▁bother	-8.97211
▁described	-8.9737
▁program	-8.97449
▁searching	-8.97449
▁superior	-8.97609
▁certain	-8.97689
▁present	-8.97769
▁charge	-8.97849
▁bob	-8.9809
▁fabulous	-8.9825
▁apparently	-8.98492
▁intake	-8.98492
▁increase	-8.98653
▁satisfy	-8.98653
▁buffalo	-8.98734
▁agave	-8.98814
▁bill	-8.98814
▁flavour	-8.98814
▁round	-8.98976
▁setting	-8.98976
▁coating	-8.99301
▁wash	-8.99301
▁punch	-8.99382
▁stated	-8.99545
▁grab	-8.99626
▁sugary	-8.99626
▁internet	-8.99789
▁bbq	-8.99871
▁boiling	-9.00362
▁remove	-9.00362
▁gross	-9.00691
▁strength	-9.00774
▁cholesterol	-9.00939
▁follow	-9.00939
▁rock	-9.0127
▁salsa	-9.0127
▁early	-9.01602
▁freshness	-9.01685
▁odor	-9.01851
▁classic	-9.01935
▁flax	-9.01935
▁joe	-9.02102
▁aware	-9.02185
▁mac	-9.02353
▁selection	-9.02353
▁living	-9.0252
▁dented	-9.02688
▁bodied	-9.02856
▁handy	-9.0294
▁suggested	-9.0294
▁concentrate	-9.03109
▁realized	-9.03109
▁bonus	-9.03447
▁consumer	-9.03786
▁donut	-9.03786
▁neither	-9.03957
▁replace	-9.03957
▁intense	-9.04042
▁everywhere	-9.04212
▁trust	-9.04383
▁complete	-9.04554
▁mineral	-9.04554
▁popular	-9.04554
▁post	-9.04554
▁describe	-9.04725
▁interested	-9.04811
▁fell	-9.04983
▁cane	-9.05155
▁bubble	-9.05414
▁dough	-9.05587
▁cappuccino	-9.05673
▁pro	-9.0576
▁favor	-9.05933
▁doctor	-9.06194
▁nose	-9.06194
▁sense	-9.06194
▁grass	-9.06456
▁counter	-9.06543
▁shopping	-9.06718
▁man	-9.06893
▁cafe	-9.07068
▁crumb	-9.07068
▁ran	-9.07068
▁arrive	-9.07156
▁scratch	-9.07156
▁trick	-9.07244
▁burn	-9.07332
▁refund	-9.07508
▁center	-9.07596
▁equal	-9.07596
▁chinese	-9.07773
▁oily	-9.0795
▁rawhide	-9.0795
▁spent	-9.08039
▁tough	-9.08127
▁impossible	-9.08394
▁cause	-9.08483
▁tongue	-9.08572
▁beyond	-9.08661
▁greasy	-9.08661
▁play	-9.08929
▁reaction	-9.09019
▁spaghetti	-9.09019
▁happen	-9.09198
▁hole	-9.09288
▁robust	-9.09288
▁stash	-9.09288
▁busy	-9.09377
▁clearly	-9.09377
▁fed	-9.09467
▁following	-9.09828
▁knowing	-9.1028
▁nutrient	-9.10371
▁ten	-9.10371
▁watching	-9.10462
▁enjoyable	-9.10552
▁terrific	-9.10552
▁addictive	-9.10643
▁originally	-9.10643
▁quinoa	-9.10643
▁effective	-9.10734
▁fake	-9.10734
▁boil	-9.10826
▁awhile	-9.10917
▁digestive	-9.11008
▁followed	-9.11282
▁throat	-9.11833
▁luck	-9.11925
▁grow	-9.12018
▁sesame	-9.1211
▁offering	-9.12387
▁heaven	-9.1248
▁breast	-9.12573
▁introduced	-9.12573
▁began	-9.12665
▁beware	-9.12758
▁balanced	-9.12851
▁jasmine	-9.12851
▁thus	-9.12851
▁outstanding	-9.13317
▁suppose	-9.13317
▁bottled	-9.13598
▁cap	-9.13692
▁loaf	-9.13692
▁smoothy	-9.13692
▁relatively	-9.13786
▁kraft	-9.1388
▁fudge	-9.13974
▁overwhelming	-9.14068
▁parent	-9.14068
▁provides	-9.14068
▁include	-9.14162
▁jam	-9.14162
▁multiple	-9.14162
▁affordable	-9.14256
▁disgusting	-9.14256
▁lightly	-9.14445
▁town	-9.14445
▁concern	-9.14635
▁checked	-9.14919
▁cola	-9.14919
▁watery	-9.15014
▁disappointment	-9.15109
▁disease	-9.15109
▁foil	-9.15109
▁rose	-9.15109
▁walnut	-9.15109
▁bran	-9.15204
▁preference	-9.153
▁delight	-9.15395
▁owner	-9.15586
▁produced	-9.15777
▁elsewhere	-9.15969
▁cube	-9.16065
▁helpful	-9.16161
▁wrap	-9.16257
▁authentic	-9.1645
▁worried	-9.1645
▁handle	-9.16547
▁fried	-9.16643
▁limited	-9.16643
▁pink	-9.1674
▁member	-9.16934
▁sunflower	-9.16934
▁messy	-9.17031
▁method	-9.17128
▁delicate	-9.17419
▁step	-9.17419
▁typically	-9.17809
▁burnt	-9.18005
▁currently	-9.18005
▁waiting	-9.18005
▁kona	-9.18103
▁ramen	-9.18103
▁chef	-9.18201
▁layer	-9.18201
▁young	-9.18201
▁pineapple	-9.18398
▁visit	-9.18398
▁kitten	-9.18496
▁law	-9.18693
▁consume	-9.18792
▁purse	-9.18792
▁sausage	-9.18792
▁skeptical	-9.18891
▁celiac	-9.18989
▁pas	-9.19287
▁garden	-9.19386
▁period	-9.19585
▁moved	-9.20083
▁pull	-9.20083
▁pear	-9.20183
▁trader	-9.20284
▁warning	-9.20284
▁previously	-9.20384
▁wise	-9.20384
▁besides	-9.20484
▁web	-9.20585
▁lighter	-9.20685
▁firm	-9.20988
▁press	-9.20988
▁depending	-9.21088
▁delighted	-9.21291
▁separate	-9.21291
▁therefore	-9.21291
▁xylitol	-9.21595
▁effort	-9.21696
▁kernel	-9.21798
▁bargain	-9.219
▁tender	-9.219
▁alcohol	-9.22002
▁chopped	-9.22002
▁incredibly	-9.22002
▁throwing	-9.22002
▁strip	-9.22206
▁question	-9.22308
▁club	-9.22513
▁illy	-9.22513
▁smoked	-9.22718
▁snap	-9.2282
▁damaged	-9.22923
▁harder	-9.22923
▁loss	-9.23026
▁liver	-9.23129
▁incredible	-9.23232
▁iron	-9.23336
▁properly	-9.23336
▁dozen	-9.23439
▁handful	-9.23439
▁promptly	-9.23439
▁onto	-9.23543
▁carbonated	-9.23646
▁sampler	-9.2375
▁pump	-9.24061
▁storage	-9.24061
▁wake	-9.24061
▁cute	-9.24166
▁expectation	-9.24166
▁funny	-9.2427
▁common	-9.24583
▁occasionally	-9.24583
▁starting	-9.24688
▁thicker	-9.24792
▁lived	-9.24897
▁calcium	-9.25108
▁degree	-9.25108
▁popped	-9.25318
▁forget	-9.25423
▁exact	-9.25635
▁unpleasant	-9.25635
▁wrapper	-9.2574
▁discount	-9.25952
▁target	-9.26058
▁workout	-9.26058
▁hardly	-9.26165
▁among	-9.26484
▁quaker	-9.26484
▁ahead	-9.26591
▁edible	-9.26591
▁honest	-9.26591
▁packing	-9.26591
▁space	-9.26591
▁refrigerator	-9.26697
▁reasonably	-9.26911
▁stool	-9.26911
▁occasion	-9.27018
▁unit	-9.27018
▁eight	-9.27126
▁pecan	-9.27126
▁wanting	-9.27126
▁canister	-9.27233
▁california	-9.27341
▁hopefully	-9.27341
▁begin	-9.27556
▁antioxidant	-9.27664
▁basic	-9.27664
▁drip	-9.27664
▁surprisingly	-9.27664
▁power	-9.27771
▁edge	-9.2788
▁leaving	-9.2788
▁searched	-9.2788
▁crushed	-9.28096
▁fig	-9.28096
▁south	-9.28204
▁2012	-9.28313
▁aid	-9.28313
▁min	-9.28313
▁winner	-9.2853
▁loaded	-9.28639
▁memory	-9.28967
▁seeing	-9.28967
▁attention	-9.29624
▁german	-9.29624
▁contained	-9.29734
▁indeed	-9.29734
▁lemonade	-9.29734
▁mexican	-9.29734
▁tangy	-9.29734
▁somewhere	-9.29845
▁forever	-9.30176
▁delightful	-9.30287
▁spring	-9.30287
▁allow	-9.30619
▁trade	-9.30619
▁floor	-9.30731
▁lasted	-9.30731
▁japanese	-9.30842
▁rub	-9.30953
▁comparable	-9.31065
▁shared	-9.31065
▁saved	-9.31288
▁ear	-9.314
▁email	-9.314
▁slowly	-9.314
▁throughout	-9.314
▁assortment	-9.31512
▁leftover	-9.31512
▁auto	-9.31624
▁citrus	-9.32187
▁pup	-9.32187
▁softer	-9.32187
▁tub	-9.32187
▁twinings	-9.32187
▁oreo	-9.323
▁rinse	-9.323
▁drive	-9.32526
▁example	-9.32526
▁coke	-9.3264
▁saturated	-9.3264
▁con	-9.32753
▁absolute	-9.32867
▁exception	-9.32867
▁reduced	-9.32867
▁appears	-9.33208
▁frequently	-9.33208
▁purina	-9.33208
▁cleaning	-9.33322
▁walk	-9.33322
▁caught	-9.33437
▁broccoli	-9.33551
▁grilled	-9.33551
▁timely	-9.33551
▁carefully	-9.3378
▁bright	-9.33895
▁returned	-9.33895
▁recent	-9.3401
▁factor	-9.34125
▁sliced	-9.34125
▁acidic	-9.3424
▁household	-9.3424
▁hemp	-9.34355
▁win	-9.3447
▁commercial	-9.34586
▁san	-9.34702
▁grinder	-9.34818
▁solution	-9.34818
▁brother	-9.34933
▁mio	-9.34933
▁retail	-9.35282
▁serious	-9.35282
▁sprout	-9.35282
▁poured	-9.35398
▁fully	-9.35632
▁recommendation	-9.35866
▁bpa	-9.35983
▁potassium	-9.36218
▁magic	-9.36335
▁lamb	-9.36571
▁moment	-9.36571
▁mushy	-9.36807
▁allows	-9.37044
▁brings	-9.37044
▁measure	-9.37044
▁ideal	-9.37162
▁capsule	-9.37281
▁garbage	-9.37281
▁consistent	-9.37519
▁sun	-9.37519
▁trash	-9.37519
▁willing	-9.37519
▁amazed	-9.37757
▁design	-9.37757
▁frosting	-9.37757
▁puff	-9.37757
▁carbohydrate	-9.37877
▁range	-9.37996
▁buyer	-9.38116
▁prior	-9.38116
▁pamela	-9.38236
▁spray	-9.38476
▁sam	-9.38596
▁timothy	-9.38596
▁2011	-9.38837
▁friendly	-9.38958
▁dense	-9.39199
▁hershey	-9.39199
▁toddler	-9.39199
▁carried	-9.39321
▁downside	-9.39321
▁risk	-9.39563
▁correct	-9.39685
▁inexpensive	-9.39685
▁dust	-9.39807
▁shrimp	-9.39807
▁vine	-9.39807
▁omega	-9.39928
▁contacted	-9.40051
▁initially	-9.40051
▁sad	-9.40173
▁greenies	-9.40295
▁mate	-9.40295
▁reduce	-9.40295
▁jack	-9.40417
▁experienced	-9.4054
▁dental	-9.40663
▁hide	-9.40663
▁preferred	-9.40663
▁pressure	-9.40663
▁trans	-9.40663
▁toasted	-9.40786
▁unsweetened	-9.40909
▁belly	-9.41155
▁stew	-9.41155
▁blender	-9.41279
▁marinade	-9.41279
▁create	-9.41403
▁duck	-9.41403
▁buttery	-9.41775
▁lavazza	-9.41775
▁plate	-9.41775
▁needle	-9.41899
▁pudding	-9.42023
▁complex	-9.42148
▁meant	-9.42148
▁shame	-9.42273
▁sparkling	-9.42398
▁necessary	-9.42773
▁split	-9.42773
▁god	-9.42899
▁salted	-9.42899
▁shiny	-9.42899
▁dad	-9.43025
▁improved	-9.43025
▁unable	-9.43025
▁photo	-9.43529
▁possibly	-9.43529
▁wide	-9.43656
▁regret	-9.43782
▁discontinued	-9.44036
▁tofu	-9.44036
▁toss	-9.44036
▁yeah	-9.44036
▁cider	-9.44163
▁foot	-9.44163
▁response	-9.44163
▁tear	-9.44163
▁strongly	-9.44291
▁damage	-9.44418
▁starch	-9.44418
▁darker	-9.44546
▁lucky	-9.44546
▁eventually	-9.44801
▁tasteless	-9.44801
▁title	-9.44801
▁current	-9.45058
▁rarely	-9.45186
▁info	-9.45315
▁marshmallow	-9.45315
▁weather	-9.45315
▁diarrhea	-9.45444
▁gooey	-9.45444
▁tray	-9.45444
▁medicine	-9.45573
▁slow	-9.45702
▁certified	-9.45831
▁direct	-9.4596
▁sadly	-9.4596
▁carton	-9.4609
▁creme	-9.4609
▁moisture	-9.4609
▁move	-9.4648
▁pricing	-9.4648
▁palm	-9.46741
▁story	-9.46871
▁occasional	-9.47002
▁wonderfully	-9.47002
▁thru	-9.47133
▁breed	-9.47264
▁pleasure	-9.47264
▁snacking	-9.47396
▁tazo	-9.47396
▁aside	-9.47527
▁behind	-9.47527
▁smoothie	-9.47527
▁italy	-9.47791
▁bay	-9.47923
▁definately	-9.47923
▁freshly	-9.47923
▁mid	-9.47923
▁rid	-9.47923
▁afraid	-9.48055
▁kashi	-9.48187
▁broke	-9.4832
▁attempt	-9.48452
▁improvement	-9.48585
▁reach	-9.48585
▁2nd	-9.49119
▁noted	-9.49252
▁sweeten	-9.49252
▁answer	-9.49386
▁anti	-9.49386
▁experiment	-9.49386
▁faster	-9.49386
▁spit	-9.49386
▁childhood	-9.4952
▁coupon	-9.4952
▁familiar	-9.4952
▁mile	-9.4952
▁require	-9.4952
▁barley	-9.49924
▁watermelon	-9.49924
▁ease	-9.50059
▁grainy	-9.50059
▁active	-9.50194
▁feast	-9.50194
▁caused	-9.50329
▁colored	-9.50329
▁saver	-9.50329
▁shown	-9.50329
▁bell	-9.50465
▁hearty	-9.50465
▁molasses	-9.50465
▁page	-9.50465
▁palate	-9.50465
▁science	-9.50465
▁soak	-9.50465
▁hey	-9.506
▁savory	-9.506
▁worker	-9.50736
▁anytime	-9.51008
▁match	-9.51008
▁overpriced	-9.51008
▁class	-9.51144
▁cupcake	-9.51144
▁somehow	-9.51144
▁economical	-9.51554
▁cancer	-9.51692
▁hamburger	-9.51829
▁preserve	-9.51829
▁provided	-9.51829
▁self	-9.51829
▁yesterday	-9.51829
▁noticeable	-9.51966
▁rated	-9.51966
▁seafood	-9.51966
▁smoke	-9.52104
▁woman	-9.52104
▁liking	-9.52242
▁talking	-9.52242
▁suspect	-9.5238
▁chose	-9.52518
▁success	-9.52518
▁twist	-9.52518
▁aspartame	-9.52795
▁considered	-9.52795
▁combined	-9.52934
▁chewer	-9.53073
▁labeled	-9.53073
▁learn	-9.53073
▁suggestion	-9.53073
▁tends	-9.53073
▁prevent	-9.53631
▁section	-9.53631
▁sucralose	-9.53631
▁writing	-9.53631
▁burger	-9.53771
▁jalapeno	-9.53771
▁watered	-9.53771
▁mainly	-9.53911
▁sharp	-9.53911
▁happens	-9.54051
▁mellow	-9.54051
▁contact	-9.54192
▁sign	-9.54332
▁tight	-9.54332
▁rolled	-9.54756
▁ups	-9.54756
▁medication	-9.54897
▁city	-9.55039
▁combo	-9.55039
▁blended	-9.55181
▁grocer	-9.55181
▁missed	-9.55181
▁stove	-9.55323
▁tsp	-9.55323
▁decide	-9.55466
▁poop	-9.55466
▁puree	-9.55466
▁tortilla	-9.55466
▁apricot	-9.55608
▁includes	-9.55608
▁tummy	-9.55608
▁quart	-9.55894
▁ratio	-9.55894
▁pinch	-9.56037
▁stored	-9.56037
▁college	-9.56324
▁material	-9.56324
▁desk	-9.56468
▁habit	-9.56468
▁support	-9.56468
▁remaining	-9.56612
▁key	-9.56756
▁miracle	-9.56756
▁coloring	-9.569
▁consistently	-9.569
▁father	-9.569
▁receiving	-9.569
▁royal	-9.57045
▁earlier	-9.5719
▁lollipop	-9.5719
▁misleading	-9.5719
▁specific	-9.5719
▁fault	-9.57335
▁kettle	-9.57335
▁steel	-9.57335
▁hurt	-9.5748
▁rooibos	-9.5748
▁secret	-9.5748
▁sticking	-9.5748
▁appealing	-9.57625
▁yuck	-9.57625
▁biggest	-9.57771
▁england	-9.57771
▁crumbly	-9.57917
▁wholesome	-9.57917
▁chain	-9.58209
▁removed	-9.58209
▁sushi	-9.58209
▁intended	-9.58503
▁penny	-9.58503
▁supplier	-9.58503
▁dipping	-9.5865
▁fishy	-9.5865
▁kill	-9.5865
▁specialty	-9.5865
▁swallow	-9.5865
▁warehouse	-9.5865
▁requires	-9.58797
▁spoiled	-9.58797
▁wafer	-9.58797
▁limit	-9.58944
▁resealable	-9.59092
▁spoonful	-9.59388
▁annie	-9.59536
▁road	-9.59536
▁cal	-9.59684
▁refrigerated	-9.59684
▁spinach	-9.59833
▁reorder	-9.59982
▁becomes	-9.60131
▁drain	-9.60131
▁soggy	-9.60131
▁america	-9.60281
▁bull	-9.60281
▁essential	-9.60281
▁gel	-9.60281
▁complain	-9.6043
▁consuming	-9.6043
▁manner	-9.6043
▁switching	-9.6043
▁guilt	-9.6088
▁link	-9.6088
▁starter	-9.6088
▁recall	-9.61031
▁stocking	-9.61031
▁toffee	-9.61031
▁containing	-9.61181
▁constantly	-9.61332
▁mayo	-9.61332
▁compliment	-9.61484
▁thumb	-9.61635
▁till	-9.61635
▁report	-9.61787
▁volume	-9.61787
▁mart	-9.6209
▁clump	-9.62243
▁smart	-9.62243
▁weekend	-9.62243
▁batter	-9.62395
▁drawer	-9.62395
▁island	-9.62395
▁gummi	-9.62548
▁seaweed	-9.62548
▁specifically	-9.62701
▁crema	-9.62854
▁hear	-9.62854
▁interest	-9.62854
▁shredded	-9.62854
▁trail	-9.62854
▁kosher	-9.63008
▁distinct	-9.63162
▁meet	-9.63162
▁zip	-9.63162
▁rip	-9.63316
▁cacao	-9.6347
▁chipotle	-9.63624
▁fragrance	-9.63624
▁crap	-9.63779
▁macaroni	-9.63779
▁replaced	-9.63779
▁overnight	-9.64089
▁virgin	-9.64089
▁aromatic	-9.64244
▁hoped	-9.64244
▁remembered	-9.64244
▁study	-9.64244
▁spending	-9.644
▁rise	-9.64556
▁ketchup	-9.64712
▁ridiculous	-9.64712
▁versatile	-9.64868
▁acceptable	-9.65025
▁consumption	-9.65025
▁quit	-9.65025
▁diamond	-9.65182
▁finicky	-9.65182
▁fly	-9.65182
▁loving	-9.65182
▁chewed	-9.65339
▁prefers	-9.65339
▁wasabi	-9.65339
▁dead	-9.65496
▁dietary	-9.65496
▁fluffy	-9.65496
▁happier	-9.65496
▁shaped	-9.65496
▁assume	-9.6597
▁automatic	-9.6597
▁helping	-9.6597
▁preparation	-9.6597
▁closest	-9.66128
▁designed	-9.66128
▁fresher	-9.66128
▁closer	-9.66287
▁lick	-9.66287
▁chia	-9.66446
▁irish	-9.66446
▁thoroughly	-9.66605
▁appetite	-9.66764
▁grill	-9.66924
▁hydrogenated	-9.66924
▁required	-9.67084
▁cupboard	-9.67244
▁entirely	-9.67244
▁guilty	-9.67244
▁affect	-9.67404
▁diabetes	-9.67404
▁haribo	-9.67404
▁mark	-9.67565
▁yogi	-9.67565
▁tube	-9.67726
▁lately	-9.67887
▁carbonation	-9.68048
▁disc	-9.68048
▁showed	-9.6821
▁texas	-9.6821
▁celestial	-9.68372
▁coated	-9.68372
▁gritty	-9.68372
▁appear	-9.68534
▁ham	-9.68534
▁smelling	-9.68697
▁cutting	-9.69186
▁oolong	-9.69186
▁gmo	-9.69349
▁thrown	-9.69349
▁emergency	-9.69513
▁highest	-9.69513
▁shocked	-9.69513
▁instantly	-9.69677
▁malt	-9.69677
▁afford	-9.69841
▁consumed	-9.69841
▁advice	-9.70171
▁developed	-9.70171
▁diagnosed	-9.70336
▁heated	-9.70336
▁margarita	-9.70336
▁monthly	-9.70336
▁bigelow	-9.70502
▁shell	-9.70502
▁tad	-9.70667
▁clove	-9.70833
▁improve	-9.70833
▁mood	-9.70833
▁opposed	-9.71166
▁asking	-9.71333
▁cabinet	-9.71333
▁sprinkled	-9.71333
▁lentil	-9.71667
▁superb	-9.71835
▁tropical	-9.71835
▁blackberry	-9.72003
▁metal	-9.72003
▁bet	-9.72171
▁feature	-9.72171
▁lasting	-9.72171
▁lacking	-9.72339
▁europe	-9.72508
▁seasoned	-9.72508
▁bully	-9.72677
▁clock	-9.72677
▁terrier	-9.72677
▁allowed	-9.72847
▁heck	-9.72847
▁boyfriend	-9.73016
▁concentrated	-9.73016
▁grapefruit	-9.73016
▁happily	-9.73016
▁hesitant	-9.73356
▁lady	-9.73527
▁proper	-9.73698
▁reward	-9.73698
▁tassimo	-9.73698
▁acai	-9.73869
▁catch	-9.7404
▁folgers	-9.7404
▁hated	-9.74212
▁valley	-9.74212
▁vary	-9.74212
▁bug	-9.74384
▁nectar	-9.74384
▁digest	-9.74556
▁rescue	-9.74729
▁stocked	-9.74729
▁bonsai	-9.74902
▁dehydrated	-9.74902
▁group	-9.74902
▁icing	-9.75075
▁soothing	-9.75075
▁wondering	-9.75075
▁wrote	-9.75075
▁fuel	-9.75248
▁initial	-9.75248
▁kidney	-9.75248
▁suck	-9.75248
▁hassle	-9.75596
▁shower	-9.75596
▁germany	-9.7577
▁recieved	-9.7577
▁wasted	-9.7577
▁appeal	-9.75945
▁expired	-9.7612
▁kellogg	-9.7612
▁ill	-9.76295
▁refined	-9.76295
▁yard	-9.76471
▁dislike	-9.76647
▁japan	-9.76647
▁pleasing	-9.76647
▁talk	-9.76647
▁palatable	-9.76823
▁paw	-9.76823
▁neighbor	-9.76999
▁cow	-9.77176
▁die	-9.77176
▁juicy	-9.77176
▁marketing	-9.77176
▁significantly	-9.77176
▁combine	-9.77353
▁desired	-9.77353
▁promised	-9.77353
▁fond	-9.77531
▁tabasco	-9.77531
▁tolerate	-9.77531
▁vacuum	-9.77531
▁digestion	-9.77709
▁length	-9.77709
▁tested	-9.77709
▁chunky	-9.77887
▁giant	-9.77887
▁held	-9.77887
▁traveling	-9.77887
▁reminded	-9.78065
▁user	-9.78065
▁200	-9.78423
▁pistachio	-9.78423
▁leak	-9.78602
▁greatly	-9.78782
▁india	-9.78782
▁multi	-9.78782
▁bakery	-9.78962
▁numi	-9.78962
▁peel	-9.79142
▁regardless	-9.79323
▁basil	-9.79504
▁final	-9.79685
▁muscle	-9.79685
▁production	-9.79685
▁prompt	-9.79685
▁google	-9.79867
▁popper	-9.79867
▁sturdy	-9.79867
▁crack	-9.80049
▁expert	-9.80049
▁cocktail	-9.80231
▁created	-9.80231
▁richer	-9.80231
▁swiss	-9.80231
▁tablet	-9.80231
▁cheapest	-9.80414
▁darn	-9.80414
▁equally	-9.80414
▁mold	-9.80414
▁unhealthy	-9.80414
▁whey	-9.80414
▁beginning	-9.80597
▁increased	-9.80597
▁mole	-9.80597
▁rancid	-9.80597
▁fatty	-9.8078
▁generic	-9.8078
▁maxwell	-9.8078
▁crave	-9.80964
▁gobble	-9.80964
▁hubby	-9.80964
▁lead	-9.80964
▁luckily	-9.80964
▁chop	-9.81332
▁king	-9.81332
▁pictured	-9.81332
▁caution	-9.81517
▁fire	-9.81517
▁corner	-9.81702
▁remind	-9.81702
▁curious	-9.81887
▁drawback	-9.81887
▁fragrant	-9.81887
▁miso	-9.81887
▁rare	-9.81887
▁snob	-9.81887
▁squirt	-9.81887
▁useful	-9.81887
▁zico	-9.81887
▁chamomile	-9.82073
▁impression	-9.82073
▁generous	-9.82259
▁mass	-9.82259
▁dandruff	-9.82446
▁envelope	-9.82446
▁news	-9.82446
▁leg	-9.82632
▁popping	-9.82632
▁theater	-9.82632
▁vacation	-9.82632
▁cluster	-9.82819
▁milder	-9.82819
▁spiced	-9.82819
▁chocolatey	-9.83195
▁listing	-9.83195
▁pitcher	-9.83195
▁sport	-9.83195
▁amazingly	-9.83383
▁passed	-9.83383
▁planter	-9.83383
▁ranch	-9.83383
▁quarter	-9.83571
▁significant	-9.83571
▁clam	-9.8376
▁earthy	-9.8376
▁intact	-9.8376
▁coco	-9.83949
▁fear	-9.83949
▁hip	-9.83949
▁rum	-9.84139
▁unusual	-9.84329
▁written	-9.84329
▁semi	-9.84519
▁wal	-9.84519
▁soooo	-9.8471
▁cheesy	-9.84901
▁maintain	-9.84901
▁nutiva	-9.84901
▁soap	-9.84901
▁ring	-9.85092
▁sending	-9.85092
▁equivalent	-9.85284
▁moth	-9.85284
▁addicting	-9.85476
▁advantage	-9.85476
▁dirty	-9.85476
▁florida	-9.85476
▁powerful	-9.85476
▁breaking	-9.85669
▁property	-9.85669
▁refuse	-9.85669
▁sat	-9.85669
▁smoky	-9.85669
▁younger	-9.85669
▁melitta	-9.85861
▁beautifully	-9.86055
▁dye	-9.86055
▁smokey	-9.86055
▁boring	-9.86248
▁pouring	-9.86248
▁repeat	-9.86248
▁cough	-9.86442
▁fda	-9.86442
▁seven	-9.86442
▁severe	-9.86442
▁cheerio	-9.86637
▁collection	-9.86637
▁tbsp	-9.86637
▁canada	-9.86831
▁desert	-9.86831
▁newton	-9.86831
▁raised	-9.86831
▁tax	-9.86831
▁approximately	-9.87026
▁beneful	-9.87026
▁rave	-9.87026
▁dropped	-9.87222
▁sheet	-9.87222
▁cracked	-9.87418
▁speak	-9.87418
▁balsamic	-9.87614
▁1st	-9.87811
▁aspect	-9.87811
▁citric	-9.87811
▁smoother	-9.87811
▁dash	-9.88008
▁fur	-9.88205
▁hawaii	-9.88403
▁pickle	-9.88403
▁substance	-9.88403
▁sweetner	-9.88403
▁wood	-9.88403
▁hesitate	-9.88601
▁jug	-9.88601
▁runny	-9.88601
▁hunger	-9.888
▁rabbit	-9.888
▁reviewed	-9.888
▁headache	-9.88999
▁shepherd	-9.88999
▁refill	-9.89198
▁game	-9.89398
▁mashed	-9.89398
▁sooo	-9.89398
▁boiled	-9.89598
▁dose	-9.9
▁minimal	-9.9
▁stain	-9.9
▁connoisseur	-9.90201
▁boxed	-9.90403
▁fluid	-9.90403
▁holder	-9.90403
▁intolerant	-9.90403
▁closed	-9.90605
▁dirt	-9.90605
▁hummus	-9.90605
▁refused	-9.90605
▁watcher	-9.90605
▁burned	-9.90808
▁dream	-9.90808
▁dump	-9.90808
▁load	-9.90808
▁minor	-9.90808
▁residue	-9.90808
▁tap	-9.90808
▁pb2	-9.91011
▁readily	-9.91011
▁exercise	-9.91215
▁greek	-9.91215
▁harsh	-9.91215
▁heavenly	-9.91215
▁situation	-9.91215
▁southern	-9.91215
▁thinner	-9.91215
▁comfort	-9.91418
▁pulled	-9.91418
▁death	-9.91827
▁tastier	-9.92033
▁chow	-9.92238
▁filtered	-9.92444
▁hibiscus	-9.92444
▁losing	-9.92444
▁moving	-9.92444
▁net	-9.92444
▁partially	-9.92444
▁pulp	-9.92444
▁portable	-9.9265
▁whipped	-9.9265
▁calm	-9.92857
▁concept	-9.92857
▁lean	-9.92857
▁numerous	-9.92857
▁fortunately	-9.93064
▁burning	-9.93272
▁cooker	-9.93272
▁disappoint	-9.93272
▁joy	-9.93272
▁becoming	-9.9348
▁camping	-9.9348
▁european	-9.93689
▁fussy	-9.93898
▁straw	-9.93898
▁2010	-9.94107
▁kool	-9.94107
▁mixer	-9.94107
▁passion	-9.94317
▁sore	-9.94317
▁visiting	-9.94317
▁afterwards	-9.94527
▁frankly	-9.94527
▁sounded	-9.94527
▁tossed	-9.94527
▁advertising	-9.94738
▁event	-9.94738
▁finishing	-9.94738
▁parmesan	-9.94738
▁rubber	-9.94738
▁velveeta	-9.94738
▁arrives	-9.94949
▁core	-9.94949
▁importantly	-9.94949
▁lavender	-9.94949
▁soil	-9.94949
▁stage	-9.94949
▁symptom	-9.94949
▁british	-9.95161
▁challenge	-9.95161
▁gelatin	-9.95161
▁international	-9.95161
▁zevia	-9.95161
▁adjust	-9.95373
▁jet	-9.95373
▁rye	-9.95373
▁slim	-9.95373
▁bergamot	-9.95586
▁infection	-9.95586
▁scale	-9.95586
▁wedding	-9.95586
▁whatsoever	-9.95586
▁whim	-9.95586
▁build	-9.95799
▁hence	-9.95799
▁letting	-9.95799
▁electrolyte	-9.96012
▁hotter	-9.96012
▁splash	-9.96012
▁brush	-9.96226
▁card	-9.96226
▁pearl	-9.96226
▁soybean	-9.96226
▁chihuahua	-9.9644
▁decision	-9.9644
▁exceptional	-9.9644
▁male	-9.9644
▁obvious	-9.9644
▁primarily	-9.9644
▁rope	-9.9644
▁ordinary	-9.96655
▁practically	-9.96655
▁diced	-9.9687
▁thankfully	-9.9687
▁acquired	-9.97086
▁catnip	-9.97086
▁pressed	-9.97086
▁drinkable	-9.97302
▁promise	-9.97302
▁tully	-9.97302
▁med	-9.97519
▁seattle	-9.97519
▁acidity	-9.97736
▁blow	-9.97736
▁fashioned	-9.97736
▁act	-9.97954
▁deliver	-9.97954
▁lock	-9.97954
▁rib	-9.97954
▁disappeared	-9.98172
▁discover	-9.98172
▁evo	-9.98172
▁hundred	-9.98172
▁plum	-9.98172
▁student	-9.98172
▁delivers	-9.98391
▁drug	-9.98391
▁regarding	-9.98391
▁steeping	-9.98391
▁stuffed	-9.98391
▁ale	-9.9861
▁caffeinated	-9.9861
▁conscious	-9.9861
▁habanero	-9.9861
▁profile	-9.9861
▁sampled	-9.9861
▁ultra	-9.9861
▁appreciated	-9.98829
▁attractive	-9.99049
▁burst	-9.99049
▁fewer	-9.99049
▁handling	-9.99049
▁opportunity	-9.99049
▁celery	-9.9927
▁skip	-9.9927
▁smile	-9.9927
▁stayed	-9.9927
▁decaffeinated	-9.99491
▁glycemic	-9.99491
▁greatest	-9.99491
▁returning	-9.99491
▁department	-9.99712
▁feline	-9.99712
▁girlfriend	-9.99712
▁tall	-9.99712
▁floral	-10.0016
▁gain	-10.0016
▁met	-10.0016
▁station	-10.0016
▁changing	-10.0038
▁ride	-10.0038
▁shortbread	-10.0038
▁120	-10.006
▁category	-10.006
▁imported	-10.006
▁warned	-10.006
▁diaper	-10.0083
▁mr	-10.0083
▁budget	-10.0105
▁factory	-10.0105
▁minty	-10.0105
▁appearance	-10.015
▁canola	-10.0173
▁notch	-10.0173
▁definite	-10.0195
▁everybody	-10.0195
▁harvest	-10.0195
▁izze	-10.0195
▁steam	-10.0195
▁gummies	-10.0218
▁meaning	-10.0218
▁posted	-10.0218
▁relative	-10.0218
▁lip	-10.0241
▁men	-10.0241
▁settle	-10.0241
▁thins	-10.0241
▁variation	-10.0241
▁purple	-10.0264
▁sumatra	-10.0264
▁crumble	-10.0287
▁leaking	-10.0287
▁testing	-10.0287
▁track	-10.0287
▁causing	-10.0332
▁chicory	-10.0332
▁finely	-10.0332
▁manufactured	-10.0332
▁pine	-10.0332
▁satisfies	-10.0332
▁skillet	-10.0332
▁treatment	-10.0332
▁wing	-10.0332
▁detail	-10.0355
▁east	-10.0355
▁managed	-10.0355
▁train	-10.0355
▁york	-10.0355
▁comparing	-10.0379
▁exclusively	-10.0379
▁remains	-10.0379
▁stirring	-10.0379
▁community	-10.0402
▁signed	-10.0402
▁chilled	-10.0425
▁credit	-10.0425
▁flaxseed	-10.0425
▁jump	-10.0425
▁lactose	-10.0425
▁potent	-10.0425
▁stumbled	-10.0425
▁beauty	-10.0448
▁coast	-10.0448
▁granted	-10.0448
▁iams	-10.0448
▁taffy	-10.0448
▁awake	-10.0471
▁block	-10.0471
▁famous	-10.0495
▁relief	-10.0495
▁badly	-10.0518
▁cross	-10.0518
▁force	-10.0518
▁magnesium	-10.0518
▁toxic	-10.0518
▁explain	-10.0541
▁extreme	-10.0541
▁image	-10.0565
▁leaked	-10.0565
▁pastry	-10.0565
▁pig	-10.0565
▁rush	-10.0589
▁distinctive	-10.0612
▁grit	-10.0612
▁kiwi	-10.0612
▁picking	-10.0612
▁similac	-10.0612
▁spearmint	-10.0612
▁stink	-10.0612
▁betty	-10.0636
▁desire	-10.0636
▁foam	-10.0636
▁vita	-10.0636
▁decade	-10.066
▁versus	-10.0683
▁hairball	-10.0707
▁paprika	-10.0707
▁amy	-10.0731
▁bird	-10.0731
▁continued	-10.0731
▁gevalia	-10.0731
▁silky	-10.0731
▁correctly	-10.0755
▁dispenser	-10.0755
▁nowhere	-10.0803
▁anyways	-10.0827
▁condiment	-10.0851
▁omg	-10.0851
▁vomiting	-10.0851
▁kong	-10.0876
▁practice	-10.0876
▁frying	-10.09
▁healthiest	-10.09
▁knock	-10.09
▁vodka	-10.09
▁ability	-10.0924
▁bagel	-10.0924
▁goat	-10.0924
▁knife	-10.0924
▁nutella	-10.0924
▁suit	-10.0924
▁brain	-10.0949
▁click	-10.0949
▁halloween	-10.0949
▁joint	-10.0949
▁senior	-10.0949
▁account	-10.0973
▁addict	-10.0973
▁depth	-10.0973
▁error	-10.0973
▁path	-10.0973
▁potential	-10.0973
▁torani	-10.0973
▁towards	-10.0973
▁video	-10.0973
▁dangerous	-10.0998
▁pellet	-10.0998
▁playing	-10.1022
▁safety	-10.1022
▁soaked	-10.1022
▁virtually	-10.1022
▁cuisine	-10.1047
▁liter	-10.1047
▁sucker	-10.1047
▁telling	-10.1047
▁bath	-10.1072
▁routine	-10.1072
▁eacute	-10.1097
▁healthful	-10.1097
▁joke	-10.1097
▁appropriate	-10.1121
▁complained	-10.1121
▁continues	-10.1121
▁bagged	-10.1146
▁jean	-10.1146
▁majority	-10.1146
▁necessarily	-10.1146
▁steamed	-10.1146
▁address	-10.1171
▁processing	-10.1171
▁pad	-10.1196
▁select	-10.1196
▁agreed	-10.1221
▁beach	-10.1221
▁died	-10.1221
▁lazy	-10.1221
▁suddenly	-10.1221
▁suitable	-10.1221
▁terribly	-10.1221
▁bathroom	-10.1247
▁casserole	-10.1247
▁coca	-10.1247
▁dent	-10.1247
▁environment	-10.1247
▁primary	-10.1247
▁providing	-10.1247
▁substantial	-10.1247
▁surface	-10.1247
▁temp	-10.1247
▁gentle	-10.1272
▁holding	-10.1272
▁inedible	-10.1272
▁planet	-10.1272
▁planning	-10.1272
▁suffer	-10.1272
▁campbell	-10.1297
▁hurry	-10.1297
▁assumed	-10.1322
▁forgot	-10.1322
▁francisco	-10.1322
▁grandma	-10.1322
▁mexico	-10.1322
▁percent	-10.1322
▁cleaned	-10.1348
▁checking	-10.1373
▁fyi	-10.1373
▁grandson	-10.1399
▁push	-10.1399
▁retailer	-10.1399
▁twenty	-10.1399
▁access	-10.1424
▁ahoy	-10.1424
▁apply	-10.1424
▁exotic	-10.1424
▁reflux	-10.1424
▁ruined	-10.1424
▁accurate	-10.145
▁baker	-10.145
▁columbian	-10.145
▁heating	-10.145
▁michael	-10.145
▁moderation	-10.145
▁peppercorn	-10.145
▁munch	-10.1476
▁roasting	-10.1476
▁screw	-10.1476
▁skim	-10.1476
▁ultimate	-10.1476
▁constant	-10.1502
▁excess	-10.1502
▁ruin	-10.1502
▁whip	-10.1502
▁article	-10.1528
▁brittle	-10.1528
▁grandmother	-10.1528
▁grinding	-10.1528
▁july	-10.1528
▁kcups	-10.1528
▁lay	-10.1528
▁frosted	-10.1553
▁prescription	-10.1553
▁relaxing	-10.1553
▁stem	-10.1553
▁nestle	-10.1579
▁sits	-10.1579
▁glucose	-10.1606
▁adopted	-10.1632
▁finest	-10.1632
▁pair	-10.1632
▁phone	-10.1632
▁roughly	-10.1632
▁tangerine	-10.1632
▁sooner	-10.1658
▁tang	-10.1658
▁buckwheat	-10.1684
▁petco	-10.1684
▁refrigerate	-10.1684
▁west	-10.1684
▁cure	-10.1711
▁emeril	-10.1711
▁essence	-10.1711
▁prune	-10.1711
▁canin	-10.1737
▁commented	-10.1737
▁female	-10.1737
▁mildly	-10.1737
▁preparing	-10.1737
▁retriever	-10.1737
▁tonight	-10.1737
▁turning	-10.1737
▁goody	-10.1763
▁shaker	-10.1763
▁waited	-10.1763
▁essentially	-10.179
▁fight	-10.179
▁hotel	-10.179
▁measuring	-10.179
▁requirement	-10.179
▁ripped	-10.179
▁teabags	-10.179
▁indoor	-10.1817
▁related	-10.1817
▁trial	-10.1817
▁choking	-10.1843
▁crash	-10.1843
▁hfc	-10.1843
▁identical	-10.1843
▁plump	-10.1843
▁dunkin	-10.187
▁gerber	-10.187
▁surely	-10.187
▁remain	-10.1897
▁request	-10.1897
▁stress	-10.1897
▁evaporated	-10.1924
▁outer	-10.1924
▁ala	-10.1951
▁couscous	-10.1951
▁metallic	-10.1951
▁welcome	-10.1951
▁bulb	-10.1978
▁avid	-10.2005
▁par	-10.2005
▁cycle	-10.2032
▁medical	-10.2032
▁monster	-10.2032
▁refrigeration	-10.2032
▁thirst	-10.2032
▁brick	-10.206
▁bringing	-10.206
▁minimum	-10.206
▁modified	-10.206
▁north	-10.206
▁raise	-10.206
▁reminiscent	-10.206
▁stretch	-10.206
▁cooler	-10.2087
▁dove	-10.2087
▁failed	-10.2087
▁macadamia	-10.2087
▁pace	-10.2087
▁puck	-10.2087
▁assuming	-10.2114
▁board	-10.2114
▁difficulty	-10.2114
▁owned	-10.2114
▁activity	-10.2142
▁bee	-10.2142
▁convinced	-10.2142
▁professional	-10.2142
▁surgery	-10.2142
▁bowel	-10.2169
▁enhance	-10.2169
▁farmer	-10.2169
▁kidding	-10.2169
▁nearby	-10.2169
▁eden	-10.2197
▁faint	-10.2197
▁pit	-10.2197
▁placing	-10.2197
▁supposedly	-10.2197
▁trace	-10.2197
▁annoying	-10.2225
▁poodle	-10.2225
▁simmer	-10.2225
▁zing	-10.2225
▁calling	-10.2253
▁cone	-10.2253
▁funky	-10.2253
▁sensation	-10.2253
▁born	-10.2281
▁buddy	-10.2281
▁gatorade	-10.2281
▁gopher	-10.2281
▁grateful	-10.2281
▁neighborhood	-10.2281
▁000	-10.2309
▁addiction	-10.2309
▁ensure	-10.2309
▁spike	-10.2309
▁tapioca	-10.2309
▁thanksgiving	-10.2309
▁advise	-10.2337
▁cry	-10.2337
▁roland	-10.2365
▁chalky	-10.2393
▁gloria	-10.2393
▁impressive	-10.2393
▁infant	-10.2393
▁scone	-10.2393
▁dissapointed	-10.2421
▁grease	-10.2421
▁inferior	-10.2421
▁protect	-10.2421
▁teriyaki	-10.2421
▁tiger	-10.2421
▁flavorless	-10.245
▁lump	-10.245
▁sharing	-10.245
▁treated	-10.245
▁carpet	-10.2478
▁involved	-10.2478
▁rinsed	-10.2478
▁adore	-10.2507
▁competitive	-10.2507
▁crab	-10.2507
▁everytime	-10.2507
▁excessive	-10.2507
▁france	-10.2507
▁guarantee	-10.2507
▁rain	-10.2507
▁stack	-10.2507
▁stinky	-10.2507
▁string	-10.2507
▁washing	-10.2507
▁goji	-10.2535
▁outrageous	-10.2535
▁truth	-10.2535
▁washed	-10.2535
▁whereas	-10.2535
▁caribou	-10.2564
▁cornbread	-10.2564
▁edit	-10.2564
▁film	-10.2564
▁named	-10.2564
▁shine	-10.2564
▁steeped	-10.2564
▁swear	-10.2564
▁tag	-10.2564
▁coffe	-10.2593
▁detect	-10.2593
▁focus	-10.2593
▁regard	-10.2593
▁rind	-10.2593
▁twin	-10.2593
▁assorted	-10.2621
▁enhancer	-10.2621
▁glaze	-10.2621
▁sink	-10.2621
▁arrival	-10.265
▁boot	-10.265
▁schedule	-10.265
▁tradition	-10.265
▁visited	-10.265
▁absorb	-10.2679
▁applesauce	-10.2679
▁barbecue	-10.2679
▁december	-10.2679
▁expense	-10.2679
▁ghirardelli	-10.2679
▁gym	-10.2679
▁liquor	-10.2679
▁presentation	-10.2679
▁wear	-10.2679
▁crocker	-10.2709
▁depends	-10.2709
▁directed	-10.2709
▁divine	-10.2709
▁satisfaction	-10.2709
▁silver	-10.2709
▁starbuck	-10.2709
▁aged	-10.2738
▁chocolaty	-10.2738
▁coarse	-10.2738
▁facility	-10.2738
▁friskies	-10.2738
▁pepsi	-10.2738
▁popchips	-10.2738
▁topped	-10.2738
▁altoids	-10.2767
▁concoction	-10.2767
▁triple	-10.2767
▁cotton	-10.2796
▁gingerbread	-10.2796
▁guessing	-10.2796
▁lie	-10.2796
▁worm	-10.2796
▁durable	-10.2826
▁marketed	-10.2826
▁driving	-10.2855
▁lifestyle	-10.2855
▁resist	-10.2855
▁teabag	-10.2855
▁anchovy	-10.2885
▁bored	-10.2885
▁dipped	-10.2885
▁frequent	-10.2885
▁jaw	-10.2885
▁lift	-10.2885
▁minus	-10.2885
▁resulting	-10.2885
▁sensitivity	-10.2885
▁tone	-10.2885
▁whose	-10.2885
▁accident	-10.2915
▁appeared	-10.2915
▁cayenne	-10.2915
▁ceylon	-10.2915
▁choke	-10.2915
▁costly	-10.2915
▁emailed	-10.2915
▁mask	-10.2915
▁rough	-10.2915
▁silk	-10.2915
▁stable	-10.2915
▁unopened	-10.2915
▁printed	-10.2945
▁lowest	-10.2974
▁airtight	-10.3004
▁alright	-10.3004
▁button	-10.3004
▁character	-10.3004
▁emerald	-10.3004
▁lite	-10.3004
▁patty	-10.3004
▁sprouted	-10.3004
▁gag	-10.3035
▁korean	-10.3035
▁print	-10.3035
▁pronounced	-10.3035
▁reliable	-10.3035
▁beet	-10.3065
▁associated	-10.3095
▁hunt	-10.3095
▁meaty	-10.3095
▁release	-10.3095
▁complement	-10.3125
▁fool	-10.3125
▁speed	-10.3125
▁wrapping	-10.3125
▁colombian	-10.3156
▁falling	-10.3156
▁lecithin	-10.3156
▁melting	-10.3156
▁needing	-10.3156
▁relax	-10.3156
▁serf	-10.3156
▁hospital	-10.3186
▁location	-10.3186
▁neat	-10.3186
▁fortune	-10.3217
▁separately	-10.3217
▁bun	-10.3248
▁buttermilk	-10.3248
▁experimenting	-10.3248
▁java	-10.3248
▁jumped	-10.3248
▁medicinal	-10.3248
▁urge	-10.3248
▁wall	-10.3248
▁expresso	-10.3278
▁grated	-10.3278
▁helper	-10.3278
▁largest	-10.3278
▁lobster	-10.3278
▁nutmeg	-10.3278
▁towel	-10.3278
▁attack	-10.3309
▁beneficial	-10.3309
▁border	-10.3309
▁fraction	-10.3309
▁turkish	-10.3309
▁accustomed	-10.334
▁differently	-10.334
▁harmful	-10.334
▁infused	-10.334
▁mayonnaise	-10.334
▁pregnant	-10.334
▁settled	-10.334
▁fashion	-10.3371
▁function	-10.3371
▁nobody	-10.3371
▁nugget	-10.3371
▁twelve	-10.3371
▁warn	-10.3371
▁cheesecake	-10.3403
▁feedback	-10.3403
▁history	-10.3403
▁nabisco	-10.3403
▁thailand	-10.3403
▁diluted	-10.3434
▁march	-10.3434
▁max	-10.3434
▁orijen	-10.3434
▁pesticide	-10.3434
▁warmed	-10.3434
▁anybody	-10.3465
▁forced	-10.3465
▁parsley	-10.3465
▁closely	-10.3497
▁dig	-10.3497
▁exchange	-10.3497
▁powdery	-10.3497
▁reviewing	-10.3497
▁component	-10.3528
▁crumbled	-10.3528
▁immune	-10.3528
▁manuka	-10.3528
▁mojito	-10.3528
▁producing	-10.3528
▁rosemary	-10.3528
▁signature	-10.3528
▁application	-10.356
▁biscotti	-10.356
▁cleaner	-10.356
▁expire	-10.356
▁growth	-10.356
▁marked	-10.356
▁mary	-10.356
▁peace	-10.356
▁shelter	-10.356
▁soften	-10.356
▁stone	-10.356
▁aloe	-10.3592
▁bedtime	-10.3592
▁cancel	-10.3592
▁chowder	-10.3592
▁false	-10.3592
▁merrick	-10.3592
▁wasting	-10.3592
▁conclusion	-10.3624
▁creating	-10.3624
▁enhances	-10.3624
▁innova	-10.3624
▁venison	-10.3624
▁bank	-10.3656
▁considerably	-10.3656
▁davidson	-10.3656
▁muesli	-10.3656
▁perfection	-10.3656
▁canidae	-10.3688
▁essentia	-10.3688
▁measured	-10.3688
▁surprising	-10.3688
▁vomit	-10.3688
▁alert	-10.372
▁caviar	-10.372
▁delish	-10.372
▁heavily	-10.372
▁inner	-10.372
▁issimo	-10.372
▁lotion	-10.372
▁suggests	-10.372
▁tightly	-10.372
▁fixed	-10.3752
▁poorly	-10.3752
▁richness	-10.3752
▁shaking	-10.3752
▁wolfgang	-10.3752
▁fondant	-10.3785
▁nervous	-10.3785
▁nib	-10.3785
▁spill	-10.3785
▁tab	-10.3785
▁hill	-10.3817
▁manage	-10.3817
▁mush	-10.3817
▁orleans	-10.3817
▁shock	-10.3817
▁truvia	-10.3817
▁window	-10.3817
▁aluminum	-10.385
▁drizzle	-10.385
▁easter	-10.385
▁failure	-10.385
▁june	-10.385
▁lindt	-10.385
▁master	-10.385
▁saffron	-10.385
▁upside	-10.385
▁bucket	-10.3883
▁constipation	-10.3883
▁dha	-10.3883
▁enfamil	-10.3883
▁rule	-10.3883
▁weaker	-10.3883
▁bunny	-10.3916
▁eliminate	-10.3916
▁fork	-10.3916
▁gently	-10.3916
▁impact	-10.3916
▁reese	-10.3916
▁spanish	-10.3916
▁street	-10.3916
▁thickness	-10.3916
▁tool	-10.3916
▁110	-10.3949
▁african	-10.3949
▁cramp	-10.3949
▁locate	-10.3949
▁squash	-10.3949
▁thankful	-10.3949
▁transition	-10.3949
▁holistic	-10.3982
▁jolly	-10.3982
▁lesson	-10.3982
▁million	-10.3982
▁ocean	-10.3982
▁blown	-10.4015
▁bouillon	-10.4015
▁erythritol	-10.4015
▁recipient	-10.4015
▁shoulder	-10.4015
▁subjective	-10.4015
▁sweetening	-10.4015
▁united	-10.4015
▁caffe	-10.4048
▁charged	-10.4048
▁confused	-10.4048
▁david	-10.4048
▁poultry	-10.4048
▁recommends	-10.4048
▁soaking	-10.4048
▁staying	-10.4048
▁belgian	-10.4081
▁horse	-10.4081
▁learning	-10.4081
▁maltodextrin	-10.4081
▁profit	-10.4081
▁accidentally	-10.4115
▁math	-10.4115
▁model	-10.4115
▁proof	-10.4115
▁researched	-10.4115
▁yr	-10.4115
▁cardamom	-10.4149
▁complaining	-10.4149
▁researching	-10.4149
▁sooooo	-10.4149
▁arm	-10.4182
▁comfortable	-10.4182
▁tempted	-10.4182
▁chile	-10.4216
▁display	-10.4216
▁fooled	-10.4216
▁ghost	-10.4216
▁hawaiian	-10.4216
▁percentage	-10.4216
▁stuffing	-10.4216
▁creates	-10.425
▁latest	-10.425
▁letter	-10.425
▁licking	-10.425
▁maid	-10.425
▁northern	-10.425
▁petsmart	-10.425
▁valentine	-10.425
▁view	-10.425
▁easiest	-10.4284
▁kirkland	-10.4284
▁sniff	-10.4284
▁barry	-10.4318
▁dill	-10.4318
▁gusto	-10.4318
▁peppery	-10.4318
▁unsalted	-10.4318
▁accept	-10.4353
▁fizz	-10.4353
▁grabbed	-10.4353
▁pacific	-10.4353
▁puffed	-10.4353
▁additionally	-10.4387
▁adequate	-10.4387
▁alive	-10.4387
▁spam	-10.4387
▁dave	-10.4422
▁fence	-10.4422
▁pate	-10.4422
▁removing	-10.4422
▁steal	-10.4422
▁yield	-10.4422
▁draw	-10.4456
▁drying	-10.4456
▁field	-10.4456
▁moisturizer	-10.4456
▁nespresso	-10.4456
▁silly	-10.4456
▁standing	-10.4456
▁tartness	-10.4456
▁tract	-10.4456
▁element	-10.4491
▁grand	-10.4491
▁intend	-10.4491
▁pricy	-10.4491
▁blame	-10.4526
▁doggie	-10.4526
▁favourite	-10.4526
▁flip	-10.4526
▁martini	-10.4526
▁record	-10.4526
▁rubbery	-10.4526
▁toward	-10.4526
▁waxy	-10.4526
▁ache	-10.4561
▁bloody	-10.4561
▁cilantro	-10.4561
▁code	-10.4561
▁decadent	-10.4561
▁gobbled	-10.4561
▁storing	-10.4561
▁tastiest	-10.4561
▁bin	-10.4596
▁fourth	-10.4596
▁nine	-10.4596
▁remedy	-10.4596
▁row	-10.4596
▁solved	-10.4596
▁sub	-10.4596
▁usda	-10.4596
▁watering	-10.4596
▁anise	-10.4631
▁competitor	-10.4631
▁enjoyment	-10.4631
▁origin	-10.4631
▁reported	-10.4631
▁voila	-10.4631
▁yay	-10.4631
▁attached	-10.4667
▁chemically	-10.4667
▁heinz	-10.4667
▁hidden	-10.4667
▁october	-10.4667
▁smallest	-10.4667
▁sparingly	-10.4667
▁flow	-10.4702
▁jello	-10.4702
▁marzipan	-10.4702
▁oregon	-10.4702
▁ridiculously	-10.4702
▁roaster	-10.4702
▁safely	-10.4702
▁savor	-10.4702
▁snow	-10.4702
▁allergen	-10.4738
▁allowing	-10.4738
▁automatically	-10.4738
▁kefir	-10.4738
▁morsel	-10.4738
▁agent	-10.4774
▁aunt	-10.4774
▁boston	-10.4774
▁charm	-10.4774
▁chex	-10.4774
▁demand	-10.4774
▁frontier	-10.4774
▁mccormick	-10.4774
▁showing	-10.4774
▁statement	-10.4774
▁ziplock	-10.4774
▁blah	-10.481
▁cheez	-10.481
▁granule	-10.481
▁greater	-10.481
▁index	-10.481
▁naked	-10.481
▁prone	-10.481
▁tape	-10.481
▁bomb	-10.4846
▁cumin	-10.4846
▁encountered	-10.4846
▁nibble	-10.4846
▁overpower	-10.4846
▁sampling	-10.4846
▁useless	-10.4846
▁dissolved	-10.4882
▁dumped	-10.4882
▁lettuce	-10.4882
▁raved	-10.4882
▁alternate	-10.4918
▁seasonal	-10.4918
▁strainer	-10.4918
▁wondered	-10.4918
▁yorkie	-10.4918
▁aisle	-10.4955
▁arabica	-10.4955
▁artificially	-10.4955
▁beagle	-10.4955
▁claimed	-10.4955
▁costa	-10.4955
▁kcup	-10.4955
▁labeling	-10.4955
▁miniature	-10.4955
▁pug	-10.4955
▁dutch	-10.4991
▁encourage	-10.4991
▁frank	-10.4991
▁indulge	-10.4991
▁sunday	-10.4991
▁august	-10.5028
▁boxer	-10.5028
▁mad	-10.5028
▁mediocre	-10.5028
▁probiotic	-10.5028
▁recomend	-10.5028
▁sulfate	-10.5028
▁walking	-10.5028
▁culture	-10.5065
▁deserves	-10.5065
▁dull	-10.5065
▁insulin	-10.5065
▁moderate	-10.5065
▁nutritionally	-10.5065
▁safeway	-10.5065
▁saltiness	-10.5065
▁sipping	-10.5065
▁spiciness	-10.5065
▁tartar	-10.5065
▁bamboo	-10.5102
▁basmati	-10.5102
▁carmel	-10.5102
▁computer	-10.5102
▁creative	-10.5102
▁critter	-10.5102
▁justify	-10.5102
▁nonetheless	-10.5102
▁pale	-10.5102
▁sinus	-10.5102
▁avocado	-10.5139
▁ish	-10.5139
▁pungent	-10.5139
▁toaster	-10.5139
▁wind	-10.5139
▁arthritis	-10.5176
▁buzz	-10.5176
▁informed	-10.5176
▁january	-10.5176
▁nylabone	-10.5176
▁occupied	-10.5176
▁oyster	-10.5176
▁unnecessary	-10.5176
▁bacteria	-10.5213
▁disappear	-10.5213
▁flea	-10.5213
▁rounded	-10.5213
▁truck	-10.5213
▁unhappy	-10.5213
▁darjeeling	-10.5251
▁dente	-10.5251
▁heartburn	-10.5251
▁immediate	-10.5251
▁indicates	-10.5251
▁kroger	-10.5251
▁stirred	-10.5251
▁bolder	-10.5289
▁calming	-10.5289
▁evenly	-10.5289
▁replacing	-10.5289
▁fail	-10.5326
▁powering	-10.5326
▁synthetic	-10.5326
▁bang	-10.5364
▁rolling	-10.5364
▁smashed	-10.5364
▁squirrel	-10.5364
▁tail	-10.5364
▁instance	-10.5402
▁intolerance	-10.5402
▁sufficient	-10.5402
▁april	-10.5441
▁bark	-10.5441
▁former	-10.5441
▁hell	-10.5441
▁masala	-10.5441
▁quicker	-10.5441
▁refunded	-10.5441
▁squeezed	-10.5441
▁taylor	-10.5441
▁yorkshire	-10.5441
▁arizona	-10.5479
▁cousin	-10.5479
▁cucumber	-10.5479
▁manufacturing	-10.5479
▁neck	-10.5479
▁poison	-10.5479
▁prince	-10.5479
▁reusable	-10.5479
▁sometime	-10.5479
▁transaction	-10.5479
▁wax	-10.5479
▁breakage	-10.5518
▁conventional	-10.5518
▁cookbook	-10.5518
▁deli	-10.5518
▁hype	-10.5518
▁nyc	-10.5518
▁smelly	-10.5518
▁spoil	-10.5518
▁thousand	-10.5518
▁chloride	-10.5556
▁hiking	-10.5556
▁nourishing	-10.5556
▁weigh	-10.5556
▁doubled	-10.5595
▁land	-10.5595
▁sake	-10.5595
▁tastebud	-10.5595
▁wire	-10.5595
▁brazil	-10.5634
▁covering	-10.5634
▁lifesaver	-10.5634
▁nacho	-10.5634
▁syrupy	-10.5634
▁tonic	-10.5634
▁yucky	-10.5634
▁angel	-10.5673
▁assam	-10.5673
▁charging	-10.5673
▁eager	-10.5673
▁hydrated	-10.5673
▁judge	-10.5673
▁meow	-10.5673
▁nursing	-10.5673
▁ripe	-10.5673
▁vending	-10.5673
▁widely	-10.5673
▁caloric	-10.5713
▁disagree	-10.5713
▁exposed	-10.5713
▁floating	-10.5713
▁lemongrass	-10.5713
▁sriracha	-10.5713
▁asleep	-10.5752
▁beloved	-10.5752
▁fee	-10.5752
▁led	-10.5752
▁manufacture	-10.5752
▁mighty	-10.5752
▁possibility	-10.5752
▁random	-10.5752
▁shortly	-10.5752
▁unbelievable	-10.5752
▁walked	-10.5752
▁b12	-10.5792
▁biting	-10.5792
▁desperate	-10.5792
▁enhanced	-10.5792
▁healing	-10.5792
▁himalayan	-10.5792
▁indicate	-10.5792
▁indicated	-10.5792
▁perfume	-10.5792
▁tahini	-10.5792
▁urine	-10.5792
▁appetizing	-10.5831
▁jittery	-10.5831
▁national	-10.5831
▁temptation	-10.5831
▁walden	-10.5831
▁gradually	-10.5871
▁nope	-10.5871
▁taster	-10.5871
▁amino	-10.5911
▁chill	-10.5911
▁dieting	-10.5911
▁equipment	-10.5911
▁friday	-10.5911
▁godiva	-10.5911
▁itchy	-10.5911
▁jitter	-10.5911
▁marmalade	-10.5911
▁metabolism	-10.5911
▁public	-10.5911
▁pyramid	-10.5911
▁requested	-10.5911
▁clay	-10.5952
▁electric	-10.5952
▁exciting	-10.5952
▁fog	-10.5952
▁heavier	-10.5952
▁influenster	-10.5952
▁skinny	-10.5952
▁sleeping	-10.5952
▁tomorrow	-10.5952
▁contrast	-10.5992
▁patient	-10.5992
▁project	-10.5992
▁shea	-10.5992
▁shih	-10.5992
▁sight	-10.5992
▁soymilk	-10.5992
▁speaking	-10.5992
▁www	-10.5992
▁action	-10.6033
▁fenugreek	-10.6033
▁finer	-10.6033
▁forest	-10.6033
▁indulgence	-10.6033
▁movement	-10.6033
▁nausea	-10.6033
▁undertone	-10.6033
▁cart	-10.6073
▁caveat	-10.6073
▁fuss	-10.6073
▁grandchild	-10.6073
▁malted	-10.6073
▁skippy	-10.6073
▁sprinkling	-10.6073
▁teapot	-10.6073
▁torn	-10.6073
▁ant	-10.6114
▁approved	-10.6114
▁approx	-10.6114
▁bloom	-10.6114
▁dilute	-10.6114
▁mum	-10.6114
▁policy	-10.6114
▁prep	-10.6114
▁snicker	-10.6114
▁brooklyn	-10.6155
▁burrito	-10.6155
▁itching	-10.6155
▁mccann	-10.6155
▁grove	-10.6197
▁hottest	-10.6197
▁jim	-10.6197
▁pesto	-10.6197
▁pickled	-10.6197
▁unavailable	-10.6197
▁zinc	-10.6197
▁cancelled	-10.6238
▁counting	-10.6238
▁devoured	-10.6238
▁excuse	-10.6238
▁fav	-10.6238
▁nicer	-10.6238
▁november	-10.6238
▁rinsing	-10.6238
▁tunnel	-10.6238
▁unexpected	-10.6238
▁leading	-10.628
▁pile	-10.628
▁slimy	-10.628
▁tolerable	-10.628
▁worthy	-10.628
▁concentration	-10.6321
▁hull	-10.6321
▁industry	-10.6321
▁partial	-10.6321
▁scared	-10.6321
▁slide	-10.6321
▁applied	-10.6363
▁art	-10.6363
▁culinary	-10.6363
▁dachshund	-10.6363
▁determine	-10.6363
▁doggy	-10.6363
▁glue	-10.6363
▁heaping	-10.6363
▁hearing	-10.6363
▁louisiana	-10.6363
▁proven	-10.6363
▁rash	-10.6363
▁suffering	-10.6363
▁therapy	-10.6363
▁12oz	-10.6405
▁bisquick	-10.6405
▁cajun	-10.6405
▁choc	-10.6405
▁recovery	-10.6405
▁reserve	-10.6405
▁chicago	-10.6448
▁cuppa	-10.6448
▁drained	-10.6448
▁latter	-10.6448
▁nori	-10.6448
▁stupid	-10.6448
▁subscribed	-10.6448
▁background	-10.649
▁blossom	-10.649
▁develop	-10.649
▁jolt	-10.649
▁petite	-10.649
▁race	-10.649
▁rank	-10.649
▁sneak	-10.649
▁stating	-10.649
▁antibiotic	-10.6533
▁grilling	-10.6533
▁horseradish	-10.6533
▁responsible	-10.6533
▁teething	-10.6533
▁tim	-10.6533
▁availability	-10.6576
▁blending	-10.6576
▁defective	-10.6576
▁derived	-10.6576
▁enzyme	-10.6576
▁genuine	-10.6576
▁joes	-10.6576
▁taurine	-10.6576
▁weighs	-10.6576
▁competition	-10.6619
▁confident	-10.6619
▁leather	-10.6619
▁moon	-10.6619
▁overweight	-10.6619
▁park	-10.6619
▁preserved	-10.6619
▁spilled	-10.6619
▁transit	-10.6619
▁urinary	-10.6619
▁asks	-10.6662
▁crown	-10.6662
▁paul	-10.6662
▁pointed	-10.6662
▁processor	-10.6662
▁rishi	-10.6662
▁session	-10.6662
▁spout	-10.6662
▁tb	-10.6662
▁weekly	-10.6662
▁built	-10.6705
▁condensed	-10.6705
▁distributor	-10.6705
▁ghee	-10.6705
▁imitation	-10.6705
▁maine	-10.6705
▁van	-10.6705
▁vermont	-10.6705
▁bothered	-10.6749
▁chronic	-10.6749
▁cloying	-10.6749
▁express	-10.6749
▁granddaughter	-10.6749
▁grassy	-10.6749
▁laden	-10.6749
▁marmite	-10.6749
▁menu	-10.6749
▁nescafe	-10.6749
▁opposite	-10.6749
▁reference	-10.6749
▁sand	-10.6749
▁shipper	-10.6749
▁spectacular	-10.6749
▁uncle	-10.6749
▁beg	-10.6792
▁bulldog	-10.6792
▁cleared	-10.6792
▁convert	-10.6792
▁hickory	-10.6792
▁hike	-10.6792
▁pulling	-10.6792
▁scratching	-10.6792
▁strain	-10.6792
▁successful	-10.6792
▁sweat	-10.6792
▁tzu	-10.6792
▁antler	-10.6836
▁fragile	-10.6836
▁lake	-10.6836
▁overseas	-10.6836
▁praise	-10.6836
▁rainforest	-10.6836
▁steaming	-10.6836
▁strike	-10.6836
▁cell	-10.6881
▁coworkers	-10.6881
▁lesser	-10.6881
▁niece	-10.6881
▁whoever	-10.6881
▁wound	-10.6881
▁advised	-10.6925
▁delectable	-10.6925
▁fizzy	-10.6925
▁flaky	-10.6925
▁remained	-10.6925
▁ziploc	-10.6925
▁lather	-10.6969
▁noise	-10.6969
▁patch	-10.6969
▁quest	-10.6969
▁ugh	-10.6969
▁appetizer	-10.7014
▁gained	-10.7014
▁gary	-10.7014
▁ginseng	-10.7014
▁hazard	-10.7014
▁sourdough	-10.7014
▁aka	-10.7059
▁collie	-10.7059
▁entree	-10.7059
▁goal	-10.7059
▁gray	-10.7059
▁increasing	-10.7059
▁jamaican	-10.7059
▁kahlua	-10.7059
▁recognize	-10.7059
▁slip	-10.7059
▁somebody	-10.7059
▁transfer	-10.7059
▁yerba	-10.7059
▁approach	-10.7104
▁fanatic	-10.7104
▁neutral	-10.7104
▁pint	-10.7104
▁saturday	-10.7104
▁soul	-10.7104
▁wherever	-10.7104
▁boneless	-10.715
▁creamier	-10.715
▁fruitcake	-10.715
▁gem	-10.715
▁jamaica	-10.715
▁scissors	-10.715
▁curb	-10.7195
▁enter	-10.7195
▁genetically	-10.7195
▁hang	-10.7195
▁oldest	-10.7195
▁reccomend	-10.7195
▁seltzer	-10.7195
▁splurge	-10.7195
▁task	-10.7195
▁cheer	-10.7241
▁elegant	-10.7241
▁environmentally	-10.7241
▁filet	-10.7241
▁freak	-10.7241
▁killed	-10.7241
▁satisfactory	-10.7241
▁starving	-10.7241
▁colorful	-10.7287
▁compromise	-10.7287
▁controlled	-10.7287
▁diameter	-10.7287
▁elderly	-10.7287
▁exceptionally	-10.7287
▁meatball	-10.7287
▁refried	-10.7287
▁sweetners	-10.7287
▁dealing	-10.7333
▁destroyed	-10.7333
▁loses	-10.7333
▁mesh	-10.7333
▁munching	-10.7333
▁nail	-10.7333
▁noticeably	-10.7333
▁quiet	-10.7333
▁resort	-10.7333
▁respect	-10.7333
▁thirty	-10.7333
▁weruva	-10.7333
▁altogether	-10.738
▁anticipated	-10.738
▁efficient	-10.738
▁follows	-10.738
▁glucosamine	-10.738
▁nevertheless	-10.738
▁publix	-10.738
▁reality	-10.738
▁spicier	-10.738
▁struggle	-10.738
▁zuke	-10.738
▁anxious	-10.7426
▁behavior	-10.7426
▁canine	-10.7426
▁dumpling	-10.7426
▁halo	-10.7426
▁insert	-10.7426
▁kiss	-10.7426
▁lingering	-10.7426
▁mouse	-10.7426
▁painful	-10.7426
▁pureed	-10.7426
▁flimsy	-10.7473
▁infusion	-10.7473
▁insane	-10.7473
▁lined	-10.7473
▁rancher	-10.7473
▁scrambled	-10.7473
▁stiff	-10.7473
▁tie	-10.7473
▁tinkyada	-10.7473
▁candied	-10.752
▁consideration	-10.752
▁dare	-10.752
▁escape	-10.752
▁region	-10.752
▁restricted	-10.752
▁saute	-10.752
▁suffered	-10.752
▁tossing	-10.752
▁avail	-10.7567
▁backpack	-10.7567
▁edition	-10.7567
▁instinct	-10.7567
▁meeting	-10.7567
▁oddly	-10.7567
▁paired	-10.7567
▁rely	-10.7567
▁score	-10.7567
▁styrofoam	-10.7567
▁tootsie	-10.7567
▁affected	-10.7615
▁avoiding	-10.7615
▁barbeque	-10.7615
▁breeze	-10.7615
▁energetic	-10.7615
▁foul	-10.7615
▁granulated	-10.7615
▁gripe	-10.7615
▁imho	-10.7615
▁merchant	-10.7615
▁mystery	-10.7615
▁novelty	-10.7615
▁phosphate	-10.7615
▁poo	-10.7615
▁recyclable	-10.7615
▁rotten	-10.7615
▁seeking	-10.7615
▁sticker	-10.7615
▁summary	-10.7615
▁wolf	-10.7615
▁comforting	-10.7663
▁everlasting	-10.7663
▁fold	-10.7663
▁grandkids	-10.7663
▁jerk	-10.7663
▁lasagna	-10.7663
▁loud	-10.7663
▁mailed	-10.7663
▁responded	-10.7663
▁scrumptious	-10.7663
▁ultimately	-10.7663
▁unflavored	-10.7663
▁brushing	-10.7711
▁crowd	-10.7711
▁gassy	-10.7711
▁magazine	-10.7711
▁practical	-10.7711
▁questionable	-10.7711
▁thicken	-10.7711
▁unfortunate	-10.7711
▁wished	-10.7711
▁absorbed	-10.7759
▁blast	-10.7759
▁clumping	-10.7759
▁fellow	-10.7759
▁midnight	-10.7759
▁milky	-10.7759
▁september	-10.7759
▁unsure	-10.7759
▁albeit	-10.7807
▁burke	-10.7807
▁decrease	-10.7807
▁deliciously	-10.7807
▁drunk	-10.7807
▁forth	-10.7807
▁introduce	-10.7807
▁krispies	-10.7807
▁listen	-10.7807
▁sachet	-10.7807
▁smoking	-10.7807
▁soo	-10.7807
▁stuffer	-10.7807
▁trident	-10.7807
▁turmeric	-10.7807
▁peterson	-10.7856
▁remainder	-10.7856
▁reordering	-10.7856
▁spicey	-10.7856
▁tendency	-10.7856
▁thirsty	-10.7856
▁circle	-10.7905
▁damn	-10.7905
▁loyal	-10.7905
▁producer	-10.7905
▁vibrant	-10.7905
▁alkaline	-10.7954
▁central	-10.7954
▁frustrated	-10.7954
▁higgins	-10.7954
▁hormel	-10.7954
▁ignore	-10.7954
▁kombucha	-10.7954
▁mcdougall	-10.7954
▁perk	-10.7954
▁risotto	-10.7954
▁scare	-10.7954
▁seek	-10.7954
▁assured	-10.8003
▁crock	-10.8003
▁marvelous	-10.8003
▁moderately	-10.8003
▁pumping	-10.8003
▁safer	-10.8003
▁shade	-10.8003
▁suited	-10.8003
▁zest	-10.8003
▁apartment	-10.8053
▁australia	-10.8053
▁crush	-10.8053
▁destroy	-10.8053
▁fave	-10.8053
▁pita	-10.8053
▁rack	-10.8053
▁sudden	-10.8053
▁wipe	-10.8053
▁atkins	-10.8103
▁evidence	-10.8103
▁mama	-10.8103
▁nephew	-10.8103
▁sauteed	-10.8103
▁selected	-10.8103
▁severely	-10.8103
▁shoe	-10.8103
▁shrink	-10.8103
▁stix	-10.8103
▁bouquet	-10.8153
▁crop	-10.8153
▁disaster	-10.8153
▁doorstep	-10.8153
▁eco	-10.8153
▁fuller	-10.8153
▁glazed	-10.8153
▁hesitation	-10.8153
▁intestinal	-10.8153
▁laugh	-10.8153
▁london	-10.8153
▁marathon	-10.8153
▁moldy	-10.8153
▁obtain	-10.8153
▁performance	-10.8153
▁reply	-10.8153
▁salami	-10.8153
▁shut	-10.8153
▁teenager	-10.8153
▁airy	-10.8203
▁dear	-10.8203
▁employee	-10.8203
▁foodie	-10.8203
▁reached	-10.8203
▁recycled	-10.8203
▁resemble	-10.8203
▁separated	-10.8203
▁admittedly	-10.8254
▁breeder	-10.8254
▁coffeemaker	-10.8254
▁commonly	-10.8254
▁fare	-10.8254
▁fusion	-10.8254
▁imagination	-10.8254
▁membership	-10.8254
▁particle	-10.8254
▁pronounce	-10.8254
▁zealand	-10.8254
▁acne	-10.8305
▁church	-10.8305
▁complexity	-10.8305
▁dab	-10.8305
▁formulation	-10.8305
▁frustrating	-10.8305
▁harm	-10.8305
▁herring	-10.8305
▁hydration	-10.8305
▁illness	-10.8305
▁proportion	-10.8305
▁ray	-10.8305
▁shred	-10.8305
▁talked	-10.8305
▁chaser	-10.8356
▁confidence	-10.8356
▁flying	-10.8356
▁insanity	-10.8356
▁pepperoni	-10.8356
▁relish	-10.8356
▁reputation	-10.8356
▁sawdust	-10.8356
▁spain	-10.8356
▁transport	-10.8356
▁undrinkable	-10.8356
▁characteristic	-10.8407
▁crude	-10.8407
▁device	-10.8407
▁duty	-10.8407
▁hormone	-10.8407
▁keeper	-10.8407
▁proud	-10.8407
▁spaniel	-10.8407
▁team	-10.8407
▁teavana	-10.8407
▁biodegradable	-10.8459
▁blind	-10.8459
▁compost	-10.8459
▁curiosity	-10.8459
▁deceptive	-10.8459
▁deodorant	-10.8459
▁fennel	-10.8459
▁gulp	-10.8459
▁lingers	-10.8459
▁marinara	-10.8459
▁native	-10.8459
▁nirvana	-10.8459
▁reducing	-10.8459
▁scotch	-10.8459
▁sens	-10.8459
▁trigger	-10.8459
▁warming	-10.8459
▁achieve	-10.8511
▁cooled	-10.8511
▁gorgeous	-10.8511
▁husky	-10.8511
▁libby	-10.8511
▁scented	-10.8511
▁spry	-10.8511
▁twizzlers	-10.8511
▁apparent	-10.8563
▁clothes	-10.8563
▁crate	-10.8563
▁def	-10.8563
▁dentist	-10.8563
▁fountain	-10.8563
▁grows	-10.8563
▁halfway	-10.8563
▁kudos	-10.8563
▁pricier	-10.8563
▁shirataki	-10.8563
▁sickness	-10.8563
▁sprayed	-10.8563
▁substituted	-10.8563
▁supreme	-10.8563
▁teen	-10.8563
▁tracking	-10.8563
▁virginia	-10.8563
▁brine	-10.8616
▁carousel	-10.8616
▁copper	-10.8616
▁february	-10.8616
▁hodgson	-10.8616
▁horrid	-10.8616
▁http	-10.8616
▁protien	-10.8616
▁trusted	-10.8616
▁varies	-10.8616
▁confirmed	-10.8668
▁fortified	-10.8668
▁haha	-10.8668
▁intensity	-10.8668
▁reluctant	-10.8668
▁remotely	-10.8668
▁roof	-10.8668
▁stovetop	-10.8668
▁advance	-10.8721
▁aggressive	-10.8721
▁anxiety	-10.8721
▁economy	-10.8721
▁fighting	-10.8721
▁freshest	-10.8721
▁guaranteed	-10.8721
▁intrigued	-10.8721
▁massive	-10.8721
▁maximum	-10.8721
▁michigan	-10.8721
▁oral	-10.8721
▁santa	-10.8721
▁spelt	-10.8721
▁stainless	-10.8721
▁sum	-10.8721
▁survive	-10.8721
▁weed	-10.8721
▁australian	-10.8775
▁brainer	-10.8775
▁choosing	-10.8775
▁crumbles	-10.8775
▁crunchiness	-10.8775
▁deserve	-10.8775
▁eligible	-10.8775
▁freezing	-10.8775
▁handed	-10.8775
▁horribly	-10.8775
▁knowledge	-10.8775
▁outdoor	-10.8775
▁series	-10.8775
▁shorter	-10.8775
▁tolerance	-10.8775
▁artifical	-10.8828
▁begging	-10.8828
▁insect	-10.8828
▁lemony	-10.8828
▁lifetime	-10.8828
▁migraine	-10.8828
▁precious	-10.8828
▁rda	-10.8828
▁specially	-10.8828
▁toothpick	-10.8828
▁walker	-10.8828
▁appletini	-10.8882
▁custard	-10.8882
▁dew	-10.8882
▁drier	-10.8882
▁ignored	-10.8882
▁import	-10.8882
▁maltese	-10.8882
▁minced	-10.8882
▁orville	-10.8882
▁overwhelmingly	-10.8882
▁passing	-10.8882
▁planted	-10.8882
▁rep	-10.8882
▁building	-10.8937
▁chun	-10.8937
▁outlet	-10.8937
▁ritz	-10.8937
▁spectrum	-10.8937
▁artichoke	-10.8991
▁associate	-10.8991
▁barrel	-10.8991
▁behold	-10.8991
▁cappucino	-10.8991
▁chocoholic	-10.8991
▁discovering	-10.8991
▁dying	-10.8991
▁niacin	-10.8991
▁physical	-10.8991
▁played	-10.8991
▁schnauzer	-10.8991
▁textured	-10.8991
▁wary	-10.8991
▁chestnut	-10.9046
▁coin	-10.9046
▁devour	-10.9046
▁distributed	-10.9046
▁drizzled	-10.9046
▁fermentation	-10.9046
▁forgotten	-10.9046
▁gladly	-10.9046
▁mozzarella	-10.9046
▁orgain	-10.9046
▁oxidant	-10.9046
▁rotation	-10.9046
▁bummed	-10.9101
▁carob	-10.9101
▁chick	-10.9101
▁distance	-10.9101
▁flight	-10.9101
▁float	-10.9101
▁impress	-10.9101
▁overwhelmed	-10.9101
▁returnable	-10.9101
▁reuse	-10.9101
▁route	-10.9101
▁bait	-10.9156
▁bakes	-10.9156
▁band	-10.9156
▁bike	-10.9156
▁cadbury	-10.9156
▁caf	-10.9156
▁dieter	-10.9156
▁expand	-10.9156
▁explained	-10.9156
▁mainstream	-10.9156
▁shedding	-10.9156
▁sirloin	-10.9156
▁strict	-10.9156
▁tast	-10.9156
▁chest	-10.9212
▁client	-10.9212
▁companion	-10.9212
▁dot	-10.9212
▁goo	-10.9212
▁hydrate	-10.9212
▁killing	-10.9212
▁multigrain	-10.9212
▁scrap	-10.9212
▁smoothness	-10.9212
▁sunbutter	-10.9212
▁watched	-10.9212
▁canadian	-10.9268
▁contamination	-10.9268
▁disclaimer	-10.9268
▁extended	-10.9268
▁glowing	-10.9268
▁reduction	-10.9268
▁sencha	-10.9268
▁sickly	-10.9268
▁specie	-10.9268
▁spirit	-10.9268
▁vienna	-10.9268
▁attribute	-10.9324
▁blade	-10.9324
▁bliss	-10.9324
▁camper	-10.9324
▁clue	-10.9324
▁dishwasher	-10.9324
▁dolce	-10.9324
▁furniture	-10.9324
▁kale	-10.9324
▁phenomenal	-10.9324
▁raving	-10.9324
▁reduces	-10.9324
▁saltine	-10.9324
▁scary	-10.9324
▁sodastream	-10.9324
▁themed	-10.9324
▁upper	-10.9324
▁curly	-10.9381
▁describes	-10.9381
▁firmer	-10.9381
▁hostess	-10.9381
▁investment	-10.9381
▁merely	-10.9381
▁opener	-10.9381
▁oregano	-10.9381
▁overwhelm	-10.9381
▁retain	-10.9381
▁secondly	-10.9381
▁stream	-10.9381
▁tequila	-10.9381
▁ancient	-10.9438
▁buttered	-10.9438
▁butterscotch	-10.9438
▁cuisinart	-10.9438
▁currant	-10.9438
▁licked	-10.9438
▁measurement	-10.9438
▁nutritionist	-10.9438
▁porch	-10.9438
▁presented	-10.9438
▁relaxed	-10.9438
▁relieved	-10.9438
▁remarkable	-10.9438
▁resembles	-10.9438
▁aerogarden	-10.9495
▁afterward	-10.9495
▁amber	-10.9495
▁clif	-10.9495
▁confection	-10.9495
▁dingo	-10.9495
▁endless	-10.9495
▁greenie	-10.9495
▁hello	-10.9495
▁hunting	-10.9495
▁jarred	-10.9495
▁lawn	-10.9495
▁oak	-10.9495
▁perspective	-10.9495
▁plaque	-10.9495
▁rica	-10.9495
▁sky	-10.9495
▁tricky	-10.9495
▁unpopped	-10.9495
▁xanthan	-10.9495
▁yep	-10.9495
▁alike	-10.9553
▁colorado	-10.9553
▁determined	-10.9553
▁dioxide	-10.9553
▁frustration	-10.9553
▁lastly	-10.9553
▁liner	-10.9553
▁located	-10.9553
▁meatloaf	-10.9553
▁micro	-10.9553
▁mmmm	-10.9553
▁moisturizing	-10.9553
▁oriental	-10.9553
▁pkg	-10.9553
▁protection	-10.9553
▁scout	-10.9553
▁shall	-10.9553
▁adorable	-10.9611
▁bourbon	-10.9611
▁cavity	-10.9611
▁cocker	-10.9611
▁consists	-10.9611
▁detox	-10.9611
▁egbert	-10.9611
▁enthusiastic	-10.9611
▁handled	-10.9611
▁knorr	-10.9611
▁larabar	-10.9611
▁laxative	-10.9611
▁opted	-10.9611
▁petal	-10.9611
▁shim	-10.9611
▁subject	-10.9611
▁veterinarian	-10.9611
▁zesty	-10.9611
▁alfredo	-10.9669
▁asparagus	-10.9669
▁brulee	-10.9669
▁danger	-10.9669
▁decoration	-10.9669
▁dedicated	-10.9669
▁dextrose	-10.9669
▁john	-10.9669
▁promote	-10.9669
▁secure	-10.9669
▁steamer	-10.9669
▁tocopherol	-10.9669
▁unused	-10.9669
▁updated	-10.9669
▁vera	-10.9669
▁bare	-10.9728
▁duplicate	-10.9728
▁flop	-10.9728
▁hiding	-10.9728
▁knee	-10.9728
▁monday	-10.9728
▁nurse	-10.9728
▁picnic	-10.9728
▁prove	-10.9728
▁quote	-10.9728
▁ravioli	-10.9728
▁sugared	-10.9728
▁wilderness	-10.9728
▁africa	-10.9787
▁brilliant	-10.9787
▁climate	-10.9787
▁compact	-10.9787
▁distilled	-10.9787
▁douwe	-10.9787
▁erh	-10.9787
▁margarine	-10.9787
▁mouthful	-10.9787
▁nantucket	-10.9787
▁overpowered	-10.9787
▁overpowers	-10.9787
▁prevents	-10.9787
▁promotion	-10.9787
▁steer	-10.9787
▁unbeatable	-10.9787
▁alaska	-10.9846
▁browned	-10.9846
▁bummer	-10.9846
▁cigarette	-10.9846
▁cured	-10.9846
▁fermented	-10.9846
▁killer	-10.9846
▁offensive	-10.9846
▁realizing	-10.9846
▁rebecca	-10.9846
▁securely	-10.9846
▁steady	-10.9846
▁theme	-10.9846
▁underneath	-10.9846
▁yuban	-10.9846
▁alcoholic	-10.9906
▁avoided	-10.9906
▁cottage	-10.9906
▁edamame	-10.9906
▁generation	-10.9906
▁gin	-10.9906
▁happening	-10.9906
▁larabars	-10.9906
▁mental	-10.9906
▁pedigree	-10.9906
▁poster	-10.9906
▁strongest	-10.9906
▁til	-10.9906
▁vegemite	-10.9906
▁whiff	-10.9906
▁bittersweet	-10.9966
▁blessing	-10.9966
▁cheetos	-10.9966
▁conversation	-10.9966
▁cooling	-10.9966
▁dripping	-10.9966
▁eagerly	-10.9966
▁luxury	-10.9966
▁nong	-10.9966
▁resolved	-10.9966
▁respond	-10.9966
▁sniffed	-10.9966
▁adjusted	-11.0026
▁carolina	-11.0026
▁choco	-11.0026
▁deciding	-11.0026
▁exceeded	-11.0026
▁hound	-11.0026
▁identify	-11.0026
▁infuser	-11.0026
▁peter	-11.0026
▁reaching	-11.0026
▁recalled	-11.0026
▁sock	-11.0026
▁successfully	-11.0026
▁supper	-11.0026
▁swallowing	-11.0026
▁technique	-11.0026
▁usps	-11.0026
▁worthwhile	-11.0026
▁xmas	-11.0026
▁advertisement	-11.0087
▁aging	-11.0087
▁bump	-11.0087
▁bush	-11.0087
▁butt	-11.0087
▁caffine	-11.0087
▁compete	-11.0087
▁curl	-11.0087
▁deer	-11.0087
▁discomfort	-11.0087
▁fifty	-11.0087
▁holy	-11.0087
▁jumbo	-11.0087
▁overbearing	-11.0087
▁spilling	-11.0087
▁spreading	-11.0087
▁swedish	-11.0087
▁tug	-11.0087
▁weighed	-11.0087
▁breathe	-11.0148
▁closet	-11.0148
▁lil	-11.0148
▁proved	-11.0148
▁react	-11.0148
▁river	-11.0148
▁smokehouse	-11.0148
▁western	-11.0148
▁wilton	-11.0148
▁alter	-11.021
▁bloating	-11.021
▁copy	-11.021
▁decreased	-11.021
▁esp	-11.021
▁fillet	-11.021
▁height	-11.021
▁lacked	-11.021
▁mash	-11.021
▁microwaved	-11.021
▁mmm	-11.021
▁monkey	-11.021
▁nipple	-11.021
▁partner	-11.021
▁rural	-11.021
▁screen	-11.021
▁vermicelli	-11.021
▁arsenic	-11.0272
▁balm	-11.0272
▁believer	-11.0272
▁chewiness	-11.0272
▁digestible	-11.0272
▁eggnog	-11.0272
▁fails	-11.0272
▁harvested	-11.0272
▁icky	-11.0272
▁melon	-11.0272
▁nom	-11.0272
▁pectin	-11.0272
▁planned	-11.0272
▁superfood	-11.0272
▁unacceptable	-11.0272
▁unbelievably	-11.0272
▁unknown	-11.0272
▁usable	-11.0272
▁veg	-11.0272
▁youth	-11.0272
▁breastfeeding	-11.0334
▁counterpart	-11.0334
▁creek	-11.0334
▁del	-11.0334
▁deluxe	-11.0334
▁harney	-11.0334
▁lee	-11.0334
▁permanent	-11.0334
▁pero	-11.0334
▁pregnancy	-11.0334
▁presence	-11.0334
▁sucrose	-11.0334
▁wallet	-11.0334
▁worrying	-11.0334
▁2oz	-11.0397
▁asia	-11.0397
▁branch	-11.0397
▁crouton	-11.0397
▁dogswell	-11.0397
▁exquisite	-11.0397
▁flu	-11.0397
▁gaining	-11.0397
▁gunpowder	-11.0397
▁mega	-11.0397
▁peet	-11.0397
▁pest	-11.0397
▁rat	-11.0397
▁suprised	-11.0397
▁tearing	-11.0397
▁teeccino	-11.0397
▁tetley	-11.0397
▁tire	-11.0397
▁whiskey	-11.0397
▁youngest	-11.0397
▁converted	-11.046
▁disposable	-11.046
▁dusty	-11.046
▁enriched	-11.046
▁experiencing	-11.046
▁favorable	-11.046
▁maca	-11.046
▁mall	-11.046
▁millet	-11.046
▁pom	-11.046
▁purified	-11.046
▁recommending	-11.046
▁reconstituted	-11.046
▁sigh	-11.046
▁sprouting	-11.046
▁trainer	-11.046
▁utterly	-11.046
▁vietnamese	-11.046
▁vinaigrette	-11.046
▁woke	-11.046
▁assure	-11.0523
▁bloated	-11.0523
▁camp	-11.0523
▁carnation	-11.0523
▁entertaining	-11.0523
▁environmental	-11.0523
▁fallen	-11.0523
▁formed	-11.0523
▁ingesting	-11.0523
▁labrador	-11.0523
▁manager	-11.0523
▁palette	-11.0523
▁russell	-11.0523
▁sleepy	-11.0523
▁sophisticated	-11.0523
▁spare	-11.0523
▁swallowed	-11.0523
▁verona	-11.0523
▁couch	-11.0587
▁defeat	-11.0587
▁digging	-11.0587
▁donate	-11.0587
▁fattening	-11.0587
▁flowery	-11.0587
▁improves	-11.0587
▁krave	-11.0587
▁manageable	-11.0587
▁modern	-11.0587
▁overtone	-11.0587
▁recycle	-11.0587
▁sack	-11.0587
▁scientific	-11.0587
▁conveniently	-11.0652
▁gastric	-11.0652
▁gut	-11.0652
▁pat	-11.0652
▁rival	-11.0652
▁roommate	-11.0652
▁shoot	-11.0652
▁smoothly	-11.0652
▁wholesale	-11.0652
▁ahmad	-11.0716
▁cash	-11.0716
▁century	-11.0716
▁disapointed	-11.0716
▁experimented	-11.0716
▁froth	-11.0716
▁nutro	-11.0716
▁nylabones	-11.0716
▁paneer	-11.0716
▁pin	-11.0716
▁reservation	-11.0716
▁tremendous	-11.0716
▁anyhow	-11.0782
▁baggie	-11.0782
▁barista	-11.0782
▁bundle	-11.0782
▁carbon	-11.0782
▁jims	-11.0782
▁labor	-11.0782
▁pooch	-11.0782
▁prescribed	-11.0782
▁ritual	-11.0782
▁rotate	-11.0782
▁sacrifice	-11.0782
▁supporting	-11.0782
▁usage	-11.0782
▁vote	-11.0782
▁wee	-11.0782
▁ascorbic	-11.0847
▁award	-11.0847
▁breastmilk	-11.0847
▁caffiene	-11.0847
▁confess	-11.0847
▁fiji	-11.0847
▁garbanzo	-11.0847
▁goldfish	-11.0847
▁humidity	-11.0847
▁linda	-11.0847
▁maintaining	-11.0847
▁maltitol	-11.0847
▁mandarin	-11.0847
▁navitas	-11.0847
▁ohio	-11.0847
▁papaya	-11.0847
▁pass	-11.0847
▁position	-11.0847
▁traveled	-11.0847
▁unappealing	-11.0847
▁wasteful	-11.0847
▁candle	-11.0913
▁contrary	-11.0913
▁cuz	-11.0913
▁dollop	-11.0913
▁eukanuba	-11.0913
▁guide	-11.0913
▁houtte	-11.0913
▁obsessed	-11.0913
▁postage	-11.0913
▁stray	-11.0913
▁toilet	-11.0913
▁visible	-11.0913
▁waking	-11.0913
▁arrowhead	-11.098
▁bound	-11.098
▁chosen	-11.098
▁clog	-11.098
▁combining	-11.098
▁corrected	-11.098
▁creation	-11.098
▁figuring	-11.098
▁flush	-11.098
▁incorporate	-11.098
▁intestine	-11.098
▁pike	-11.098
▁puroast	-11.098
▁pushed	-11.098
▁shift	-11.098
▁shy	-11.098
▁tore	-11.098
▁agrees	-11.1046
▁attempted	-11.1046
▁brazilian	-11.1046
▁bullet	-11.1046
▁challenging	-11.1046
▁champagne	-11.1046
▁crepe	-11.1046
▁deeper	-11.1046
▁deliciousness	-11.1046
▁dropping	-11.1046
▁garnish	-11.1046
▁gathering	-11.1046
▁germ	-11.1046
▁ireland	-11.1046
▁jersey	-11.1046
▁mommy	-11.1046
▁newer	-11.1046
▁newly	-11.1046
▁noticing	-11.1046
▁official	-11.1046
▁progresso	-11.1046
▁speedy	-11.1046
▁strictly	-11.1046
▁vague	-11.1046
▁whisk	-11.1046
▁airport	-11.1114
▁begs	-11.1114
▁dance	-11.1114
▁discontinue	-11.1114
▁dos	-11.1114
▁horizon	-11.1114
▁lining	-11.1114
▁lookout	-11.1114
▁manna	-11.1114
▁mmmmm	-11.1114
▁paint	-11.1114
▁pee	-11.1114
▁slightest	-11.1114
▁spoke	-11.1114
▁struggled	-11.1114
▁teacher	-11.1114
▁wisconsin	-11.1114
▁brian	-11.1182
▁casing	-11.1182
▁damp	-11.1182
▁disliked	-11.1182
▁dreamfields	-11.1182
▁energized	-11.1182
▁estimated	-11.1182
▁fever	-11.1182
▁garage	-11.1182
▁inclined	-11.1182
▁meantime	-11.1182
▁monitor	-11.1182
▁offset	-11.1182
▁pediatrician	-11.1182
▁protected	-11.1182
▁repeatedly	-11.1182
▁ribbon	-11.1182
▁scrape	-11.1182
▁solve	-11.1182
▁uncooked	-11.1182
▁varied	-11.1182
▁wheel	-11.1182
▁1000	-11.125
▁belgium	-11.125
▁believed	-11.125
▁byproduct	-11.125
▁chase	-11.125
▁cleanse	-11.125
▁cloth	-11.125
▁confirm	-11.125
▁crappy	-11.125
▁dilmah	-11.125
▁gal	-11.125
▁ghiradelli	-11.125
▁indication	-11.125
▁kicking	-11.125
▁marley	-11.125
▁muir	-11.125
▁reordered	-11.125
▁resulted	-11.125
▁russian	-11.125
▁skinless	-11.125
▁stopping	-11.125
▁trained	-11.125
▁varying	-11.125
▁warmer	-11.125
▁advertise	-11.1319
▁aussie	-11.1319
▁backyard	-11.1319
▁bladder	-11.1319
▁brandy	-11.1319
▁dispense	-11.1319
▁dryness	-11.1319
▁evil	-11.1319
▁explanation	-11.1319
▁glen	-11.1319
▁lying	-11.1319
▁mediterranean	-11.1319
▁munchies	-11.1319
▁nectresse	-11.1319
▁ness	-11.1319
▁pasty	-11.1319
▁pool	-11.1319
▁purely	-11.1319
▁pushing	-11.1319
▁released	-11.1319
▁strangely	-11.1319
▁sumatran	-11.1319
▁unbleached	-11.1319
▁washington	-11.1319
▁whiskas	-11.1319
▁afghanistan	-11.1388
▁akin	-11.1388
▁albacore	-11.1388
▁analysis	-11.1388
▁backpacking	-11.1388
▁commercially	-11.1388
▁dining	-11.1388
▁incorrect	-11.1388
▁inflammation	-11.1388
▁postum	-11.1388
▁raf	-11.1388
▁scottish	-11.1388
▁uniform	-11.1388
▁beetlejuice	-11.1457
▁bragg	-11.1457
▁carnivore	-11.1457
▁cauliflower	-11.1457
▁charity	-11.1457
▁chutney	-11.1457
▁constipated	-11.1457
▁kelp	-11.1457
▁knocked	-11.1457
▁mere	-11.1457
▁millstone	-11.1457
▁mousse	-11.1457
▁optional	-11.1457
▁plane	-11.1457
▁queen	-11.1457
▁rapidly	-11.1457
▁stood	-11.1457
▁toxin	-11.1457
▁220	-11.1528
▁adores	-11.1528
▁chocolately	-11.1528
▁feeder	-11.1528
▁magical	-11.1528
▁medley	-11.1528
▁ration	-11.1528
▁republic	-11.1528
▁seemingly	-11.1528
▁shopper	-11.1528
▁staff	-11.1528
▁ticket	-11.1528
▁unusable	-11.1528
▁alfalfa	-11.1598
▁begun	-11.1598
▁belief	-11.1598
▁birth	-11.1598
▁caff	-11.1598
▁distribution	-11.1598
▁evoo	-11.1598
▁grabbing	-11.1598
▁monin	-11.1598
▁penne	-11.1598
▁pomeranian	-11.1598
▁receipt	-11.1598
▁toothpaste	-11.1598
▁velvet	-11.1598
▁war	-11.1598
▁definetly	-11.1669
▁divided	-11.1669
▁focused	-11.1669
▁foreign	-11.1669
▁frig	-11.1669
▁junkie	-11.1669
▁luscious	-11.1669
▁mar	-11.1669
▁marzano	-11.1669
▁moroccan	-11.1669
▁scheduled	-11.1669
▁shopped	-11.1669
▁snapple	-11.1669
▁sourced	-11.1669
▁10oz	-11.1741
▁angry	-11.1741
▁compound	-11.1741
▁confusing	-11.1741
▁cornstarch	-11.1741
▁downright	-11.1741
▁effectiveness	-11.1741
▁extensive	-11.1741
▁ingest	-11.1741
▁lung	-11.1741
▁mortar	-11.1741
▁saltier	-11.1741
▁sucking	-11.1741
▁wave	-11.1741
▁acting	-11.1813
▁canning	-11.1813
▁contaminated	-11.1813
▁disk	-11.1813
▁distinctly	-11.1813
▁glutamate	-11.1813
▁marinate	-11.1813
▁powered	-11.1813
▁seam	-11.1813
▁spin	-11.1813
▁teenage	-11.1813
▁10g	-11.1886
▁attracted	-11.1886
▁barbara	-11.1886
▁bent	-11.1886
▁blog	-11.1886
▁corporate	-11.1886
▁delightfully	-11.1886
▁hopeful	-11.1886
▁invest	-11.1886
▁jif	-11.1886
▁milkshake	-11.1886
▁nearest	-11.1886
▁overcooked	-11.1886
▁peeled	-11.1886
▁pillow	-11.1886
▁riboflavin	-11.1886
▁rising	-11.1886
▁soluble	-11.1886
▁ugly	-11.1886
▁attempting	-11.1959
▁attest	-11.1959
▁bout	-11.1959
▁celiacs	-11.1959
▁chilli	-11.1959
▁clip	-11.1959
▁continuing	-11.1959
▁convince	-11.1959
▁corgi	-11.1959
▁genius	-11.1959
▁glove	-11.1959
▁kuerig	-11.1959
▁patience	-11.1959
▁pho	-11.1959
▁traditionally	-11.1959
▁undamaged	-11.1959
▁wooden	-11.1959
▁yuk	-11.1959
▁approval	-11.2033
▁cast	-11.2033
▁cfh	-11.2033
▁chive	-11.2033
▁connection	-11.2033
▁costing	-11.2033
▁creaminess	-11.2033
▁crystallized	-11.2033
▁delay	-11.2033
▁developing	-11.2033
▁earned	-11.2033
▁enchilada	-11.2033
▁evident	-11.2033
▁godsend	-11.2033
▁guava	-11.2033
▁hmmm	-11.2033
▁mercury	-11.2033
▁microwaving	-11.2033
▁organ	-11.2033
▁puzzle	-11.2033
▁shortening	-11.2033
▁sweetleaf	-11.2033
▁tied	-11.2033
▁timer	-11.2033
▁touched	-11.2033
▁uncomfortable	-11.2033
▁absorbs	-11.2107
▁adverse	-11.2107
▁caper	-11.2107
▁cautious	-11.2107
▁chickpea	-11.2107
▁colour	-11.2107
▁comb	-11.2107
▁desirable	-11.2107
▁differ	-11.2107
▁effectively	-11.2107
▁excitement	-11.2107
▁fiance	-11.2107
▁hanging	-11.2107
▁outcome	-11.2107
▁sediment	-11.2107
▁smoothest	-11.2107
▁sustainable	-11.2107
▁tastey	-11.2107
▁bicarbonate	-11.2182
▁cared	-11.2182
▁chock	-11.2182
▁consistancy	-11.2182
▁folic	-11.2182
▁harmony	-11.2182
▁inconsistent	-11.2182
▁motion	-11.2182
▁sincerely	-11.2182
▁softened	-11.2182
▁technically	-11.2182
▁zucchini	-11.2182
▁cellophane	-11.2258
▁ceramic	-11.2258
▁claiming	-11.2258
▁clever	-11.2258
▁critical	-11.2258
▁custom	-11.2258
▁ecstatic	-11.2258
▁eliminated	-11.2258
▁googled	-11.2258
▁inspired	-11.2258
▁malty	-11.2258
▁midwest	-11.2258
▁military	-11.2258
▁nerve	-11.2258
▁ole	-11.2258
▁phase	-11.2258
▁treasure	-11.2258
▁amongst	-11.2334
▁athlete	-11.2334
▁bos	-11.2334
▁chi	-11.2334
▁crunchier	-11.2334
▁cytomax	-11.2334
▁discovery	-11.2334
▁eastern	-11.2334
▁elbow	-11.2334
▁laying	-11.2334
▁logo	-11.2334
▁madagascar	-11.2334
▁maintenance	-11.2334
▁mound	-11.2334
▁notified	-11.2334
▁paleo	-11.2334
▁pekoe	-11.2334
▁purist	-11.2334
▁revolution	-11.2334
▁safflower	-11.2334
▁scoville	-11.2334
▁sponge	-11.2334
▁swirl	-11.2334
▁tank	-11.2334
▁thriving	-11.2334
▁unnatural	-11.2334
▁vega	-11.2334
▁whopping	-11.2334
▁1lb	-11.2411
▁accent	-11.2411
▁adventurous	-11.2411
▁beaba	-11.2411
▁bonito	-11.2411
▁cabbage	-11.2411
▁greyhound	-11.2411
▁guar	-11.2411
▁horror	-11.2411
▁judging	-11.2411
▁lousy	-11.2411
▁mallomars	-11.2411
▁microwavable	-11.2411
▁music	-11.2411
▁nip	-11.2411
▁posting	-11.2411
▁qualify	-11.2411
▁rapid	-11.2411
▁requiring	-11.2411
▁reverse	-11.2411
▁sprite	-11.2411
▁suffers	-11.2411
▁udon	-11.2411
▁understanding	-11.2411
▁accordingly	-11.2488
▁avoderm	-11.2488
▁blew	-11.2488
▁bravo	-11.2488
▁cloud	-11.2488
▁criticism	-11.2488
▁crusty	-11.2488
▁dated	-11.2488
▁detailed	-11.2488
▁discounted	-11.2488
▁exist	-11.2488
▁guessed	-11.2488
▁incident	-11.2488
▁isle	-11.2488
▁massage	-11.2488
▁neatly	-11.2488
▁paris	-11.2488
▁rescued	-11.2488
▁runner	-11.2488
▁specified	-11.2488
▁substituting	-11.2488
▁sugarless	-11.2488
▁argue	-11.2566
▁arthur	-11.2566
▁caribbean	-11.2566
▁dimension	-11.2566
▁episode	-11.2566
▁flash	-11.2566
▁frog	-11.2566
▁furthermore	-11.2566
▁irritation	-11.2566
▁mat	-11.2566
▁nowadays	-11.2566
▁plug	-11.2566
▁polish	-11.2566
▁poppy	-11.2566
▁priority	-11.2566
▁regimen	-11.2566
▁tiki	-11.2566
▁wedge	-11.2566
▁adventure	-11.2644
▁applying	-11.2644
▁bon	-11.2644
▁dominant	-11.2644
▁enclosed	-11.2644
▁entertained	-11.2644
▁ethnic	-11.2644
▁extraordinary	-11.2644
▁flowering	-11.2644
▁frame	-11.2644
▁gumballs	-11.2644
▁harrogate	-11.2644
▁independent	-11.2644
▁leakage	-11.2644
▁ought	-11.2644
▁private	-11.2644
▁prize	-11.2644
▁rubbed	-11.2644
▁scarf	-11.2644
▁spite	-11.2644
▁tougher	-11.2644
▁winning	-11.2644
▁buffet	-11.2723
▁compartment	-11.2723
▁dismay	-11.2723
▁egrave	-11.2723
▁fluke	-11.2723
▁fortunate	-11.2723
▁increasingly	-11.2723
▁invented	-11.2723
▁mutt	-11.2723
▁potentially	-11.2723
▁prepackaged	-11.2723
▁solely	-11.2723
▁sunshine	-11.2723
▁vaguely	-11.2723
▁violet	-11.2723
▁breading	-11.2803
▁cod	-11.2803
▁considerable	-11.2803
▁discard	-11.2803
▁distress	-11.2803
▁fedex	-11.2803
▁hefty	-11.2803
▁host	-11.2803
▁lightweight	-11.2803
▁listening	-11.2803
▁longest	-11.2803
▁marinated	-11.2803
▁object	-11.2803
▁shaved	-11.2803
▁spotted	-11.2803
▁substantially	-11.2803
▁adjustment	-11.2883
▁aficionado	-11.2883
▁breaker	-11.2883
▁burr	-11.2883
▁chewier	-11.2883
▁clementine	-11.2883
▁contribute	-11.2883
▁estimate	-11.2883
▁expires	-11.2883
▁frappe	-11.2883
▁froze	-11.2883
▁government	-11.2883
▁loop	-11.2883
▁necessity	-11.2883
▁optimal	-11.2883
▁peak	-11.2883
▁reseal	-11.2883
▁spouse	-11.2883
▁tannin	-11.2883
▁yea	-11.2883
▁artisan	-11.2964
▁berger	-11.2964
▁bye	-11.2964
▁canceled	-11.2964
▁casein	-11.2964
▁choked	-11.2964
▁depend	-11.2964
▁dijon	-11.2964
▁inflammatory	-11.2964
▁ovaltine	-11.2964
▁protective	-11.2964
▁reheat	-11.2964
▁skill	-11.2964
▁standby	-11.2964
▁sucked	-11.2964
▁suffice	-11.2964
▁tom	-11.2964
▁topper	-11.2964
▁touted	-11.2964
▁vast	-11.2964
▁zinger	-11.2964
▁accepted	-11.3046
▁decorate	-11.3046
▁dumping	-11.3046
▁ending	-11.3046
▁furry	-11.3046
▁hr	-11.3046
▁leery	-11.3046
▁marble	-11.3046
▁refreshed	-11.3046
▁representative	-11.3046
▁role	-11.3046
▁sans	-11.3046
▁substitution	-11.3046
▁thyme	-11.3046
▁brief	-11.3128
▁celsius	-11.3128
▁coriander	-11.3128
▁devil	-11.3128
▁exposure	-11.3128
▁extent	-11.3128
▁goya	-11.3128
▁gumbo	-11.3128
▁happiness	-11.3128
▁immensely	-11.3128
▁itch	-11.3128
▁krusteaz	-11.3128
▁linked	-11.3128
▁overcook	-11.3128
▁periodically	-11.3128
▁pirate	-11.3128
▁preventing	-11.3128
▁pun	-11.3128
▁raising	-11.3128
▁realistic	-11.3128
▁rim	-11.3128
▁sleeve	-11.3128
▁slower	-11.3128
▁stella	-11.3128
▁thigh	-11.3128
▁yam	-11.3128
▁yikes	-11.3128
▁12g	-11.3211
▁chair	-11.3211
▁density	-11.3211
▁deployed	-11.3211
▁disgusted	-11.3211
▁downfall	-11.3211
▁inc	-11.3211
▁industrial	-11.3211
▁justin	-11.3211
▁kenya	-11.3211
▁mentioning	-11.3211
▁nougat	-11.3211
▁panda	-11.3211
▁pic	-11.3211
▁potty	-11.3211
▁prominent	-11.3211
▁reader	-11.3211
▁shinier	-11.3211
▁tasteful	-11.3211
▁thier	-11.3211
▁tuesday	-11.3211
▁unappetizing	-11.3211
▁wheatgrass	-11.3211
▁bichon	-11.3295
▁compelled	-11.3295
▁coon	-11.3295
▁diner	-11.3295
▁dosage	-11.3295
▁dramatically	-11.3295
▁drastically	-11.3295
▁dvd	-11.3295
▁embarrassed	-11.3295
▁hat	-11.3295
▁hoof	-11.3295
▁hyper	-11.3295
▁indigestion	-11.3295
▁polenta	-11.3295
▁reccommend	-11.3295
▁refer	-11.3295
▁reflect	-11.3295
▁restriction	-11.3295
▁seldom	-11.3295
▁taped	-11.3295
▁voice	-11.3295
▁anticipation	-11.3379
▁asin	-11.3379
▁autumn	-11.3379
▁baronet	-11.3379
▁booster	-11.3379
▁casual	-11.3379
▁dane	-11.3379
▁enticing	-11.3379
▁flexible	-11.3379
▁gamble	-11.3379
▁hcg	-11.3379
▁ibs	-11.3379
▁inhale	-11.3379
▁lowering	-11.3379
▁lowfat	-11.3379
▁organix	-11.3379
▁pebble	-11.3379
▁perform	-11.3379
▁pete	-11.3379
▁squeezing	-11.3379
▁alittle	-11.3464
▁basement	-11.3464
▁bat	-11.3464
▁boat	-11.3464
▁carrageenan	-11.3464
▁castor	-11.3464
▁clearance	-11.3464
▁competing	-11.3464
▁countless	-11.3464
▁dug	-11.3464
▁enthusiast	-11.3464
▁folger	-11.3464
▁instructed	-11.3464
▁lends	-11.3464
▁mature	-11.3464
▁occur	-11.3464
▁perishable	-11.3464
▁sojos	-11.3464
▁taught	-11.3464
▁teach	-11.3464
▁thinly	-11.3464
▁amaranth	-11.355
▁arctic	-11.355
▁ashamed	-11.355
▁banned	-11.355
▁battle	-11.355
▁catching	-11.355
▁cramping	-11.355
▁digested	-11.355
▁dispensing	-11.355
▁feral	-11.355
▁fifteen	-11.355
▁flaw	-11.355
▁laid	-11.355
▁mileage	-11.355
▁moreover	-11.355
▁motivated	-11.355
▁occurred	-11.355
▁pretend	-11.355
▁snail	-11.355
▁soooooo	-11.355
▁starchy	-11.355
▁struggling	-11.355
▁trim	-11.355
▁bend	-11.3637
▁benecol	-11.3637
▁complicated	-11.3637
▁concerning	-11.3637
▁conditioning	-11.3637
▁contacting	-11.3637
▁deprived	-11.3637
▁gingery	-11.3637
▁gosh	-11.3637
▁humid	-11.3637
▁jell	-11.3637
▁lap	-11.3637
▁largely	-11.3637
▁mission	-11.3637
▁pez	-11.3637
▁quench	-11.3637
▁relieve	-11.3637
▁semolina	-11.3637
▁soupy	-11.3637
▁spreadable	-11.3637
▁subscribing	-11.3637
▁sunrise	-11.3637
▁teeny	-11.3637
▁verdict	-11.3637
▁victor	-11.3637
▁vital	-11.3637
▁walgreens	-11.3637
▁allowance	-11.3724
▁bless	-11.3724
▁caesar	-11.3724
▁decorating	-11.3724
▁dryer	-11.3724
▁exercising	-11.3724
▁formulated	-11.3724
▁hmm	-11.3724
▁hotdog	-11.3724
▁interior	-11.3724
▁journey	-11.3724
▁kimchi	-11.3724
▁lapsang	-11.3724
▁lumpy	-11.3724
▁population	-11.3724
▁ref	-11.3724
▁rocky	-11.3724
▁shook	-11.3724
▁spitting	-11.3724
▁supplied	-11.3724
▁tissue	-11.3724
▁traverse	-11.3724
▁treating	-11.3724
▁twig	-11.3724
▁visitor	-11.3724
▁wintergreen	-11.3724
▁youtube	-11.3724
▁bisque	-11.3812
▁boast	-11.3812
▁dime	-11.3812
▁disappears	-11.3812
▁divide	-11.3812
▁fulfilled	-11.3812
▁heading	-11.3812
▁inulin	-11.3812
▁inventory	-11.3812
▁nonfat	-11.3812
▁observation	-11.3812
▁parchment	-11.3812
▁peppered	-11.3812
▁pinto	-11.3812
▁scharffen	-11.3812
▁sole	-11.3812
▁trend	-11.3812
▁vitality	-11.3812
▁dorm	-11.3901
▁hay	-11.3901
▁intention	-11.3901
▁lowered	-11.3901
▁macaroon	-11.3901
▁messed	-11.3901
▁noon	-11.3901
▁ntilde	-11.3901
▁omaha	-11.3901
▁porridge	-11.3901
▁remarkably	-11.3901
▁sends	-11.3901
▁theory	-11.3901
▁udi	-11.3901
▁vinegary	-11.3901
▁whirl	-11.3901
▁zipper	-11.3901
▁arriving	-11.3991
▁asthma	-11.3991
▁beside	-11.3991
▁clover	-11.3991
▁coworker	-11.3991
▁curd	-11.3991
▁digesting	-11.3991
▁dress	-11.3991
▁glutino	-11.3991
▁hammer	-11.3991
▁henry	-11.3991
▁imagined	-11.3991
▁introduction	-11.3991
▁jumping	-11.3991
▁legal	-11.3991
▁limp	-11.3991
▁maruchan	-11.3991
▁naan	-11.3991
▁pairing	-11.3991
▁panel	-11.3991
▁pina	-11.3991
▁procedure	-11.3991
▁sage	-11.3991
▁theatre	-11.3991
▁tupperware	-11.3991
▁yorkies	-11.3991
▁abundance	-11.4081
▁butternut	-11.4081
▁chewable	-11.4081
▁deeply	-11.4081
▁development	-11.4081
▁donated	-11.4081
▁driver	-11.4081
▁drugstore	-11.4081
▁exterior	-11.4081
▁fade	-11.4081
▁fifth	-11.4081
▁foamy	-11.4081
▁glossy	-11.4081
▁humble	-11.4081
▁husk	-11.4081
▁integrity	-11.4081
▁maintains	-11.4081
▁nuke	-11.4081
▁pickiest	-11.4081
▁shelled	-11.4081
▁suspicious	-11.4081
▁syndrome	-11.4081
▁tamale	-11.4081
▁tempting	-11.4081
▁thyroid	-11.4081
▁barilla	-11.4172
▁breakdown	-11.4172
▁cha	-11.4172
▁chore	-11.4172
▁closing	-11.4172
▁cloudy	-11.4172
▁definition	-11.4172
▁disclosure	-11.4172
▁dissappointed	-11.4172
▁frothy	-11.4172
▁opt	-11.4172
▁orzo	-11.4172
▁polar	-11.4172
▁retired	-11.4172
▁settling	-11.4172
▁siamese	-11.4172
▁slab	-11.4172
▁slippery	-11.4172
▁sloppy	-11.4172
▁struck	-11.4172
▁tarter	-11.4172
▁thickener	-11.4172
▁breadstick	-11.4265
▁brezza	-11.4265
▁draining	-11.4265
▁existent	-11.4265
▁explode	-11.4265
▁featured	-11.4265
▁golean	-11.4265
▁grip	-11.4265
▁guacamole	-11.4265
▁hollow	-11.4265
▁intensely	-11.4265
▁internal	-11.4265
▁irritated	-11.4265
▁mistaken	-11.4265
▁plentiful	-11.4265
▁pliable	-11.4265
▁proceeded	-11.4265
▁ranging	-11.4265
▁scotland	-11.4265
▁sri	-11.4265
▁sugarfree	-11.4265
▁unwanted	-11.4265
▁accompaniment	-11.4358
▁answered	-11.4358
▁breadcrumb	-11.4358
▁bustelo	-11.4358
▁clumpy	-11.4358
▁eggplant	-11.4358
▁extend	-11.4358
▁glace	-11.4358
▁grace	-11.4358
▁inconvenient	-11.4358
▁junky	-11.4358
▁linger	-11.4358
▁lundberg	-11.4358
▁manages	-11.4358
▁namaste	-11.4358
▁pallet	-11.4358
▁pant	-11.4358
▁persian	-11.4358
▁presumably	-11.4358
▁repeated	-11.4358
▁scooping	-11.4358
▁sickeningly	-11.4358
▁sleepytime	-11.4358
▁tot	-11.4358
▁university	-11.4358
▁woody	-11.4358
▁author	-11.4452
▁cet	-11.4452
▁cigar	-11.4452
▁flavoured	-11.4452
▁gmos	-11.4452
▁hooray	-11.4452
▁la	-11.4452
▁marshall	-11.4452
▁mechanism	-11.4452
▁meh	-11.4452
▁milled	-11.4452
▁neuro	-11.4452
▁plantation	-11.4452
▁resource	-11.4452
▁soba	-11.4452
▁tamarind	-11.4452
▁visual	-11.4452
▁wider	-11.4452
▁barney	-11.4546
▁bison	-11.4546
▁caraway	-11.4546
▁cloyingly	-11.4546
▁compromised	-11.4546
▁criterion	-11.4546
▁crossed	-11.4546
▁ebay	-11.4546
▁eczema	-11.4546
▁eleven	-11.4546
▁estate	-11.4546
▁favorably	-11.4546
▁forewarned	-11.4546
▁harry	-11.4546
▁heartily	-11.4546
▁hexane	-11.4546
▁hitting	-11.4546
▁lord	-11.4546
▁los	-11.4546
▁mud	-11.4546
▁organically	-11.4546
▁praline	-11.4546
▁rectangular	-11.4546
▁rockstar	-11.4546
▁sec	-11.4546
▁sorbitol	-11.4546
▁status	-11.4546
▁vase	-11.4546
▁zen	-11.4546
▁annual	-11.4642
▁busted	-11.4642
▁chemistry	-11.4642
▁citrate	-11.4642
▁cleanup	-11.4642
▁complimentary	-11.4642
▁construction	-11.4642
▁dang	-11.4642
▁delivering	-11.4642
▁dramatic	-11.4642
▁explosion	-11.4642
▁facebook	-11.4642
▁format	-11.4642
▁freshen	-11.4642
▁glycol	-11.4642
▁highlight	-11.4642
▁hotness	-11.4642
▁kat	-11.4642
▁laughing	-11.4642
▁log	-11.4642
▁mocktails	-11.4642
▁moka	-11.4642
▁more	-11.4642
▁musty	-11.4642
▁nation	-11.4642
▁obtained	-11.4642
▁oscar	-11.4642
▁passable	-11.4642
▁pilaf	-11.4642
▁prima	-11.4642
▁quenching	-11.4642
▁quot	-11.4642
▁raccoon	-11.4642
▁rainbow	-11.4642
▁reject	-11.4642
▁scientist	-11.4642
▁seizure	-11.4642
▁simpler	-11.4642
▁stalk	-11.4642
▁steroid	-11.4642
▁suitcase	-11.4642
▁swimming	-11.4642
▁timing	-11.4642
▁zoe	-11.4642
▁zone	-11.4642
▁cornmeal	-11.4739
▁domestic	-11.4739
▁eagle	-11.4739
▁ella	-11.4739
▁extracted	-11.4739
▁foster	-11.4739
▁glycerin	-11.4739
▁heal	-11.4739
▁jacob	-11.4739
▁jewel	-11.4739
▁lotus	-11.4739
▁lucy	-11.4739
▁padding	-11.4739
▁primal	-11.4739
▁promotes	-11.4739
▁que	-11.4739
▁reconstitute	-11.4739
▁recycling	-11.4739
▁remote	-11.4739
▁reservoir	-11.4739
▁ridder	-11.4739
▁roller	-11.4739
▁sealing	-11.4739
▁shirt	-11.4739
▁similarly	-11.4739
▁sorely	-11.4739
▁vile	-11.4739
▁wikipedia	-11.4739
▁2000	-11.4836
▁booty	-11.4836
▁breadmaker	-11.4836
▁cannister	-11.4836
▁clearing	-11.4836
▁colada	-11.4836
▁communication	-11.4836
▁craft	-11.4836
▁deck	-11.4836
▁definitly	-11.4836
▁diego	-11.4836
▁dropper	-11.4836
▁fertilizer	-11.4836
▁inconvenience	-11.4836
▁ingrediants	-11.4836
▁introducing	-11.4836
▁jolokia	-11.4836
▁kicked	-11.4836
▁manual	-11.4836
▁owe	-11.4836
▁pak	-11.4836
▁placebo	-11.4836
▁regulation	-11.4836
▁screaming	-11.4836
▁scrub	-11.4836
▁softness	-11.4836
▁survived	-11.4836
▁thaw	-11.4836
▁vomited	-11.4836
▁belt	-11.4935
▁bubbly	-11.4935
▁cals	-11.4935
▁compensate	-11.4935
▁deceiving	-11.4935
▁drag	-11.4935
▁excellant	-11.4935
▁explains	-11.4935
▁faith	-11.4935
▁fitness	-11.4935
▁foundation	-11.4935
▁grower	-11.4935
▁hash	-11.4935
▁horrendous	-11.4935
▁inspection	-11.4935
▁join	-11.4935
▁korea	-11.4935
▁lug	-11.4935
▁pasteurized	-11.4935
▁ranchero	-11.4935
▁reputable	-11.4935
▁rican	-11.4935
▁sorghum	-11.4935
▁souchong	-11.4935
▁stamped	-11.4935
▁watt	-11.4935
▁1oz	-11.5034
▁aerator	-11.5034
▁bam	-11.5034
▁bizarre	-11.5034
▁capacity	-11.5034
▁chomp	-11.5034
▁chuck	-11.5034
▁colleague	-11.5034
▁dunk	-11.5034
▁hardest	-11.5034
▁heartier	-11.5034
▁kipper	-11.5034
▁mon	-11.5034
▁mosquito	-11.5034
▁nap	-11.5034
▁narrow	-11.5034
▁nostalgia	-11.5034
▁organization	-11.5034
▁pride	-11.5034
▁pumped	-11.5034
▁rehydrate	-11.5034
▁repellent	-11.5034
▁smith	-11.5034
▁society	-11.5034
▁sonoma	-11.5034
▁soothe	-11.5034
▁surrounding	-11.5034
▁tower	-11.5034
▁twinnings	-11.5034
▁understood	-11.5034
▁upscale	-11.5034
▁amaretto	-11.5135
▁ample	-11.5135
▁ara	-11.5135
▁autoship	-11.5135
▁bleached	-11.5135
▁cameron	-11.5135
▁cheeseburger	-11.5135
▁counted	-11.5135
▁dragon	-11.5135
▁drawn	-11.5135
▁duh	-11.5135
▁encounter	-11.5135
▁excessively	-11.5135
▁fitting	-11.5135
▁fluff	-11.5135
▁freaking	-11.5135
▁fromm	-11.5135
▁imparts	-11.5135
▁jiffy	-11.5135
▁mangosteen	-11.5135
▁manhattan	-11.5135
▁mist	-11.5135
▁novel	-11.5135
▁novice	-11.5135
▁pipe	-11.5135
▁poisoning	-11.5135
▁rainy	-11.5135
▁sensible	-11.5135
▁sliver	-11.5135
▁social	-11.5135
▁sourness	-11.5135
▁temporary	-11.5135
▁thermos	-11.5135
▁tide	-11.5135
▁toasty	-11.5135
▁trivedi	-11.5135
▁tulsi	-11.5135
▁unbroken	-11.5135
▁unrefined	-11.5135
▁valuable	-11.5135
▁appreciation	-11.5236
▁bursting	-11.5236
▁burton	-11.5236
▁cattle	-11.5236
▁colon	-11.5236
▁conjunction	-11.5236
▁dal	-11.5236
▁detected	-11.5236
▁devours	-11.5236
▁disguise	-11.5236
▁emptied	-11.5236
▁exists	-11.5236
▁flesh	-11.5236
▁generously	-11.5236
▁guideline	-11.5236
▁insanely	-11.5236
▁luzianne	-11.5236
▁management	-11.5236
▁motor	-11.5236
▁nauseous	-11.5236
▁overwhelms	-11.5236
▁provider	-11.5236
▁refillable	-11.5236
▁rejected	-11.5236
▁replenish	-11.5236
▁ruining	-11.5236
▁scene	-11.5236
▁separation	-11.5236
▁slap	-11.5236
▁slit	-11.5236
▁sludge	-11.5236
▁soapy	-11.5236
▁stellar	-11.5236
▁stimulant	-11.5236
▁sweetens	-11.5236
▁tan	-11.5236
▁vastly	-11.5236
▁velvety	-11.5236
▁alley	-11.5339
▁astringent	-11.5339
▁beaten	-11.5339
▁believing	-11.5339
▁boutique	-11.5339
▁bridge	-11.5339
▁chalk	-11.5339
▁charcoal	-11.5339
▁davinci	-11.5339
▁delicous	-11.5339
▁disorder	-11.5339
▁displayed	-11.5339
▁distinguish	-11.5339
▁eliminating	-11.5339
▁ethiopian	-11.5339
▁feta	-11.5339
▁fudgy	-11.5339
▁gummis	-11.5339
▁huh	-11.5339
▁insulated	-11.5339
▁jazz	-11.5339
▁jones	-11.5339
▁kernals	-11.5339
▁panko	-11.5339
▁ploy	-11.5339
▁positively	-11.5339
▁preferably	-11.5339
▁presto	-11.5339
▁recognizable	-11.5339
▁repair	-11.5339
▁screwed	-11.5339
▁shaving	-11.5339
▁skittle	-11.5339
▁stressful	-11.5339
▁sue	-11.5339
▁tetra	-11.5339
▁thickening	-11.5339
▁tremendously	-11.5339
▁tvp	-11.5339
▁twining	-11.5339
▁unlikely	-11.5339
▁waistline	-11.5339
▁wednesday	-11.5339
▁advertises	-11.5442
▁annoyed	-11.5442
▁blech	-11.5442
▁brushed	-11.5442
▁clogged	-11.5442
▁cork	-11.5442
▁dinosaur	-11.5442
▁dispose	-11.5442
▁dissatisfied	-11.5442
▁enthusiasm	-11.5442
▁frizzy	-11.5442
▁gagged	-11.5442
▁gout	-11.5442
▁hop	-11.5442
▁implies	-11.5442
▁laundry	-11.5442
▁modest	-11.5442
▁mono	-11.5442
▁nana	-11.5442
▁overload	-11.5442
▁preferable	-11.5442
▁remembering	-11.5442
▁scream	-11.5442
▁siberian	-11.5442
▁specify	-11.5442
▁technology	-11.5442
▁thread	-11.5442
▁tobasco	-11.5442
▁weakness	-11.5442
▁altura	-11.5547
▁bengal	-11.5547
▁blair	-11.5547
▁blowing	-11.5547
▁bottling	-11.5547
▁bow	-11.5547
▁checkup	-11.5547
▁completed	-11.5547
▁continually	-11.5547
▁crispness	-11.5547
▁crumbling	-11.5547
▁desperation	-11.5547
▁folded	-11.5547
▁halvah	-11.5547
▁headed	-11.5547
▁landfill	-11.5547
▁loosely	-11.5547
▁mochi	-11.5547
▁mouthfeel	-11.5547
▁nourish	-11.5547
▁over	-11.5547
▁pitted	-11.5547
▁purity	-11.5547
▁repurchase	-11.5547
▁rushed	-11.5547
▁sealable	-11.5547
▁sept	-11.5547
▁slept	-11.5547
▁snackwell	-11.5547
▁splinter	-11.5547
▁sublime	-11.5547
▁surrounded	-11.5547
▁tingle	-11.5547
▁upgrade	-11.5547
▁verify	-11.5547
▁warmth	-11.5547
▁breathing	-11.5653
▁capture	-11.5653
▁cassia	-11.5653
▁chilies	-11.5653
▁combat	-11.5653
▁compatible	-11.5653
▁crunchies	-11.5653
▁decently	-11.5653
▁dice	-11.5653
▁dissolving	-11.5653
▁experimentation	-11.5653
▁facial	-11.5653
▁gopicnic	-11.5653
▁granular	-11.5653
▁idiot	-11.5653
▁impulse	-11.5653
▁keen	-11.5653
▁lard	-11.5653
▁listened	-11.5653
▁mailbox	-11.5653
▁merchandise	-11.5653
▁norm	-11.5653
▁nostalgic	-11.5653
▁orchard	-11.5653
▁picante	-11.5653
▁poke	-11.5653
▁potency	-11.5653
▁puerh	-11.5653
▁regulate	-11.5653
▁relationship	-11.5653
▁replicate	-11.5653
▁rosehip	-11.5653
▁sacrificing	-11.5653
▁salon	-11.5653
▁saucepan	-11.5653
▁smoker	-11.5653
▁thrive	-11.5653
▁toe	-11.5653
▁tony	-11.5653
▁unprocessed	-11.5653
▁wasa	-11.5653
▁begged	-11.576
▁biscoff	-11.576
▁crispbread	-11.576
▁cutter	-11.576
▁dandy	-11.576
▁doritos	-11.576
▁drawing	-11.576
▁entry	-11.576
▁expiry	-11.576
▁fairness	-11.576
▁fatigue	-11.576
▁illustrated	-11.576
▁indoors	-11.576
▁injury	-11.576
▁justice	-11.576
▁keebler	-11.576
▁lychee	-11.576
▁monosodium	-11.576
▁orchid	-11.576
▁patak	-11.576
▁pattern	-11.576
▁port	-11.576
▁randomly	-11.576
▁resorted	-11.576
▁routinely	-11.576
▁simmering	-11.576
▁supplementing	-11.576
▁waist	-11.576
▁angle	-11.5868
▁applies	-11.5868
▁bio	-11.5868
▁burner	-11.5868
▁carbonate	-11.5868
▁conscience	-11.5868
▁data	-11.5868
▁deter	-11.5868
▁drove	-11.5868
▁dusting	-11.5868
▁eliminates	-11.5868
▁ener	-11.5868
▁excellence	-11.5868
▁gastrointestinal	-11.5868
▁hall	-11.5868
▁indulging	-11.5868
▁lanka	-11.5868
▁lawry	-11.5868
▁liquorice	-11.5868
▁loma	-11.5868
▁marker	-11.5868
▁mcdonald	-11.5868
▁merit	-11.5868
▁obesity	-11.5868
▁propylene	-11.5868
▁saeco	-11.5868
▁sandy	-11.5868
▁speck	-11.5868
▁summertime	-11.5868
▁suspected	-11.5868
▁thursday	-11.5868
▁unfamiliar	-11.5868
▁vit	-11.5868
▁whipping	-11.5868
▁adjusting	-11.5977
▁arrangement	-11.5977
▁ash	-11.5977
▁bedroom	-11.5977
▁bleeding	-11.5977
▁blooming	-11.5977
▁boyardee	-11.5977
▁branded	-11.5977
▁buildup	-11.5977
▁buster	-11.5977
▁cosmetic	-11.5977
▁cruise	-11.5977
▁delicacy	-11.5977
▁demi	-11.5977
▁forming	-11.5977
▁insist	-11.5977
▁latin	-11.5977
▁maui	-11.5977
▁miserable	-11.5977
▁pen	-11.5977
▁pity	-11.5977
▁recieve	-11.5977
▁referred	-11.5977
▁reluctantly	-11.5977
▁retains	-11.5977
▁shin	-11.5977
▁smokiness	-11.5977
▁thiamine	-11.5977
▁transitioning	-11.5977
▁vouch	-11.5977
▁voxbox	-11.5977
▁worcestershire	-11.5977
▁altered	-11.6088
▁battery	-11.6088
▁cheated	-11.6088
▁committing	-11.6088
▁compressed	-11.6088
▁confusion	-11.6088
▁decay	-11.6088
▁doughnut	-11.6088
▁dud	-11.6088
▁fart	-11.6088
▁forum	-11.6088
▁gumball	-11.6088
▁hygiene	-11.6088
▁illegal	-11.6088
▁journal	-11.6088
▁kikkoman	-11.6088
▁lunchbox	-11.6088
▁marketplace	-11.6088
▁orbit	-11.6088
▁outdated	-11.6088
▁partly	-11.6088
▁planting	-11.6088
▁progress	-11.6088
▁shaken	-11.6088
▁sheen	-11.6088
▁sheer	-11.6088
▁sifting	-11.6088
▁storm	-11.6088
▁stringy	-11.6088
▁sufficiently	-11.6088
▁taiwan	-11.6088
▁thawed	-11.6088
▁toasting	-11.6088
▁trunk	-11.6088
▁turtle	-11.6088
▁vitacoco	-11.6088
▁acerola	-11.62
▁acquire	-11.62
▁attitude	-11.62
▁baggies	-11.62
▁cheaply	-11.62
▁chilly	-11.62
▁choline	-11.62
▁destroying	-11.62
▁dunking	-11.62
▁enormous	-11.62
▁established	-11.62
▁exploded	-11.62
▁fishing	-11.62
▁flap	-11.62
▁glob	-11.62
▁grandparent	-11.62
▁happybaby	-11.62
▁hung	-11.62
▁interestingly	-11.62
▁irresistible	-11.62
▁lily	-11.62
▁lively	-11.62
▁maintained	-11.62
▁manganese	-11.62
▁married	-11.62
▁milo	-11.62
▁noting	-11.62
▁outdoors	-11.62
▁pam	-11.62
▁physician	-11.62
▁puffy	-11.62
▁rasberry	-11.62
▁reg	-11.62
▁resemblance	-11.62
▁resistance	-11.62
▁resolve	-11.62
▁spongy	-11.62
▁tainted	-11.62
▁unusually	-11.62
▁wishing	-11.62
▁zukes	-11.62
▁bialetti	-11.6313
▁blob	-11.6313
▁bypass	-11.6313
▁captain	-11.6313
▁columbia	-11.6313
▁command	-11.6313
▁dealer	-11.6313
▁defect	-11.6313
▁ect	-11.6313
▁endorsement	-11.6313
▁extraction	-11.6313
▁fiend	-11.6313
▁georgia	-11.6313
▁granny	-11.6313
▁greece	-11.6313
▁hydrochloride	-11.6313
▁improving	-11.6313
▁insomnia	-11.6313
▁kili	-11.6313
▁league	-11.6313
▁lickety	-11.6313
▁lieu	-11.6313
▁lion	-11.6313
▁meanwhile	-11.6313
▁memorable	-11.6313
▁nido	-11.6313
▁occurring	-11.6313
▁omelet	-11.6313
▁phosphorus	-11.6313
▁playful	-11.6313
▁pocky	-11.6313
▁porcini	-11.6313
▁resistant	-11.6313
▁scam	-11.6313
▁sniffing	-11.6313
▁studying	-11.6313
▁sunny	-11.6313
▁tryed	-11.6313
▁alarm	-11.6427
▁allspice	-11.6427
▁awfully	-11.6427
▁backup	-11.6427
▁caring	-11.6427
▁clumped	-11.6427
▁cob	-11.6427
▁coombs	-11.6427
▁countertop	-11.6427
▁decaff	-11.6427
▁discernible	-11.6427
▁edited	-11.6427
▁energizing	-11.6427
▁ethical	-11.6427
▁glance	-11.6427
▁honor	-11.6427
▁hook	-11.6427
▁inflated	-11.6427
▁interval	-11.6427
▁inviting	-11.6427
▁ldl	-11.6427
▁mocktail	-11.6427
▁napkin	-11.6427
▁nerd	-11.6427
▁nightmare	-11.6427
▁northwest	-11.6427
▁occurs	-11.6427
▁overboard	-11.6427
▁recognized	-11.6427
▁rhubarb	-11.6427
▁sherry	-11.6427
▁sifter	-11.6427
▁sorbate	-11.6427
▁sparkle	-11.6427
▁spendy	-11.6427
▁transitioned	-11.6427
▁trapped	-11.6427
▁williams	-11.6427
▁2lb	-11.6542
▁appropriately	-11.6542
▁biased	-11.6542
▁cheat	-11.6542
▁cincinnati	-11.6542
▁committed	-11.6542
▁county	-11.6542
▁danish	-11.6542
▁dusted	-11.6542
▁emulsifier	-11.6542
▁endurance	-11.6542
▁eve	-11.6542
▁evidently	-11.6542
▁football	-11.6542
▁gnat	-11.6542
▁gun	-11.6542
▁hears	-11.6542
▁iodine	-11.6542
▁lame	-11.6542
▁liberally	-11.6542
▁lightning	-11.6542
▁mysterious	-11.6542
▁ongoing	-11.6542
▁outrageously	-11.6542
▁oxygen	-11.6542
▁peeling	-11.6542
▁percolator	-11.6542
▁physically	-11.6542
▁pressing	-11.6542
▁slot	-11.6542
▁spiral	-11.6542
▁stair	-11.6542
▁stamp	-11.6542
▁wearing	-11.6542
▁withdrawal	-11.6542
▁worn	-11.6542
▁210	-11.6659
▁anniversary	-11.6659
▁artery	-11.6659
▁as	-11.6659
▁association	-11.6659
▁awsome	-11.6659
▁brisket	-11.6659
▁bunn	-11.6659
▁chart	-11.6659
▁chlorine	-11.6659
▁chug	-11.6659
▁daddy	-11.6659
▁detectable	-11.6659
▁discarded	-11.6659
▁dude	-11.6659
▁entered	-11.6659
▁genuinely	-11.6659
▁gerd	-11.6659
▁gland	-11.6659
▁gnaw	-11.6659
▁honesty	-11.6659
▁invention	-11.6659
▁jerkey	-11.6659
▁knot	-11.6659
▁laboratory	-11.6659
▁language	-11.6659
▁longevity	-11.6659
▁lure	-11.6659
▁luxurious	-11.6659
▁matching	-11.6659
▁medicinals	-11.6659
▁messing	-11.6659
▁mount	-11.6659
▁noir	-11.6659
▁octopus	-11.6659
▁portland	-11.6659
▁pours	-11.6659
▁promising	-11.6659
▁pucker	-11.6659
▁ramyun	-11.6659
▁redenbacher	-11.6659
▁ripping	-11.6659
▁roach	-11.6659
▁scored	-11.6659
▁singapore	-11.6659
▁stressed	-11.6659
▁swanson	-11.6659
▁tester	-11.6659
▁truely	-11.6659
▁whichever	-11.6659
▁advanced	-11.6778
▁aforementioned	-11.6778
▁bounce	-11.6778
▁briefly	-11.6778
▁browsing	-11.6778
▁catfood	-11.6778
▁coincidence	-11.6778
▁fuzzy	-11.6778
▁glued	-11.6778
▁harden	-11.6778
▁hardened	-11.6778
▁hose	-11.6778
▁impart	-11.6778
▁incidentally	-11.6778
▁knead	-11.6778
▁minimize	-11.6778
▁nutrasweet	-11.6778
▁owns	-11.6778
▁petroleum	-11.6778
▁referring	-11.6778
▁rubbing	-11.6778
▁sorta	-11.6778
▁standpoint	-11.6778
▁stationed	-11.6778
▁stats	-11.6778
▁tennis	-11.6778
▁tic	-11.6778
▁tobacco	-11.6778
▁trio	-11.6778
▁ulcer	-11.6778
▁vintage	-11.6778
▁acesulfame	-11.6897
▁amish	-11.6897
▁austin	-11.6897
▁belong	-11.6897
▁boldness	-11.6897
▁bullion	-11.6897
▁bumble	-11.6897
▁cubed	-11.6897
▁duke	-11.6897
▁falafel	-11.6897
▁feb	-11.6897
▁fixing	-11.6897
▁flaked	-11.6897
▁flame	-11.6897
▁forty	-11.6897
▁ink	-11.6897
▁jalape	-11.6897
▁jan	-11.6897
▁lunchtime	-11.6897
▁mcdonalds	-11.6897
▁mmmmmm	-11.6897
▁monk	-11.6897
▁overdo	-11.6897
▁plunge	-11.6897
▁ramune	-11.6897
▁recurring	-11.6897
▁represent	-11.6897
▁rite	-11.6897
▁shortage	-11.6897
▁southwest	-11.6897
▁spraying	-11.6897
▁strand	-11.6897
▁subsequent	-11.6897
▁sunlight	-11.6897
▁thickens	-11.6897
▁thinkthin	-11.6897
▁transferred	-11.6897
▁uneven	-11.6897
▁variant	-11.6897
▁westie	-11.6897
▁worthless	-11.6897
▁brit	-11.7019
▁celtic	-11.7019
▁cleansing	-11.7019
▁contest	-11.7019
▁coupled	-11.7019
▁creature	-11.7019
▁culprit	-11.7019
▁disposal	-11.7019
▁dragging	-11.7019
▁gagging	-11.7019
▁gelatinous	-11.7019
▁hardy	-11.7019
▁insisted	-11.7019
▁issued	-11.7019
▁menthol	-11.7019
▁mistakenly	-11.7019
▁moisturized	-11.7019
▁network	-11.7019
▁nozzle	-11.7019
▁pollen	-11.7019
▁prairie	-11.7019
▁relaxation	-11.7019
▁setup	-11.7019
▁skimp	-11.7019
▁smuckers	-11.7019
▁spider	-11.7019
▁stacy	-11.7019
▁straining	-11.7019
▁terra	-11.7019
▁tuscan	-11.7019
▁undoubtedly	-11.7019
▁void	-11.7019
▁volumizing	-11.7019
▁yolk	-11.7019
▁accessible	-11.7141
▁accurately	-11.7141
▁ad	-11.7141
▁apology	-11.7141
▁blonde	-11.7141
▁bulky	-11.7141
▁decorative	-11.7141
▁favored	-11.7141
▁flossies	-11.7141
▁fong	-11.7141
▁fox	-11.7141
▁frother	-11.7141
▁gap	-11.7141
▁golf	-11.7141
▁groat	-11.7141
▁gsd	-11.7141
▁hunk	-11.7141
▁irritating	-11.7141
▁mealy	-11.7141
▁mudslide	-11.7141
▁pennsylvania	-11.7141
▁philippine	-11.7141
▁pollux	-11.7141
▁promoting	-11.7141
▁reddish	-11.7141
▁refreshment	-11.7141
▁renal	-11.7141
▁shepard	-11.7141
▁silicone	-11.7141
▁stare	-11.7141
▁thesis	-11.7141
▁tidy	-11.7141
▁totw	-11.7141
▁tri	-11.7141
▁unwrap	-11.7141
▁yoga	-11.7141
▁yoghurt	-11.7141
▁11g	-11.7266
▁army	-11.7266
▁attach	-11.7266
▁awkward	-11.7266
▁baja	-11.7266
▁chebe	-11.7266
▁coughing	-11.7266
▁darned	-11.7266
▁diagnosis	-11.7266
▁discerning	-11.7266
▁duncan	-11.7266
▁ensures	-11.7266
▁forcing	-11.7266
▁frequency	-11.7266
▁guarana	-11.7266
▁hangover	-11.7266
▁hansen	-11.7266
▁indulgent	-11.7266
▁isolate	-11.7266
▁monounsaturated	-11.7266
▁nuance	-11.7266
▁overcome	-11.7266
▁poland	-11.7266
▁restock	-11.7266
▁revealed	-11.7266
▁rot	-11.7266
▁rug	-11.7266
▁seperate	-11.7266
▁stained	-11.7266
▁stik	-11.7266
▁tame	-11.7266
▁tripe	-11.7266
▁visually	-11.7266
▁weighing	-11.7266
▁20oz	-11.7391
▁adam	-11.7391
▁americano	-11.7391
▁apprehensive	-11.7391
▁attract	-11.7391
▁bht	-11.7391
▁blessed	-11.7391
▁brighter	-11.7391
▁carrier	-11.7391
▁cellulose	-11.7391
▁cobbler	-11.7391
▁dec	-11.7391
▁enhancement	-11.7391
▁euro	-11.7391
▁expedited	-11.7391
▁fastest	-11.7391
▁firmly	-11.7391
▁flatbread	-11.7391
▁gadget	-11.7391
▁graphic	-11.7391
▁hometown	-11.7391
▁hurting	-11.7391
▁icy	-11.7391
▁in	-11.7391
▁incorporated	-11.7391
▁ito	-11.7391
▁layered	-11.7391
▁leap	-11.7391
▁mailing	-11.7391
▁microwaveable	-11.7391
▁muddy	-11.7391
▁officially	-11.7391
▁pharmacy	-11.7391
▁phoenix	-11.7391
▁popularity	-11.7391
▁preface	-11.7391
▁qualifies	-11.7391
▁recover	-11.7391
▁rendang	-11.7391
▁ripoff	-11.7391
▁simplicity	-11.7391
▁sing	-11.7391
▁sipped	-11.7391
▁speaks	-11.7391
▁tamari	-11.7391
▁twisted	-11.7391
▁unbearable	-11.7391
▁unfiltered	-11.7391
▁vehicle	-11.7391
▁venture	-11.7391
▁vigorously	-11.7391
▁wimpy	-11.7391
▁ailment	-11.7519
▁ambrosia	-11.7519
▁awaiting	-11.7519
▁becuase	-11.7519
▁bentley	-11.7519
▁charles	-11.7519
▁checkout	-11.7519
▁clothing	-11.7519
▁collect	-11.7519
▁colombia	-11.7519
▁crockpot	-11.7519
▁detergent	-11.7519
▁exhausted	-11.7519
▁frizz	-11.7519
▁hazlenut	-11.7519
▁indistinguishable	-11.7519
▁matched	-11.7519
▁megafudge	-11.7519
▁minimally	-11.7519
▁moss	-11.7519
▁newest	-11.7519
▁nightly	-11.7519
▁parisian	-11.7519
▁pepperidge	-11.7519
▁performed	-11.7519
▁predominant	-11.7519
▁preferring	-11.7519
▁replied	-11.7519
▁soldier	-11.7519
▁tikka	-11.7519
▁upright	-11.7519
▁weaver	-11.7519
▁accomplish	-11.7648
▁angeles	-11.7648
▁assumption	-11.7648
▁atlanta	-11.7648
▁atleast	-11.7648
▁beating	-11.7648
▁cafeteria	-11.7648
▁chasing	-11.7648
▁claw	-11.7648
▁cleanly	-11.7648
▁cliff	-11.7648
▁colder	-11.7648
▁commitment	-11.7648
▁consequently	-11.7648
▁crew	-11.7648
▁discern	-11.7648
▁dive	-11.7648
▁ekobrew	-11.7648
▁fragment	-11.7648
▁houston	-11.7648
▁huckleberry	-11.7648
▁hydrolyzed	-11.7648
▁inclusion	-11.7648
▁indicating	-11.7648
▁ingested	-11.7648
▁inhaled	-11.7648
▁jane	-11.7648
▁knocking	-11.7648
▁labelled	-11.7648
▁leonidas	-11.7648
▁lifelong	-11.7648
▁milka	-11.7648
▁molecule	-11.7648
▁opaque	-11.7648
▁overflow	-11.7648
▁published	-11.7648
▁punctured	-11.7648
▁reformulated	-11.7648
▁replacer	-11.7648
▁ruby	-11.7648
▁shard	-11.7648
▁shark	-11.7648
▁smarties	-11.7648
▁smear	-11.7648
▁solo	-11.7648
▁song	-11.7648
▁sprouter	-11.7648
▁sweetest	-11.7648
▁swell	-11.7648
▁swing	-11.7648
▁tact	-11.7648
▁tangle	-11.7648
▁text	-11.7648
▁unwrapped	-11.7648
▁viable	-11.7648
▁vice	-11.7648
▁wean	-11.7648
▁wholeheartedly	-11.7648
▁absurd	-11.7779
▁approve	-11.7779
▁baseball	-11.7779
▁borderline	-11.7779
▁chocofudge	-11.7779
▁compostable	-11.7779
▁consequence	-11.7779
▁crunching	-11.7779
▁daycare	-11.7779
▁depression	-11.7779
▁describing	-11.7779
▁disappearing	-11.7779
▁dogfood	-11.7779
▁elevated	-11.7779
▁felidae	-11.7779
▁fireball	-11.7779
▁fulfilling	-11.7779
▁functional	-11.7779
▁hydrating	-11.7779
▁kamut	-11.7779
▁larry	-11.7779
▁laughed	-11.7779
▁leche	-11.7779
▁lingonberry	-11.7779
▁margin	-11.7779
▁newborn	-11.7779
▁operation	-11.7779
▁precisely	-11.7779
▁prevalent	-11.7779
▁recipies	-11.7779
▁refers	-11.7779
▁reused	-11.7779
▁sulfur	-11.7779
▁touching	-11.7779
▁unpalatable	-11.7779
▁uti	-11.7779
▁vitacost	-11.7779
▁yumm	-11.7779
▁airplane	-11.7911
▁beginner	-11.7911
▁birch	-11.7911
▁cardamon	-11.7911
▁cheating	-11.7911
▁cheek	-11.7911
▁corporation	-11.7911
▁creamed	-11.7911
▁dean	-11.7911
▁dependable	-11.7911
▁dixie	-11.7911
▁doberman	-11.7911
▁existed	-11.7911
▁exp	-11.7911
▁explaining	-11.7911
▁grate	-11.7911
▁hive	-11.7911
▁holland	-11.7911
▁homework	-11.7911
▁indiana	-11.7911
▁infestation	-11.7911
▁laced	-11.7911
▁laffy	-11.7911
▁minded	-11.7911
▁mo	-11.7911
▁oro	-11.7911
▁overpoweringly	-11.7911
▁panic	-11.7911
▁premade	-11.7911
▁rec	-11.7911
▁reception	-11.7911
▁reminder	-11.7911
▁replaces	-11.7911
▁saccharine	-11.7911
▁secondary	-11.7911
▁sought	-11.7911
▁stinger	-11.7911
▁temporarily	-11.7911
▁thorough	-11.7911
▁toll	-11.7911
▁travelling	-11.7911
▁unfair	-11.7911
▁wisdom	-11.7911
▁ziti	-11.7911
▁accompany	-11.8045
▁adagio	-11.8045
▁adequately	-11.8045
▁arabic	-11.8045
▁blanket	-11.8045
▁colony	-11.8045
▁complimented	-11.8045
▁consistant	-11.8045
▁creole	-11.8045
▁dalfour	-11.8045
▁fabric	-11.8045
▁firmness	-11.8045
▁formerly	-11.8045
▁fulfill	-11.8045
▁genmaicha	-11.8045
▁george	-11.8045
▁glory	-11.8045
▁gunk	-11.8045
▁jazzed	-11.8045
▁kava	-11.8045
▁keaton	-11.8045
▁leavening	-11.8045
▁lego	-11.8045
▁lend	-11.8045
▁limiting	-11.8045
▁multivitamin	-11.8045
▁optimum	-11.8045
▁padded	-11.8045
▁pencil	-11.8045
▁peri	-11.8045
▁realy	-11.8045
▁resembling	-11.8045
▁rewarded	-11.8045
▁scattered	-11.8045
▁shoppe	-11.8045
▁sift	-11.8045
▁spatula	-11.8045
▁sprayer	-11.8045
▁staining	-11.8045
▁stonewall	-11.8045
▁tenderloin	-11.8045
▁uploaded	-11.8045
▁whirley	-11.8045
▁writes	-11.8045
▁agar	-11.8181
▁allot	-11.8181
▁altitude	-11.8181
▁amoretti	-11.8181
▁bead	-11.8181
▁blackcurrant	-11.8181
▁breastfed	-11.8181
▁breville	-11.8181
▁brie	-11.8181
▁bust	-11.8181
▁cavalier	-11.8181
▁closure	-11.8181
▁composition	-11.8181
▁controlling	-11.8181
▁demanding	-11.8181
▁entertain	-11.8181
▁existence	-11.8181
▁gfcf	-11.8181
▁gimmick	-11.8181
▁gnawing	-11.8181
▁honeybush	-11.8181
▁jus	-11.8181
▁kiddos	-11.8181
▁krispie	-11.8181
▁mae	-11.8181
▁mealtime	-11.8181
▁mode	-11.8181
▁mononitrate	-11.8181
▁neon	-11.8181
▁nest	-11.8181
▁responsive	-11.8181
▁saccharin	-11.8181
▁saut	-11.8181
▁scooped	-11.8181
▁seat	-11.8181
▁snapped	-11.8181
▁someday	-11.8181
▁starburst	-11.8181
▁sustain	-11.8181
▁teff	-11.8181
▁trading	-11.8181
▁upcoming	-11.8181
▁valerian	-11.8181
▁versatility	-11.8181
▁whitefish	-11.8181
▁airline	-11.8319
▁alpha	-11.8319
▁atop	-11.8319
▁bai	-11.8319
▁buried	-11.8319
▁butcher	-11.8319
▁cage	-11.8319
▁chipped	-11.8319
▁circumstance	-11.8319
▁damaging	-11.8319
▁davis	-11.8319
▁debate	-11.8319
▁debris	-11.8319
▁designer	-11.8319
▁driven	-11.8319
▁dubious	-11.8319
▁dumb	-11.8319
▁eboost	-11.8319
▁evaluate	-11.8319
▁faux	-11.8319
▁feather	-11.8319
▁firstly	-11.8319
▁flowing	-11.8319
▁hesitated	-11.8319
▁inn	-11.8319
▁kongs	-11.8319
▁lifting	-11.8319
▁loosing	-11.8319
▁macchiato	-11.8319
▁molar	-11.8319
▁nylon	-11.8319
▁osmosis	-11.8319
▁reeses	-11.8319
▁rewarding	-11.8319
▁savoring	-11.8319
▁skipped	-11.8319
▁smack	-11.8319
▁squished	-11.8319
▁subtly	-11.8319
▁vegies	-11.8319
▁wegmans	-11.8319
▁wholefoods	-11.8319
▁zhena	-11.8319
▁abundant	-11.8459
▁bil	-11.8459
▁boo	-11.8459
▁carafe	-11.8459
▁charger	-11.8459
▁co2	-11.8459
▁cozy	-11.8459
▁dashi	-11.8459
▁delicately	-11.8459
▁denser	-11.8459
▁destroys	-11.8459
▁fajitas	-11.8459
▁fired	-11.8459
▁floss	-11.8459
▁heartland	-11.8459
▁hungarian	-11.8459
▁incorrectly	-11.8459
▁infuse	-11.8459
▁kinder	-11.8459
▁lush	-11.8459
▁mason	-11.8459
▁miami	-11.8459
▁minestrone	-11.8459
▁nonsense	-11.8459
▁ouch	-11.8459
▁president	-11.8459
▁prof	-11.8459
▁purchaser	-11.8459
▁reheated	-11.8459
▁responsibility	-11.8459
▁salba	-11.8459
▁scratcher	-11.8459
▁sel	-11.8459
▁simmered	-11.8459
▁spicing	-11.8459
▁spirulina	-11.8459
▁stacked	-11.8459
▁stunned	-11.8459
▁sufferer	-11.8459
▁swears	-11.8459
▁upgraded	-11.8459
▁wegman	-11.8459
▁wok	-11.8459
▁wrigley	-11.8459
▁alleviate	-11.8601
▁alongside	-11.8601
▁appliance	-11.8601
▁array	-11.8601
▁bouncy	-11.8601
▁channel	-11.8601
▁choo	-11.8601
▁commit	-11.8601
▁cracking	-11.8601
▁crisper	-11.8601
▁cuban	-11.8601
▁cv	-11.8601
▁defined	-11.8601
▁defrost	-11.8601
▁dyed	-11.8601
▁encouraged	-11.8601
▁endangered	-11.8601
▁exceeds	-11.8601
▁freely	-11.8601
▁guard	-11.8601
▁hagen	-11.8601
▁harbor	-11.8601
▁huy	-11.8601
▁iraq	-11.8601
▁irritable	-11.8601
▁jeremiah	-11.8601
▁kellog	-11.8601
▁lansinoh	-11.8601
▁liqueur	-11.8601
▁magnificent	-11.8601
▁masked	-11.8601
▁mislead	-11.8601
▁mojitos	-11.8601
▁monde	-11.8601
▁noticable	-11.8601
▁pringles	-11.8601
▁prohibitive	-11.8601
▁register	-11.8601
▁represented	-11.8601
▁requesting	-11.8601
▁rio	-11.8601
▁scallion	-11.8601
▁security	-11.8601
▁server	-11.8601
▁sheltie	-11.8601
▁sixty	-11.8601
▁skeptic	-11.8601
▁sleek	-11.8601
▁softens	-11.8601
▁soothes	-11.8601
▁stevita	-11.8601
▁strained	-11.8601
▁switzerland	-11.8601
▁tended	-11.8601
▁thunder	-11.8601
▁underlying	-11.8601
▁variable	-11.8601
▁assist	-11.8745
▁beefy	-11.8745
▁boosting	-11.8745
▁clarify	-11.8745
▁colander	-11.8745
▁confuse	-11.8745
▁dehydration	-11.8745
▁desperately	-11.8745
▁discolored	-11.8745
▁enthusiastically	-11.8745
▁escargot	-11.8745
▁fleck	-11.8745
▁footprint	-11.8745
▁fuji	-11.8745
▁fungus	-11.8745
▁funnel	-11.8745
▁gingersnap	-11.8745
▁hartz	-11.8745
▁nibbling	-11.8745
▁nutri	-11.8745
▁oops	-11.8745
▁pail	-11.8745
▁paragon	-11.8745
▁peachy	-11.8745
▁pore	-11.8745
▁precise	-11.8745
▁pristine	-11.8745
▁regional	-11.8745
▁removal	-11.8745
▁savored	-11.8745
▁sinful	-11.8745
▁snappy	-11.8745
▁solofill	-11.8745
▁spell	-11.8745
▁stroke	-11.8745
▁subsequently	-11.8745
▁suger	-11.8745
▁sustained	-11.8745
▁tolerated	-11.8745
▁triangle	-11.8745
▁triglyceride	-11.8745
▁wabash	-11.8745
▁warms	-11.8745
▁whilst	-11.8745
▁wore	-11.8745
▁bailey	-11.8891
▁brunch	-11.8891
▁cocaine	-11.8891
▁crushing	-11.8891
▁distribute	-11.8891
▁dreaded	-11.8891
▁dreadful	-11.8891
▁echinacea	-11.8891
▁enhancing	-11.8891
▁existing	-11.8891
▁glow	-11.8891
▁heartbeat	-11.8891
▁hextra	-11.8891
▁highland	-11.8891
▁horrified	-11.8891
▁ick	-11.8891
▁importance	-11.8891
▁ing	-11.8891
▁krispy	-11.8891
▁lakewood	-11.8891
▁loa	-11.8891
▁marginally	-11.8891
▁mastiff	-11.8891
▁mike	-11.8891
▁mimic	-11.8891
▁nourishment	-11.8891
▁nov	-11.8891
▁plugged	-11.8891
▁polished	-11.8891
▁proceeds	-11.8891
▁proflowers	-11.8891
▁pyridoxine	-11.8891
▁radical	-11.8891
▁receives	-11.8891
▁rendered	-11.8891
▁salmonella	-11.8891
▁sauteing	-11.8891
▁sickening	-11.8891
▁sluggish	-11.8891
▁stout	-11.8891
▁stranger	-11.8891
▁sweating	-11.8891
▁tendon	-11.8891
▁tout	-11.8891
▁vernor	-11.8891
▁village	-11.8891
▁weary	-11.8891
▁yumminess	-11.8891
▁yup	-11.8891
▁absence	-11.9039
▁attachment	-11.9039
▁backed	-11.9039
▁beforehand	-11.9039
▁brach	-11.9039
▁cafix	-11.9039
▁certification	-11.9039
▁commute	-11.9039
▁controversial	-11.9039
▁critic	-11.9039
▁dallas	-11.9039
▁deviled	-11.9039
▁faulty	-11.9039
▁grapeseed	-11.9039
▁icecream	-11.9039
▁intensive	-11.9039
▁irritate	-11.9039
▁jac	-11.9039
▁kenyan	-11.9039
▁makeup	-11.9039
▁marinating	-11.9039
▁mauna	-11.9039
▁meatless	-11.9039
▁niche	-11.9039
▁noisy	-11.9039
▁nuttiness	-11.9039
▁oberto	-11.9039
▁overdone	-11.9039
▁patio	-11.9039
▁payday	-11.9039
▁pep	-11.9039
▁personality	-11.9039
▁peruvian	-11.9039
▁polyunsaturated	-11.9039
▁pond	-11.9039
▁potatoe	-11.9039
▁premier	-11.9039
▁princess	-11.9039
▁prop	-11.9039
▁provence	-11.9039
▁radish	-11.9039
▁refusing	-11.9039
▁riding	-11.9039
▁rod	-11.9039
▁saliva	-11.9039
▁seep	-11.9039
▁shallot	-11.9039
▁shampooing	-11.9039
▁silicon	-11.9039
▁snyder	-11.9039
▁stake	-11.9039
▁structure	-11.9039
▁tennessee	-11.9039
▁tuck	-11.9039
▁vietnam	-11.9039
▁absent	-11.9189
▁acrid	-11.9189
▁aeropress	-11.9189
▁affair	-11.9189
▁alton	-11.9189
▁ben	-11.9189
▁bouncing	-11.9189
▁brave	-11.9189
▁climb	-11.9189
▁confectioner	-11.9189
▁crispier	-11.9189
▁decidedly	-11.9189
▁ding	-11.9189
▁disadvantage	-11.9189
▁discussion	-11.9189
▁disintegrate	-11.9189
▁entertainment	-11.9189
▁errand	-11.9189
▁expressed	-11.9189
▁festival	-11.9189
▁file	-11.9189
▁fondue	-11.9189
▁freshener	-11.9189
▁gentlease	-11.9189
▁grittiness	-11.9189
▁heb	-11.9189
▁homestyle	-11.9189
▁identifiable	-11.9189
▁identified	-11.9189
▁illinois	-11.9189
▁inserted	-11.9189
▁kansa	-11.9189
▁linguine	-11.9189
▁marie	-11.9189
▁maryland	-11.9189
▁negligible	-11.9189
▁newspaper	-11.9189
▁nifty	-11.9189
▁oct	-11.9189
▁organized	-11.9189
▁pellegrino	-11.9189
▁poptarts	-11.9189
▁portability	-11.9189
▁postal	-11.9189
▁potting	-11.9189
▁pulverized	-11.9189
▁reacts	-11.9189
▁reflects	-11.9189
▁rehydrated	-11.9189
▁snacker	-11.9189
▁solvent	-11.9189
▁spa	-11.9189
▁splendid	-11.9189
▁squid	-11.9189
▁squishy	-11.9189
▁survival	-11.9189
▁symbol	-11.9189
▁thomas	-11.9189
▁tour	-11.9189
▁understatement	-11.9189
▁universal	-11.9189
▁vue	-11.9189
▁worthington	-11.9189
▁20g	-11.9342
▁abroad	-11.9342
▁acana	-11.9342
▁albanese	-11.9342
▁alertness	-11.9342
▁aloha	-11.9342
▁avoids	-11.9342
▁barn	-11.9342
▁beta	-11.9342
▁brownish	-11.9342
▁cholula	-11.9342
▁cling	-11.9342
▁clinic	-11.9342
▁collar	-11.9342
▁creator	-11.9342
▁dandelion	-11.9342
▁deserved	-11.9342
▁donating	-11.9342
▁dressed	-11.9342
▁eyed	-11.9342
▁fluoride	-11.9342
▁fr	-11.9342
▁fred	-11.9342
▁gather	-11.9342
▁homegrown	-11.9342
▁inspected	-11.9342
▁involves	-11.9342
▁jimmy	-11.9342
▁mein	-11.9342
▁meringue	-11.9342
▁mi	-11.9342
▁minnesota	-11.9342
▁monte	-11.9342
▁notification	-11.9342
▁odds	-11.9342
▁output	-11.9342
▁pathetic	-11.9342
▁peets	-11.9342
▁pm	-11.9342
▁pounce	-11.9342
▁prayer	-11.9342
▁richest	-11.9342
▁ritter	-11.9342
▁rootbeer	-11.9342
▁separating	-11.9342
▁sir	-11.9342
▁slicing	-11.9342
▁smallish	-11.9342
▁sounding	-11.9342
▁spec	-11.9342
▁spoiling	-11.9342
▁tale	-11.9342
▁tech	-11.9342
▁thickened	-11.9342
▁truthfully	-11.9342
▁typing	-11.9342
▁undesirable	-11.9342
▁vigorous	-11.9342
▁wired	-11.9342
▁absorption	-11.9497
▁addressed	-11.9497
▁admitted	-11.9497
▁approaching	-11.9497
▁babycook	-11.9497
▁bearable	-11.9497
▁capresso	-11.9497
▁chorizo	-11.9497
▁compleats	-11.9497
▁consult	-11.9497
▁cottonseed	-11.9497
▁debating	-11.9497
▁delayed	-11.9497
▁devouring	-11.9497
▁distracted	-11.9497
▁dominate	-11.9497
▁eclipse	-11.9497
▁emergen	-11.9497
▁faded	-11.9497
▁festive	-11.9497
▁fund	-11.9497
▁garlicky	-11.9497
▁gigantic	-11.9497
▁graduate	-11.9497
▁gran	-11.9497
▁grandfather	-11.9497
▁guayaki	-11.9497
▁handing	-11.9497
▁hines	-11.9497
▁hurricane	-11.9497
▁ideally	-11.9497
▁influence	-11.9497
▁insult	-11.9497
▁intriguing	-11.9497
▁juniper	-11.9497
▁lessen	-11.9497
▁melamine	-11.9497
▁melty	-11.9497
▁meyer	-11.9497
▁moisturize	-11.9497
▁notable	-11.9497
▁okra	-11.9497
▁peanutty	-11.9497
▁phrase	-11.9497
▁protecting	-11.9497
▁proteinate	-11.9497
▁puke	-11.9497
▁schar	-11.9497
▁selenium	-11.9497
▁signing	-11.9497
▁similiar	-11.9497
▁sneaking	-11.9497
▁stench	-11.9497
▁succulent	-11.9497
▁teddy	-11.9497
▁transparent	-11.9497
▁ubiquitous	-11.9497
▁verified	-11.9497
▁warrant	-11.9497
▁yunnan	-11.9497
▁amp	-11.9655
▁atomic	-11.9655
▁audience	-11.9655
▁benzoate	-11.9655
▁bionaturae	-11.9655
▁boba	-11.9655
▁brat	-11.9655
▁campaign	-11.9655
▁chondroitin	-11.9655
▁coarser	-11.9655
▁colic	-11.9655
▁decaffinated	-11.9655
▁deficiency	-11.9655
▁deposit	-11.9655
▁develops	-11.9655
▁discernable	-11.9655
▁dismayed	-11.9655
▁doc	-11.9655
▁doubling	-11.9655
▁explore	-11.9655
▁federal	-11.9655
▁fleur	-11.9655
▁greedy	-11.9655
▁grin	-11.9655
▁heritage	-11.9655
▁induced	-11.9655
▁intent	-11.9655
▁koolaid	-11.9655
▁legged	-11.9655
▁matzo	-11.9655
▁menadione	-11.9655
▁metromint	-11.9655
▁mignon	-11.9655
▁moister	-11.9655
▁moo	-11.9655
▁multitude	-11.9655
▁nog	-11.9655
▁out	-11.9655
▁peru	-11.9655
▁photograph	-11.9655
▁problematic	-11.9655
▁proceed	-11.9655
▁prompted	-11.9655
▁quenches	-11.9655
▁raven	-11.9655
▁religiously	-11.9655
▁ripened	-11.9655
▁robusta	-11.9655
▁rottweiler	-11.9655
▁scarfed	-11.9655
▁sibling	-11.9655
▁skyline	-11.9655
▁slam	-11.9655
▁slick	-11.9655
▁smores	-11.9655
▁sting	-11.9655
▁subtlety	-11.9655
▁teaching	-11.9655
▁teacup	-11.9655
▁thereby	-11.9655
▁tinge	-11.9655
▁titanium	-11.9655
▁tweak	-11.9655
▁veterinary	-11.9655
▁vino	-11.9655
▁yummyearth	-11.9655
▁anticipate	-11.9815
▁argument	-11.9815
▁bacterial	-11.9815
▁bearing	-11.9815
▁boylan	-11.9815
▁bubblegum	-11.9815
▁bus	-11.9815
▁candida	-11.9815
▁champion	-11.9815
▁citizen	-11.9815
▁citrusy	-11.9815
▁clarity	-11.9815
▁considers	-11.9815
▁distant	-11.9815
▁dulce	-11.9815
▁exclusive	-11.9815
▁fixture	-11.9815
▁flare	-11.9815
▁flavacol	-11.9815
▁fruitiness	-11.9815
▁habaneros	-11.9815
▁hue	-11.9815
▁joined	-11.9815
▁mackerel	-11.9815
▁modification	-11.9815
▁nitrate	-11.9815
▁organism	-11.9815
▁outing	-11.9815
▁pitbull	-11.9815
▁pleaser	-11.9815
▁puerto	-11.9815
▁puncture	-11.9815
▁qualified	-11.9815
▁racing	-11.9815
▁relation	-11.9815
▁residual	-11.9815
▁shocking	-11.9815
▁silica	-11.9815
▁similarity	-11.9815
▁smash	-11.9815
▁span	-11.9815
▁spoilage	-11.9815
▁stimulating	-11.9815
▁sunset	-11.9815
▁tabby	-11.9815
▁unimpressed	-11.9815
▁upc	-11.9815
▁utter	-11.9815
▁wally	-11.9815
▁yamamotoyama	-11.9815
▁absolutly	-11.9977
▁advertized	-11.9977
▁alaskan	-11.9977
▁apiece	-11.9977
▁appetit	-11.9977
▁appreciates	-11.9977
▁blanc	-11.9977
▁boullion	-11.9977
▁cascadian	-11.9977
▁cofee	-11.9977
▁daisy	-11.9977
▁deadly	-11.9977
▁decorated	-11.9977
▁defense	-11.9977
▁defiantly	-11.9977
▁definatly	-11.9977
▁dependent	-11.9977
▁detract	-11.9977
▁diluting	-11.9977
▁embarrassing	-11.9977
▁emphasize	-11.9977
▁feces	-11.9977
▁financial	-11.9977
▁frost	-11.9977
▁gear	-11.9977
▁grandpa	-11.9977
▁hardware	-11.9977
▁hong	-11.9977
▁hoo	-11.9977
▁irregular	-11.9977
▁lea	-11.9977
▁llc	-11.9977
▁lou	-11.9977
▁marriage	-11.9977
▁navy	-11.9977
▁platinum	-11.9977
▁pose	-11.9977
▁pry	-11.9977
▁rear	-11.9977
▁respectable	-11.9977
▁roca	-11.9977
▁rotting	-11.9977
▁selecting	-11.9977
▁sorbet	-11.9977
▁stealing	-11.9977
▁surpasses	-11.9977
▁swill	-11.9977
▁thoughtful	-11.9977
▁transported	-11.9977
▁tucked	-11.9977
▁universe	-11.9977
▁unsuspecting	-11.9977
▁veal	-11.9977
▁wag	-11.9977
▁warhead	-11.9977
▁welcomed	-11.9977
▁zipfizz	-11.9977
▁10th	-12.0142
▁adobo	-12.0142
▁apologize	-12.0142
▁aspertame	-12.0142
▁autism	-12.0142
▁bind	-12.0142
▁bistro	-12.0142
▁brussels	-12.0142
▁cancelling	-12.0142
▁choclate	-12.0142
▁clinical	-12.0142
▁disodium	-12.0142
▁durkee	-12.0142
▁engineered	-12.0142
▁erin	-12.0142
▁ezekiel	-12.0142
▁faintly	-12.0142
▁flag	-12.0142
▁healed	-12.0142
▁highway	-12.0142
▁humane	-12.0142
▁inevitably	-12.0142
▁ironically	-12.0142
▁jacket	-12.0142
▁lace	-12.0142
▁leash	-12.0142
▁louis	-12.0142
▁lugging	-12.0142
▁madhava	-12.0142
▁masterpiece	-12.0142
▁muted	-12.0142
▁negatively	-12.0142
▁nitrite	-12.0142
▁observed	-12.0142
▁palak	-12.0142
▁paradise	-12.0142
▁platter	-12.0142
▁plea	-12.0142
▁pleasurable	-12.0142
▁pole	-12.0142
▁recovered	-12.0142
▁rectangle	-12.0142
▁reed	-12.0142
▁relaxes	-12.0142
▁resembled	-12.0142
▁segment	-12.0142
▁shudder	-12.0142
▁skipping	-12.0142
▁solves	-12.0142
▁specialist	-12.0142
▁stride	-12.0142
▁swig	-12.0142
▁utilize	-12.0142
▁vinturi	-12.0142
▁acv	-12.0311
▁aero	-12.0311
▁beast	-12.0311
▁bella	-12.0311
▁binge	-12.0311
▁blockage	-12.0311
▁bonkers	-12.0311
▁cecco	-12.0311
▁collector	-12.0311
▁composed	-12.0311
▁congestion	-12.0311
▁consisted	-12.0311
▁cried	-12.0311
▁cylinder	-12.0311
▁depot	-12.0311
▁disturbing	-12.0311
▁drool	-12.0311
▁elderberry	-12.0311
▁elk	-12.0311
▁entice	-12.0311
▁expects	-12.0311
▁exploring	-12.0311
▁faithful	-12.0311
▁farther	-12.0311
▁gifted	-12.0311
▁gnocchi	-12.0311
▁goodie	-12.0311
▁haired	-12.0311
▁halva	-12.0311
▁iam	-12.0311
▁inform	-12.0311
▁lane	-12.0311
▁luna	-12.0311
▁maggi	-12.0311
▁magically	-12.0311
▁modify	-12.0311
▁morton	-12.0311
▁necco	-12.0311
▁pounder	-12.0311
▁recomended	-12.0311
▁reconsider	-12.0311
▁redbull	-12.0311
▁refresh	-12.0311
▁saf	-12.0311
▁shallow	-12.0311
▁shortcake	-12.0311
▁shove	-12.0311
▁stave	-12.0311
▁taller	-12.0311
▁television	-12.0311
▁thistle	-12.0311
▁tiniest	-12.0311
▁tracked	-12.0311
▁troop	-12.0311
▁unaware	-12.0311
▁valrhona	-12.0311
▁virus	-12.0311
▁whoa	-12.0311
▁wildly	-12.0311
▁accompanying	-12.0481
▁adhesive	-12.0481
▁algae	-12.0481
▁attributed	-12.0481
▁bali	-12.0481
▁bavarian	-12.0481
▁billed	-12.0481
▁bingo	-12.0481
▁brace	-12.0481
▁browning	-12.0481
▁brussel	-12.0481
▁celebrate	-12.0481
▁cesar	-12.0481
▁chemo	-12.0481
▁classify	-12.0481
▁clogging	-12.0481
▁commissary	-12.0481
▁comparatively	-12.0481
▁cultured	-12.0481
▁decides	-12.0481
▁denmark	-12.0481
▁economic	-12.0481
▁egyptian	-12.0481
▁elated	-12.0481
▁evolution	-12.0481
▁extensively	-12.0481
▁ferrara	-12.0481
▁gooseberry	-12.0481
▁honeysuckle	-12.0481
▁investing	-12.0481
▁judgement	-12.0481
▁listmania	-12.0481
▁namely	-12.0481
▁paella	-12.0481
▁promo	-12.0481
▁refilling	-12.0481
▁remarked	-12.0481
▁scant	-12.0481
▁shave	-12.0481
▁shriveled	-12.0481
▁silken	-12.0481
▁singing	-12.0481
▁subscriber	-12.0481
▁suggesting	-12.0481
▁supervision	-12.0481
▁swheat	-12.0481
▁topic	-12.0481
▁tortellini	-12.0481
▁underwhelmed	-12.0481
▁varities	-12.0481
▁vision	-12.0481
▁whew	-12.0481
▁wording	-12.0481
▁yakisoba	-12.0481
▁anticipating	-12.0655
▁authority	-12.0655
▁baldwin	-12.0655
▁breastfeed	-12.0655
▁brisling	-12.0655
▁cape	-12.0655
▁chime	-12.0655
▁chopping	-12.0655
▁classy	-12.0655
▁clearer	-12.0655
▁collard	-12.0655
▁constructed	-12.0655
▁contributes	-12.0655
▁deceived	-12.0655
▁devastated	-12.0655
▁discriminating	-12.0655
▁dole	-12.0655
▁doughy	-12.0655
▁failing	-12.0655
▁fullness	-12.0655
▁gaggia	-12.0655
▁grossed	-12.0655
▁hilarious	-12.0655
▁hum	-12.0655
▁hybrid	-12.0655
▁innovative	-12.0655
▁installed	-12.0655
▁intoxicating	-12.0655
▁jordan	-12.0655
▁lara	-12.0655
▁limb	-12.0655
▁loading	-12.0655
▁locked	-12.0655
▁luggage	-12.0655
▁lukewarm	-12.0655
▁mainstay	-12.0655
▁malic	-12.0655
▁molded	-12.0655
▁nasal	-12.0655
▁nicest	-12.0655
▁overlook	-12.0655
▁peaceful	-12.0655
▁plato	-12.0655
▁radiation	-12.0655
▁refrigerating	-12.0655
▁remover	-12.0655
▁restrict	-12.0655
▁scallop	-12.0655
▁sensational	-12.0655
▁skunk	-12.0655
▁sooooooo	-12.0655
▁stripe	-12.0655
▁studied	-12.0655
▁tiramisu	-12.0655
▁tolerates	-12.0655
▁uniformly	-12.0655
▁upwards	-12.0655
▁wagging	-12.0655
▁wakame	-12.0655
▁wavy	-12.0655
▁werther	-12.0655
▁wierd	-12.0655
▁1200	-12.0832
▁absorbing	-12.0832
▁accompanied	-12.0832
▁ammonia	-12.0832
▁apt	-12.0832
▁bitten	-12.0832
▁bleu	-12.0832
▁britain	-12.0832
▁cactus	-12.0832
▁chantea	-12.0832
▁contributing	-12.0832
▁coop	-12.0832
▁cowboy	-12.0832
▁cringe	-12.0832
▁curve	-12.0832
▁cutlet	-12.0832
▁dealt	-12.0832
▁discourage	-12.0832
▁discus	-12.0832
▁engine	-12.0832
▁era	-12.0832
▁estrogen	-12.0832
▁exaggeration	-12.0832
▁exam	-12.0832
▁faced	-12.0832
▁fancier	-12.0832
▁flexibility	-12.0832
▁foodstuff	-12.0832
▁genmai	-12.0832
▁incentive	-12.0832
▁inconsistency	-12.0832
▁indonesian	-12.0832
▁inducing	-12.0832
▁lethargic	-12.0832
▁lhasa	-12.0832
▁likewise	-12.0832
▁lodge	-12.0832
▁meijer	-12.0832
▁merlot	-12.0832
▁mesquite	-12.0832
▁mex	-12.0832
▁mylar	-12.0832
▁nuttier	-12.0832
▁pang	-12.0832
▁papillon	-12.0832
▁pause	-12.0832
▁permanently	-12.0832
▁portioned	-12.0832
▁quanity	-12.0832
▁recreate	-12.0832
▁redeeming	-12.0832
▁reheating	-12.0832
▁repackaged	-12.0832
▁researcher	-12.0832
▁robert	-12.0832
▁roni	-12.0832
▁rusk	-12.0832
▁saco	-12.0832
▁sahale	-12.0832
▁shiitake	-12.0832
▁slipped	-12.0832
▁snake	-12.0832
▁snapper	-12.0832
▁spends	-12.0832
▁stepped	-12.0832
▁stripped	-12.0832
▁stunning	-12.0832
▁suprise	-12.0832
▁tahitian	-12.0832
▁toothbrush	-12.0832
▁typhoo	-12.0832
▁utensil	-12.0832
▁yellowish	-12.0832
▁actively	-12.1013
▁agency	-12.1013
▁alzheimer	-12.1013
▁anxiously	-12.1013
▁argentina	-12.1013
▁baconnaise	-12.1013
▁bergin	-12.1013
▁binder	-12.1013
▁biotin	-12.1013
▁briefcase	-12.1013
▁butterfinger	-12.1013
▁capable	-12.1013
▁cartoon	-12.1013
▁celebration	-12.1013
▁charlie	-12.1013
▁cleanser	-12.1013
▁coconutty	-12.1013
▁competitively	-12.1013
▁complains	-12.1013
▁crispies	-12.1013
▁dancing	-12.1013
▁duped	-12.1013
▁enemy	-12.1013
▁expression	-12.1013
▁finn	-12.1013
▁flavourful	-12.1013
▁forgiving	-12.1013
▁frothed	-12.1013
▁genetic	-12.1013
▁gypsy	-12.1013
▁hamilton	-12.1013
▁honeycomb	-12.1013
▁hugely	-12.1013
▁infested	-12.1013
▁kal	-12.1013
▁leary	-12.1013
▁lickin	-12.1013
▁litterbox	-12.1013
▁moisten	-12.1013
▁nursery	-12.1013
▁objectionable	-12.1013
▁overjoyed	-12.1013
▁overkill	-12.1013
▁perked	-12.1013
▁piping	-12.1013
▁plague	-12.1013
▁poisonous	-12.1013
▁preschool	-12.1013
▁prickly	-12.1013
▁recovering	-12.1013
▁reminding	-12.1013
▁rossa	-12.1013
▁rude	-12.1013
▁sarsaparilla	-12.1013
▁spark	-12.1013
▁starve	-12.1013
▁stashed	-12.1013
▁stickiness	-12.1013
▁sunkist	-12.1013
▁swim	-12.1013
▁thrill	-12.1013
▁tingling	-12.1013
▁trek	-12.1013
▁tropic	-12.1013
▁willingly	-12.1013
▁withstand	-12.1013
▁wonka	-12.1013
▁writer	-12.1013
▁ziwipeak	-12.1013
▁achieved	-12.1196
▁alimentum	-12.1196
▁annoyance	-12.1196
▁blu	-12.1196
▁broil	-12.1196
▁camano	-12.1196
▁capsaicin	-12.1196
▁chewey	-12.1196
▁clicked	-12.1196
▁conditioned	-12.1196
▁consensus	-12.1196
▁corned	-12.1196
▁crispiness	-12.1196
▁crystalized	-12.1196
▁default	-12.1196
▁disclose	-12.1196
▁doctored	-12.1196
▁elimination	-12.1196
▁elite	-12.1196
▁endorse	-12.1196
▁expanded	-12.1196
▁fettuccine	-12.1196
▁flattened	-12.1196
▁flavonoid	-12.1196
▁flew	-12.1196
▁frappuccino	-12.1196
▁frugal	-12.1196
▁gentleman	-12.1196
▁goodbye	-12.1196
▁gras	-12.1196
▁hectic	-12.1196
▁hero	-12.1196
▁income	-12.1196
▁indefinitely	-12.1196
▁insipid	-12.1196
▁israeli	-12.1196
▁italiano	-12.1196
▁jerry	-12.1196
▁kindle	-12.1196
▁korma	-12.1196
▁leach	-12.1196
▁logic	-12.1196
▁lozenge	-12.1196
▁mentally	-12.1196
▁miraculous	-12.1196
▁nauseating	-12.1196
▁nuff	-12.1196
▁operate	-12.1196
▁passionfruit	-12.1196
▁polite	-12.1196
▁proprietary	-12.1196
▁queasy	-12.1196
▁quesadilla	-12.1196
▁remnant	-12.1196
▁respectively	-12.1196
▁revolting	-12.1196
▁romano	-12.1196
▁soccer	-12.1196
▁speciality	-12.1196
▁splitting	-12.1196
▁stroganoff	-12.1196
▁stubborn	-12.1196
▁swap	-12.1196
▁swelling	-12.1196
▁tam	-12.1196
▁thiamin	-12.1196
▁untouched	-12.1196
▁warranty	-12.1196
▁weaning	-12.1196
▁zap	-12.1196
▁alkali	-12.1383
▁ann	-12.1383
▁apo	-12.1383
▁appointment	-12.1383
▁balancing	-12.1383
▁beneath	-12.1383
▁biggie	-12.1383
▁bodum	-12.1383
▁bothering	-12.1383
▁breaded	-12.1383
▁brisk	-12.1383
▁cabin	-12.1383
▁canyon	-12.1383
▁catsup	-12.1383
▁chamber	-12.1383
▁circular	-12.1383
▁controversy	-12.1383
▁cordial	-12.1383
▁craze	-12.1383
▁darkest	-12.1383
▁digress	-12.1383
▁distraction	-12.1383
▁drown	-12.1383
▁edward	-12.1383
▁exorbitant	-12.1383
▁fantastically	-12.1383
▁fiesta	-12.1383
▁fluffier	-12.1383
▁fungal	-12.1383
▁gene	-12.1383
▁griddle	-12.1383
▁healthwise	-12.1383
▁hunter	-12.1383
▁input	-12.1383
▁investigate	-12.1383
▁invigorating	-12.1383
▁jalepeno	-12.1383
▁joyva	-12.1383
▁kay	-12.1383
▁landed	-12.1383
▁lineup	-12.1383
▁liven	-12.1383
▁marrow	-12.1383
▁maxx	-12.1383
▁musketeer	-12.1383
▁obese	-12.1383
▁pastel	-12.1383
▁patent	-12.1383
▁performs	-12.1383
▁pointing	-12.1383
▁purest	-12.1383
▁pyrex	-12.1383
▁reliably	-12.1383
▁represents	-12.1383
▁reserved	-12.1383
▁ruth	-12.1383
▁sause	-12.1383
▁selective	-12.1383
▁sen	-12.1383
▁shattered	-12.1383
▁skimpy	-12.1383
▁staring	-12.1383
▁stewart	-12.1383
▁straightforward	-12.1383
▁supplemented	-12.1383
▁surf	-12.1383
▁tasts	-12.1383
▁trimmed	-12.1383
▁unadulterated	-12.1383
▁unclear	-12.1383
▁unexpectedly	-12.1383
▁verbena	-12.1383
▁vivid	-12.1383
▁wiped	-12.1383
▁0gcholesterol	-12.1573
▁appalled	-12.1573
▁appealed	-12.1573
▁applaud	-12.1573
▁baklava	-12.1573
▁bitty	-12.1573
▁bloat	-12.1573
▁boiler	-12.1573
▁boysenberry	-12.1573
▁breakout	-12.1573
▁conclude	-12.1573
▁conducted	-12.1573
▁cooper	-12.1573
▁cornflakes	-12.1573
▁craisins	-12.1573
▁cycling	-12.1573
▁delonghi	-12.1573
▁dentyne	-12.1573
▁diminished	-12.1573
▁disappoints	-12.1573
▁distinction	-12.1573
▁doctoring	-12.1573
▁downing	-12.1573
▁drowsy	-12.1573
▁duration	-12.1573
▁expeller	-12.1573
▁fetch	-12.1573
▁flan	-12.1573
▁fluctuate	-12.1573
▁harissa	-12.1573
▁harvey	-12.1573
▁hmmmm	-12.1573
▁hoisin	-12.1573
▁hugger	-12.1573
▁iffy	-12.1573
▁invited	-12.1573
▁junior	-12.1573
▁knob	-12.1573
▁leafy	-12.1573
▁legume	-12.1573
▁marking	-12.1573
▁meowing	-12.1573
▁myriad	-12.1573
▁nickel	-12.1573
▁nutricity	-12.1573
▁oskri	-12.1573
▁oxide	-12.1573
▁pal	-12.1573
▁pantene	-12.1573
▁pkgs	-12.1573
▁pumpernickel	-12.1573
▁reacted	-12.1573
▁regularity	-12.1573
▁remark	-12.1573
▁reveal	-12.1573
▁rico	-12.1573
▁sentence	-12.1573
▁sinfully	-12.1573
▁skinner	-12.1573
▁sneaky	-12.1573
▁southwestern	-12.1573
▁stephen	-12.1573
▁subdued	-12.1573
▁translate	-12.1573
▁translates	-12.1573
▁tune	-12.1573
▁umami	-12.1573
▁unsatisfied	-12.1573
▁unsealed	-12.1573
▁vessel	-12.1573
▁vial	-12.1573
▁weekday	-12.1573
▁whisky	-12.1573
▁worldwide	-12.1573
▁wysong	-12.1573
▁accessory	-12.1768
▁accidently	-12.1768
▁acre	-12.1768
▁affecting	-12.1768
▁amazement	-12.1768
▁avenue	-12.1768
▁beetle	-12.1768
▁beggin	-12.1768
▁beige	-12.1768
▁bff	-12.1768
▁bing	-12.1768
▁boon	-12.1768
▁burp	-12.1768
▁campfire	-12.1768
▁carcinogen	-12.1768
▁carnival	-12.1768
▁commenting	-12.1768
▁consist	-12.1768
▁consisting	-12.1768
▁cord	-12.1768
▁courtesy	-12.1768
▁cremes	-12.1768
▁crucial	-12.1768
▁declared	-12.1768
▁deducted	-12.1768
▁devoid	-12.1768
▁devoted	-12.1768
▁dishwater	-12.1768
▁doo	-12.1768
▁doubtful	-12.1768
▁dunked	-12.1768
▁encouraging	-12.1768
▁ese	-12.1768
▁flatulence	-12.1768
▁frito	-12.1768
▁gasoline	-12.1768
▁glitter	-12.1768
▁gouging	-12.1768
▁imagining	-12.1768
▁insure	-12.1768
▁kopi	-12.1768
▁literature	-12.1768
▁manually	-12.1768
▁mercy	-12.1768
▁midday	-12.1768
▁milligram	-12.1768
▁minority	-12.1768
▁northeast	-12.1768
▁obsession	-12.1768
▁ordinarily	-12.1768
▁oxidation	-12.1768
▁pao	-12.1768
▁patiently	-12.1768
▁peanutbutter	-12.1768
▁popsicle	-12.1768
▁prevention	-12.1768
▁rapunzel	-12.1768
▁regulated	-12.1768
▁scratched	-12.1768
▁slushy	-12.1768
▁smarter	-12.1768
▁sonic	-12.1768
▁spinning	-12.1768
▁supple	-12.1768
▁tacs	-12.1768
▁technical	-12.1768
▁tension	-12.1768
▁toned	-12.1768
▁trusty	-12.1768
▁understandable	-12.1768
▁weaned	-12.1768
▁whine	-12.1768
▁yahoo	-12.1768
▁accomplished	-12.1966
▁alternating	-12.1966
▁angelina	-12.1966
▁assessment	-12.1966
▁assistance	-12.1966
▁belongs	-12.1966
▁blk	-12.1966
▁bloomed	-12.1966
▁bridal	-12.1966
▁bury	-12.1966
▁calculated	-12.1966
▁cardio	-12.1966
▁cbtl	-12.1966
▁centerpiece	-12.1966
▁concluded	-12.1966
▁contributed	-12.1966
▁craved	-12.1966
▁deet	-12.1966
▁dentastix	-12.1966
▁dept	-12.1966
▁disgust	-12.1966
▁educated	-12.1966
▁erucic	-12.1966
▁exceed	-12.1966
▁ferrero	-12.1966
▁fist	-12.1966
▁freaked	-12.1966
▁freakin	-12.1966
▁globe	-12.1966
▁glorious	-12.1966
▁hardness	-12.1966
▁harshness	-12.1966
▁havahart	-12.1966
▁hid	-12.1966
▁honees	-12.1966
▁hunted	-12.1966
▁inspect	-12.1966
▁intentionally	-12.1966
▁isolated	-12.1966
▁kennel	-12.1966
▁kombu	-12.1966
▁krups	-12.1966
▁lactic	-12.1966
▁lamp	-12.1966
▁loosen	-12.1966
▁manly	-12.1966
▁marshmellow	-12.1966
▁mercken	-12.1966
▁montana	-12.1966
▁nailed	-12.1966
▁newbie	-12.1966
▁odorless	-12.1966
▁peculiar	-12.1966
▁perception	-12.1966
▁plunger	-12.1966
▁pointer	-12.1966
▁potluck	-12.1966
▁preserving	-12.1966
▁pumkin	-12.1966
▁purveyor	-12.1966
▁realm	-12.1966
▁receipe	-12.1966
▁registered	-12.1966
▁render	-12.1966
▁reveals	-12.1966
▁roastery	-12.1966
▁rocket	-12.1966
▁romantic	-12.1966
▁roux	-12.1966
▁smucker	-12.1966
▁solidified	-12.1966
▁stingy	-12.1966
▁strategy	-12.1966
▁suspended	-12.1966
▁tao	-12.1966
▁tek	-12.1966
▁tickle	-12.1966
▁tote	-12.1966
▁traffic	-12.1966
▁tupelo	-12.1966
▁twinkie	-12.1966
▁uncovered	-12.1966
▁utah	-12.1966
▁weapon	-12.1966
▁wicked	-12.1966
▁width	-12.1966
▁zola	-12.1966
▁0mg	-12.2168
▁10lb	-12.2168
▁abdominal	-12.2168
▁acted	-12.2168
▁administration	-12.2168
▁antibacterial	-12.2168
▁bhut	-12.2168
▁billion	-12.2168
▁catalog	-12.2168
▁cheapo	-12.2168
▁clerk	-12.2168
▁collecting	-12.2168
▁continuously	-12.2168
▁convincing	-12.2168
▁crabmeat	-12.2168
▁credited	-12.2168
▁dearly	-12.2168
▁decafe	-12.2168
▁disabled	-12.2168
▁dissapointment	-12.2168
▁ditto	-12.2168
▁domatcha	-12.2168
▁efficiently	-12.2168
▁elephant	-12.2168
▁enzymatic	-12.2168
▁erewhon	-12.2168
▁establishment	-12.2168
▁examined	-12.2168
▁expiring	-12.2168
▁farro	-12.2168
▁faves	-12.2168
▁fermenting	-12.2168
▁foremost	-12.2168
▁gasket	-12.2168
▁geared	-12.2168
▁h2o	-12.2168
▁halal	-12.2168
▁hatch	-12.2168
▁healthfood	-12.2168
▁herbicide	-12.2168
▁hog	-12.2168
▁idaho	-12.2168
▁invariably	-12.2168
▁juicing	-12.2168
▁jyoti	-12.2168
▁klein	-12.2168
▁lever	-12.2168
▁lindor	-12.2168
▁masa	-12.2168
▁mic	-12.2168
▁mite	-12.2168
▁monsanto	-12.2168
▁motel	-12.2168
▁nauseated	-12.2168
▁oriented	-12.2168
▁oxidized	-12.2168
▁palmer	-12.2168
▁pancreatitis	-12.2168
▁paperboard	-12.2168
▁payed	-12.2168
▁potted	-12.2168
▁prefect	-12.2168
▁prevented	-12.2168
▁promoted	-12.2168
▁puddle	-12.2168
▁puzzled	-12.2168
▁quibble	-12.2168
▁repulsive	-12.2168
▁resident	-12.2168
▁retro	-12.2168
▁rushing	-12.2168
▁salvage	-12.2168
▁saucer	-12.2168
▁savannah	-12.2168
▁smiling	-12.2168
▁soya	-12.2168
▁sparse	-12.2168
▁spritzer	-12.2168
▁superfoods	-12.2168
▁supplying	-12.2168
▁teaspoonful	-12.2168
▁tex	-12.2168
▁ting	-12.2168
▁tlc	-12.2168
▁toddy	-12.2168
▁uber	-12.2168
▁umf	-12.2168
▁unsafe	-12.2168
▁upped	-12.2168
▁upsetting	-12.2168
▁victoria	-12.2168
▁zombie	-12.2168
▁acacia	-12.2374
▁adapter	-12.2374
▁addendum	-12.2374
▁authenticity	-12.2374
▁aweful	-12.2374
▁becasue	-12.2374
▁bigs	-12.2374
▁bleh	-12.2374
▁booklet	-12.2374
▁braided	-12.2374
▁cardiovascular	-12.2374
▁chais	-12.2374
▁chewies	-12.2374
▁chubby	-12.2374
▁coach	-12.2374
▁coffeehouse	-12.2374
▁connected	-12.2374
▁court	-12.2374
▁curing	-12.2374
▁defintely	-12.2374
▁denver	-12.2374
▁depleted	-12.2374
▁destructive	-12.2374
▁dispensed	-12.2374
▁disposed	-12.2374
▁dissapointing	-12.2374
▁drew	-12.2374
▁elixir	-12.2374
▁emptor	-12.2374
▁extraordinarily	-12.2374
▁farmed	-12.2374
▁faucet	-12.2374
▁fingertip	-12.2374
▁ganache	-12.2374
▁hankering	-12.2374
▁harmless	-12.2374
▁hdl	-12.2374
▁heath	-12.2374
▁hippo	-12.2374
▁icicle	-12.2374
▁ikea	-12.2374
▁incorporating	-12.2374
▁infinitely	-12.2374
▁interfere	-12.2374
▁involving	-12.2374
▁lackluster	-12.2374
▁lactation	-12.2374
▁leaning	-12.2374
▁legitimate	-12.2374
▁lifted	-12.2374
▁lightness	-12.2374
▁lingered	-12.2374
▁masking	-12.2374
▁meter	-12.2374
▁napa	-12.2374
▁notably	-12.2374
▁objective	-12.2374
▁occupy	-12.2374
▁orgran	-12.2374
▁outweigh	-12.2374
▁peaberry	-12.2374
▁perfumed	-12.2374
▁potion	-12.2374
▁potter	-12.2374
▁prefered	-12.2374
▁productive	-12.2374
▁professionally	-12.2374
▁responds	-12.2374
▁restore	-12.2374
▁retained	-12.2374
▁ricotta	-12.2374
▁runt	-12.2374
▁scramble	-12.2374
▁simultaneously	-12.2374
▁slaw	-12.2374
▁slime	-12.2374
▁socially	-12.2374
▁submit	-12.2374
▁submitted	-12.2374
▁sumac	-12.2374
▁sundae	-12.2374
▁suspicion	-12.2374
▁sweetz	-12.2374
▁sylvia	-12.2374
▁tempt	-12.2374
▁th	-12.2374
▁tidbit	-12.2374
▁tomatoe	-12.2374
▁trimming	-12.2374
▁turbinado	-12.2374
▁uncertain	-12.2374
▁uncommon	-12.2374
▁uniquely	-12.2374
▁unreasonable	-12.2374
▁vacationing	-12.2374
▁valid	-12.2374
▁valve	-12.2374
▁vender	-12.2374
▁ward	-12.2374
▁whirly	-12.2374
▁zatarain	-12.2374
▁adhere	-12.2584
▁alessi	-12.2584
▁anal	-12.2584
▁antioxidents	-12.2584
▁aseptic	-12.2584
▁assemble	-12.2584
▁astounding	-12.2584
▁babyfood	-12.2584
▁ban	-12.2584
▁biking	-12.2584
▁bisto	-12.2584
▁bonne	-12.2584
▁boson	-12.2584
▁bounty	-12.2584
▁broiled	-12.2584
▁bueno	-12.2584
▁ceiling	-12.2584
▁ceremony	-12.2584
▁chin	-12.2584
▁chomping	-12.2584
▁chunkier	-12.2584
▁clarified	-12.2584
▁concur	-12.2584
▁consumes	-12.2584
▁contaminant	-12.2584
▁courteous	-12.2584
▁crisco	-12.2584
▁crunched	-12.2584
▁diuretic	-12.2584
▁doh	-12.2584
▁drooling	-12.2584
▁dynamic	-12.2584
▁echo	-12.2584
▁encased	-12.2584
▁eyeball	-12.2584
▁feared	-12.2584
▁fibrous	-12.2584
▁francis	-12.2584
▁freight	-12.2584
▁glee	-12.2584
▁grained	-12.2584
▁greenish	-12.2584
▁greeted	-12.2584
▁groggy	-12.2584
▁hardcore	-12.2584
▁haul	-12.2584
▁havoc	-12.2584
▁heed	-12.2584
▁hobby	-12.2584
▁howard	-12.2584
▁hypoallergenic	-12.2584
▁igourmet	-12.2584
▁immunity	-12.2584
▁informative	-12.2584
▁insurance	-12.2584
▁jura	-12.2584
▁kcal	-12.2584
▁kix	-12.2584
▁knox	-12.2584
▁legit	-12.2584
▁lest	-12.2584
▁magnet	-12.2584
▁mai	-12.2584
▁micklegal	-12.2584
▁mobility	-12.2584
▁mtr	-12.2584
▁natura	-12.2584
▁nordic	-12.2584
▁orangina	-12.2584
▁outright	-12.2584
▁overeat	-12.2584
▁overlooked	-12.2584
▁painted	-12.2584
▁pamelas	-12.2584
▁pantothenate	-12.2584
▁perforated	-12.2584
▁pickup	-12.2584
▁player	-12.2584
▁principle	-12.2584
▁rotini	-12.2584
▁saddened	-12.2584
▁sauerkraut	-12.2584
▁scarce	-12.2584
▁scheme	-12.2584
▁scott	-12.2584
▁scraped	-12.2584
▁shiba	-12.2584
▁shield	-12.2584
▁sin	-12.2584
▁sitter	-12.2584
▁slows	-12.2584
▁spagetti	-12.2584
▁stamen	-12.2584
▁stover	-12.2584
▁subsitute	-12.2584
▁sulfites	-12.2584
▁suprisingly	-12.2584
▁tumeric	-12.2584
▁twizzler	-12.2584
▁underweight	-12.2584
▁unsaturated	-12.2584
▁unscrew	-12.2584
▁vege	-12.2584
▁wagon	-12.2584
▁winery	-12.2584
▁workplace	-12.2584
▁yummm	-12.2584
▁10lbs	-12.2799
▁aback	-12.2799
▁abandoned	-12.2799
▁absolutley	-12.2799
▁adapt	-12.2799
▁aerogrow	-12.2799
▁alabama	-12.2799
▁altoid	-12.2799
▁arnold	-12.2799
▁artisana	-12.2799
▁blandness	-12.2799
▁buttercream	-12.2799
▁cabernet	-12.2799
▁calmed	-12.2799
▁captured	-12.2799
▁caramelized	-12.2799
▁carcinogenic	-12.2799
▁collected	-12.2799
▁complemented	-12.2799
▁confirmation	-12.2799
▁creepy	-12.2799
▁declined	-12.2799
▁discontinuing	-12.2799
▁drum	-12.2799
▁dublin	-12.2799
▁earthquake	-12.2799
▁enables	-12.2799
▁expanding	-12.2799
▁ferret	-12.2799
▁fusilli	-12.2799
▁generated	-12.2799
▁gnc	-12.2799
▁heaviness	-12.2799
▁holic	-12.2799
▁honeydew	-12.2799
▁imaginable	-12.2799
▁improperly	-12.2799
▁infected	-12.2799
▁install	-12.2799
▁iowa	-12.2799
▁lava	-12.2799
▁leader	-12.2799
▁liquidy	-12.2799
▁lodged	-12.2799
▁madras	-12.2799
▁maman	-12.2799
▁matchas	-12.2799
▁melinda	-12.2799
▁mincemeat	-12.2799
▁monitoring	-12.2799
▁morocco	-12.2799
▁mott	-12.2799
▁motto	-12.2799
▁numb	-12.2799
▁nutramigen	-12.2799
▁obedience	-12.2799
▁obnoxious	-12.2799
▁ooze	-12.2799
▁oprah	-12.2799
▁org	-12.2799
▁paramount	-12.2799
▁paula	-12.2799
▁peices	-12.2799
▁pillsbury	-12.2799
▁refilled	-12.2799
▁releasing	-12.2799
▁remembers	-12.2799
▁repeating	-12.2799
▁ridge	-12.2799
▁rodent	-12.2799
▁roe	-12.2799
▁rumor	-12.2799
▁russia	-12.2799
▁scenario	-12.2799
▁scraping	-12.2799
▁sixth	-12.2799
▁slurp	-12.2799
▁southeast	-12.2799
▁surpassed	-12.2799
▁tee	-12.2799
▁tenderness	-12.2799
▁traded	-12.2799
▁tum	-12.2799
▁tumor	-12.2799
▁violently	-12.2799
▁vitamix	-12.2799
▁weakest	-12.2799
▁woof	-12.2799
▁ymmv	-12.2799
▁abc	-12.3019
▁adapted	-12.3019
▁alec	-12.3019
▁atlantic	-12.3019
▁barrier	-12.3019
▁beaver	-12.3019
▁blackened	-12.3019
▁blank	-12.3019
▁bugger	-12.3019
▁cento	-12.3019
▁certificate	-12.3019
▁chana	-12.3019
▁char	-12.3019
▁chief	-12.3019
▁cinammon	-12.3019
▁coffeemate	-12.3019
▁colavita	-12.3019
▁convience	-12.3019
▁courage	-12.3019
▁crud	-12.3019
▁darkness	-12.3019
▁darling	-12.3019
▁dawn	-12.3019
▁dilemma	-12.3019
▁distract	-12.3019
▁diverse	-12.3019
▁dop	-12.3019
▁downtown	-12.3019
▁entr	-12.3019
▁expose	-12.3019
▁finland	-12.3019
▁flawless	-12.3019
▁flipped	-12.3019
▁freedom	-12.3019
▁germinate	-12.3019
▁germinated	-12.3019
▁googling	-12.3019
▁goop	-12.3019
▁habenero	-12.3019
▁havanese	-12.3019
▁inadequate	-12.3019
▁indestructible	-12.3019
▁indicator	-12.3019
▁indifferent	-12.3019
▁induce	-12.3019
▁invite	-12.3019
▁joking	-12.3019
▁justified	-12.3019
▁kindly	-12.3019
▁knuckle	-12.3019
▁lasagne	-12.3019
▁liberal	-12.3019
▁lima	-12.3019
▁lorann	-12.3019
▁lysine	-12.3019
▁mastered	-12.3019
▁mindful	-12.3019
▁montreal	-12.3019
▁nada	-12.3019
▁nutshell	-12.3019
▁offs	-12.3019
▁optimistic	-12.3019
▁philadelphia	-12.3019
▁pocketbook	-12.3019
▁pomegranite	-12.3019
▁pooping	-12.3019
▁precooked	-12.3019
▁preheat	-12.3019
▁premixed	-12.3019
▁preschooler	-12.3019
▁proclaimed	-12.3019
▁prostate	-12.3019
▁qualm	-12.3019
▁quencher	-12.3019
▁queso	-12.3019
▁quoted	-12.3019
▁refunding	-12.3019
▁regretted	-12.3019
▁robbery	-12.3019
▁rom	-12.3019
▁rotisserie	-12.3019
▁rottie	-12.3019
▁seitan	-12.3019
▁serum	-12.3019
▁shadow	-12.3019
▁someplace	-12.3019
▁specialized	-12.3019
▁stewed	-12.3019
▁stopper	-12.3019
▁suds	-12.3019
▁sustainably	-12.3019
▁tacky	-12.3019
▁tedious	-12.3019
▁trolli	-12.3019
▁twang	-12.3019
▁tweaking	-12.3019
▁undercooked	-12.3019
▁useable	-12.3019
▁vanished	-12.3019
▁ware	-12.3019
▁watkins	-12.3019
▁whatnot	-12.3019
▁whisker	-12.3019
▁wtf	-12.3019
▁yucateco	-12.3019
▁yummiest	-12.3019
▁20th	-12.3244
▁antacid	-12.3244
▁arborio	-12.3244
▁arrowroot	-12.3244
▁baguette	-12.3244
▁barking	-12.3244
▁beleive	-12.3244
▁blocked	-12.3244
▁boulder	-12.3244
▁campus	-12.3244
▁cheeze	-12.3244
▁chilling	-12.3244
▁chipmunk	-12.3244
▁classified	-12.3244
▁complication	-12.3244
▁cosmic	-12.3244
▁cous	-12.3244
▁customize	-12.3244
▁derivative	-12.3244
▁dominated	-12.3244
▁elaborate	-12.3244
▁excelent	-12.3244
▁execution	-12.3244
▁fad	-12.3244
▁frise	-12.3244
▁fundraiser	-12.3244
▁gathered	-12.3244
▁global	-12.3244
▁glutamic	-12.3244
▁handmade	-12.3244
▁harvesting	-12.3244
▁healthiness	-12.3244
▁hots	-12.3244
▁importer	-12.3244
▁indonesia	-12.3244
▁inquiry	-12.3244
▁interactive	-12.3244
▁invert	-12.3244
▁iodized	-12.3244
▁jambalaya	-12.3244
▁julia	-12.3244
▁kung	-12.3244
▁legally	-12.3244
▁limeade	-12.3244
▁magnolia	-12.3244
▁markup	-12.3244
▁maximize	-12.3244
▁merry	-12.3244
▁muy	-12.3244
▁nighttime	-12.3244
▁nonni	-12.3244
▁nostril	-12.3244
▁parasite	-12.3244
▁partake	-12.3244
▁pitch	-12.3244
▁poisoned	-12.3244
▁presume	-12.3244
▁propel	-12.3244
▁rant	-12.3244
▁relied	-12.3244
▁remedied	-12.3244
▁resealed	-12.3244
▁richly	-12.3244
▁rooster	-12.3244
▁scooper	-12.3244
▁sliding	-12.3244
▁spelling	-12.3244
▁statin	-12.3244
▁steaz	-12.3244
▁stockpile	-12.3244
▁surround	-12.3244
▁tar	-12.3244
▁thereafter	-12.3244
▁tier	-12.3244
▁tinny	-12.3244
▁tint	-12.3244
▁tortuga	-12.3244
▁torture	-12.3244
▁transportation	-12.3244
▁vernors	-12.3244
▁william	-12.3244
▁willpower	-12.3244
▁yummier	-12.3244
▁zoo	-12.3244
▁0mgsodium	-12.3474
▁22g	-12.3474
▁2lbs	-12.3474
▁actor	-12.3474
▁alarmed	-12.3474
▁allsorts	-12.3474
▁angostura	-12.3474
▁assurance	-12.3474
▁astronaut	-12.3474
▁aversion	-12.3474
▁backing	-12.3474
▁bandwagon	-12.3474
▁bleach	-12.3474
▁blister	-12.3474
▁brag	-12.3474
▁broad	-12.3474
▁bros	-12.3474
▁cadet	-12.3474
▁chooses	-12.3474
▁cleanest	-12.3474
▁compromising	-12.3474
▁crispbreads	-12.3474
▁departure	-12.3474
▁dick	-12.3474
▁displeased	-12.3474
▁doodle	-12.3474
▁drift	-12.3474
▁dynasty	-12.3474
▁electricity	-12.3474
▁emptying	-12.3474
▁est	-12.3474
▁evaluation	-12.3474
▁exaggerating	-12.3474
▁examine	-12.3474
▁exploding	-12.3474
▁ferment	-12.3474
▁fibre	-12.3474
▁fiery	-12.3474
▁flatten	-12.3474
▁flatter	-12.3474
▁freshening	-12.3474
▁gifting	-12.3474
▁goose	-12.3474
▁hardwood	-12.3474
▁heady	-12.3474
▁heel	-12.3474
▁hood	-12.3474
▁horrific	-12.3474
▁hyped	-12.3474
▁inevitable	-12.3474
▁inquire	-12.3474
▁joseph	-12.3474
▁kap	-12.3474
▁kellogs	-12.3474
▁kilo	-12.3474
▁kups	-12.3474
▁leathery	-12.3474
▁macarons	-12.3474
▁maccha	-12.3474
▁massey	-12.3474
▁meld	-12.3474
▁misled	-12.3474
▁moral	-12.3474
▁mung	-12.3474
▁nastiest	-12.3474
▁nod	-12.3474
▁oomph	-12.3474
▁oozing	-12.3474
▁originated	-12.3474
▁perrier	-12.3474
▁persistent	-12.3474
▁piggy	-12.3474
▁pinnacle	-12.3474
▁popcorners	-12.3474
▁prominently	-12.3474
▁rachel	-12.3474
▁radio	-12.3474
▁resturant	-12.3474
▁rooibus	-12.3474
▁safest	-12.3474
▁sex	-12.3474
▁shaky	-12.3474
▁sicily	-12.3474
▁sixteen	-12.3474
▁sooth	-12.3474
▁squeaky	-12.3474
▁starkist	-12.3474
▁stong	-12.3474
▁stretched	-12.3474
▁supervise	-12.3474
▁supremo	-12.3474
▁threatening	-12.3474
▁thrived	-12.3474
▁union	-12.3474
▁usd	-12.3474
▁varietal	-12.3474
▁victim	-12.3474
▁viscosity	-12.3474
▁wale	-12.3474
▁waxed	-12.3474
▁welch	-12.3474
▁whack	-12.3474
▁wimp	-12.3474
▁wit	-12.3474
▁abuse	-12.3709
▁accommodate	-12.3709
▁adored	-12.3709
▁agreeable	-12.3709
▁alarming	-12.3709
▁amateur	-12.3709
▁annies	-12.3709
▁announced	-12.3709
▁assembly	-12.3709
▁axe	-12.3709
▁beak	-12.3709
▁beefeater	-12.3709
▁carotene	-12.3709
▁ceased	-12.3709
▁celebrity	-12.3709
▁challenged	-12.3709
▁chang	-12.3709
▁chinatown	-12.3709
▁circus	-12.3709
▁clark	-12.3709
▁classroom	-12.3709
▁collapse	-12.3709
▁coma	-12.3709
▁conversion	-12.3709
▁crashing	-12.3709
▁crunchie	-12.3709
▁daybreak	-12.3709
▁debbie	-12.3709
▁denture	-12.3709
▁diglycerides	-12.3709
▁ditch	-12.3709
▁dominates	-12.3709
▁downhill	-12.3709
▁earn	-12.3709
▁emphasis	-12.3709
▁endure	-12.3709
▁estimation	-12.3709
▁fab	-12.3709
▁fabulously	-12.3709
▁faq	-12.3709
▁floret	-12.3709
▁forgetting	-12.3709
▁forgive	-12.3709
▁founder	-12.3709
▁gauge	-12.3709
▁germination	-12.3709
▁gobbling	-12.3709
▁greener	-12.3709
▁grooming	-12.3709
▁grub	-12.3709
▁gustaf	-12.3709
▁hind	-12.3709
▁homeless	-12.3709
▁humor	-12.3709
▁imply	-12.3709
▁jammed	-12.3709
▁jealous	-12.3709
▁jewish	-12.3709
▁kaps	-12.3709
▁loos	-12.3709
▁maggie	-12.3709
▁maraschino	-12.3709
▁maria	-12.3709
▁marine	-12.3709
▁mayan	-12.3709
▁mayonaise	-12.3709
▁membrane	-12.3709
▁metabolic	-12.3709
▁murray	-12.3709
▁nancy	-12.3709
▁nesquik	-12.3709
▁netrition	-12.3709
▁nub	-12.3709
▁occassionally	-12.3709
▁offense	-12.3709
▁omelette	-12.3709
▁omit	-12.3709
▁overflowing	-12.3709
▁oversized	-12.3709
▁pbj	-12.3709
▁perfected	-12.3709
▁piquant	-12.3709
▁poof	-12.3709
▁portuguese	-12.3709
▁posse	-12.3709
▁pray	-12.3709
▁purr	-12.3709
▁quirky	-12.3709
▁rethink	-12.3709
▁risky	-12.3709
▁rome	-12.3709
▁russel	-12.3709
▁ryder	-12.3709
▁ryvita	-12.3709
▁scar	-12.3709
▁shortcut	-12.3709
▁softest	-12.3709
▁striking	-12.3709
▁subway	-12.3709
▁swollen	-12.3709
▁tanginess	-12.3709
▁tenderizer	-12.3709
▁thanking	-12.3709
▁thanx	-12.3709
▁thereof	-12.3709
▁threat	-12.3709
▁tile	-12.3709
▁tourangelle	-12.3709
▁trapping	-12.3709
▁tuscany	-12.3709
▁unsatisfying	-12.3709
▁utz	-12.3709
▁wholly	-12.3709
▁20lb	-12.395
▁adulterated	-12.395
▁afterall	-12.395
▁agility	-12.395
▁altering	-12.395
▁antonio	-12.395
▁arrange	-12.395
▁artist	-12.395
▁astounded	-12.395
▁bald	-12.395
▁bergamont	-12.395
▁biryani	-12.395
▁bisulfite	-12.395
▁bothersome	-12.395
▁caking	-12.395
▁climbing	-12.395
▁clipping	-12.395
▁coarsely	-12.395
▁comfortably	-12.395
▁consistantly	-12.395
▁crank	-12.395
▁cranky	-12.395
▁diedrich	-12.395
▁dipotassium	-12.395
▁discouraged	-12.395
▁discussed	-12.395
▁downed	-12.395
▁drenched	-12.395
▁durability	-12.395
▁economically	-12.395
▁emotional	-12.395
▁engineer	-12.395
▁facing	-12.395
▁familia	-12.395
▁feat	-12.395
▁flair	-12.395
▁flaking	-12.395
▁flavorable	-12.395
▁fondarific	-12.395
▁formation	-12.395
▁forte	-12.395
▁founded	-12.395
▁fussiness	-12.395
▁generate	-12.395
▁grossly	-12.395
▁grounded	-12.395
▁heap	-12.395
▁honeyville	-12.395
▁hypertension	-12.395
▁invisible	-12.395
▁invoice	-12.395
▁johnny	-12.395
▁juicer	-12.395
▁kicker	-12.395
▁kingdom	-12.395
▁larva	-12.395
▁legend	-12.395
▁lighting	-12.395
▁lolly	-12.395
▁luster	-12.395
▁managing	-12.395
▁milano	-12.395
▁mmmmmmm	-12.395
▁mock	-12.395
▁myrtle	-12.395
▁netherlands	-12.395
▁nitrogen	-12.395
▁orderd	-12.395
▁otc	-12.395
▁oval	-12.395
▁panicked	-12.395
▁paso	-12.395
▁pearled	-12.395
▁perforation	-12.395
▁perfumey	-12.395
▁perimeter	-12.395
▁perrins	-12.395
▁pheromone	-12.395
▁philly	-12.395
▁precaution	-12.395
▁protects	-12.395
▁province	-12.395
▁pub	-12.395
▁ralph	-12.395
▁relevant	-12.395
▁revised	-12.395
▁risen	-12.395
▁sceptical	-12.395
▁smeared	-12.395
▁sneeze	-12.395
▁spear	-12.395
▁superfruit	-12.395
▁sweden	-12.395
▁tase	-12.395
▁tick	-12.395
▁tilapia	-12.395
▁transformed	-12.395
▁treater	-12.395
▁typed	-12.395
▁unfortunatly	-12.395
▁unpleasantly	-12.395
▁vein	-12.395
▁vinci	-12.395
▁wad	-12.395
▁wage	-12.395
▁waiter	-12.395
▁walkerswood	-12.395
▁warns	-12.395
▁weber	-12.395
▁wonderfull	-12.395
▁wool	-12.395
▁xylichew	-12.395
▁yearly	-12.395
▁advocate	-12.4197
▁aesthetic	-12.4197
▁aim	-12.4197
▁americolor	-12.4197
▁awaken	-12.4197
▁barf	-12.4197
▁bartender	-12.4197
▁bha	-12.4197
▁carnivorous	-12.4197
▁cerelac	-12.4197
▁comedy	-12.4197
▁comprised	-12.4197
▁conference	-12.4197
▁convienent	-12.4197
▁craves	-12.4197
▁dagoba	-12.4197
▁daniel	-12.4197
▁despise	-12.4197
▁dishonest	-12.4197
▁divider	-12.4197
▁drastic	-12.4197
▁dubble	-12.4197
▁earthborn	-12.4197
▁eatin	-12.4197
▁emerils	-12.4197
▁endeavor	-12.4197
▁engaged	-12.4197
▁enought	-12.4197
▁explodes	-12.4197
▁external	-12.4197
▁fajita	-12.4197
▁fasting	-12.4197
▁featuring	-12.4197
▁ferrous	-12.4197
▁flavorfull	-12.4197
▁flipping	-12.4197
▁forbidden	-12.4197
▁fought	-12.4197
▁fritos	-12.4197
▁garam	-12.4197
▁glorified	-12.4197
▁gourd	-12.4197
▁groom	-12.4197
▁guinea	-12.4197
▁healty	-12.4197
▁investigation	-12.4197
▁israel	-12.4197
▁jackpot	-12.4197
▁kasha	-12.4197
▁kaviar	-12.4197
▁kentucky	-12.4197
▁kim	-12.4197
▁kindness	-12.4197
▁lait	-12.4197
▁lengthy	-12.4197
▁limitation	-12.4197
▁locating	-12.4197
▁mahogany	-12.4197
▁mariani	-12.4197
▁melita	-12.4197
▁nielsen	-12.4197
▁nissin	-12.4197
▁notoriously	-12.4197
▁obtaining	-12.4197
▁operated	-12.4197
▁outta	-12.4197
▁passionate	-12.4197
▁phosphorous	-12.4197
▁pilon	-12.4197
▁plethora	-12.4197
▁prank	-12.4197
▁presently	-12.4197
▁priceless	-12.4197
▁pulse	-12.4197
▁rendering	-12.4197
▁respiratory	-12.4197
▁restful	-12.4197
▁saponin	-12.4197
▁sassafras	-12.4197
▁sautee	-12.4197
▁scrubbing	-12.4197
▁secured	-12.4197
▁seeming	-12.4197
▁slump	-12.4197
▁smothered	-12.4197
▁sophie	-12.4197
▁spritz	-12.4197
▁squirted	-12.4197
▁stole	-12.4197
▁strengthen	-12.4197
▁strenuous	-12.4197
▁subjected	-12.4197
▁surfing	-12.4197
▁swore	-12.4197
▁tandoor	-12.4197
▁tantalizing	-12.4197
▁tapenade	-12.4197
▁teenie	-12.4197
▁trademark	-12.4197
▁unwind	-12.4197
▁uuml	-12.4197
▁vegetal	-12.4197
▁vent	-12.4197
▁viola	-12.4197
▁wolfed	-12.4197
▁yeasty	-12.4197
▁yirgacheffe	-12.4197
▁zojirushi	-12.4197
▁agreement	-12.445
▁ahhh	-12.445
▁andes	-12.445
▁annatto	-12.445
▁apologized	-12.445
▁appearing	-12.445
▁aug	-12.445
▁bile	-12.445
▁blander	-12.445
▁bombay	-12.445
▁brighten	-12.445
▁carboy	-12.445
▁careless	-12.445
▁caved	-12.445
▁cement	-12.445
▁chugging	-12.445
▁classico	-12.445
▁coax	-12.445
▁convient	-12.445
▁coolest	-12.445
▁crinkle	-12.445
▁da	-12.445
▁dasani	-12.445
▁discrepancy	-12.445
▁disguised	-12.445
▁disolve	-12.445
▁disregard	-12.445
▁dreaming	-12.445
▁dukan	-12.445
▁esophagus	-12.445
▁eucalyptus	-12.445
▁expo	-12.445
▁flaver	-12.445
▁florentine	-12.445
▁folate	-12.445
▁fresca	-12.445
▁frill	-12.445
▁funbites	-12.445
▁gasp	-12.445
▁gorilla	-12.445
▁gratitude	-12.445
▁greed	-12.445
▁gristle	-12.445
▁he	-12.445
▁hempseed	-12.445
▁hispanic	-12.445
▁incomplete	-12.445
▁inhaling	-12.445
▁insists	-12.445
▁leek	-12.445
▁lunchboxes	-12.445
▁maranatha	-12.445
▁marvel	-12.445
▁menstrual	-12.445
▁misery	-12.445
▁murky	-12.445
▁ninety	-12.445
▁notion	-12.445
▁obscure	-12.445
▁orginal	-12.445
▁ozs	-12.445
▁philosophy	-12.445
▁politely	-12.445
▁purported	-12.445
▁relying	-12.445
▁reportedly	-12.445
▁reproduce	-12.445
▁retention	-12.445
▁richard	-12.445
▁sambazon	-12.445
▁sender	-12.445
▁shore	-12.445
▁slather	-12.445
▁smoothe	-12.445
▁snatched	-12.445
▁sporting	-12.445
▁steadily	-12.445
▁stimulate	-12.445
▁sturdier	-12.445
▁stylish	-12.445
▁supersaver	-12.445
▁tamp	-12.445
▁tampered	-12.445
▁tandoori	-12.445
▁tannic	-12.445
▁thermometer	-12.445
▁tilda	-12.445
▁tiring	-12.445
▁titled	-12.445
▁tommy	-12.445
▁trendy	-12.445
▁trepidation	-12.445
▁tricked	-12.445
▁trout	-12.445
▁tumbler	-12.445
▁umm	-12.445
▁underwhelming	-12.445
▁uneaten	-12.445
▁unsuccessful	-12.445
▁virtue	-12.445
▁waitress	-12.445
▁whining	-12.445
▁whisper	-12.445
▁wildflower	-12.445
▁yummmm	-12.445
▁10x	-12.471
▁21g	-12.471
▁alleged	-12.471
▁amused	-12.471
▁anna	-12.471
▁arsenal	-12.471
▁artic	-12.471
▁basset	-12.471
▁basting	-12.471
▁beam	-12.471
▁bonnet	-12.471
▁chuckle	-12.471
▁cinnabon	-12.471
▁coal	-12.471
▁colitis	-12.471
▁context	-12.471
▁coverage	-12.471
▁crackle	-12.471
▁crafted	-12.471
▁crammed	-12.471
▁creativity	-12.471
▁crf	-12.471
▁crime	-12.471
▁curled	-12.471
▁deception	-12.471
▁deemed	-12.471
▁dehydrator	-12.471
▁descent	-12.471
▁disney	-12.471
▁distracting	-12.471
▁doll	-12.471
▁dread	-12.471
▁dual	-12.471
▁dy	-12.471
▁educate	-12.471
▁evaporate	-12.471
▁falsely	-12.471
▁farming	-12.471
▁fruitables	-12.471
▁gee	-12.471
▁glitch	-12.471
▁grail	-12.471
▁greased	-12.471
▁grief	-12.471
▁gyokuro	-12.471
▁illusion	-12.471
▁innocent	-12.471
▁insufficient	-12.471
▁jemima	-12.471
▁jury	-12.471
▁keemun	-12.471
▁knudsen	-12.471
▁kurig	-12.471
▁litte	-12.471
▁locker	-12.471
▁miniscule	-12.471
▁momma	-12.471
▁notorious	-12.471
▁nuclear	-12.471
▁occurrence	-12.471
▁overdose	-12.471
▁panama	-12.471
▁periodic	-12.471
▁phosphoric	-12.471
▁pickling	-12.471
▁pimento	-12.471
▁plantain	-12.471
▁poking	-12.471
▁por	-12.471
▁proudly	-12.471
▁pseudo	-12.471
▁psychological	-12.471
▁pulpy	-12.471
▁ranked	-12.471
▁receiver	-12.471
▁reggiano	-12.471
▁ribena	-12.471
▁rigid	-12.471
▁sanka	-12.471
▁satay	-12.471
▁satiated	-12.471
▁selenite	-12.471
▁shaft	-12.471
▁sharkbanana	-12.471
▁sheep	-12.471
▁sicilian	-12.471
▁sippy	-12.471
▁smacking	-12.471
▁smidge	-12.471
▁sobe	-12.471
▁sofa	-12.471
▁spiked	-12.471
▁spillage	-12.471
▁spoken	-12.471
▁squish	-12.471
▁stumble	-12.471
▁subtract	-12.471
▁sundried	-12.471
▁tapatio	-12.471
▁tease	-12.471
▁throwback	-12.471
▁tolerant	-12.471
▁translucent	-12.471
▁triangular	-12.471
▁trimester	-12.471
▁twix	-12.471
▁typo	-12.471
▁ummm	-12.471
▁upstate	-12.471
▁vanillin	-12.471
▁ventured	-12.471
▁vigo	-12.471
▁washer	-12.471
▁wedderspoon	-12.471
▁winona	-12.471
▁woodsy	-12.471
▁yellowfin	-12.471
▁aacute	-12.4977
▁aafco	-12.4977
▁ace	-12.4977
▁aimed	-12.4977
▁ali	-12.4977
▁alien	-12.4977
▁alphabet	-12.4977
▁apso	-12.4977
▁arranged	-12.4977
▁aspen	-12.4977
▁attracts	-12.4977
▁banged	-12.4977
▁bassett	-12.4977
▁bumped	-12.4977
▁bundt	-12.4977
▁cairn	-12.4977
▁calculate	-12.4977
▁cartilage	-12.4977
▁chowing	-12.4977
▁chromium	-12.4977
▁cognac	-12.4977
▁complementary	-12.4977
▁continuous	-12.4977
▁contribution	-12.4977
▁crawling	-12.4977
▁curiously	-12.4977
▁cushion	-12.4977
▁cyclone	-12.4977
▁decline	-12.4977
▁deny	-12.4977
▁detest	-12.4977
▁detracts	-12.4977
▁dial	-12.4977
▁dimensional	-12.4977
▁dna	-12.4977
▁doxie	-12.4977
▁dragonwell	-12.4977
▁dreamy	-12.4977
▁dribble	-12.4977
▁eatable	-12.4977
▁equation	-12.4977
▁fatter	-12.4977
▁fingernail	-12.4977
▁flakey	-12.4977
▁fraud	-12.4977
▁froot	-12.4977
▁gate	-12.4977
▁gloppy	-12.4977
▁goddess	-12.4977
▁gogo	-12.4977
▁guinness	-12.4977
▁ignoring	-12.4977
▁implied	-12.4977
▁inaccurate	-12.4977
▁injected	-12.4977
▁inspiration	-12.4977
▁invested	-12.4977
▁involve	-12.4977
▁jesus	-12.4977
▁jose	-12.4977
▁latch	-12.4977
▁ma	-12.4977
▁malitol	-12.4977
▁marginal	-12.4977
▁mastic	-12.4977
▁miller	-12.4977
▁mocafe	-12.4977
▁mulch	-12.4977
▁naga	-12.4977
▁nastiness	-12.4977
▁naughty	-12.4977
▁orangey	-12.4977
▁packer	-12.4977
▁parm	-12.4977
▁parrot	-12.4977
▁pc	-12.4977
▁peep	-12.4977
▁pesky	-12.4977
▁questioning	-12.4977
▁ranking	-12.4977
▁realistically	-12.4977
▁reccomended	-12.4977
▁repackage	-12.4977
▁representation	-12.4977
▁rested	-12.4977
▁salting	-12.4977
▁sanitary	-12.4977
▁seedling	-12.4977
▁semisweet	-12.4977
▁serendipitea	-12.4977
▁shellfish	-12.4977
▁shovel	-12.4977
▁skull	-12.4977
▁slogan	-12.4977
▁snatch	-12.4977
▁springer	-12.4977
▁tamper	-12.4977
▁tarragon	-12.4977
▁tipped	-12.4977
▁transferring	-12.4977
▁trusting	-12.4977
▁trustworthy	-12.4977
▁vertical	-12.4977
▁volunteer	-12.4977
▁vons	-12.4977
▁welsh	-12.4977
▁whiter	-12.4977
▁wrinkle	-12.4977
▁zebra	-12.4977
▁100g	-12.5251
▁acknowledge	-12.5251
▁alway	-12.5251
▁appreciative	-12.5251
▁approves	-12.5251
▁asiago	-12.5251
▁aspirin	-12.5251
▁awesomeness	-12.5251
▁ayurvedic	-12.5251
▁ballpark	-12.5251
▁behalf	-12.5251
▁belize	-12.5251
▁benifits	-12.5251
▁boom	-12.5251
▁botanical	-12.5251
▁brita	-12.5251
▁britt	-12.5251
▁bubbling	-12.5251
▁cakey	-12.5251
▁calmer	-12.5251
▁camomile	-12.5251
▁charming	-12.5251
▁cinnamony	-12.5251
▁compassion	-12.5251
▁contemplating	-12.5251
▁copious	-12.5251
▁corp	-12.5251
▁coumarin	-12.5251
▁cran	-12.5251
▁creep	-12.5251
▁crossing	-12.5251
▁cruz	-12.5251
▁define	-12.5251
▁deleted	-12.5251
▁destination	-12.5251
▁dizzy	-12.5251
▁driveway	-12.5251
▁eighty	-12.5251
▁elementary	-12.5251
▁elevation	-12.5251
▁elm	-12.5251
▁epa	-12.5251
▁equate	-12.5251
▁fascinating	-12.5251
▁fest	-12.5251
▁filed	-12.5251
▁filtering	-12.5251
▁foie	-12.5251
▁gardener	-12.5251
▁gardening	-12.5251
▁gentler	-12.5251
▁grande	-12.5251
▁gravel	-12.5251
▁gravity	-12.5251
▁guiltless	-12.5251
▁handsome	-12.5251
▁hanover	-12.5251
▁hardens	-12.5251
▁hater	-12.5251
▁highlander	-12.5251
▁hoard	-12.5251
▁horchata	-12.5251
▁ignorance	-12.5251
▁illustration	-12.5251
▁impatient	-12.5251
▁infamous	-12.5251
▁ironic	-12.5251
▁jade	-12.5251
▁james	-12.5251
▁leaky	-12.5251
▁lit	-12.5251
▁logical	-12.5251
▁lydia	-12.5251
▁mainland	-12.5251
▁martek	-12.5251
▁medifast	-12.5251
▁memphis	-12.5251
▁moistness	-12.5251
▁neglected	-12.5251
▁nestea	-12.5251
▁nevada	-12.5251
▁niederegger	-12.5251
▁oiled	-12.5251
▁omnivore	-12.5251
▁overloaded	-12.5251
▁patrick	-12.5251
▁payment	-12.5251
▁peat	-12.5251
▁permeates	-12.5251
▁pissed	-12.5251
▁poly	-12.5251
▁prey	-12.5251
▁promotional	-12.5251
▁qualita	-12.5251
▁razor	-12.5251
▁repurchasing	-12.5251
▁reunion	-12.5251
▁ross	-12.5251
▁rotel	-12.5251
▁sanity	-12.5251
▁saucy	-12.5251
▁seedless	-12.5251
▁seperately	-12.5251
▁seventy	-12.5251
▁sharper	-12.5251
▁sharpness	-12.5251
▁simplest	-12.5251
▁slathered	-12.5251
▁slivered	-12.5251
▁slowing	-12.5251
▁sockeye	-12.5251
▁spitz	-12.5251
▁stared	-12.5251
▁styling	-12.5251
▁suet	-12.5251
▁supplemental	-12.5251
▁susceptible	-12.5251
▁tellicherry	-12.5251
▁thee	-12.5251
▁thermal	-12.5251
▁toxicity	-12.5251
▁tractor	-12.5251
▁transfats	-12.5251
▁transplant	-12.5251
▁tuned	-12.5251
▁unfrosted	-12.5251
▁unilever	-12.5251
▁unreal	-12.5251
▁viscous	-12.5251
▁wand	-12.5251
▁wheatena	-12.5251
▁xtra	-12.5251
▁acetic	-12.5532
▁ahi	-12.5532
▁akita	-12.5532
▁albertsons	-12.5532
▁alpen	-12.5532
▁amusing	-12.5532
▁approached	-12.5532
▁approximate	-12.5532
▁archer	-12.5532
▁athletic	-12.5532
▁attraction	-12.5532
▁babe	-12.5532
▁bible	-12.5532
▁bjs	-12.5532
▁blanched	-12.5532
▁boosted	-12.5532
▁boycott	-12.5532
▁branding	-12.5532
▁brightly	-12.5532
▁bruce	-12.5532
▁cable	-12.5532
▁capital	-12.5532
▁caseinate	-12.5532
▁cave	-12.5532
▁cbd	-12.5532
▁cheesecloth	-12.5532
▁cherrybrook	-12.5532
▁chipolte	-12.5532
▁chlorhexidine	-12.5532
▁chocoholics	-12.5532
▁counteract	-12.5532
▁coz	-12.5532
▁cumbersome	-12.5532
▁dan	-12.5532
▁dangerously	-12.5532
▁deficient	-12.5532
▁differentiate	-12.5532
▁differnt	-12.5532
▁differs	-12.5532
▁director	-12.5532
▁dispenses	-12.5532
▁diversity	-12.5532
▁documented	-12.5532
▁eighteen	-12.5532
▁elusive	-12.5532
▁endorphin	-12.5532
▁epic	-12.5532
▁escaped	-12.5532
▁excitedly	-12.5532
▁explosive	-12.5532
▁favs	-12.5532
▁fizzies	-12.5532
▁flavouring	-12.5532
▁floored	-12.5532
▁foolish	-12.5532
▁fort	-12.5532
▁fowl	-12.5532
▁gang	-12.5532
▁geena	-12.5532
▁glop	-12.5532
▁gluey	-12.5532
▁gouda	-12.5532
▁grating	-12.5532
▁guatemalan	-12.5532
▁hain	-12.5532
▁hopped	-12.5532
▁houseplant	-12.5532
▁importing	-12.5532
▁inadvertently	-12.5532
▁incomparable	-12.5532
▁inflamed	-12.5532
▁itty	-12.5532
▁jackson	-12.5532
▁jiff	-12.5532
▁juan	-12.5532
▁judgment	-12.5532
▁keuring	-12.5532
▁koi	-12.5532
▁krinkle	-12.5532
▁lactobacillus	-12.5532
▁lifeless	-12.5532
▁lightening	-12.5532
▁lipid	-12.5532
▁logged	-12.5532
▁longing	-12.5532
▁longtime	-12.5532
▁loyalty	-12.5532
▁marshmellows	-12.5532
▁maya	-12.5532
▁melatonin	-12.5532
▁melissa	-12.5532
▁molly	-12.5532
▁motivation	-12.5532
▁multipack	-12.5532
▁nibbled	-12.5532
▁notify	-12.5532
▁nuisance	-12.5532
▁objection	-12.5532
▁overdoing	-12.5532
▁palpitation	-12.5532
▁passover	-12.5532
▁pawn	-12.5532
▁pei	-12.5532
▁pierce	-12.5532
▁pooped	-12.5532
▁premeasured	-12.5532
▁primo	-12.5532
▁prolonged	-12.5532
▁protocol	-12.5532
▁psoriasis	-12.5532
▁reflex	-12.5532
▁refrain	-12.5532
▁responsibly	-12.5532
▁retaining	-12.5532
▁retrieve	-12.5532
▁ron	-12.5532
▁rust	-12.5532
▁salada	-12.5532
▁serrano	-12.5532
▁seventh	-12.5532
▁shabby	-12.5532
▁shed	-12.5532
▁shooting	-12.5532
▁shrub	-12.5532
▁sizable	-12.5532
▁sojo	-12.5532
▁sparking	-12.5532
▁sprung	-12.5532
▁squirting	-12.5532
▁stepping	-12.5532
▁sweaty	-12.5532
▁sweep	-12.5532
▁swift	-12.5532
▁swish	-12.5532
▁tango	-12.5532
▁tbls	-12.5532
▁teh	-12.5532
▁tenth	-12.5532
▁thawing	-12.5532
▁translation	-12.5532
▁triscuits	-12.5532
▁unmatched	-12.5532
▁unrecognizable	-12.5532
▁verse	-12.5532
▁waaaay	-12.5532
▁waft	-12.5532
▁wildlife	-12.5532
▁wisely	-12.5532
▁witch	-12.5532
▁wut	-12.5532
▁zsweet	-12.5532
▁11oz	-12.5822
▁accompanies	-12.5822
▁administer	-12.5822
▁affiliated	-12.5822
▁arthritic	-12.5822
▁attacked	-12.5822
▁audio	-12.5822
▁autolyzed	-12.5822
▁aztec	-12.5822
▁bias	-12.5822
▁booze	-12.5822
▁bru	-12.5822
▁burlap	-12.5822
▁caffein	-12.5822
▁caffinated	-12.5822
▁capuccino	-12.5822
▁carnitine	-12.5822
▁cedar	-12.5822
▁chemist	-12.5822
▁clicking	-12.5822
▁concord	-12.5822
▁concrete	-12.5822
▁cosco	-12.5822
▁crisis	-12.5822
▁deceptively	-12.5822
▁delallo	-12.5822
▁designated	-12.5822
▁diminish	-12.5822
▁dipper	-12.5822
▁disturbed	-12.5822
▁doubleshot	-12.5822
▁droppings	-12.5822
▁drowned	-12.5822
▁ecuador	-12.5822
▁enable	-12.5822
▁energize	-12.5822
▁extension	-12.5822
▁flawlessly	-12.5822
▁flor	-12.5822
▁fluctuates	-12.5822
▁glenny	-12.5822
▁groomer	-12.5822
▁gulped	-12.5822
▁guru	-12.5822
▁haggis	-12.5822
▁hazel	-12.5822
▁heeler	-12.5822
▁hellman	-12.5822
▁hockey	-12.5822
▁ignorant	-12.5822
▁ineffective	-12.5822
▁inhales	-12.5822
▁inherent	-12.5822
▁inquired	-12.5822
▁interaction	-12.5822
▁jay	-12.5822
▁jbm	-12.5822
▁juiced	-12.5822
▁karma	-12.5822
▁karo	-12.5822
▁lesion	-12.5822
▁library	-12.5822
▁lighten	-12.5822
▁lyon	-12.5822
▁manitoba	-12.5822
▁marketspice	-12.5822
▁mfg	-12.5822
▁milling	-12.5822
▁munchy	-12.5822
▁museum	-12.5822
▁mussel	-12.5822
▁nathan	-12.5822
▁nutritive	-12.5822
▁ordeal	-12.5822
▁overeating	-12.5822
▁paks	-12.5822
▁pastrami	-12.5822
▁perfer	-12.5822
▁pico	-12.5822
▁pitched	-12.5822
▁pomi	-12.5822
▁predominantly	-12.5822
▁prob	-12.5822
▁professor	-12.5822
▁punched	-12.5822
▁purevia	-12.5822
▁quietly	-12.5822
▁ranged	-12.5822
▁repel	-12.5822
▁responding	-12.5822
▁restocking	-12.5822
▁restroom	-12.5822
▁riceselect	-12.5822
▁rustic	-12.5822
▁salame	-12.5822
▁scarfing	-12.5822
▁scottie	-12.5822
▁seared	-12.5822
▁sensory	-12.5822
▁shelties	-12.5822
▁shiney	-12.5822
▁sidewalk	-12.5822
▁singer	-12.5822
▁slender	-12.5822
▁slid	-12.5822
▁slowed	-12.5822
▁snackmasters	-12.5822
▁snickerdoodle	-12.5822
▁sourcing	-12.5822
▁sprig	-12.5822
▁staleness	-12.5822
▁steakhouse	-12.5822
▁stimulation	-12.5822
▁substitue	-12.5822
▁targeted	-12.5822
▁thankyou	-12.5822
▁theo	-12.5822
▁tingly	-12.5822
▁torrone	-12.5822
▁triggered	-12.5822
▁urban	-12.5822
▁vacuumed	-12.5822
▁versa	-12.5822
▁viral	-12.5822
▁virgil	-12.5822
▁visibly	-12.5822
▁wart	-12.5822
▁whopper	-12.5822
▁yogourmet	-12.5822
▁adhd	-12.6121
▁advisor	-12.6121
▁aesthetically	-12.6121
▁aldi	-12.6121
▁alpine	-12.6121
▁argan	-12.6121
▁arguably	-12.6121
▁aromatics	-12.6121
▁autistic	-12.6121
▁baba	-12.6121
▁baffled	-12.6121
▁balloon	-12.6121
▁beater	-12.6121
▁blackstrap	-12.6121
▁bleed	-12.6121
▁booda	-12.6121
▁boredom	-12.6121
▁bruschetta	-12.6121
▁c2o	-12.6121
▁carring	-12.6121
▁carte	-12.6121
▁cartridge	-12.6121
▁cavender	-12.6121
▁cdm	-12.6121
▁champ	-12.6121
▁chedder	-12.6121
▁chik	-12.6121
▁choy	-12.6121
▁chrome	-12.6121
▁citron	-12.6121
▁commend	-12.6121
▁composting	-12.6121
▁congealed	-12.6121
▁conservative	-12.6121
▁cornucopia	-12.6121
▁cricket	-12.6121
▁dating	-12.6121
▁deen	-12.6121
▁deliberately	-12.6121
▁depressed	-12.6121
▁diligent	-12.6121
▁discipline	-12.6121
▁dong	-12.6121
▁drill	-12.6121
▁drizzling	-12.6121
▁electrical	-12.6121
▁encourages	-12.6121
▁eric	-12.6121
▁forehead	-12.6121
▁fro	-12.6121
▁fryer	-12.6121
▁furikake	-12.6121
▁glutton	-12.6121
▁gm	-12.6121
▁goldendoodle	-12.6121
▁goood	-12.6121
▁gracious	-12.6121
▁hating	-12.6121
▁hehe	-12.6121
▁hirt	-12.6121
▁humus	-12.6121
▁hypoglycemic	-12.6121
▁iherb	-12.6121
▁imitate	-12.6121
▁inappropriate	-12.6121
▁independently	-12.6121
▁ingenious	-12.6121
▁injection	-12.6121
▁jacked	-12.6121
▁kalamata	-12.6121
▁ken	-12.6121
▁kola	-12.6121
▁labradoodle	-12.6121
▁leeper	-12.6121
▁lessened	-12.6121
▁lied	-12.6121
▁loathe	-12.6121
▁loin	-12.6121
▁loooove	-12.6121
▁lox	-12.6121
▁maldon	-12.6121
▁mario	-12.6121
▁melange	-12.6121
▁mentos	-12.6121
▁missouri	-12.6121
▁mtn	-12.6121
▁munched	-12.6121
▁noble	-12.6121
▁nutter	-12.6121
▁observe	-12.6121
▁olio	-12.6121
▁oxo	-12.6121
▁painfully	-12.6121
▁painless	-12.6121
▁panang	-12.6121
▁parmigiano	-12.6121
▁pasteurization	-12.6121
▁perceived	-12.6121
▁pharmaceutical	-12.6121
▁pickier	-12.6121
▁potpourri	-12.6121
▁praised	-12.6121
▁prized	-12.6121
▁prospect	-12.6121
▁prowl	-12.6121
▁qid	-12.6121
▁questioned	-12.6121
▁rarity	-12.6121
▁recommed	-12.6121
▁recording	-12.6121
▁redness	-12.6121
▁reek	-12.6121
▁refreshingly	-12.6121
▁replenishing	-12.6121
▁ridgeback	-12.6121
▁sap	-12.6121
▁satin	-12.6121
▁sided	-12.6121
▁skipjack	-12.6121
▁slave	-12.6121
▁solidify	-12.6121
▁starved	-12.6121
▁stolen	-12.6121
▁studio	-12.6121
▁suppress	-12.6121
▁temper	-12.6121
▁testimonial	-12.6121
▁tickled	-12.6121
▁timed	-12.6121
▁toughest	-12.6121
▁tourist	-12.6121
▁unlucky	-12.6121
▁unpronounceable	-12.6121
▁utilizing	-12.6121
▁vain	-12.6121
▁walgreen	-12.6121
▁walmarts	-12.6121
▁wandering	-12.6121
▁activate	-12.6429
▁adopting	-12.6429
▁adversely	-12.6429
▁ahem	-12.6429
▁albertson	-12.6429
▁alliance	-12.6429
▁alternatively	-12.6429
▁ambrosoli	-12.6429
▁amt	-12.6429
▁ancho	-12.6429
▁astonished	-12.6429
▁atrocious	-12.6429
▁attending	-12.6429
▁augment	-12.6429
▁austria	-12.6429
▁batman	-12.6429
▁behaved	-12.6429
▁bond	-12.6429
▁bribe	-12.6429
▁brightness	-12.6429
▁brocolli	-12.6429
▁brook	-12.6429
▁cakesters	-12.6429
▁calculation	-12.6429
▁caliber	-12.6429
▁carr	-12.6429
▁catfish	-12.6429
▁cellar	-12.6429
▁cinch	-12.6429
▁circulation	-12.6429
▁classmate	-12.6429
▁concession	-12.6429
▁configuration	-12.6429
▁continental	-12.6429
▁corresponding	-12.6429
▁croissant	-12.6429
▁decreasing	-12.6429
▁deduct	-12.6429
▁definetely	-12.6429
▁delcious	-12.6429
▁digital	-12.6429
▁disclosed	-12.6429
▁disolves	-12.6429
▁dreamed	-12.6429
▁education	-12.6429
▁elastic	-12.6429
▁electronics	-12.6429
▁envirokidz	-12.6429
▁exceedingly	-12.6429
▁export	-12.6429
▁font	-12.6429
▁fruition	-12.6429
▁fulfillment	-12.6429
▁gardenia	-12.6429
▁genisoy	-12.6429
▁glutten	-12.6429
▁grant	-12.6429
▁grogg	-12.6429
▁growl	-12.6429
▁gulping	-12.6429
▁hail	-12.6429
▁hors	-12.6429
▁housing	-12.6429
▁hydrogen	-12.6429
▁ibd	-12.6429
▁imperial	-12.6429
▁inability	-12.6429
▁infact	-12.6429
▁ingestion	-12.6429
▁inu	-12.6429
▁kneading	-12.6429
▁leaching	-12.6429
▁letdown	-12.6429
▁liquified	-12.6429
▁lone	-12.6429
▁loser	-12.6429
▁loudly	-12.6429
▁madness	-12.6429
▁mccanns	-12.6429
▁medaglia	-12.6429
▁mince	-12.6429
▁mislabeled	-12.6429
▁moistened	-12.6429
▁monocalcium	-12.6429
▁nick	-12.6429
▁nourished	-12.6429
▁oklahoma	-12.6429
▁outweighs	-12.6429
▁passage	-12.6429
▁pavilion	-12.6429
▁petit	-12.6429
▁petrolatum	-12.6429
▁plagued	-12.6429
▁plop	-12.6429
▁powerbar	-12.6429
▁puking	-12.6429
▁pyrithione	-12.6429
▁ra	-12.6429
▁recognition	-12.6429
▁rediculous	-12.6429
▁rehab	-12.6429
▁resolution	-12.6429
▁rex	-12.6429
▁rotating	-12.6429
▁satisfyingly	-12.6429
▁scientifically	-12.6429
▁serendipity	-12.6429
▁shoprite	-12.6429
▁smother	-12.6429
▁snip	-12.6429
▁softening	-12.6429
▁sportea	-12.6429
▁stabilizer	-12.6429
▁stiffer	-12.6429
▁stuffy	-12.6429
▁suppressant	-12.6429
▁surgeon	-12.6429
▁tabouli	-12.6429
▁takeout	-12.6429
▁tarrazu	-12.6429
▁tempered	-12.6429
▁therein	-12.6429
▁tienda	-12.6429
▁tierra	-12.6429
▁trait	-12.6429
▁transfat	-12.6429
▁tucson	-12.6429
▁understands	-12.6429
▁undigested	-12.6429
▁untill	-12.6429
▁usb	-12.6429
▁vegeta	-12.6429
▁waring	-12.6429
▁wheaten	-12.6429
▁wilted	-12.6429
▁wonton	-12.6429
▁wowed	-12.6429
▁youngster	-12.6429
▁acetate	-12.6746
▁alba	-12.6746
▁allegedly	-12.6746
▁allergenic	-12.6746
▁americanized	-12.6746
▁ammonium	-12.6746
▁ashtray	-12.6746
▁assault	-12.6746
▁awaited	-12.6746
▁basted	-12.6746
▁bbd	-12.6746
▁belive	-12.6746
▁bisphenol	-12.6746
▁blemish	-12.6746
▁bombilla	-12.6746
▁bore	-12.6746
▁bounced	-12.6746
▁boyer	-12.6746
▁branston	-12.6746
▁bratwurst	-12.6746
▁builder	-12.6746
▁calamari	-12.6746
▁cayman	-12.6746
▁centered	-12.6746
▁chardonnay	-12.6746
▁chiclets	-12.6746
▁cited	-12.6746
▁clint	-12.6746
▁cockapoo	-12.6746
▁colman	-12.6746
▁commodity	-12.6746
▁completly	-12.6746
▁conduct	-12.6746
▁correction	-12.6746
▁creamiest	-12.6746
▁cruel	-12.6746
▁cub	-12.6746
▁cultivated	-12.6746
▁cyclist	-12.6746
▁decor	-12.6746
▁definitive	-12.6746
▁definitley	-12.6746
▁defrosted	-12.6746
▁delta	-12.6746
▁deterrent	-12.6746
▁dilutes	-12.6746
▁eatting	-12.6746
▁ecstasy	-12.6746
▁efficiency	-12.6746
▁energizer	-12.6746
▁esque	-12.6746
▁ethoxyquin	-12.6746
▁excellently	-12.6746
▁falcon	-12.6746
▁flood	-12.6746
▁florist	-12.6746
▁flushing	-12.6746
▁folding	-12.6746
▁foo	-12.6746
▁glycerine	-12.6746
▁golazo	-12.6746
▁grad	-12.6746
▁grasp	-12.6746
▁gro	-12.6746
▁hack	-12.6746
▁harris	-12.6746
▁hazardous	-12.6746
▁hersey	-12.6746
▁hideous	-12.6746
▁hinge	-12.6746
▁holly	-12.6746
▁horton	-12.6746
▁hurray	-12.6746
▁inca	-12.6746
▁insoluble	-12.6746
▁insulation	-12.6746
▁iodate	-12.6746
▁irradiated	-12.6746
▁jellybeans	-12.6746
▁johnson	-12.6746
▁keurigs	-12.6746
▁lable	-12.6746
▁lightest	-12.6746
▁lizano	-12.6746
▁melba	-12.6746
▁mellower	-12.6746
▁misnomer	-12.6746
▁mississippi	-12.6746
▁moisturizes	-12.6746
▁morel	-12.6746
▁mouthwash	-12.6746
▁mulling	-12.6746
▁neo	-12.6746
▁nongshim	-12.6746
▁nugo	-12.6746
▁nutrional	-12.6746
▁oaty	-12.6746
▁occassional	-12.6746
▁octavia	-12.6746
▁ointment	-12.6746
▁oleic	-12.6746
▁pac	-12.6746
▁pancreas	-12.6746
▁peer	-12.6746
▁penetrate	-12.6746
▁pestle	-12.6746
▁pinpoint	-12.6746
▁piper	-12.6746
▁pittsburgh	-12.6746
▁pointless	-12.6746
▁police	-12.6746
▁proactive	-12.6746
▁probar	-12.6746
▁pudge	-12.6746
▁purrfectly	-12.6746
▁quebec	-12.6746
▁realizes	-12.6746
▁reap	-12.6746
▁redskin	-12.6746
▁reflection	-12.6746
▁reinforced	-12.6746
▁relate	-12.6746
▁respected	-12.6746
▁reusing	-12.6746
▁rick	-12.6746
▁romaine	-12.6746
▁runnier	-12.6746
▁scratchy	-12.6746
▁searing	-12.6746
▁senna	-12.6746
▁shady	-12.6746
▁shorted	-12.6746
▁sierra	-12.6746
▁sifted	-12.6746
▁slipping	-12.6746
▁snuck	-12.6746
▁solidly	-12.6746
▁soreness	-12.6746
▁southerner	-12.6746
▁soynut	-12.6746
▁spiciest	-12.6746
▁spooned	-12.6746
▁spruce	-12.6746
▁squeezable	-12.6746
▁stomache	-12.6746
▁stretching	-12.6746
▁substandard	-12.6746
▁sunmaid	-12.6746
▁sunscreen	-12.6746
▁taro	-12.6746
▁tastiness	-12.6746
▁territory	-12.6746
▁threshold	-12.6746
▁transplanted	-12.6746
▁tsps	-12.6746
▁ultramix	-12.6746
▁understated	-12.6746
▁unmarked	-12.6746
▁upfront	-12.6746
▁upstairs	-12.6746
▁varity	-12.6746
▁veges	-12.6746
▁venue	-12.6746
▁veranda	-12.6746
▁vocal	-12.6746
▁voted	-12.6746
▁weimaraner	-12.6746
▁whitish	-12.6746
▁wort	-12.6746
▁xlear	-12.6746
▁yacon	-12.6746
▁yak	-12.6746
▁yielded	-12.6746
▁10mg	-12.7074
▁20mg	-12.7074
▁abused	-12.7074
▁acceptance	-12.7074
▁accuracy	-12.7074
▁actuality	-12.7074
▁airhead	-12.7074
▁alvita	-12.7074
▁aquafina	-12.7074
▁aquired	-12.7074
▁armpit	-12.7074
▁assembled	-12.7074
▁assertive	-12.7074
▁attractively	-12.7074
▁await	-12.7074
▁bazooka	-12.7074
▁berkeley	-12.7074
▁biobag	-12.7074
▁blurb	-12.7074
▁bolognese	-12.7074
▁bolt	-12.7074
▁bordering	-12.7074
▁calif	-12.7074
▁camera	-12.7074
▁canceling	-12.7074
▁carol	-12.7074
▁casa	-12.7074
▁catechin	-12.7074
▁celebrated	-12.7074
▁ceo	-12.7074
▁charleston	-12.7074
▁charred	-12.7074
▁co	-12.7074
▁coffeemakers	-12.7074
▁cologne	-12.7074
▁congested	-12.7074
▁connecticut	-12.7074
▁contract	-12.7074
▁criminal	-12.7074
▁debated	-12.7074
▁diary	-12.7074
▁disconcerting	-12.7074
▁discription	-12.7074
▁disgustingly	-12.7074
▁disposakups	-12.7074
▁distasteful	-12.7074
▁dolphin	-12.7074
▁dorset	-12.7074
▁elder	-12.7074
▁elmo	-12.7074
▁entering	-12.7074
▁ethically	-12.7074
▁examination	-12.7074
▁executed	-12.7074
▁exhibit	-12.7074
▁fading	-12.7074
▁fava	-12.7074
▁fiancee	-12.7074
▁fido	-12.7074
▁fisherman	-12.7074
▁foaming	-12.7074
▁forgo	-12.7074
▁formaldehyde	-12.7074
▁fused	-12.7074
▁gallo	-12.7074
▁gastro	-12.7074
▁gelato	-12.7074
▁goopy	-12.7074
▁gradual	-12.7074
▁greatness	-12.7074
▁hahaha	-12.7074
▁hampshire	-12.7074
▁handfull	-12.7074
▁hanout	-12.7074
▁harsher	-12.7074
▁heartedly	-12.7074
▁heather	-12.7074
▁heirloom	-12.7074
▁highlighted	-12.7074
▁honeymoon	-12.7074
▁hopper	-12.7074
▁hulled	-12.7074
▁hypoglycemia	-12.7074
▁ihop	-12.7074
▁inflation	-12.7074
▁influenced	-12.7074
▁internally	-12.7074
▁irresponsible	-12.7074
▁itchiness	-12.7074
▁jungle	-12.7074
▁kee	-12.7074
▁keenan	-12.7074
▁kitamu	-12.7074
▁knowingly	-12.7074
▁kobe	-12.7074
▁konjac	-12.7074
▁limping	-12.7074
▁locking	-12.7074
▁luwak	-12.7074
▁maitland	-12.7074
▁martha	-12.7074
▁martin	-12.7074
▁medal	-12.7074
▁medela	-12.7074
▁mesa	-12.7074
▁milkbone	-12.7074
▁mojo	-12.7074
▁moore	-12.7074
▁mystic	-12.7074
▁nando	-12.7074
▁naples	-12.7074
▁nashville	-12.7074
▁nearing	-12.7074
▁newsletter	-12.7074
▁nuanced	-12.7074
▁orlando	-12.7074
▁outfit	-12.7074
▁oversight	-12.7074
▁owning	-12.7074
▁pampered	-12.7074
▁pappy	-12.7074
▁parfait	-12.7074
▁peanuty	-12.7074
▁pekinese	-12.7074
▁pinwheel	-12.7074
▁pixie	-12.7074
▁plank	-12.7074
▁pleasent	-12.7074
▁polyphenols	-12.7074
▁prawn	-12.7074
▁premature	-12.7074
▁premise	-12.7074
▁prepares	-12.7074
▁printing	-12.7074
▁quitting	-12.7074
▁ralphs	-12.7074
▁rapeseed	-12.7074
▁reapply	-12.7074
▁receipes	-12.7074
▁refridgerated	-12.7074
▁relieving	-12.7074
▁removable	-12.7074
▁reporting	-12.7074
▁restocked	-12.7074
▁resturants	-12.7074
▁revive	-12.7074
▁rhodesian	-12.7074
▁rubbish	-12.7074
▁sacramento	-12.7074
▁sadie	-12.7074
▁saint	-12.7074
▁santos	-12.7074
▁sear	-12.7074
▁seitenbacher	-12.7074
▁shameful	-12.7074
▁shar	-12.7074
▁shining	-12.7074
▁sizing	-12.7074
▁ski	-12.7074
▁slop	-12.7074
▁smelt	-12.7074
▁smoothed	-12.7074
▁sneezing	-12.7074
▁snout	-12.7074
▁snub	-12.7074
▁souper	-12.7074
▁sparkly	-12.7074
▁specimen	-12.7074
▁spicyness	-12.7074
▁stall	-12.7074
▁stanley	-12.7074
▁stateside	-12.7074
▁stomachache	-12.7074
▁styled	-12.7074
▁suchard	-12.7074
▁supplementation	-12.7074
▁syringe	-12.7074
▁szechuan	-12.7074
▁tha	-12.7074
▁thirteen	-12.7074
▁thrifty	-12.7074
▁tinned	-12.7074
▁trailer	-12.7074
▁transform	-12.7074
▁trashed	-12.7074
▁trifle	-12.7074
▁trivial	-12.7074
▁uterus	-12.7074
▁utility	-12.7074
▁valdosta	-12.7074
▁weighted	-12.7074
▁westbrae	-12.7074
▁whisked	-12.7074
▁wiser	-12.7074
▁workday	-12.7074
▁wreck	-12.7074
▁yankee	-12.7074
▁yin	-12.7074
▁yucca	-12.7074
▁zotz	-12.7074
▁12th	-12.7413
▁20lbs	-12.7413
▁21st	-12.7413
▁amaze	-12.7413
▁amz	-12.7413
▁anemic	-12.7413
▁aromat	-12.7413
▁artemis	-12.7413
▁asset	-12.7413
▁awesomely	-12.7413
▁bathing	-12.7413
▁behave	-12.7413
▁bertolli	-12.7413
▁bowling	-12.7413
▁brake	-12.7413
▁brim	-12.7413
▁capability	-12.7413
▁capri	-12.7413
▁casino	-12.7413
▁chlorophyll	-12.7413
▁crawl	-12.7413
▁crayon	-12.7413
▁crystallize	-12.7413
▁depicted	-12.7413
▁designation	-12.7413
▁detrimental	-12.7413
▁differing	-12.7413
▁dis	-12.7413
▁domino	-12.7413
▁downstairs	-12.7413
▁effortlessly	-12.7413
▁electronic	-12.7413
▁enamored	-12.7413
▁envy	-12.7413
▁experimental	-12.7413
▁explicitly	-12.7413
▁fanta	-12.7413
▁fatal	-12.7413
▁firehouse	-12.7413
▁fondly	-12.7413
▁fruitier	-12.7413
▁gia	-12.7413
▁glutenfreeda	-12.7413
▁goofy	-12.7413
▁gormet	-12.7413
▁graduated	-12.7413
▁graduation	-12.7413
▁grazing	-12.7413
▁happybellies	-12.7413
▁harvard	-12.7413
▁hauling	-12.7413
▁healthily	-12.7413
▁heathy	-12.7413
▁herby	-12.7413
▁herr	-12.7413
▁hormonal	-12.7413
▁housewarming	-12.7413
▁immense	-12.7413
▁immersion	-12.7413
▁incase	-12.7413
▁indescribable	-12.7413
▁indigestible	-12.7413
▁indus	-12.7413
▁innovation	-12.7413
▁inorganic	-12.7413
▁institute	-12.7413
▁jel	-12.7413
▁kiddo	-12.7413
▁kinnikinnick	-12.7413
▁knowledgeable	-12.7413
▁kohl	-12.7413
▁kusmi	-12.7413
▁lark	-12.7413
▁lettering	-12.7413
▁lisa	-12.7413
▁loc	-12.7413
▁lorenzo	-12.7413
▁lucked	-12.7413
▁maggot	-12.7413
▁magnum	-12.7413
▁mallomar	-12.7413
▁manure	-12.7413
▁masculine	-12.7413
▁mead	-12.7413
▁meager	-12.7413
▁medallion	-12.7413
▁medjool	-12.7413
▁mellows	-12.7413
▁mg	-12.7413
▁mickey	-12.7413
▁moctails	-12.7413
▁monophosphate	-12.7413
▁moreso	-12.7413
▁morningstar	-12.7413
▁moron	-12.7413
▁moxie	-12.7413
▁muscovado	-12.7413
▁muscular	-12.7413
▁narrowed	-12.7413
▁nell	-12.7413
▁norway	-12.7413
▁nunaturals	-12.7413
▁nutricious	-12.7413
▁nutrium	-12.7413
▁obligate	-12.7413
▁obsessive	-12.7413
▁ocha	-12.7413
▁odwalla	-12.7413
▁officepro	-12.7413
▁oiliness	-12.7413
▁parcel	-12.7413
▁patented	-12.7413
▁peacock	-12.7413
▁peony	-12.7413
▁permit	-12.7413
▁phenylalanine	-12.7413
▁phony	-12.7413
▁pinkish	-12.7413
▁poached	-12.7413
▁poupon	-12.7413
▁powerhouse	-12.7413
▁presentable	-12.7413
▁preventative	-12.7413
▁probe	-12.7413
▁proving	-12.7413
▁rage	-12.7413
▁ragu	-12.7413
▁recipie	-12.7413
▁refresher	-12.7413
▁refrig	-12.7413
▁reinforcement	-12.7413
▁retirement	-12.7413
▁revelation	-12.7413
▁reynard	-12.7413
▁samoa	-12.7413
▁sara	-12.7413
▁scan	-12.7413
▁secretly	-12.7413
▁shifted	-12.7413
▁shoved	-12.7413
▁shoyu	-12.7413
▁shrunk	-12.7413
▁sideways	-12.7413
▁sieve	-12.7413
▁snapea	-12.7413
▁solidifies	-12.7413
▁soooooooo	-12.7413
▁sorted	-12.7413
▁spine	-12.7413
▁stabilize	-12.7413
▁stabilized	-12.7413
▁stickier	-12.7413
▁stimulates	-12.7413
▁subsided	-12.7413
▁supervised	-12.7413
▁tac	-12.7413
▁tai	-12.7413
▁tater	-12.7413
▁tbl	-12.7413
▁temple	-12.7413
▁terrified	-12.7413
▁testament	-12.7413
▁textural	-12.7413
▁tignor	-12.7413
▁tilt	-12.7413
▁timid	-12.7413
▁tipping	-12.7413
▁tulip	-12.7413
▁tweaked	-12.7413
▁unanimous	-12.7413
▁unchanged	-12.7413
▁undetectable	-12.7413
▁unmistakable	-12.7413
▁unnecessarily	-12.7413
▁unrealistic	-12.7413
▁unscented	-12.7413
▁unsweet	-12.7413
▁venus	-12.7413
▁vomitting	-12.7413
▁vox	-12.7413
▁wretched	-12.7413
▁wrist	-12.7413
▁wyler	-12.7413
▁11th	-12.7764
▁activated	-12.7764
▁ade	-12.7764
▁adjective	-12.7764
▁admire	-12.7764
▁aide	-12.7764
▁alergic	-12.7764
▁alpo	-12.7764
▁anthocyanins	-12.7764
▁arises	-12.7764
▁astringency	-12.7764
▁attended	-12.7764
▁awareness	-12.7764
▁backwards	-12.7764
▁badia	-12.7764
▁barefoot	-12.7764
▁bariani	-12.7764
▁baseline	-12.7764
▁betting	-12.7764
▁bewley	-12.7764
▁bib	-12.7764
▁bicycle	-12.7764
▁bisquits	-12.7764
▁biter	-12.7764
▁blink	-12.7764
▁blt	-12.7764
▁bristle	-12.7764
▁bumblebee	-12.7764
▁cab	-12.7764
▁caked	-12.7764
▁carbers	-12.7764
▁casbah	-12.7764
▁catalina	-12.7764
▁cease	-12.7764
▁chocolatier	-12.7764
▁cib	-12.7764
▁cleanliness	-12.7764
▁clipper	-12.7764
▁coaster	-12.7764
▁communicate	-12.7764
▁comparably	-12.7764
▁comparative	-12.7764
▁compelling	-12.7764
▁copied	-12.7764
▁crawfish	-12.7764
▁crohn	-12.7764
▁cubicle	-12.7764
▁curbing	-12.7764
▁curdled	-12.7764
▁daunting	-12.7764
▁daytime	-12.7764
▁delete	-12.7764
▁dermatologist	-12.7764
▁deserving	-12.7764
▁dietitian	-12.7764
▁digit	-12.7764
▁donation	-12.7764
▁dum	-12.7764
▁dummy	-12.7764
▁efficacy	-12.7764
▁effortless	-12.7764
▁elevate	-12.7764
▁embedded	-12.7764
▁emerge	-12.7764
▁endorsed	-12.7764
▁enticed	-12.7764
▁eon	-12.7764
▁equates	-12.7764
▁expands	-12.7764
▁experation	-12.7764
▁exposing	-12.7764
▁extends	-12.7764
▁eyebrow	-12.7764
▁faithfully	-12.7764
▁fame	-12.7764
▁fate	-12.7764
▁filtration	-12.7764
▁fin	-12.7764
▁flawed	-12.7764
▁focusing	-12.7764
▁foolishly	-12.7764
▁frappucino	-12.7764
▁fume	-12.7764
▁fussie	-12.7764
▁galileo	-12.7764
▁garvey	-12.7764
▁goldens	-12.7764
▁gourmand	-12.7764
▁graininess	-12.7764
▁gratification	-12.7764
▁gyro	-12.7764
▁habitat	-12.7764
▁herbes	-12.7764
▁hollandaise	-12.7764
▁hosting	-12.7764
▁hubbard	-12.7764
▁incandescent	-12.7764
▁incense	-12.7764
▁inclination	-12.7764
▁ingrediant	-12.7764
▁intelligentsia	-12.7764
▁irrelevant	-12.7764
▁izzy	-12.7764
▁jrt	-12.7764
▁kum	-12.7764
▁leaner	-12.7764
▁lethal	-12.7764
▁likelihood	-12.7764
▁malaysia	-12.7764
▁mallo	-12.7764
▁massachusetts	-12.7764
▁mellowed	-12.7764
▁mestemacher	-12.7764
▁minsi	-12.7764
▁mirin	-12.7764
▁misrepresentation	-12.7764
▁multiply	-12.7764
▁municipal	-12.7764
▁musky	-12.7764
▁myth	-12.7764
▁nationwide	-12.7764
▁nay	-12.7764
▁nestl	-12.7764
▁neurotoxin	-12.7764
▁norwegian	-12.7764
▁oatcake	-12.7764
▁offending	-12.7764
▁ostrim	-12.7764
▁pamphlet	-12.7764
▁personalized	-12.7764
▁pizzle	-12.7764
▁placement	-12.7764
▁porcelain	-12.7764
▁powerade	-12.7764
▁predict	-12.7764
▁predominate	-12.7764
▁pretending	-12.7764
▁proposition	-12.7764
▁pruning	-12.7764
▁puffiness	-12.7764
▁pungency	-12.7764
▁purposely	-12.7764
▁putrid	-12.7764
▁pvc	-12.7764
▁qty	-12.7764
▁quickest	-12.7764
▁quickie	-12.7764
▁raisens	-12.7764
▁reclosable	-12.7764
▁recommened	-12.7764
▁regarded	-12.7764
▁resorting	-12.7764
▁restless	-12.7764
▁revenge	-12.7764
▁revv	-12.7764
▁rocher	-12.7764
▁saigon	-12.7764
▁satified	-12.7764
▁sauted	-12.7764
▁sazon	-12.7764
▁seeping	-12.7764
▁shockingly	-12.7764
▁shorthair	-12.7764
▁shu	-12.7764
▁skepticism	-12.7764
▁slimey	-12.7764
▁softly	-12.7764
▁specification	-12.7764
▁spelled	-12.7764
▁spree	-12.7764
▁squashed	-12.7764
▁standout	-12.7764
▁steeper	-12.7764
▁steve	-12.7764
▁stiffness	-12.7764
▁suave	-12.7764
▁suburb	-12.7764
▁sucanat	-12.7764
▁supported	-12.7764
▁surge	-12.7764
▁therapeutic	-12.7764
▁tooberry	-12.7764
▁traveler	-12.7764
▁treacle	-12.7764
▁treadmill	-12.7764
▁tripled	-12.7764
▁unremarkable	-12.7764
▁unsatisfactory	-12.7764
▁updating	-12.7764
▁vegi	-12.7764
▁westies	-12.7764
▁woo	-12.7764
▁zoom	-12.7764
▁100mg	-12.8128
▁101	-12.8128
▁aaa	-12.8128
▁abomination	-12.8128
▁acidophilus	-12.8128
▁alka	-12.8128
▁amazes	-12.8128
▁amzn	-12.8128
▁apocalypse	-12.8128
▁aqua	-12.8128
▁awe	-12.8128
▁breakable	-12.8128
▁bride	-12.8128
▁brm	-12.8128
▁bubba	-12.8128
▁bum	-12.8128
▁candybar	-12.8128
▁cantaloupe	-12.8128
▁chat	-12.8128
▁chocalate	-12.8128
▁chocolove	-12.8128
▁choosy	-12.8128
▁cleveland	-12.8128
▁clutter	-12.8128
▁cole	-12.8128
▁coleslaw	-12.8128
▁combing	-12.8128
▁compensation	-12.8128
▁condo	-12.8128
▁confidently	-12.8128
▁conserve	-12.8128
▁converting	-12.8128
▁convienient	-12.8128
▁coyote	-12.8128
▁critique	-12.8128
▁crow	-12.8128
▁curling	-12.8128
▁damned	-12.8128
▁daring	-12.8128
▁dassant	-12.8128
▁decadence	-12.8128
▁deformed	-12.8128
▁demerara	-12.8128
▁devotee	-12.8128
▁dissipate	-12.8128
▁diy	-12.8128
▁dogfoodadvisor	-12.8128
▁downgrade	-12.8128
▁dulse	-12.8128
▁durian	-12.8128
▁dutched	-12.8128
▁enamel	-12.8128
▁ethiopia	-12.8128
▁everthing	-12.8128
▁fibromyalgia	-12.8128
▁filbert	-12.8128
▁forbid	-12.8128
▁fulfills	-12.8128
▁funk	-12.8128
▁geez	-12.8128
▁genre	-12.8128
▁goulash	-12.8128
▁guayusa	-12.8128
▁gulf	-12.8128
▁gummie	-12.8128
▁han	-12.8128
▁handbag	-12.8128
▁hollywood	-12.8128
▁hopping	-12.8128
▁horn	-12.8128
▁hug	-12.8128
▁imbalance	-12.8128
▁incorporates	-12.8128
▁inhaler	-12.8128
▁initiative	-12.8128
▁inserting	-12.8128
▁insight	-12.8128
▁intending	-12.8128
▁internationally	-12.8128
▁intervention	-12.8128
▁investigated	-12.8128
▁jake	-12.8128
▁joulies	-12.8128
▁judged	-12.8128
▁jumbled	-12.8128
▁kindergarten	-12.8128
▁krogers	-12.8128
▁lance	-12.8128
▁leonard	-12.8128
▁litle	-12.8128
▁luau	-12.8128
▁malamute	-12.8128
▁mangled	-12.8128
▁map	-12.8128
▁mildest	-12.8128
▁mmmmmmmm	-12.8128
▁mouthwatering	-12.8128
▁munchie	-12.8128
▁neutralize	-12.8128
▁newfoundland	-12.8128
▁noh	-12.8128
▁nonexistent	-12.8128
▁nora	-12.8128
▁offend	-12.8128
▁paragraph	-12.8128
▁parthenon	-12.8128
▁participant	-12.8128
▁pepto	-12.8128
▁performing	-12.8128
▁political	-12.8128
▁principal	-12.8128
▁proplan	-12.8128
▁quik	-12.8128
▁radius	-12.8128
▁ravenous	-12.8128
▁reacting	-12.8128
▁reassuring	-12.8128
▁recived	-12.8128
▁recognizes	-12.8128
▁recomment	-12.8128
▁reseller	-12.8128
▁reset	-12.8128
▁restrictive	-12.8128
▁robot	-12.8128
▁robusto	-12.8128
▁rodeo	-12.8128
▁roobios	-12.8128
▁russa	-12.8128
▁rusty	-12.8128
▁salivating	-12.8128
▁sandwhich	-12.8128
▁satiate	-12.8128
▁sayin	-12.8128
▁scoopable	-12.8128
▁scorched	-12.8128
▁sexy	-12.8128
▁shelling	-12.8128
▁sichuan	-12.8128
▁silence	-12.8128
▁skewer	-12.8128
▁snacked	-12.8128
▁snickerdoodles	-12.8128
▁softener	-12.8128
▁somthing	-12.8128
▁sporadically	-12.8128
▁stretchy	-12.8128
▁suppliment	-12.8128
▁sweetie	-12.8128
▁sworn	-12.8128
▁tagalong	-12.8128
▁tastewise	-12.8128
▁theoretically	-12.8128
▁ther	-12.8128
▁thinning	-12.8128
▁throughly	-12.8128
▁tighter	-12.8128
▁tradeoff	-12.8128
▁transforms	-12.8128
▁tricalcium	-12.8128
▁trump	-12.8128
▁unattractive	-12.8128
▁understandably	-12.8128
▁unfurl	-12.8128
▁uninitiated	-12.8128
▁unpasteurized	-12.8128
▁unsurpassed	-12.8128
▁vaseline	-12.8128
▁verge	-12.8128
▁violent	-12.8128
▁volatile	-12.8128
▁volcanic	-12.8128
▁wafting	-12.8128
▁wealth	-12.8128
▁weirdly	-12.8128
▁winco	-12.8128
▁wurly	-12.8128
▁xantham	-12.8128
▁yadda	-12.8128
▁yummmmm	-12.8128
▁zippy	-12.8128
▁2002	-12.8505
▁abandon	-12.8505
▁acquainted	-12.8505
▁ahh	-12.8505
▁alergies	-12.8505
▁alligator	-12.8505
▁analogy	-12.8505
▁anchor	-12.8505
▁ankle	-12.8505
▁arkansas	-12.8505
▁arriba	-12.8505
▁astonishing	-12.8505
▁augments	-12.8505
▁bachelor	-12.8505
▁bariatric	-12.8505
▁basketball	-12.8505
▁baste	-12.8505
▁battered	-12.8505
▁beany	-12.8505
▁bertie	-12.8505
▁billing	-12.8505
▁binding	-12.8505
▁biobags	-12.8505
▁blamed	-12.8505
▁blocking	-12.8505
▁bogus	-12.8505
▁bosch	-12.8505
▁broiler	-12.8505
▁bulgur	-12.8505
▁carbing	-12.8505
▁cautiously	-12.8505
▁cee	-12.8505
▁cfl	-12.8505
▁chlorinated	-12.8505
▁cholestrol	-12.8505
▁chummies	-12.8505
▁classique	-12.8505
▁cock	-12.8505
▁competes	-12.8505
▁concious	-12.8505
▁constitute	-12.8505
▁consultant	-12.8505
▁cookout	-12.8505
▁crisped	-12.8505
▁crummy	-12.8505
▁curved	-12.8505
▁dashed	-12.8505
▁deboles	-12.8505
▁devine	-12.8505
▁dextrin	-12.8505
▁dietician	-12.8505
▁digestable	-12.8505
▁dim	-12.8505
▁dino	-12.8505
▁dissipates	-12.8505
▁distinguished	-12.8505
▁distributes	-12.8505
▁division	-12.8505
▁dock	-12.8505
▁dome	-12.8505
▁donates	-12.8505
▁drainage	-12.8505
▁drake	-12.8505
▁drowning	-12.8505
▁dundee	-12.8505
▁earthiness	-12.8505
▁epidemic	-12.8505
▁eraser	-12.8505
▁ester	-12.8505
▁exaggerated	-12.8505
▁exit	-12.8505
▁expertise	-12.8505
▁extremly	-12.8505
▁eyelid	-12.8505
▁fireplace	-12.8505
▁franchise	-12.8505
▁frosty	-12.8505
▁frothing	-12.8505
▁fudgey	-12.8505
▁gob	-12.8505
▁gprotein	-12.8505
▁grandaughter	-12.8505
▁gravitate	-12.8505
▁greenhouse	-12.8505
▁groove	-12.8505
▁heater	-12.8505
▁heh	-12.8505
▁hitch	-12.8505
▁hortons	-12.8505
▁hulless	-12.8505
▁hyperbole	-12.8505
▁ichiban	-12.8505
▁improper	-12.8505
▁incl	-12.8505
▁infrequently	-12.8505
▁insignificant	-12.8505
▁inspiring	-12.8505
▁irritant	-12.8505
▁jamba	-12.8505
▁judy	-12.8505
▁justifies	-12.8505
▁kickin	-12.8505
▁kitchenaid	-12.8505
▁koala	-12.8505
▁labrada	-12.8505
▁laptop	-12.8505
▁lawyer	-12.8505
▁linketts	-12.8505
▁looser	-12.8505
▁lucia	-12.8505
▁lungo	-12.8505
▁massaging	-12.8505
▁measly	-12.8505
▁methionine	-12.8505
▁metro	-12.8505
▁mgtotal	-12.8505
▁mobile	-12.8505
▁monopoly	-12.8505
▁montmorency	-12.8505
▁mre	-12.8505
▁mucous	-12.8505
▁mucus	-12.8505
▁mushed	-12.8505
▁nascar	-12.8505
▁nite	-12.8505
▁notwithstanding	-12.8505
▁nuking	-12.8505
▁occassion	-12.8505
▁oeuvre	-12.8505
▁omitted	-12.8505
[...]
