<unk>	0
<s>	0
</s>	0
▁like	-4.43619
▁taste	-4.62124
▁good	-4.69911
▁one	-4.75064
▁product	-4.78268
▁flavor	-4.78628
▁coffee	-4.88104
▁great	-4.88975
▁would	-4.9246
▁love	-4.9288
▁tea	-4.98376
▁food	-5.07692
▁get	-5.23816
▁make	-5.32243
▁time	-5.37719
▁really	-5.41
▁dog	-5.42872
▁much	-5.48001
▁amazon	-5.48529
▁also	-5.56004
▁use	-5.5713
▁cup	-5.57601
▁little	-5.58831
▁price	-5.59114
▁bag	-5.5988
▁buy	-5.65223
▁best	-5.66564
▁find	-5.68375
▁even	-5.69264
▁tried	-5.69699
▁well	-5.70709
▁better	-5.73638
▁try	-5.75816
▁store	-5.78226
▁day	-5.81143
▁box	-5.82359
▁chocolate	-5.82634
▁eat	-5.8433
▁treat	-5.85528
▁water	-5.86097
▁sugar	-5.86283
▁drink	-5.88101
▁first	-5.88188
▁year	-5.901
▁brand	-5.94673
▁could	-5.94937
▁cat	-5.96857
▁found	-5.99579
▁used	-6.00844
▁sweet	-6.01142
▁way	-6.04464
▁free	-6.0656
▁made	-6.06577
▁bought	-6.07157
▁cannot	-6.09059
▁think	-6.09221
▁give	-6.11292
▁two	-6.11881
▁bit	-6.13839
▁thing	-6.14122
▁say	-6.145
▁order	-6.14975
▁know	-6.16066
▁since	-6.1624
▁mix	-6.17462
▁want	-6.20636
▁favorite	-6.20737
▁still	-6.22241
▁ingredient	-6.22651
▁nice	-6.25045
▁lot	-6.25361
▁delicious	-6.26316
▁got	-6.26615
▁pack	-6.26808
▁many	-6.27345
▁recommend	-6.28407
▁add	-6.28887
▁bar	-6.2948
▁snack	-6.30632
▁work	-6.31797
▁never	-6.32998
▁need	-6.34122
▁hot	-6.35235
▁something	-6.35281
▁keep	-6.35375
▁come	-6.36219
▁every	-6.37094
▁milk	-6.37142
▁stuff	-6.40699
▁review	-6.40723
▁without	-6.41664
▁always	-6.42714
▁right	-6.4289
▁organic	-6.43041
▁quality	-6.44004
▁package	-6.44822
▁le	-6.45027
▁healthy	-6.46244
▁different	-6.46661
▁take	-6.47765
▁old	-6.48056
▁enough	-6.49525
▁however	-6.49606
▁ever	-6.50363
▁ordered	-6.50417
▁back	-6.5058
▁oil	-6.50798
▁chip	-6.51866
▁small	-6.5228
▁perfect	-6.52751
▁put	-6.53141
▁though	-6.53757
▁month	-6.53953
▁easy	-6.54376
▁calorie	-6.54942
▁using	-6.55255
▁fresh	-6.56257
▁green	-6.56315
▁sure	-6.56603
▁hard	-6.56835
▁long	-6.56921
▁strong	-6.57824
▁bad	-6.58028
▁sauce	-6.58557
▁bottle	-6.59385
▁whole	-6.6019
▁smell	-6.604
▁eating	-6.6043
▁high	-6.61394
▁problem	-6.61516
▁buying	-6.61819
▁salt	-6.63198
▁regular	-6.63383
▁definitely	-6.63476
▁see	-6.63507
▁last	-6.63848
▁enjoy	-6.64096
▁size	-6.64221
▁thought	-6.64752
▁natural	-6.6516
▁local	-6.66299
▁far	-6.66714
▁cooky	-6.67162
▁chicken	-6.67644
▁happy	-6.6787
▁looking	-6.69172
▁going	-6.70324
▁pretty	-6.70689
▁actually	-6.70956
▁star	-6.73317
▁tasty	-6.7383
▁big	-6.74346
▁people	-6.74449
▁butter	-6.74553
▁another	-6.74864
▁quite	-6.75945
▁new	-6.7619
▁purchase	-6.76472
▁wonderful	-6.76966
▁feel	-6.7725
▁cereal	-6.77498
▁shipping	-6.77534
▁item	-6.77712
▁look	-6.77855
▁fruit	-6.78249
▁candy	-6.7868
▁kind	-6.7868
▁almost	-6.79439
▁amount	-6.80533
▁may	-6.81159
▁texture	-6.8127
▁real	-6.81566
▁diet	-6.82459
▁per	-6.82572
▁low	-6.82609
▁fat	-6.83739
▁purchased	-6.83853
▁tasted	-6.84004
▁gluten	-6.84157
▁bean	-6.84271
▁highly	-6.84347
▁around	-6.8515
▁anything	-6.85497
▁blend	-6.87561
▁half	-6.8764
▁excellent	-6.87798
▁variety	-6.8847
▁worth	-6.8855
▁week	-6.8859
▁rice	-6.89268
▁tasting	-6.89468
▁coconut	-6.89709
▁dry	-6.8983
▁grocery	-6.8987
▁peanut	-6.90314
▁expensive	-6.92854
▁case	-6.93353
▁kid	-6.93813
▁family	-6.94317
▁getting	-6.9512
▁protein	-6.95503
▁company	-6.95631
▁full	-6.9593
▁added	-6.96359
▁came	-6.96531
▁trying	-6.97265
▁probably	-6.97352
▁said	-6.97831
▁morning	-6.98312
▁home	-6.98399
▁meal	-6.99015
▁received	-6.99104
▁dark	-6.99192
▁away	-6.99458
▁several	-6.99591
▁friend	-6.99724
▁piece	-7.00125
▁loved	-7.00662
▁vanilla	-7.01111
▁usually	-7.01337
▁help	-7.03667
▁might	-7.04224
▁seems	-7.05722
▁ounce	-7.05959
▁flavored	-7.06766
▁cost	-7.07196
▁health	-7.07292
▁minute	-7.07724
▁light	-7.08255
▁making	-7.08643
▁top	-7.09915
▁nothing	-7.10507
▁serving	-7.10507
▁three	-7.11053
▁arrived	-7.11103
▁black	-7.11502
▁nut	-7.11502
▁recipe	-7.12154
▁soup	-7.12659
▁money	-7.12709
▁honey	-7.13522
▁save	-7.13778
▁large	-7.1388
▁juice	-7.14034
▁bitter	-7.14806
▁instead	-7.15428
▁available	-7.15636
▁drinking	-7.15897
▁especially	-7.17583
▁able	-7.17637
▁fact	-7.17637
▁least	-7.17903
▁baby	-7.19677
▁type	-7.20222
▁cheese	-7.20495
▁husband	-7.20769
▁deal	-7.22149
▁bread	-7.22707
▁extra	-7.22763
▁disappointed	-7.23043
▁syrup	-7.23043
▁others	-7.24627
▁decided	-7.24798
▁next	-7.24913
▁maybe	-7.25027
▁cream	-7.25084
▁spice	-7.25141
▁let	-7.25256
▁packaging	-7.25486
▁second	-7.25543
▁smooth	-7.2641
▁either	-7.26643
▁gave	-7.26817
▁prefer	-7.27168
▁breakfast	-7.2799
▁fine	-7.28049
▁corn	-7.28167
▁chew	-7.28226
▁energy	-7.28226
▁roast	-7.28759
▁white	-7.28878
▁went	-7.28997
▁wish	-7.29236
▁liked	-7.29295
▁house	-7.29594
▁meat	-7.30075
▁gift	-7.30195
▁open	-7.30316
▁started	-7.30316
▁cheaper	-7.30679
▁hand	-7.30739
▁although	-7.30921
▁absolutely	-7.31898
▁jar	-7.31898
▁quickly	-7.31898
▁powder	-7.31959
▁packet	-7.32082
▁seem	-7.32698
▁can	-7.32883
▁couple	-7.33069
▁ago	-7.33256
▁plus	-7.33629
▁container	-7.33692
▁popcorn	-7.33692
▁recommended	-7.35011
▁grain	-7.35264
▁read	-7.35328
▁yet	-7.35646
▁red	-7.35773
▁wanted	-7.36541
▁must	-7.36927
▁longer	-7.37379
▁cracker	-7.37574
▁hour	-7.37574
▁side	-7.3829
▁almond	-7.39012
▁else	-7.39143
▁amazing	-7.3954
▁potato	-7.39738
▁took	-7.39805
▁rich	-7.39938
▁stick	-7.40671
▁fast	-7.40738
▁pasta	-7.40805
▁ordering	-7.40872
▁cookie	-7.40939
▁fan	-7.4141
▁soft	-7.42427
▁weight	-7.43316
▁rather	-7.44075
▁anyone	-7.44214
▁mouth	-7.44214
▁end	-7.447
▁everything	-7.45259
▁etc	-7.4547
▁version	-7.45751
▁quick	-7.45822
▁pound	-7.45892
▁reason	-7.46245
▁color	-7.46458
▁leaf	-7.46529
▁part	-7.46956
▁life	-7.4717
▁market	-7.47456
▁glad	-7.47527
▁wheat	-7.47599
▁son	-7.48319
▁hair	-7.48754
▁plastic	-7.49409
▁difference	-7.50289
▁tell	-7.50289
▁pod	-7.51178
▁apple	-7.51252
▁noodle	-7.51326
▁spicy	-7.51475
▁issue	-7.51774
▁everyone	-7.52978
▁keurig	-7.52978
▁place	-7.53054
▁seed	-7.53738
▁super	-7.53814
▁dried	-7.54197
▁ice	-7.54273
▁vitamin	-7.54504
▁choice	-7.54734
▁crunchy	-7.5512
▁sometimes	-7.55275
▁brew	-7.55353
▁cold	-7.55508
▁cinnamon	-7.55741
▁thank	-7.55741
▁bowl	-7.56287
▁cake	-7.56522
▁bold	-7.56679
▁value	-7.56679
▁cook	-7.56837
▁online	-7.57944
▁ground	-7.58183
▁believe	-7.58583
▁starbucks	-7.58743
▁bite	-7.59629
▁daughter	-7.59791
▁start	-7.60034
▁fiber	-7.60441
▁beef	-7.60523
▁cooking	-7.60604
▁cut	-7.6085
▁machine	-7.6085
▁care	-7.61507
▁ginger	-7.61507
▁gum	-7.61507
▁run	-7.6159
▁slightly	-7.61672
▁lemon	-7.61838
▁date	-7.6192
▁mean	-7.62252
▁artificial	-7.62501
▁pet	-7.62501
▁oatmeal	-7.62752
▁mixed	-7.63086
▁overall	-7.63086
▁yummy	-7.6317
▁formula	-7.63254
▁thanks	-7.63254
▁alternative	-7.63338
▁easily	-7.63843
▁opened	-7.63843
▁line	-7.64265
▁100	-7.65288
▁sweetener	-7.65459
▁clean	-7.65803
▁brown	-7.65889
▁result	-7.65889
▁soda	-7.65975
▁soy	-7.66493
▁hope	-7.66928
▁go	-7.67539
▁pepper	-7.67714
▁flour	-7.68066
▁teeth	-7.68242
▁four	-7.68595
▁change	-7.6895
▁awesome	-7.69217
▁dish	-7.69395
▁jerky	-7.69395
▁left	-7.69395
▁list	-7.69484
▁smaller	-7.69663
▁enjoyed	-7.69931
▁french	-7.71104
▁canned	-7.71286
▁similar	-7.71468
▁heat	-7.71559
▁salty	-7.71559
▁exactly	-7.72016
▁orange	-7.72016
▁giving	-7.72383
▁carry	-7.72475
▁recently	-7.72659
▁often	-7.72751
▁course	-7.73213
▁wife	-7.73213
▁night	-7.73678
▁reviewer	-7.73678
▁plain	-7.74145
▁original	-7.75084
▁content	-7.75368
▁cocoa	-7.76033
▁caffeine	-7.76224
▁surprised	-7.76607
▁simply	-7.76703
▁guess	-7.76799
▁aroma	-7.76895
▁pleased	-7.76991
▁experience	-7.77184
▁finally	-7.77667
▁decaf	-7.77958
▁ate	-7.78055
▁yes	-7.78348
▁feed	-7.78543
▁aftertaste	-7.79131
▁close	-7.79328
▁subscribe	-7.79525
▁label	-7.79624
▁wrong	-7.8002
▁salad	-7.80517
▁non	-7.80617
▁saw	-7.80817
▁daily	-7.80917
▁inside	-7.80917
▁benefit	-7.81017
▁single	-7.81017
▁looked	-7.81318
▁sodium	-7.81419
▁noticed	-7.81519
▁special	-7.81721
▁past	-7.81822
▁point	-7.82024
▁pop	-7.82328
▁fish	-7.82735
▁pay	-7.82735
▁mild	-7.83041
▁expected	-7.83349
▁compared	-7.83657
▁sell	-7.8376
▁vet	-7.83863
▁body	-7.84483
▁cherry	-7.84795
▁contains	-7.85317
▁live	-7.85421
▁service	-7.85421
▁huge	-7.85736
▁pouch	-7.85841
▁note	-7.85946
▁option	-7.85946
▁gram	-7.86474
▁skin	-7.86474
▁delivery	-7.8658
▁child	-7.86898
▁mind	-7.86898
▁needed	-7.86898
▁pot	-7.87217
▁name	-7.87431
▁customer	-7.87538
▁gone	-7.87538
▁someone	-7.87538
▁given	-7.87645
▁stomach	-7.87645
▁olive	-7.87859
▁already	-7.87966
▁egg	-7.87966
▁espresso	-7.88074
▁bone	-7.88505
▁due	-7.88613
▁adding	-7.88721
▁iced	-7.88721
▁bulk	-7.8883
▁glass	-7.8883
▁along	-7.89046
▁unfortunately	-7.89373
▁idea	-7.89809
▁maker	-7.89809
▁medium	-7.90468
▁stock	-7.90578
▁toy	-7.90689
▁based	-7.90799
▁completely	-7.90799
▁picky	-7.90799
▁vegetable	-7.91131
▁flavorful	-7.91353
▁baking	-7.91464
▁stay	-7.91464
▁chewy	-7.91575
▁leave	-7.91575
▁packaged	-7.92022
▁later	-7.92134
▁pill	-7.92134
▁instant	-7.92583
▁soon	-7.92583
▁larger	-7.93373
▁filling	-7.93487
▁seasoning	-7.93487
▁please	-7.936
▁mine	-7.93714
▁batch	-7.93828
▁convenient	-7.94513
▁strawberry	-7.94513
▁lunch	-7.94858
▁shipped	-7.94858
▁done	-7.95319
▁com	-7.95667
▁expect	-7.96249
▁raw	-7.96249
▁bottom	-7.96365
▁mint	-7.96365
▁fantastic	-7.96482
▁liquid	-7.96716
▁turn	-7.96716
▁granola	-7.97069
▁thick	-7.9754
▁certainly	-7.98133
▁blue	-7.9873
▁continue	-7.9873
▁eaten	-7.98969
▁extremely	-7.99089
▁rest	-7.99089
▁feeding	-7.9945
▁world	-7.99812
▁cheap	-7.99933
▁opinion	-8.00054
▁hint	-8.00297
▁within	-8.00784
▁sold	-8.00906
▁stop	-8.00906
▁break	-8.01029
▁five	-8.01274
▁called	-8.01889
▁set	-8.02384
▁anyway	-8.02757
▁allergy	-8.03131
▁hit	-8.03131
▁count	-8.03256
▁sweetness	-8.03507
▁entire	-8.03633
▁wait	-8.03758
▁puppy	-8.04136
▁sale	-8.04263
▁healthier	-8.04643
▁seemed	-8.0477
▁creamy	-8.04897
▁oat	-8.05279
▁substitute	-8.05407
▁dinner	-8.05535
▁excited	-8.0592
▁effect	-8.06048
▁seller	-8.06048
▁easier	-8.06177
▁weak	-8.06306
▁fit	-8.06435
▁chai	-8.06565
▁told	-8.06565
▁normal	-8.06694
▁call	-8.06953
▁hold	-8.07083
▁together	-8.07474
▁waste	-8.07474
▁today	-8.07605
▁sent	-8.07867
▁sour	-8.07998
▁tuna	-8.08129
▁shipment	-8.08392
▁christmas	-8.09053
▁reading	-8.09053
▁source	-8.09585
▁true	-8.09585
▁delivered	-8.09852
▁pure	-8.09986
▁beat	-8.1012
▁crunch	-8.1012
▁contain	-8.10254
▁matter	-8.10254
▁unless	-8.11063
▁normally	-8.11605
▁packed	-8.11742
▁offer	-8.12288
▁tomato	-8.12288
▁veggie	-8.12288
▁addition	-8.12425
▁area	-8.127
▁twice	-8.13113
▁particular	-8.13251
▁difficult	-8.14085
▁purchasing	-8.14085
▁become	-8.14224
▁caramel	-8.14364
▁berry	-8.14925
▁immediately	-8.14925
▁blueberry	-8.15066
▁shake	-8.15066
▁seen	-8.15489
▁level	-8.15631
▁consistency	-8.15915
▁stopped	-8.15915
▁pick	-8.16199
▁taking	-8.16199
▁mountain	-8.16342
▁decent	-8.16484
▁check	-8.17201
▁lower	-8.17489
▁acid	-8.17634
▁shop	-8.17634
▁truly	-8.17634
▁description	-8.17778
▁chemical	-8.17923
▁pumpkin	-8.18068
▁drinker	-8.18505
▁shelf	-8.18505
▁sort	-8.18943
▁none	-8.1909
▁clear	-8.19236
▁refreshing	-8.19236
▁microwave	-8.19383
▁nutrition	-8.19825
▁remember	-8.19825
▁supermarket	-8.19825
▁simple	-8.19973
▁chili	-8.20269
▁totally	-8.20269
▁cooked	-8.20418
▁salmon	-8.20865
▁banana	-8.21014
▁baked	-8.21164
▁ball	-8.21164
▁plant	-8.21313
▁tiny	-8.21313
▁discovered	-8.21614
▁website	-8.21915
▁person	-8.22066
▁feeling	-8.22217
▁thin	-8.22217
▁flavoring	-8.22672
▁throw	-8.22672
▁felt	-8.22824
▁fun	-8.23129
▁anymore	-8.23435
▁eats	-8.23435
▁state	-8.23435
▁combination	-8.23895
▁yogurt	-8.23895
▁anywhere	-8.24049
▁picture	-8.24203
▁loose	-8.25134
▁restaurant	-8.2529
▁finding	-8.25759
▁worked	-8.25759
▁condition	-8.2623
▁six	-8.26388
▁notice	-8.26862
▁mostly	-8.2702
▁complaint	-8.27657
▁finish	-8.27657
▁garlic	-8.27817
▁dollar	-8.27977
▁kitchen	-8.27977
▁warm	-8.27977
▁locally	-8.28138
▁somewhat	-8.28138
▁higher	-8.28298
▁brewed	-8.28459
▁drop	-8.28621
▁plan	-8.28621
▁ready	-8.28621
▁unlike	-8.28621
▁lover	-8.28944
▁nearly	-8.28944
▁pancake	-8.29268
▁including	-8.29593
▁perhaps	-8.29593
▁pleasant	-8.29919
▁beverage	-8.30083
▁licorice	-8.30411
▁short	-8.30411
▁double	-8.30575
▁us	-8.30575
▁whatever	-8.30575
▁number	-8.3074
▁vinegar	-8.3074
▁bland	-8.30904
▁okay	-8.3107
▁changed	-8.31235
▁turned	-8.31235
▁individual	-8.31567
▁stale	-8.31567
▁touch	-8.31567
▁standard	-8.31733
▁sample	-8.31899
▁word	-8.31899
▁broken	-8.32066
▁crazy	-8.32066
▁perfectly	-8.32233
▁stronger	-8.32401
▁serve	-8.32904
▁craving	-8.33073
▁otherwise	-8.33242
▁satisfying	-8.33242
▁stevia	-8.33242
▁expecting	-8.3358
▁hooked	-8.3375
▁carbs	-8.34431
▁raisin	-8.34602
▁mom	-8.34774
▁quantity	-8.34774
▁peach	-8.35117
▁thinking	-8.3529
▁moist	-8.35462
▁reasonable	-8.35808
▁wow	-8.35808
▁supposed	-8.35982
▁fill	-8.36329
▁hate	-8.36329
▁chewing	-8.36854
▁roasted	-8.37029
▁style	-8.37029
▁stash	-8.37204
▁coat	-8.3738
▁portion	-8.3738
▁wet	-8.3738
▁future	-8.37556
▁horrible	-8.37556
▁room	-8.37733
▁return	-8.3791
▁balance	-8.38264
▁listed	-8.38264
▁bring	-8.3862
▁italian	-8.38977
▁pie	-8.38977
▁carb	-8.39516
▁heavy	-8.39516
▁switch	-8.39516
▁awful	-8.39876
▁chunk	-8.39876
▁except	-8.39876
▁kick	-8.39876
▁nutritional	-8.39876
▁mess	-8.40057
▁pour	-8.40238
▁splenda	-8.40419
▁total	-8.40419
▁blood	-8.40601
▁dressing	-8.40783
▁hoping	-8.40783
▁training	-8.40783
▁onion	-8.41148
▁fair	-8.41331
▁newman	-8.41331
▁pricey	-8.41331
▁mango	-8.41514
▁solid	-8.41514
▁brewing	-8.42066
▁eater	-8.42066
▁straight	-8.4225
▁forward	-8.42621
▁party	-8.42621
▁instruction	-8.42807
▁near	-8.42807
▁knew	-8.43366
▁stand	-8.43366
▁convenience	-8.43553
▁personally	-8.43553
▁wellness	-8.43928
▁compare	-8.44116
▁rating	-8.44116
▁research	-8.44305
▁outside	-8.44494
▁sick	-8.44494
▁site	-8.44494
▁impressed	-8.44683
▁vegan	-8.44683
▁terrible	-8.44872
▁replacement	-8.45062
▁summer	-8.45062
▁extract	-8.45253
▁form	-8.45253
▁upon	-8.45443
▁actual	-8.45634
▁wine	-8.45634
▁adult	-8.45826
▁wrapped	-8.45826
▁yum	-8.45826
▁dessert	-8.46017
▁test	-8.46017
▁homemade	-8.4621
▁shape	-8.4621
▁trip	-8.4621
▁agree	-8.46402
▁important	-8.46402
▁opening	-8.46595
▁sandwich	-8.46595
▁kept	-8.46788
▁pocket	-8.46788
▁possible	-8.46788
▁office	-8.47176
▁stir	-8.47176
▁avoid	-8.4737
▁latte	-8.4776
▁paid	-8.4776
▁cool	-8.47956
▁job	-8.47956
▁raspberry	-8.47956
▁claim	-8.48151
▁satisfied	-8.48348
▁priced	-8.48544
▁sized	-8.48544
▁chance	-8.48939
▁pretzel	-8.48939
▁biscuit	-8.49137
▁plenty	-8.49137
▁ship	-8.49137
▁subscription	-8.49137
▁crisp	-8.49533
▁heard	-8.49533
▁usual	-8.49533
▁grey	-8.49932
▁mother	-8.49932
▁roll	-8.49932
▁coming	-8.50332
▁direction	-8.50532
▁ended	-8.50532
▁sea	-8.50532
▁sensitive	-8.50733
▁supplement	-8.50733
▁across	-8.51137
▁expiration	-8.51137
▁kibble	-8.51137
▁shampoo	-8.51137
▁hazelnut	-8.51339
▁system	-8.51542
▁consider	-8.51745
▁nicely	-8.51745
▁show	-8.51745
▁tend	-8.51745
▁fairly	-8.51948
▁lid	-8.51948
▁overly	-8.51948
▁subtle	-8.52152
▁curry	-8.52356
▁running	-8.52356
▁stuck	-8.52356
▁supply	-8.52356
▁turkey	-8.52561
▁sweetened	-8.52766
▁worry	-8.52766
▁control	-8.53591
▁kitty	-8.53591
▁premium	-8.53798
▁china	-8.54006
▁switched	-8.54006
▁lost	-8.54214
▁earl	-8.54631
▁gourmet	-8.54631
▁tin	-8.54631
▁figured	-8.54841
▁matcha	-8.54841
▁offered	-8.55051
▁door	-8.55261
▁imagine	-8.55472
▁nature	-8.55472
▁rate	-8.55472
▁process	-8.55683
▁shot	-8.55894
▁alone	-8.56107
▁lime	-8.56107
▁surprise	-8.56107
▁afternoon	-8.56319
▁brought	-8.56319
▁sealed	-8.56319
▁traditional	-8.56532
▁ask	-8.56746
▁paper	-8.56746
▁costco	-8.5696
▁trouble	-8.57174
▁send	-8.57389
▁spread	-8.57604
▁tree	-8.57604
▁maple	-8.58036
▁share	-8.58036
▁kit	-8.58253
▁air	-8.5847
▁brewer	-8.5847
▁fall	-8.5847
▁gas	-8.5847
▁update	-8.58906
▁putting	-8.59343
▁guy	-8.59563
▁melt	-8.59563
▁manufacturer	-8.59783
▁whether	-8.60003
▁mini	-8.60224
▁filled	-8.60668
▁boy	-8.6089
▁teaspoon	-8.6089
▁paste	-8.61113
▁heart	-8.61337
▁processed	-8.61561
▁tart	-8.61561
▁pan	-8.62235
▁sit	-8.62235
▁everyday	-8.62688
▁sitting	-8.62688
▁third	-8.62688
▁mention	-8.62915
▁various	-8.62915
▁tablespoon	-8.63142
▁scent	-8.63599
▁animal	-8.64288
▁crystal	-8.64288
▁mixing	-8.64288
▁picked	-8.64288
▁brownie	-8.6475
▁helped	-8.6475
▁carrying	-8.65214
▁crispy	-8.65214
▁filter	-8.65214
▁freeze	-8.65214
▁spoon	-8.65214
▁working	-8.65214
▁worst	-8.65214
▁fridge	-8.65914
▁nasty	-8.65914
▁negative	-8.65914
▁preservative	-8.65914
▁human	-8.66148
▁lack	-8.66384
▁yellow	-8.66384
▁pea	-8.66619
▁slight	-8.66619
▁lab	-8.66855
▁sorry	-8.66855
▁suggest	-8.66855
▁pizza	-8.67092
▁waffle	-8.67092
▁american	-8.67329
▁frozen	-8.67329
▁bigger	-8.67567
▁search	-8.67567
▁comment	-8.67805
▁school	-8.67805
▁weird	-8.67805
▁basically	-8.68044
▁prime	-8.68044
▁wild	-8.68044
▁base	-8.68284
▁sound	-8.68284
▁cranberry	-8.68765
▁dairy	-8.68765
▁gotten	-8.68765
▁information	-8.68765
▁average	-8.69006
▁eye	-8.69006
▁thrilled	-8.69006
▁broth	-8.69248
▁powdered	-8.69248
▁bitterness	-8.6949
▁steak	-8.6949
▁worse	-8.6949
▁bear	-8.69733
▁known	-8.69733
▁boost	-8.69977
▁considering	-8.69977
▁creamer	-8.69977
▁herb	-8.69977
▁overpowering	-8.69977
▁understand	-8.69977
▁generally	-8.70466
▁wonder	-8.70466
▁main	-8.70711
▁saying	-8.70957
▁included	-8.71204
▁age	-8.71699
▁served	-8.71699
▁message	-8.71947
▁via	-8.71947
▁jelly	-8.72196
▁breath	-8.72446
▁careful	-8.72696
▁general	-8.72696
▁admit	-8.72947
▁bunch	-8.72947
▁mug	-8.72947
▁pleasantly	-8.72947
▁selling	-8.72947
▁watch	-8.72947
▁face	-8.73199
▁english	-8.73451
▁pork	-8.73451
▁girl	-8.73704
▁diabetic	-8.73957
▁table	-8.73957
▁likely	-8.74212
▁root	-8.74212
▁bake	-8.74466
▁golden	-8.74722
▁keeping	-8.74722
▁honestly	-8.74978
▁older	-8.74978
▁mentioned	-8.75235
▁senseo	-8.75235
▁lose	-8.75492
▁drank	-8.7575
▁poor	-8.7575
▁buck	-8.76268
▁earth	-8.76268
▁fry	-8.76268
▁unique	-8.76268
▁smelled	-8.76528
▁flake	-8.76789
▁grind	-8.76789
▁pre	-8.76789
▁whenever	-8.76789
▁herbal	-8.7705
▁peppermint	-8.7705
▁travel	-8.77312
▁bud	-8.77575
▁tired	-8.77575
▁asked	-8.77839
▁typical	-8.77839
▁beautiful	-8.78103
▁slice	-8.78368
▁zero	-8.78368
▁flower	-8.78633
▁individually	-8.78633
▁paying	-8.78633
▁prepare	-8.78633
▁sip	-8.78633
▁allergic	-8.789
▁became	-8.789
▁covered	-8.789
▁interesting	-8.789
▁personal	-8.789
▁saving	-8.789
▁cent	-8.79167
▁ton	-8.79167
▁dip	-8.79435
▁previous	-8.79435
▁safe	-8.79435
▁receive	-8.79703
▁empty	-8.79972
▁mocha	-8.79972
▁threw	-8.80242
▁appreciate	-8.80513
▁obviously	-8.80784
▁grew	-8.81056
▁vendor	-8.81056
▁concerned	-8.81877
▁donut	-8.81877
▁sleep	-8.81877
▁enjoying	-8.82152
▁evening	-8.82152
▁liver	-8.82152
▁book	-8.82428
▁head	-8.82428
▁miss	-8.82428
▁toast	-8.82705
▁beer	-8.82982
▁grade	-8.82982
▁greenies	-8.8326
▁tip	-8.83539
▁middle	-8.83819
▁alot	-8.84099
▁fancy	-8.84381
▁realize	-8.84381
▁lol	-8.84663
▁produce	-8.84663
▁upset	-8.84663
▁usa	-8.84663
▁holiday	-8.84946
▁mill	-8.84946
▁bed	-8.85514
▁folk	-8.85514
▁learned	-8.85514
▁mistake	-8.85514
▁nutty	-8.85514
▁prepared	-8.85514
▁square	-8.85514
▁squeeze	-8.85514
▁figure	-8.85799
▁fructose	-8.85799
▁movie	-8.85799
▁particularly	-8.85799
▁positive	-8.85799
▁spot	-8.85799
▁choose	-8.86085
▁country	-8.86085
▁fed	-8.86085
▁fix	-8.86372
▁oreo	-8.86372
▁addicted	-8.8666
▁mustard	-8.8666
▁filler	-8.86949
▁fruity	-8.86949
▁provide	-8.86949
▁bbq	-8.87238
▁sticky	-8.87238
▁setting	-8.87819
▁birthday	-8.88404
▁cardboard	-8.88404
▁strength	-8.88404
▁apart	-8.88698
▁grape	-8.88698
▁pantry	-8.88698
▁pain	-8.88992
▁sprinkle	-8.88992
▁walmart	-8.88992
▁gravy	-8.89288
▁satisfy	-8.89288
▁bonus	-8.89584
▁finished	-8.89584
▁nutritious	-8.89584
▁seriously	-8.89584
▁truffle	-8.89584
▁vegetarian	-8.89584
▁goodness	-8.89881
▁scoop	-8.89881
▁happened	-8.90179
▁winter	-8.90179
▁car	-8.90478
▁directly	-8.90478
▁gold	-8.90478
▁inch	-8.90478
▁lb	-8.90478
▁dissolve	-8.90778
▁grown	-8.90778
▁hungry	-8.91079
▁comparison	-8.91381
▁conditioner	-8.91381
▁according	-8.91683
▁business	-8.91683
▁carrot	-8.91683
▁finger	-8.91683
▁graham	-8.91683
▁purpose	-8.91683
▁trick	-8.91683
▁temperature	-8.91987
▁basis	-8.92291
▁bill	-8.92291
▁odd	-8.92291
▁late	-8.92596
▁buffalo	-8.92903
▁fabulous	-8.92903
▁growing	-8.9321
▁yeast	-8.9321
▁dented	-8.93518
▁doubt	-8.93518
▁flavour	-8.93518
▁apparently	-8.93827
▁muffin	-8.93827
▁spend	-8.93827
▁cheddar	-8.94137
▁gross	-8.94137
▁bacon	-8.94448
▁lovely	-8.94448
▁farm	-8.9476
▁pomegranate	-8.9476
▁digestive	-8.95073
▁litter	-8.95073
▁major	-8.95073
▁program	-8.95073
▁kitten	-8.95387
▁nose	-8.95387
▁aware	-8.95702
▁cover	-8.95702
▁freezer	-8.95702
▁grab	-8.95702
▁mushroom	-8.95702
▁wash	-8.95702
▁naturally	-8.96018
▁present	-8.96335
▁round	-8.96335
▁suggested	-8.96335
▁reminds	-8.96653
▁tooth	-8.96653
▁deep	-8.96972
▁greasy	-8.96972
▁internet	-8.96972
▁mixture	-8.96972
▁doctor	-8.97292
▁flax	-8.97292
▁gummy	-8.97292
▁increase	-8.97292
▁guest	-8.97935
▁junk	-8.97935
▁owner	-8.97935
▁sister	-8.97935
▁enjoys	-8.98258
▁missing	-8.98258
▁taken	-8.98258
▁beyond	-8.98582
▁busy	-8.98582
▁front	-8.98582
▁trust	-8.98582
▁despite	-8.99234
▁freshness	-8.99234
▁literally	-8.99234
▁placed	-8.99234
▁describe	-8.99561
▁follow	-8.99561
▁mineral	-8.99561
▁regularly	-8.99561
▁barely	-8.9989
▁odor	-8.9989
▁quinoa	-8.9989
▁everywhere	-9.00219
▁flat	-9.00219
▁melted	-9.00219
▁seal	-9.00219
▁superior	-9.00219
▁robust	-9.0055
▁term	-9.0055
▁disappointing	-9.00881
▁preference	-9.00881
▁tongue	-9.00881
▁additive	-9.01214
▁clearly	-9.01214
▁strange	-9.01214
▁bottled	-9.01548
▁stool	-9.01548
▁interested	-9.01883
▁joe	-9.01883
▁knowing	-9.01883
▁remove	-9.01883
▁concentrate	-9.02219
▁kettle	-9.02219
▁lipton	-9.02219
▁stated	-9.02219
▁described	-9.02556
▁rock	-9.02556
▁salsa	-9.02556
▁complete	-9.02895
▁enjoyable	-9.02895
▁certain	-9.03234
▁charge	-9.03234
▁parent	-9.03234
▁additional	-9.03575
▁intake	-9.03575
▁pro	-9.03575
▁sense	-9.03575
▁sweeter	-9.03575
▁trap	-9.03575
▁worried	-9.03575
▁bodied	-9.03917
▁crust	-9.03917
▁handy	-9.03917
▁post	-9.03917
▁taco	-9.03917
▁write	-9.03917
▁consumer	-9.0426
▁searching	-9.0426
▁burnt	-9.04604
▁sugary	-9.04604
▁tough	-9.04604
▁indian	-9.0495
▁began	-9.05296
▁crumb	-9.05296
▁punch	-9.05296
▁asian	-9.05644
▁classic	-9.05644
▁lightly	-9.05644
▁cause	-9.05993
▁early	-9.05993
▁equal	-9.05993
▁mail	-9.05993
▁messy	-9.05993
▁bother	-9.06343
▁concern	-9.06343
▁gallon	-9.06343
▁balanced	-9.06695
▁favor	-9.06695
▁center	-9.07048
▁checked	-9.07048
▁shopping	-9.07048
▁steep	-9.07048
▁grass	-9.07402
▁play	-9.07402
▁staple	-9.07402
▁thai	-9.07402
▁xylitol	-9.07402
▁basket	-9.07757
▁fried	-9.07757
▁handful	-9.07757
▁popular	-9.07757
▁advertised	-9.08113
▁fell	-9.08113
▁man	-9.08113
▁oven	-9.08113
▁bob	-9.08471
▁cube	-9.08471
▁pink	-9.08471
▁intense	-9.0883
▁neither	-9.0883
▁realized	-9.0883
▁scalp	-9.0883
▁cappuccino	-9.09191
▁counter	-9.09191
▁disease	-9.09191
▁rawhide	-9.09552
▁pump	-9.09915
▁spent	-9.09915
▁cane	-9.1028
▁elsewhere	-9.1028
▁beware	-9.10645
▁cashew	-9.10645
▁floor	-9.10645
▁living	-9.10645
▁luck	-9.10645
▁provides	-9.10645
▁season	-9.10645
▁watching	-9.10645
▁arrive	-9.11012
▁awhile	-9.11012
▁hole	-9.11012
▁outstanding	-9.11012
▁effective	-9.11381
▁following	-9.1175
▁fudge	-9.1175
▁member	-9.1175
▁topping	-9.1175
▁burn	-9.12121
▁jack	-9.12121
▁jam	-9.12121
▁terrific	-9.12121
▁waiting	-9.12121
▁walk	-9.12121
▁bubble	-9.12494
▁cafe	-9.12494
▁refund	-9.12494
▁relatively	-9.12494
▁step	-9.12494
▁tender	-9.12494
▁happen	-9.12868
▁method	-9.12868
▁watery	-9.12868
▁handle	-9.13243
▁ran	-9.13243
▁typically	-9.13243
▁chinese	-9.13619
▁dental	-9.13619
▁magic	-9.13619
▁popped	-9.13619
▁selection	-9.13619
▁cola	-9.13997
▁reaction	-9.13997
▁currently	-9.14377
▁damaged	-9.14377
▁delight	-9.14377
▁fake	-9.14377
▁helpful	-9.14377
▁power	-9.14377
▁previously	-9.14377
▁bargain	-9.14758
▁science	-9.14758
▁ten	-9.14758
▁addictive	-9.1514
▁cholesterol	-9.1514
▁heaven	-9.1514
▁suppose	-9.1514
▁boiling	-9.15524
▁workout	-9.15524
▁besides	-9.1591
▁impossible	-9.1591
▁trade	-9.1591
▁grow	-9.16296
▁loss	-9.16296
▁originally	-9.16296
▁pup	-9.16296
▁target	-9.16296
▁tub	-9.16296
▁visit	-9.16296
▁disappointment	-9.16685
▁offering	-9.16685
▁overwhelming	-9.16685
▁promptly	-9.16685
▁affordable	-9.17075
▁breast	-9.17075
▁coating	-9.17075
▁hopefully	-9.17075
▁pineapple	-9.17466
▁multiple	-9.17859
▁pull	-9.17859
▁thus	-9.17859
▁include	-9.18254
▁incredibly	-9.18254
▁pecan	-9.18254
▁wake	-9.18254
▁comparable	-9.18649
▁delighted	-9.18649
▁discount	-9.19047
▁ideal	-9.19047
▁acidic	-9.19446
▁cider	-9.19446
▁introduced	-9.19446
▁starting	-9.19446
▁throat	-9.19446
▁throwing	-9.19446
▁boil	-9.19847
▁calcium	-9.19847
▁consume	-9.19847
▁expectation	-9.19847
▁oily	-9.19847
▁skeptical	-9.19847
▁cap	-9.2025
▁frequently	-9.2025
▁onto	-9.2025
▁properly	-9.2025
▁question	-9.2025
▁celiac	-9.20654
▁lighter	-9.20654
▁limited	-9.20654
▁pear	-9.20654
▁recommendation	-9.20654
▁spaghetti	-9.20654
▁tangy	-9.20654
▁thicker	-9.20654
▁auto	-9.21059
▁nutrient	-9.21059
▁separate	-9.21059
▁foil	-9.21467
▁smoothy	-9.21467
▁storage	-9.21467
▁young	-9.21467
▁leaving	-9.21876
▁shared	-9.21876
▁allow	-9.22286
▁disgusting	-9.22699
▁hardly	-9.22699
▁incredible	-9.22699
▁replace	-9.22699
▁sesame	-9.22699
▁garden	-9.23113
▁purse	-9.23113
▁quaker	-9.23113
▁ahead	-9.23528
▁exact	-9.23528
▁fig	-9.23528
▁followed	-9.23528
▁sausage	-9.23528
▁scratch	-9.23528
▁warning	-9.23528
▁produced	-9.23946
▁loaded	-9.24365
▁occasionally	-9.24365
▁therefore	-9.24365
▁forget	-9.24786
▁mac	-9.24786
▁tray	-9.24786
▁german	-9.25209
▁harder	-9.25209
▁kernel	-9.25209
▁among	-9.25634
▁returned	-9.25634
▁strip	-9.25634
▁town	-9.25634
▁trader	-9.25634
▁winner	-9.25634
▁antioxidant	-9.2606
▁attention	-9.2606
▁begin	-9.2606
▁link	-9.2606
▁wanting	-9.2606
▁alcohol	-9.26489
▁chef	-9.26489
▁leftover	-9.26489
▁sampler	-9.26489
▁bran	-9.26919
▁downside	-9.26919
▁initially	-9.26919
▁lick	-9.26919
▁lived	-9.26919
▁period	-9.26919
▁puff	-9.26919
▁web	-9.26919
▁wrap	-9.26919
▁japanese	-9.27351
▁ramen	-9.27351
▁surprisingly	-9.27351
▁timothy	-9.27351
▁iron	-9.27785
▁kona	-9.27785
▁appears	-9.2822
▁depending	-9.2822
▁medicine	-9.2822
▁searched	-9.2822
▁seeing	-9.2822
▁snap	-9.2822
▁authentic	-9.28658
▁delicate	-9.28658
▁softer	-9.28658
▁2012	-9.29097
▁common	-9.29097
▁edge	-9.29097
▁jasmine	-9.29097
▁smoked	-9.29097
▁purina	-9.29539
▁commercial	-9.29982
▁contained	-9.29982
▁crushed	-9.29982
▁dough	-9.29982
▁effort	-9.29982
▁lamb	-9.29982
▁law	-9.29982
▁saturated	-9.29982
▁spring	-9.29982
▁moved	-9.30428
▁reasonably	-9.30428
▁refrigerator	-9.30428
▁brother	-9.30875
▁citrus	-9.30875
▁cleaning	-9.30875
▁cute	-9.30875
▁diamond	-9.30875
▁example	-9.30875
▁mid	-9.30875
▁recent	-9.30875
▁drive	-9.31325
▁email	-9.31325
▁lasted	-9.31325
▁sardine	-9.31325
▁coke	-9.31776
▁forever	-9.31776
▁trans	-9.31776
▁absolute	-9.3223
▁club	-9.3223
▁mushy	-9.3223
▁needle	-9.3223
▁range	-9.3223
▁vine	-9.3223
▁degree	-9.32685
▁experienced	-9.32685
▁funny	-9.32685
▁household	-9.32685
▁sliced	-9.32685
▁ear	-9.33143
▁win	-9.33143
▁carbonated	-9.33603
▁pas	-9.33603
▁rose	-9.33603
▁strongly	-9.33603
▁tortilla	-9.33603
▁complex	-9.34065
▁hemp	-9.34065
▁honest	-9.34065
▁info	-9.34065
▁retail	-9.34065
▁edible	-9.34529
▁factor	-9.34529
▁reduced	-9.34529
▁sunflower	-9.34529
▁unit	-9.34529
▁eight	-9.34995
▁fuel	-9.34995
▁fully	-9.34995
▁layer	-9.34995
▁saved	-9.35463
▁solution	-9.35463
▁sprout	-9.35463
▁bright	-9.35934
▁dust	-9.35934
▁reach	-9.35934
▁unable	-9.35934
▁dozen	-9.36407
▁firm	-9.36407
▁necessary	-9.36407
▁occasion	-9.36407
▁packing	-9.36407
▁throughout	-9.36407
▁aid	-9.36882
▁consistent	-9.36882
▁eventually	-9.36882
▁garbage	-9.36882
▁min	-9.36882
▁serious	-9.36882
▁south	-9.36882
▁unpleasant	-9.36882
▁basic	-9.37359
▁brings	-9.37359
▁exception	-9.37359
▁hearty	-9.37359
▁omega	-9.37359
▁regret	-9.37359
▁sucralose	-9.37359
▁buyer	-9.37839
▁carried	-9.37839
▁hide	-9.37839
▁moment	-9.37839
▁pamela	-9.37839
▁tear	-9.37839
▁toddler	-9.37839
▁wise	-9.37839
▁amazed	-9.38321
▁carbohydrate	-9.38321
▁creme	-9.38321
▁economical	-9.38321
▁lavazza	-9.38321
▁sad	-9.38321
▁shiny	-9.38321
▁breed	-9.38805
▁jalapeno	-9.38805
▁toffee	-9.38805
▁2011	-9.39291
▁broccoli	-9.39291
▁plate	-9.39291
▁possibly	-9.39291
▁wonderfully	-9.39291
▁discontinued	-9.3978
▁ease	-9.3978
▁slow	-9.3978
▁timely	-9.3978
▁wafer	-9.3978
▁2nd	-9.40272
▁delightful	-9.40272
▁meant	-9.40272
▁require	-9.40272
▁snacking	-9.40272
▁active	-9.40766
▁behind	-9.40766
▁finicky	-9.40766
▁salted	-9.40766
▁attempt	-9.41262
▁cancer	-9.41262
▁capsule	-9.41262
▁design	-9.41262
▁diarrhea	-9.41262
▁feast	-9.41262
▁page	-9.41262
▁somewhere	-9.41262
▁sun	-9.41262
▁wrapper	-9.41262
▁carefully	-9.41761
▁chopped	-9.41761
▁correct	-9.41761
▁dad	-9.41761
▁friendly	-9.41761
▁grinder	-9.41761
▁mio	-9.41761
▁molasses	-9.41761
▁story	-9.41761
▁walnut	-9.41761
▁willing	-9.41761
▁caused	-9.42262
▁illy	-9.42262
▁memory	-9.42262
▁occasional	-9.42262
▁potassium	-9.42262
▁preferred	-9.42262
▁press	-9.42262
▁response	-9.42262
▁slowly	-9.42262
▁trash	-9.42262
▁bpa	-9.42766
▁buttery	-9.42766
▁certified	-9.42766
▁chose	-9.42766
▁frosting	-9.42766
▁pb2	-9.42766
▁rub	-9.42766
▁saver	-9.42766
▁space	-9.42766
▁support	-9.42766
▁agave	-9.43272
▁god	-9.43272
▁habit	-9.43272
▁magnesium	-9.43272
▁reduce	-9.43272
▁resealable	-9.43272
▁rinse	-9.43272
▁thru	-9.43272
▁title	-9.43272
▁cluster	-9.43781
▁caught	-9.44292
▁damage	-9.44292
▁darker	-9.44292
▁duck	-9.44292
▁measure	-9.44292
▁pressure	-9.44292
▁zico	-9.44292
▁aside	-9.44807
▁foot	-9.44807
▁sparkling	-9.44807
▁wasabi	-9.44807
▁chewer	-9.45323
▁considered	-9.45323
▁definately	-9.45323
▁direct	-9.45323
▁drip	-9.45323
▁popchips	-9.45323
▁poured	-9.45323
▁recall	-9.45323
▁shown	-9.45323
▁tends	-9.45323
▁watered	-9.45323
▁broke	-9.45843
▁canidae	-9.45843
▁combo	-9.45843
▁hershey	-9.45843
▁hip	-9.45843
▁lucky	-9.45843
▁mellow	-9.45843
▁road	-9.45843
▁san	-9.45843
▁smoothie	-9.45843
▁twinings	-9.45843
▁carton	-9.46365
▁con	-9.46365
▁current	-9.46365
▁inexpensive	-9.46365
▁lemonade	-9.46365
▁moisture	-9.46365
▁noted	-9.46365
▁toss	-9.46365
▁allows	-9.4689
▁dietary	-9.4689
▁freshly	-9.4689
▁liking	-9.4689
▁popper	-9.4689
▁anytime	-9.47418
▁childhood	-9.47418
▁prior	-9.47418
▁rid	-9.47418
▁sadly	-9.47418
▁tight	-9.47418
▁woman	-9.47418
▁interest	-9.47948
▁jet	-9.47948
▁mainly	-9.47948
▁match	-9.47948
▁mexican	-9.47948
▁rarely	-9.47948
▁cal	-9.48482
▁loaf	-9.48482
▁overpriced	-9.48482
▁prevent	-9.48482
▁pudding	-9.48482
▁hoped	-9.49018
▁shrimp	-9.49018
▁starter	-9.49018
▁tully	-9.49018
▁weather	-9.49018
▁yeah	-9.49018
▁contacted	-9.49557
▁improved	-9.49557
▁indeed	-9.49557
▁kidney	-9.49557
▁pleasure	-9.49557
▁specific	-9.49557
▁spinach	-9.49557
▁split	-9.49557
▁coupon	-9.50099
▁grilled	-9.50099
▁happens	-9.50099
▁improvement	-9.50099
▁noticeable	-9.50099
▁sign	-9.50099
▁stove	-9.50099
▁cupcake	-9.50644
▁kashi	-9.50644
▁pricing	-9.50644
▁rated	-9.50644
▁removed	-9.50644
▁cacao	-9.51192
▁class	-9.51192
▁crumbly	-9.51192
▁move	-9.51192
▁palm	-9.51192
▁paw	-9.51192
▁suggestion	-9.51192
▁kraft	-9.51743
▁material	-9.51743
▁risk	-9.51743
▁spit	-9.51743
▁worker	-9.51743
▁aspartame	-9.52297
▁dense	-9.52297
▁grainy	-9.52297
▁labeled	-9.52297
▁missed	-9.52297
▁receiving	-9.52297
▁self	-9.52297
▁unsweetened	-9.52297
▁assortment	-9.52854
▁crap	-9.52854
▁marshmallow	-9.52854
▁spoiled	-9.52854
▁till	-9.52854
▁ups	-9.52854
▁afraid	-9.53414
▁bay	-9.53414
▁combined	-9.53414
▁pinch	-9.53414
▁shredded	-9.53414
▁stew	-9.53414
▁supplier	-9.53414
▁tasteless	-9.53414
▁calm	-9.53977
▁distinct	-9.53977
▁mart	-9.53977
▁mile	-9.53977
▁sam	-9.53977
▁suspect	-9.53977
▁switching	-9.53977
▁tazo	-9.53977
▁biggest	-9.54544
▁california	-9.54544
▁england	-9.54544
▁highest	-9.54544
▁prefers	-9.54544
▁reorder	-9.54544
▁wide	-9.54544
▁colored	-9.55114
▁consistently	-9.55114
▁constantly	-9.55114
▁containing	-9.55114
▁decide	-9.55114
▁gmo	-9.55114
▁guilt	-9.55114
▁meet	-9.55114
▁puree	-9.55114
▁slim	-9.55114
▁tummy	-9.55114
▁blender	-9.55687
▁chamomile	-9.55687
▁compliment	-9.55687
▁create	-9.55687
▁marinade	-9.55687
▁medication	-9.55687
▁oolong	-9.55687
▁penny	-9.55687
▁yesterday	-9.55687
▁grocer	-9.56263
▁jug	-9.56263
▁palate	-9.56263
▁provided	-9.56263
▁ratio	-9.56263
▁smart	-9.56263
▁coloring	-9.56843
▁familiar	-9.56843
▁fur	-9.56843
▁poop	-9.56843
▁swallow	-9.56843
▁toasted	-9.56843
▁drain	-9.57426
▁fresher	-9.57426
▁photo	-9.57426
▁requires	-9.57426
▁spray	-9.57426
▁success	-9.57426
▁terrier	-9.57426
▁answer	-9.58013
▁college	-9.58013
▁fault	-9.58013
▁helping	-9.58013
▁hey	-9.58013
▁remaining	-9.58013
▁writing	-9.58013
▁fly	-9.58603
▁learn	-9.58603
▁sharp	-9.58603
▁chewed	-9.59196
▁darn	-9.59196
▁earlier	-9.59196
▁faster	-9.59196
▁mark	-9.59196
▁belly	-9.59793
▁quart	-9.59793
▁secret	-9.59793
▁shame	-9.59793
▁appealing	-9.60394
▁becomes	-9.60394
▁blackberry	-9.60394
▁consumption	-9.60394
▁desk	-9.60394
▁father	-9.60394
▁happier	-9.60394
▁ill	-9.60394
▁key	-9.60394
▁limit	-9.60394
▁muscle	-9.60394
▁shocked	-9.60394
▁smoke	-9.60394
▁stage	-9.60394
▁thumb	-9.60394
▁tofu	-9.60394
▁watermelon	-9.60394
▁appeal	-9.60998
▁barley	-9.60998
▁bigelow	-9.60998
▁city	-9.60998
▁complain	-9.60998
▁lasting	-9.60998
▁lately	-9.60998
▁seafood	-9.60998
▁section	-9.60998
▁wondering	-9.60998
▁appear	-9.61606
▁hear	-9.61606
▁ring	-9.61606
▁rip	-9.61606
▁yuck	-9.61606
▁bergamot	-9.62217
▁canister	-9.62217
▁caribou	-9.62217
▁fatty	-9.62217
▁includes	-9.62217
▁starch	-9.62217
▁steel	-9.62217
▁sweeten	-9.62217
▁texas	-9.62217
▁warehouse	-9.62217
▁acceptable	-9.62833
▁contact	-9.62833
▁cutting	-9.62833
▁digestion	-9.62833
▁dislike	-9.62833
▁gel	-9.62833
▁happily	-9.62833
▁opposed	-9.62833
▁rolled	-9.62833
▁savory	-9.62833
▁soak	-9.62833
▁soggy	-9.62833
▁spoonful	-9.62833
▁expert	-9.63452
▁required	-9.63452
▁somehow	-9.63452
▁swiss	-9.63452
▁tsp	-9.63452
▁twist	-9.63452
▁ketchup	-9.64075
▁med	-9.64075
▁misleading	-9.64075
▁quit	-9.64075
▁developed	-9.64702
▁initial	-9.64702
▁monthly	-9.64702
▁royal	-9.64702
▁study	-9.64702
▁aromatic	-9.65333
▁bull	-9.65333
▁cuisine	-9.65333
▁experiment	-9.65333
▁hurt	-9.65333
▁sending	-9.65333
▁bell	-9.65968
▁manner	-9.65968
▁report	-9.65968
▁ridiculous	-9.65968
▁shower	-9.65968
▁zip	-9.65968
▁advice	-9.66607
▁diabetes	-9.66607
▁essential	-9.66607
▁fragrance	-9.66607
▁rescue	-9.66607
▁fishy	-9.6725
▁overnight	-9.6725
▁sticking	-9.6725
▁sweetner	-9.6725
▁talking	-9.6725
▁virgin	-9.6725
▁wholesome	-9.6725
▁asking	-9.67897
▁blended	-9.67897
▁feature	-9.67897
▁mood	-9.67897
▁refrigerated	-9.67897
▁refuse	-9.67897
▁specifically	-9.67897
▁thoroughly	-9.67897
▁thrown	-9.67897
▁apricot	-9.68549
▁leg	-9.68549
▁miracle	-9.68549
▁nutiva	-9.68549
▁reward	-9.68549
▁rope	-9.68549
▁vary	-9.68549
▁afford	-9.69204
▁america	-9.69204
▁catnip	-9.69204
▁clove	-9.69204
▁consuming	-9.69204
▁dead	-9.69204
▁entirely	-9.69204
▁guilty	-9.69204
▁improve	-9.69204
▁italy	-9.69204
▁kill	-9.69204
▁specialty	-9.69204
▁stored	-9.69204
▁wasted	-9.69204
▁appetite	-9.69864
▁chain	-9.69864
▁google	-9.69864
▁loving	-9.69864
▁milder	-9.69864
▁remembered	-9.69864
▁rooibos	-9.69864
▁boyfriend	-9.70529
▁hesitant	-9.70529
▁mate	-9.70529
▁reminded	-9.70529
▁replaced	-9.70529
▁smelling	-9.70529
▁station	-9.70529
▁wrote	-9.70529
▁closest	-9.71198
▁gooey	-9.71198
▁gritty	-9.71198
▁group	-9.71198
▁length	-9.71198
▁refill	-9.71198
▁talk	-9.71198
▁annie	-9.71871
▁batter	-9.71871
▁irish	-9.71871
▁shaped	-9.71871
▁soothing	-9.71871
▁stocking	-9.71871
▁tad	-9.71871
▁theater	-9.71871
▁unusual	-9.71871
▁volume	-9.71871
▁assume	-9.72549
▁pleasing	-9.72549
▁proper	-9.72549
▁weekend	-9.72549
▁beginning	-9.73232
▁crema	-9.73232
▁digest	-9.73232
▁instantly	-9.73232
▁significantly	-9.73232
▁user	-9.73232
▁whim	-9.73232
▁drawer	-9.73919
▁headache	-9.73919
▁island	-9.73919
▁lead	-9.73919
▁mayo	-9.73919
▁sprinkled	-9.73919
▁core	-9.74611
▁diagnosed	-9.74611
▁dose	-9.74611
▁japan	-9.74611
▁raised	-9.74611
▁remind	-9.74611
▁younger	-9.74611
▁closer	-9.75308
▁dipping	-9.75308
▁tbsp	-9.75308
▁yogi	-9.75308
▁advantage	-9.7601
▁anti	-9.7601
▁chunky	-9.7601
▁consumed	-9.7601
▁die	-9.7601
▁giant	-9.7601
▁gobble	-9.7601
▁puck	-9.7601
▁ranch	-9.7601
▁refused	-9.7601
▁snob	-9.7601
▁superb	-9.7601
▁written	-9.7601
▁affect	-9.76716
▁diaper	-9.76716
▁hated	-9.76716
▁heck	-9.76716
▁multi	-9.76716
▁refined	-9.76716
▁soap	-9.76716
▁tabasco	-9.76716
▁tap	-9.76716
▁tassimo	-9.76716
▁versatile	-9.76716
▁allowed	-9.77428
▁bully	-9.77428
▁cupboard	-9.77428
▁desired	-9.77428
▁expired	-9.77428
▁hamburger	-9.77428
▁increased	-9.77428
▁listing	-9.77428
▁losing	-9.77428
▁luckily	-9.77428
▁marketing	-9.77428
▁rare	-9.77428
▁recieved	-9.77428
▁showed	-9.77428
▁sumatra	-9.77428
▁200	-9.78145
▁carbonation	-9.78145
▁crave	-9.78145
▁disc	-9.78145
▁drinkable	-9.78145
▁generous	-9.78145
▁hydrogenated	-9.78145
▁icing	-9.78145
▁india	-9.78145
▁kcups	-9.78145
▁macaroni	-9.78145
▁mold	-9.78145
▁moving	-9.78145
▁preserve	-9.78145
▁retriever	-9.78145
▁burger	-9.78867
▁cheapest	-9.78867
▁cow	-9.78867
▁equally	-9.78867
▁intended	-9.78867
▁kosher	-9.78867
▁stain	-9.78867
▁valley	-9.78867
▁wal	-9.78867
▁afterwards	-9.79594
▁bakery	-9.79594
▁bet	-9.79594
▁comfort	-9.79594
▁corner	-9.79594
▁cough	-9.79594
▁floral	-9.79594
▁male	-9.79594
▁numi	-9.79594
▁preparation	-9.79594
▁sturdy	-9.79594
▁symptom	-9.79594
▁approximately	-9.80327
▁bug	-9.80327
▁chia	-9.80327
▁crack	-9.80327
▁dash	-9.80327
▁designed	-9.80327
▁dirty	-9.80327
▁earthy	-9.80327
▁greatly	-9.80327
▁held	-9.80327
▁lacking	-9.80327
▁lavender	-9.80327
▁quarter	-9.80327
▁tropical	-9.80327
▁1st	-9.81065
▁catch	-9.81065
▁combine	-9.81065
▁equivalent	-9.81065
▁gain	-9.81065
▁hesitate	-9.81065
▁hibiscus	-9.81065
▁intact	-9.81065
▁jean	-9.81065
▁numerous	-9.81065
▁palatable	-9.81065
▁production	-9.81065
▁rubber	-9.81065
▁seasoned	-9.81065
▁seven	-9.81065
▁tolerate	-9.81065
▁automatic	-9.81808
▁chipotle	-9.81808
▁collection	-9.81808
▁death	-9.81808
▁emeril	-9.81808
▁europe	-9.81808
▁game	-9.81808
▁kong	-9.81808
▁lollipop	-9.81808
▁margarita	-9.81808
▁ride	-9.81808
▁seaweed	-9.81808
▁select	-9.81808
▁situation	-9.81808
▁sounded	-9.81808
▁sushi	-9.81808
▁vacation	-9.81808
▁wing	-9.81808
▁aspect	-9.82557
▁celestial	-9.82557
▁chihuahua	-9.82557
▁clump	-9.82557
▁coco	-9.82557
▁fluffy	-9.82557
▁heated	-9.82557
▁impression	-9.82557
▁newton	-9.82557
▁passion	-9.82557
▁reviewed	-9.82557
▁sat	-9.82557
▁tube	-9.82557
▁watcher	-9.82557
▁boring	-9.83312
▁died	-9.83312
▁dump	-9.83312
▁extreme	-9.83312
▁hunger	-9.83312
▁lady	-9.83312
▁metal	-9.83312
▁repeat	-9.83312
▁thinner	-9.83312
▁burned	-9.84073
▁fear	-9.84073
▁final	-9.84073
▁king	-9.84073
▁rise	-9.84073
▁severe	-9.84073
▁shepherd	-9.84073
▁whey	-9.84073
▁basil	-9.84839
▁breaking	-9.84839
▁coated	-9.84839
▁created	-9.84839
▁dropped	-9.84839
▁fussy	-9.84839
▁intolerant	-9.84839
▁gerber	-9.85611
▁minimal	-9.85611
▁richer	-9.85611
▁significant	-9.85611
▁spending	-9.85611
▁tested	-9.85611
▁useful	-9.85611
▁chow	-9.86389
▁fire	-9.86389
▁fragrant	-9.86389
▁letting	-9.86389
▁news	-9.86389
▁obvious	-9.86389
▁smoky	-9.86389
▁tax	-9.86389
▁trail	-9.86389
▁unhealthy	-9.86389
▁addicting	-9.87174
▁arrives	-9.87174
▁conscious	-9.87174
▁harsh	-9.87174
▁leak	-9.87174
▁liter	-9.87174
▁met	-9.87174
▁suck	-9.87174
▁traveling	-9.87174
▁caution	-9.87964
▁chocolatey	-9.87964
▁infection	-9.87964
▁posted	-9.87964
▁related	-9.87964
▁tossed	-9.87964
▁vacuum	-9.87964
▁adjust	-9.88761
▁amazingly	-9.88761
▁brush	-9.88761
▁cracked	-9.88761
▁dunkin	-9.88761
▁florida	-9.88761
▁hassle	-9.88761
▁importantly	-9.88761
▁mashed	-9.88761
▁popping	-9.88761
▁pouring	-9.88761
▁readily	-9.88761
▁smoother	-9.88761
▁citric	-9.89564
▁closed	-9.89564
▁connoisseur	-9.89564
▁disappoint	-9.89564
▁fda	-9.89564
▁filtered	-9.89564
▁frankly	-9.89564
▁joint	-9.89564
▁juicy	-9.89564
▁pickle	-9.89564
▁rave	-9.89564
▁sport	-9.89564
▁stocked	-9.89564
▁warned	-9.89564
▁whatsoever	-9.89564
▁grill	-9.90374
▁maxwell	-9.90374
▁petite	-9.90374
▁portable	-9.90374
▁promised	-9.90374
▁speak	-9.90374
▁splash	-9.90374
▁chop	-9.9119
▁decaffeinated	-9.9119
▁emergency	-9.9119
▁exceptional	-9.9119
▁germany	-9.9119
▁grapefruit	-9.9119
▁holder	-9.9119
▁hubby	-9.9119
▁partially	-9.9119
▁playing	-9.9119
▁regardless	-9.9119
▁semi	-9.9119
▁tablet	-9.9119
▁thankfully	-9.9119
▁cabinet	-9.92013
▁dispenser	-9.92013
▁feline	-9.92013
▁glycemic	-9.92013
▁neighbor	-9.92013
▁peel	-9.92013
▁powerful	-9.92013
▁pressed	-9.92013
▁prompt	-9.92013
▁runny	-9.92013
▁senior	-9.92013
▁signed	-9.92013
▁sooo	-9.92013
▁testing	-9.92013
▁virtually	-9.92013
▁act	-9.92843
▁appreciated	-9.92843
▁balsamic	-9.92843
▁burst	-9.92843
▁everybody	-9.92843
▁hence	-9.92843
▁joy	-9.92843
▁lean	-9.92843
▁net	-9.92843
▁pearl	-9.92843
▁pulled	-9.92843
▁squirt	-9.92843
▁substance	-9.92843
▁article	-9.9368
▁buddy	-9.9368
▁challenge	-9.9368
▁grit	-9.9368
▁lock	-9.9368
▁maintain	-9.9368
▁rancid	-9.9368
▁regarding	-9.9368
▁shell	-9.9368
▁2010	-9.94524
▁concept	-9.94524
▁curious	-9.94524
▁dirt	-9.94524
▁gummi	-9.94524
▁gummies	-9.94524
▁heavenly	-9.94524
▁soooo	-9.94524
▁tiger	-9.94524
▁zuke	-9.94524
▁acidity	-9.95375
▁cheerio	-9.95375
▁click	-9.95375
▁fond	-9.95375
▁men	-9.95375
▁pastry	-9.95375
▁delivers	-9.96233
▁drawback	-9.96233
▁dye	-9.96233
▁event	-9.96233
▁fight	-9.96233
▁fortunately	-9.96233
▁macadamia	-9.96233
▁malt	-9.96233
▁melitta	-9.96233
▁percent	-9.96233
▁pitcher	-9.96233
▁processing	-9.96233
▁sooner	-9.96233
▁tastier	-9.96233
▁toxic	-9.96233
▁acai	-9.97099
▁badly	-9.97099
▁chilled	-9.97099
▁female	-9.97099
▁fewer	-9.97099
▁folgers	-9.97099
▁gloria	-9.97099
▁hummus	-9.97099
▁minor	-9.97099
▁sampled	-9.97099
▁settle	-9.97099
▁stumbled	-9.97099
▁bagged	-9.97973
▁baker	-9.97973
▁beautifully	-9.97973
▁biscotti	-9.97973
▁cocktail	-9.97973
▁envelope	-9.97973
▁mass	-9.97973
▁opportunity	-9.97973
▁rum	-9.97973
▁shortbread	-9.97973
▁smokey	-9.97973
▁track	-9.97973
▁wolfgang	-9.97973
▁yard	-9.97973
▁blow	-9.98854
▁caffeinated	-9.98854
▁camping	-9.98854
▁cooker	-9.98854
▁eacute	-9.98854
▁evo	-9.98854
▁friskies	-9.98854
▁hundred	-9.98854
▁iams	-9.98854
▁kellogg	-9.98854
▁lay	-9.98854
▁marley	-9.98854
▁spiced	-9.98854
▁vomiting	-9.98854
▁wood	-9.98854
▁becoming	-9.99743
▁checking	-9.99743
▁desert	-9.99743
▁distinctive	-9.99743
▁electrolyte	-9.99743
▁exercise	-9.99743
▁miso	-9.99743
▁nestle	-9.99743
▁picking	-9.99743
▁pictured	-9.99743
▁planter	-9.99743
▁practice	-9.99743
▁primary	-9.99743
▁property	-9.99743
▁straw	-9.99743
▁wedding	-9.99743
▁zevia	-9.99743
▁beach	-10.0064
▁canada	-10.0064
▁clock	-10.0064
▁fondant	-10.0064
▁hairball	-10.0064
▁knock	-10.0064
▁lentil	-10.0064
▁mr	-10.0064
▁passed	-10.0064
▁promise	-10.0064
▁reflux	-10.0064
▁silky	-10.0064
▁steeping	-10.0064
▁stress	-10.0064
▁train	-10.0064
▁causing	-10.0154
▁concentrated	-10.0154
▁decision	-10.0154
▁dream	-10.0154
▁everytime	-10.0154
▁exotic	-10.0154
▁finishing	-10.0154
▁ham	-10.0154
▁imported	-10.0154
▁jump	-10.0154
▁lip	-10.0154
▁professional	-10.0154
▁returning	-10.0154
▁similac	-10.0154
▁steam	-10.0154
▁twenty	-10.0154
▁essentia	-10.0246
▁explain	-10.0246
▁generic	-10.0246
▁greek	-10.0246
▁innova	-10.0246
▁peppercorn	-10.0246
▁profile	-10.0246
▁routine	-10.0246
▁rush	-10.0246
▁treatment	-10.0246
▁whipped	-10.0246
▁adopted	-10.0338
▁assumed	-10.0338
▁bird	-10.0338
▁board	-10.0338
▁boxed	-10.0338
▁comparing	-10.0338
▁continued	-10.0338
▁definite	-10.0338
▁dove	-10.0338
▁exclusively	-10.0338
▁hfc	-10.0338
▁indoor	-10.0338
▁july	-10.0338
▁load	-10.0338
▁meaning	-10.0338
▁potent	-10.0338
▁scale	-10.0338
▁skip	-10.0338
▁ability	-10.0431
▁anyways	-10.0431
▁appearance	-10.0431
▁budget	-10.0431
▁card	-10.0431
▁crash	-10.0431
▁essentially	-10.0431
▁fashioned	-10.0431
▁fluid	-10.0431
▁image	-10.0431
▁kiwi	-10.0431
▁larabar	-10.0431
▁omg	-10.0431
▁tall	-10.0431
▁bowel	-10.0525
▁changing	-10.0525
▁colombian	-10.0525
▁correctly	-10.0525
▁discover	-10.0525
▁granted	-10.0525
▁halloween	-10.0525
▁holistic	-10.0525
▁medical	-10.0525
▁necessarily	-10.0525
▁plum	-10.0525
▁sore	-10.0525
▁teriyaki	-10.0525
▁versus	-10.0525
▁york	-10.0525
▁bonsai	-10.062
▁brain	-10.062
▁crumble	-10.062
▁gelatin	-10.062
▁international	-10.062
▁lazy	-10.062
▁potential	-10.062
▁rabbit	-10.062
▁relaxing	-10.062
▁residue	-10.062
▁schedule	-10.062
▁turning	-10.062
▁dent	-10.0715
▁girlfriend	-10.0715
▁manufactured	-10.0715
▁moth	-10.0715
▁poodle	-10.0715
▁primarily	-10.0715
▁smile	-10.0715
▁soil	-10.0715
▁southern	-10.0715
▁student	-10.0715
▁120	-10.0812
▁attractive	-10.0812
▁barbecue	-10.0812
▁cheesy	-10.0812
▁complained	-10.0812
▁desire	-10.0812
▁dha	-10.0812
▁greenie	-10.0812
▁handling	-10.0812
▁managed	-10.0812
▁orijen	-10.0812
▁practically	-10.0812
▁ripped	-10.0812
▁shaker	-10.0812
▁spearmint	-10.0812
▁stinky	-10.0812
▁stuffed	-10.0812
▁substantial	-10.0812
▁supposedly	-10.0812
▁surgery	-10.0812
▁awake	-10.091
▁clam	-10.091
▁community	-10.091
▁couscous	-10.091
▁crab	-10.091
▁edit	-10.091
▁factory	-10.091
▁grove	-10.091
▁harvest	-10.091
▁healthful	-10.091
▁hotter	-10.091
▁kool	-10.091
▁minty	-10.091
▁minus	-10.091
▁nabisco	-10.091
▁nectar	-10.091
▁ordinary	-10.091
▁push	-10.091
▁relief	-10.091
▁roughly	-10.091
▁tonight	-10.091
▁weruva	-10.091
▁boiled	-10.1008
▁category	-10.1008
▁deliver	-10.1008
▁depth	-10.1008
▁haribo	-10.1008
▁knife	-10.1008
▁munch	-10.1008
▁outer	-10.1008
▁pit	-10.1008
▁relative	-10.1008
▁remains	-10.1008
▁rye	-10.1008
▁safety	-10.1008
▁shelter	-10.1008
▁trial	-10.1008
▁yr	-10.1008
▁canola	-10.1108
▁coca	-10.1108
▁department	-10.1108
▁ensure	-10.1108
▁error	-10.1108
▁moderation	-10.1108
▁petco	-10.1108
▁preparing	-10.1108
▁stink	-10.1108
▁stirring	-10.1108
▁string	-10.1108
▁video	-10.1108
▁weaker	-10.1108
▁addict	-10.1208
▁annoying	-10.1208
▁born	-10.1208
▁caviar	-10.1208
▁disappeared	-10.1208
▁frosted	-10.1208
▁glucose	-10.1208
▁goat	-10.1208
▁holding	-10.1208
▁largest	-10.1208
▁tangerine	-10.1208
▁terribly	-10.1208
▁torani	-10.1208
▁burning	-10.131
▁choking	-10.131
▁cross	-10.131
▁dissapointed	-10.131
▁drug	-10.131
▁measuring	-10.131
▁patty	-10.131
▁planning	-10.131
▁rind	-10.131
▁spam	-10.131
▁tapioca	-10.131
▁telling	-10.131
▁temp	-10.131
▁triple	-10.131
▁truth	-10.131
▁vita	-10.131
▁agreed	-10.1412
▁appeared	-10.1412
▁brick	-10.1412
▁cheesecake	-10.1412
▁constant	-10.1412
▁dandruff	-10.1412
▁francisco	-10.1412
▁hawaii	-10.1412
▁marked	-10.1412
▁planet	-10.1412
▁prescription	-10.1412
▁prune	-10.1412
▁retailer	-10.1412
▁seattle	-10.1412
▁sits	-10.1412
▁suddenly	-10.1412
▁suit	-10.1412
▁wear	-10.1412
▁amy	-10.1516
▁beneful	-10.1516
▁coast	-10.1516
▁detect	-10.1516
▁film	-10.1516
▁finely	-10.1516
▁funky	-10.1516
▁grease	-10.1516
▁hill	-10.1516
▁impressive	-10.1516
▁korean	-10.1516
▁leaked	-10.1516
▁mask	-10.1516
▁providing	-10.1516
▁pug	-10.1516
▁remain	-10.1516
▁tract	-10.1516
▁appropriate	-10.162
▁bath	-10.162
▁chicory	-10.162
▁columbian	-10.162
▁dehydrated	-10.162
▁force	-10.162
▁greatest	-10.162
▁history	-10.162
▁hotel	-10.162
▁izze	-10.162
▁owned	-10.162
▁peace	-10.162
▁sink	-10.162
▁starbuck	-10.162
▁stayed	-10.162
▁suffer	-10.162
▁thirst	-10.162
▁visiting	-10.162
▁west	-10.162
▁acquired	-10.1726
▁apply	-10.1726
▁beagle	-10.1726
▁border	-10.1726
▁british	-10.1726
▁convinced	-10.1726
▁divine	-10.1726
▁gentle	-10.1726
▁inedible	-10.1726
▁lactose	-10.1726
▁leaking	-10.1726
▁lump	-10.1726
▁majority	-10.1726
▁march	-10.1726
▁pair	-10.1726
▁pepsi	-10.1726
▁print	-10.1726
▁satisfies	-10.1726
▁teabags	-10.1726
▁trace	-10.1726
▁variation	-10.1726
▁000	-10.1833
▁account	-10.1833
▁celery	-10.1833
▁chalky	-10.1833
▁commented	-10.1833
▁detail	-10.1833
▁durable	-10.1833
▁european	-10.1833
▁glucosamine	-10.1833
▁hurry	-10.1833
▁lift	-10.1833
▁measured	-10.1833
▁modified	-10.1833
▁ocean	-10.1833
▁pig	-10.1833
▁printed	-10.1833
▁purple	-10.1833
▁requirement	-10.1833
▁ruin	-10.1833
▁tightly	-10.1833
▁ahoy	-10.1941
▁alkaline	-10.1941
▁arrival	-10.1941
▁carpet	-10.1941
▁continues	-10.1941
▁cramp	-10.1941
▁cure	-10.1941
▁dangerous	-10.1941
▁everlasting	-10.1941
▁famous	-10.1941
▁flaxseed	-10.1941
▁foam	-10.1941
▁gag	-10.1941
▁gevalia	-10.1941
▁grandmother	-10.1941
▁grandson	-10.1941
▁jaw	-10.1941
▁jumped	-10.1941
▁kcup	-10.1941
▁lowest	-10.1941
▁mildly	-10.1941
▁monster	-10.1941
▁producing	-10.1941
▁researching	-10.1941
▁reviewing	-10.1941
▁screw	-10.1941
▁suitable	-10.1941
▁ultra	-10.1941
▁arthritis	-10.2051
▁comfortable	-10.2051
▁essence	-10.2051
▁finest	-10.2051
▁grinding	-10.2051
▁lemongrass	-10.2051
▁nowhere	-10.2051
▁nutmeg	-10.2051
▁par	-10.2051
▁ruined	-10.2051
▁sniff	-10.2051
▁tang	-10.2051
▁van	-10.2051
▁addiction	-10.2161
▁ale	-10.2161
▁avid	-10.2161
▁block	-10.2161
▁brittle	-10.2161
▁build	-10.2161
▁competitive	-10.2161
▁cooler	-10.2161
▁guarantee	-10.2161
▁healthiest	-10.2161
▁immune	-10.2161
▁infant	-10.2161
▁metallic	-10.2161
▁northern	-10.2161
▁probiotic	-10.2161
▁regard	-10.2161
▁shaking	-10.2161
▁skillet	-10.2161
▁temptation	-10.2161
▁thanksgiving	-10.2161
▁focus	-10.2273
▁grandma	-10.2273
▁notch	-10.2273
▁nugget	-10.2273
▁pistachio	-10.2273
▁request	-10.2273
▁rough	-10.2273
▁rule	-10.2273
▁sheet	-10.2273
▁stack	-10.2273
▁thins	-10.2273
▁twin	-10.2273
▁waited	-10.2273
▁bathroom	-10.2386
▁bedtime	-10.2386
▁character	-10.2386
▁cleaned	-10.2386
▁considerably	-10.2386
▁doggie	-10.2386
▁east	-10.2386
▁enfamil	-10.2386
▁excess	-10.2386
▁farmer	-10.2386
▁habanero	-10.2386
▁pine	-10.2386
▁pulp	-10.2386
▁reminiscent	-10.2386
▁rib	-10.2386
▁sensitivity	-10.2386
▁soaked	-10.2386
▁swear	-10.2386
▁tool	-10.2386
▁transition	-10.2386
▁wall	-10.2386
▁whose	-10.2386
▁absorb	-10.25
▁associated	-10.25
▁canin	-10.25
▁closely	-10.25
▁december	-10.25
▁diced	-10.25
▁driving	-10.25
▁enhancer	-10.25
▁excessive	-10.25
▁function	-10.25
▁fyi	-10.25
▁gobbled	-10.25
▁lotion	-10.25
▁miniature	-10.25
▁minimum	-10.25
▁north	-10.25
▁nutella	-10.25
▁outrageous	-10.25
▁spill	-10.25
▁visited	-10.25
▁walked	-10.25
▁whereas	-10.25
▁adore	-10.2616
▁advertising	-10.2616
▁bucket	-10.2616
▁button	-10.2616
▁condiment	-10.2616
▁decade	-10.2616
▁dipped	-10.2616
▁failure	-10.2616
▁france	-10.2616
▁frequent	-10.2616
▁inner	-10.2616
▁lifestyle	-10.2616
▁michael	-10.2616
▁mush	-10.2616
▁named	-10.2616
▁nine	-10.2616
▁path	-10.2616
▁pregnant	-10.2616
▁protect	-10.2616
▁refrigeration	-10.2616
▁soybean	-10.2616
▁towards	-10.2616
▁upside	-10.2616
▁vodka	-10.2616
▁worm	-10.2616
▁accurate	-10.2733
▁assuming	-10.2733
▁bacteria	-10.2733
▁belgian	-10.2733
▁blame	-10.2733
▁environment	-10.2733
▁gingerbread	-10.2733
▁glaze	-10.2733
▁gusto	-10.2733
▁involved	-10.2733
▁java	-10.2733
▁jim	-10.2733
▁licking	-10.2733
▁maid	-10.2733
▁pace	-10.2733
▁pellet	-10.2733
▁plump	-10.2733
▁refrigerate	-10.2733
▁satisfaction	-10.2733
▁sharing	-10.2733
▁steamed	-10.2733
▁steeped	-10.2733
▁stem	-10.2733
▁surely	-10.2733
▁ultimate	-10.2733
▁vermont	-10.2733
▁vomit	-10.2733
▁airtight	-10.2851
▁ala	-10.2851
▁beet	-10.2851
▁bored	-10.2851
▁boxer	-10.2851
▁buttermilk	-10.2851
▁coffe	-10.2851
▁credit	-10.2851
▁difficulty	-10.2851
▁emailed	-10.2851
▁expire	-10.2851
▁facility	-10.2851
▁infused	-10.2851
▁merrick	-10.2851
▁mixer	-10.2851
▁peppery	-10.2851
▁phone	-10.2851
▁accident	-10.2971
▁address	-10.2971
▁aloe	-10.2971
▁faint	-10.2971
▁grateful	-10.2971
▁lecithin	-10.2971
▁steal	-10.2971
▁alert	-10.3092
▁beauty	-10.3092
▁constipation	-10.3092
▁cry	-10.3092
▁enhance	-10.3092
▁evaporated	-10.3092
▁forgot	-10.3092
▁frying	-10.3092
▁gatorade	-10.3092
▁ghost	-10.3092
▁identical	-10.3092
▁indicated	-10.3092
▁intend	-10.3092
▁lie	-10.3092
▁marketed	-10.3092
▁pesticide	-10.3092
▁recomend	-10.3092
▁recommends	-10.3092
▁sensation	-10.3092
▁simmer	-10.3092
▁soaking	-10.3092
▁sucker	-10.3092
▁tag	-10.3092
▁tradition	-10.3092
▁activity	-10.3215
▁aged	-10.3215
▁beneficial	-10.3215
▁blah	-10.3215
▁calling	-10.3215
▁creates	-10.3215
▁frontier	-10.3215
▁heating	-10.3215
▁inferior	-10.3215
▁kidding	-10.3215
▁lesson	-10.3215
▁master	-10.3215
▁nibble	-10.3215
▁parmesan	-10.3215
▁profit	-10.3215
▁resist	-10.3215
▁roland	-10.3215
▁speed	-10.3215
▁stretch	-10.3215
▁surface	-10.3215
▁surprising	-10.3215
▁thankful	-10.3215
▁tone	-10.3215
▁urge	-10.3215
▁urinary	-10.3215
▁access	-10.3339
▁bank	-10.3339
▁bolder	-10.3339
▁campbell	-10.3339
▁casserole	-10.3339
▁gym	-10.3339
▁harmful	-10.3339
▁land	-10.3339
▁nearby	-10.3339
▁overweight	-10.3339
▁perfection	-10.3339
▁reliable	-10.3339
▁silk	-10.3339
▁taffy	-10.3339
▁whip	-10.3339
▁accustomed	-10.3465
▁boot	-10.3465
▁clif	-10.3465
▁coarse	-10.3465
▁competitor	-10.3465
▁creating	-10.3465
▁depends	-10.3465
▁ghirardelli	-10.3465
▁growth	-10.3465
▁heinz	-10.3465
▁jamaica	-10.3465
▁max	-10.3465
▁muesli	-10.3465
▁neighborhood	-10.3465
▁percentage	-10.3465
▁petsmart	-10.3465
▁pungent	-10.3465
▁tartar	-10.3465
▁tim	-10.3465
▁treated	-10.3465
▁unopened	-10.3465
▁wrapping	-10.3465
▁yorkie	-10.3465
▁aunt	-10.3592
▁chocolaty	-10.3592
▁dachshund	-10.3592
▁flavorless	-10.3592
▁latest	-10.3592
▁manufacturing	-10.3592
▁naked	-10.3592
▁october	-10.3592
▁presentation	-10.3592
▁raise	-10.3592
▁relax	-10.3592
▁roasting	-10.3592
▁towel	-10.3592
▁twelve	-10.3592
▁approx	-10.3721
▁betty	-10.3721
▁cancel	-10.3721
▁culinary	-10.3721
▁drying	-10.3721
▁falling	-10.3721
▁fashion	-10.3721
▁forced	-10.3721
▁fortune	-10.3721
▁lifesaver	-10.3721
▁marzipan	-10.3721
▁mole	-10.3721
▁morsel	-10.3721
▁parsley	-10.3721
▁placing	-10.3721
▁separately	-10.3721
▁settled	-10.3721
▁anybody	-10.3852
▁boston	-10.3852
▁dig	-10.3852
▁dill	-10.3852
▁diluted	-10.3852
▁doubled	-10.3852
▁failed	-10.3852
▁hull	-10.3852
▁indulgence	-10.3852
▁leather	-10.3852
▁lingering	-10.3852
▁location	-10.3852
▁maltodextrin	-10.3852
▁meaty	-10.3852
▁paprika	-10.3852
▁pointed	-10.3852
▁reusable	-10.3852
▁skim	-10.3852
▁soften	-10.3852
▁venison	-10.3852
▁alright	-10.3984
▁applesauce	-10.3984
▁bringing	-10.3984
▁crumbled	-10.3984
▁exchange	-10.3984
▁fence	-10.3984
▁fuss	-10.3984
▁goody	-10.3984
▁granule	-10.3984
▁hospital	-10.3984
▁impact	-10.3984
▁larabars	-10.3984
▁liquor	-10.3984
▁mojito	-10.3984
▁nervous	-10.3984
▁occupied	-10.3984
▁rain	-10.3984
▁saffron	-10.3984
▁sooooo	-10.3984
▁spanish	-10.3984
▁sweetening	-10.3984
▁tail	-10.3984
▁tastebud	-10.3984
▁thickness	-10.3984
▁washed	-10.3984
▁agent	-10.4119
▁arm	-10.4119
▁attached	-10.4119
▁blown	-10.4119
▁buzz	-10.4119
▁differently	-10.4119
▁favourite	-10.4119
▁fusion	-10.4119
▁himalayan	-10.4119
▁hydrated	-10.4119
▁indicates	-10.4119
▁lite	-10.4119
▁lobster	-10.4119
▁marmalade	-10.4119
▁park	-10.4119
▁poultry	-10.4119
▁random	-10.4119
▁sometime	-10.4119
▁sprouted	-10.4119
▁storing	-10.4119
▁tab	-10.4119
▁thousand	-10.4119
▁topped	-10.4119
▁usda	-10.4119
▁amino	-10.4255
▁anxiety	-10.4255
▁approach	-10.4255
▁availability	-10.4255
▁bagel	-10.4255
▁beloved	-10.4255
▁chronic	-10.4255
▁code	-10.4255
▁collie	-10.4255
▁crude	-10.4255
▁cycle	-10.4255
▁decadent	-10.4255
▁demand	-10.4255
▁expense	-10.4255
▁flow	-10.4255
▁fog	-10.4255
▁fooled	-10.4255
▁hidden	-10.4255
▁hike	-10.4255
▁hiking	-10.4255
▁justify	-10.4255
▁nonetheless	-10.4255
▁rash	-10.4255
▁reported	-10.4255
▁reserve	-10.4255
▁resulting	-10.4255
▁scissors	-10.4255
▁showing	-10.4255
▁stone	-10.4255
▁suggests	-10.4255
▁turkish	-10.4255
▁undertone	-10.4255
▁waxy	-10.4255
▁welcome	-10.4255
▁african	-10.4393
▁bark	-10.4393
▁beg	-10.4393
▁cayenne	-10.4393
▁chile	-10.4393
▁complaining	-10.4393
▁confused	-10.4393
▁fraction	-10.4393
▁gained	-10.4393
▁guessing	-10.4393
▁halo	-10.4393
▁index	-10.4393
▁ish	-10.4393
▁labeling	-10.4393
▁leading	-10.4393
▁poison	-10.4393
▁rep	-10.4393
▁researched	-10.4393
▁richness	-10.4393
▁rinsed	-10.4393
▁rolling	-10.4393
▁sake	-10.4393
▁staying	-10.4393
▁thailand	-10.4393
▁walking	-10.4393
▁zing	-10.4393
▁action	-10.4532
▁august	-10.4532
▁automatically	-10.4532
▁bee	-10.4532
▁clay	-10.4532
▁component	-10.4532
▁dull	-10.4532
▁dumped	-10.4532
▁field	-10.4532
▁hunt	-10.4532
▁jamaican	-10.4532
▁jittery	-10.4532
▁mighty	-10.4532
▁movement	-10.4532
▁november	-10.4532
▁safely	-10.4532
▁sampling	-10.4532
▁shock	-10.4532
▁sipping	-10.4532
▁smallest	-10.4532
▁washing	-10.4532
▁alive	-10.4674
▁assorted	-10.4674
▁calming	-10.4674
▁caveat	-10.4674
▁chex	-10.4674
▁cleaner	-10.4674
▁cone	-10.4674
▁cotton	-10.4674
▁easter	-10.4674
▁element	-10.4674
▁feedback	-10.4674
▁fork	-10.4674
▁hearing	-10.4674
▁houtte	-10.4674
▁joke	-10.4674
▁led	-10.4674
▁lindt	-10.4674
▁mary	-10.4674
▁needing	-10.4674
▁nespresso	-10.4674
▁nobody	-10.4674
▁origin	-10.4674
▁powering	-10.4674
▁reordering	-10.4674
▁scratching	-10.4674
▁shine	-10.4674
▁slide	-10.4674
▁suffering	-10.4674
▁synthetic	-10.4674
▁teabag	-10.4674
▁warn	-10.4674
▁wasting	-10.4674
▁ziplock	-10.4674
▁breakage	-10.4818
▁cell	-10.4818
▁complement	-10.4818
▁concoction	-10.4818
▁consideration	-10.4818
▁david	-10.4818
▁disagree	-10.4818
▁erythritol	-10.4818
▁experimenting	-10.4818
▁expresso	-10.4818
▁false	-10.4818
▁fizz	-10.4818
▁grabbed	-10.4818
▁gradually	-10.4818
▁grand	-10.4818
▁heartburn	-10.4818
▁issimo	-10.4818
▁january	-10.4818
▁martini	-10.4818
▁medicinal	-10.4818
▁mediocre	-10.4818
▁million	-10.4818
▁neat	-10.4818
▁neck	-10.4818
▁pricy	-10.4818
▁pronounced	-10.4818
▁remedy	-10.4818
▁rosemary	-10.4818
▁scone	-10.4818
▁selected	-10.4818
▁tempted	-10.4818
▁ugh	-10.4818
▁view	-10.4818
▁voila	-10.4818
▁wondered	-10.4818
▁allowing	-10.4964
▁asks	-10.4964
▁bang	-10.4964
▁blending	-10.4964
▁brushing	-10.4964
▁buckwheat	-10.4964
▁counting	-10.4964
▁cuppa	-10.4964
▁draw	-10.4964
▁entree	-10.4964
▁healing	-10.4964
▁manage	-10.4964
▁meow	-10.4964
▁model	-10.4964
▁novelty	-10.4964
▁oregon	-10.4964
▁pale	-10.4964
▁prone	-10.4964
▁public	-10.4964
▁rounded	-10.4964
▁smashed	-10.4964
▁solved	-10.4964
▁spaniel	-10.4964
▁spoil	-10.4964
▁stable	-10.4964
▁truck	-10.4964
▁wax	-10.4964
▁wind	-10.4964
▁yay	-10.4964
▁antibiotic	-10.5112
▁assam	-10.5112
▁biting	-10.5112
▁ceylon	-10.5112
▁choke	-10.5112
▁confident	-10.5112
▁covering	-10.5112
▁davidson	-10.5112
▁devoured	-10.5112
▁dilute	-10.5112
▁eden	-10.5112
▁eliminate	-10.5112
▁encountered	-10.5112
▁fixed	-10.5112
▁informed	-10.5112
▁instance	-10.5112
▁insulin	-10.5112
▁intolerance	-10.5112
▁manufacture	-10.5112
▁melting	-10.5112
▁nutritionally	-10.5112
▁opposite	-10.5112
▁partial	-10.5112
▁paul	-10.5112
▁pedigree	-10.5112
▁possibility	-10.5112
▁powdery	-10.5112
▁rainforest	-10.5112
▁recipient	-10.5112
▁responsible	-10.5112
▁silver	-10.5112
▁smelly	-10.5112
▁stirred	-10.5112
▁subjective	-10.5112
▁tartness	-10.5112
▁unhappy	-10.5112
▁110	-10.5263
▁accidentally	-10.5263
▁allergen	-10.5263
▁april	-10.5263
▁arabica	-10.5263
▁attack	-10.5263
▁computer	-10.5263
▁deserves	-10.5263
▁directed	-10.5263
▁encourage	-10.5263
▁exciting	-10.5263
▁godiva	-10.5263
▁heavily	-10.5263
▁jims	-10.5263
▁latter	-10.5263
▁mccann	-10.5263
▁mexico	-10.5263
▁nacho	-10.5263
▁pad	-10.5263
▁raved	-10.5263
▁reality	-10.5263
▁requested	-10.5263
▁shortly	-10.5263
▁street	-10.5263
▁tb	-10.5263
▁tug	-10.5263
▁unflavored	-10.5263
▁united	-10.5263
▁urine	-10.5263
▁weigh	-10.5263
▁wolf	-10.5263
▁accept	-10.5415
▁ache	-10.5415
▁adequate	-10.5415
▁asleep	-10.5415
▁bin	-10.5415
▁brazil	-10.5415
▁cardamom	-10.5415
▁costly	-10.5415
▁dare	-10.5415
▁doggy	-10.5415
▁eager	-10.5415
▁fee	-10.5415
▁friday	-10.5415
▁grandchild	-10.5415
▁grassy	-10.5415
▁gray	-10.5415
▁horse	-10.5415
▁hype	-10.5415
▁judge	-10.5415
▁june	-10.5415
▁laugh	-10.5415
▁noticeably	-10.5415
▁pyramid	-10.5415
▁serf	-10.5415
▁sleeping	-10.5415
▁stuffing	-10.5415
▁tomorrow	-10.5415
▁torn	-10.5415
▁useless	-10.5415
▁warmed	-10.5415
▁wound	-10.5415
▁art	-10.557
▁artificially	-10.557
▁barry	-10.557
▁behavior	-10.557
▁bloody	-10.557
▁bulldog	-10.557
▁choc	-10.557
▁comforting	-10.557
▁culture	-10.557
▁deliciously	-10.557
▁desperate	-10.557
▁display	-10.557
▁economy	-10.557
▁elderly	-10.557
▁enjoyment	-10.557
▁fail	-10.557
▁flip	-10.557
▁former	-10.557
▁gently	-10.557
▁goji	-10.557
▁grated	-10.557
▁heaping	-10.557
▁jitter	-10.557
▁manuka	-10.557
▁math	-10.557
▁mayonnaise	-10.557
▁overpower	-10.557
▁pile	-10.557
▁reccomend	-10.557
▁reference	-10.557
▁saltiness	-10.557
▁schnauzer	-10.557
▁scout	-10.557
▁shade	-10.557
▁spiciness	-10.557
▁strainer	-10.557
▁subscribed	-10.557
▁transaction	-10.557
▁velveeta	-10.557
▁veterinarian	-10.557
▁walden	-10.557
▁yucky	-10.557
▁anise	-10.5728
▁avoiding	-10.5728
▁bisquick	-10.5728
▁blossom	-10.5728
▁caloric	-10.5728
▁cart	-10.5728
▁claimed	-10.5728
▁conclusion	-10.5728
▁disappear	-10.5728
▁enhances	-10.5728
▁exposed	-10.5728
▁genetically	-10.5728
▁goal	-10.5728
▁hawaiian	-10.5728
▁hickory	-10.5728
▁itchy	-10.5728
▁kefir	-10.5728
▁lake	-10.5728
▁merchant	-10.5728
▁moderate	-10.5728
▁nantucket	-10.5728
▁nursing	-10.5728
▁tolerable	-10.5728
▁unpopped	-10.5728
▁vending	-10.5728
▁whiskas	-10.5728
▁www	-10.5728
▁advise	-10.5888
▁aka	-10.5888
▁altoids	-10.5888
▁anchovy	-10.5888
▁barbeque	-10.5888
▁bunny	-10.5888
▁casing	-10.5888
▁compromise	-10.5888
▁conventional	-10.5888
▁darjeeling	-10.5888
▁dissolved	-10.5888
▁easiest	-10.5888
▁freak	-10.5888
▁greater	-10.5888
▁indulge	-10.5888
▁jolly	-10.5888
▁kirkland	-10.5888
▁locate	-10.5888
▁mad	-10.5888
▁meatball	-10.5888
▁moisturizer	-10.5888
▁nicer	-10.5888
▁refunded	-10.5888
▁region	-10.5888
▁shoe	-10.5888
▁sodastream	-10.5888
▁soul	-10.5888
▁spike	-10.5888
▁spout	-10.5888
▁strain	-10.5888
▁sunday	-10.5888
▁tie	-10.5888
▁window	-10.5888
▁aluminum	-10.6051
▁application	-10.6051
▁basmati	-10.6051
▁bun	-10.6051
▁cilantro	-10.6051
▁cleared	-10.6051
▁coffeemaker	-10.6051
▁compost	-10.6051
▁condensed	-10.6051
▁dutch	-10.6051
▁energetic	-10.6051
▁instinct	-10.6051
▁kroger	-10.6051
▁munching	-10.6051
▁nourishing	-10.6051
▁pepperoni	-10.6051
▁practical	-10.6051
▁praise	-10.6051
▁recyclable	-10.6051
▁ridiculously	-10.6051
▁saturday	-10.6051
▁shipper	-10.6051
▁spilled	-10.6051
▁summary	-10.6051
▁tape	-10.6051
▁taster	-10.6051
▁tonic	-10.6051
▁toward	-10.6051
▁unsalted	-10.6051
▁xanthan	-10.6051
▁additionally	-10.6216
▁beetlejuice	-10.6216
▁breeder	-10.6216
▁brooklyn	-10.6216
▁cancelled	-10.6216
▁cheez	-10.6216
▁chicago	-10.6216
▁chowder	-10.6216
▁costa	-10.6216
▁determine	-10.6216
▁enter	-10.6216
▁fool	-10.6216
▁fourth	-10.6216
▁hormone	-10.6216
▁itching	-10.6216
▁kahlua	-10.6216
▁learning	-10.6216
▁mum	-10.6216
▁perfume	-10.6216
▁questionable	-10.6216
▁record	-10.6216
▁safer	-10.6216
▁slimy	-10.6216
▁sneak	-10.6216
▁snow	-10.6216
▁sparingly	-10.6216
▁squeezed	-10.6216
▁statement	-10.6216
▁sweat	-10.6216
▁tendency	-10.6216
▁unbelievable	-10.6216
▁aisle	-10.6384
▁background	-10.6384
▁bothered	-10.6384
▁charged	-10.6384
▁contrast	-10.6384
▁cornbread	-10.6384
▁coworkers	-10.6384
▁crocker	-10.6384
▁dealing	-10.6384
▁delectable	-10.6384
▁deli	-10.6384
▁dieting	-10.6384
▁drunk	-10.6384
▁eco	-10.6384
▁fragile	-10.6384
▁genuine	-10.6384
▁glazed	-10.6384
▁husky	-10.6384
▁infusion	-10.6384
▁jerk	-10.6384
▁laden	-10.6384
▁letter	-10.6384
▁lined	-10.6384
▁national	-10.6384
▁patch	-10.6384
▁poorly	-10.6384
▁shih	-10.6384
▁shut	-10.6384
▁sulfate	-10.6384
▁yield	-10.6384
▁alternate	-10.6555
▁ant	-10.6555
▁antler	-10.6555
▁begging	-10.6555
▁brainer	-10.6555
▁characteristic	-10.6555
▁chaser	-10.6555
▁chloride	-10.6555
▁cloying	-10.6555
▁cocker	-10.6555
▁concentration	-10.6555
▁cucumber	-10.6555
▁deodorant	-10.6555
▁enzyme	-10.6555
▁gin	-10.6555
▁hell	-10.6555
▁herring	-10.6555
▁immediate	-10.6555
▁industry	-10.6555
▁insert	-10.6555
▁investment	-10.6555
▁migraine	-10.6555
▁mouse	-10.6555
▁nail	-10.6555
▁overseas	-10.6555
▁patient	-10.6555
▁performance	-10.6555
▁phosphate	-10.6555
▁project	-10.6555
▁proven	-10.6555
▁quest	-10.6555
▁sand	-10.6555
▁scare	-10.6555
▁signature	-10.6555
▁sub	-10.6555
▁sweetners	-10.6555
▁talked	-10.6555
▁toaster	-10.6555
▁unnecessary	-10.6555
▁watering	-10.6555
▁widely	-10.6555
▁wire	-10.6555
▁12oz	-10.6729
▁bomb	-10.6729
▁caffe	-10.6729
▁canine	-10.6729
▁competition	-10.6729
▁curl	-10.6729
▁cytomax	-10.6729
▁drizzle	-10.6729
▁efficient	-10.6729
▁environmentally	-10.6729
▁evenly	-10.6729
▁fellow	-10.6729
▁hound	-10.6729
▁loses	-10.6729
▁magazine	-10.6729
▁marvelous	-10.6729
▁midnight	-10.6729
▁moldy	-10.6729
▁nevertheless	-10.6729
▁noise	-10.6729
▁nutro	-10.6729
▁pacific	-10.6729
▁pate	-10.6729
▁pumping	-10.6729
▁release	-10.6729
▁relish	-10.6729
▁respect	-10.6729
▁scared	-10.6729
▁seasonal	-10.6729
▁speaking	-10.6729
▁teavana	-10.6729
▁thirty	-10.6729
▁trident	-10.6729
▁truvia	-10.6729
▁weekly	-10.6729
▁worthy	-10.6729
▁advised	-10.6906
▁aerogarden	-10.6906
▁cookbook	-10.6906
▁copper	-10.6906
▁def	-10.6906
▁digestible	-10.6906
▁emerald	-10.6906
▁equipment	-10.6906
▁fav	-10.6906
▁fermentation	-10.6906
▁filet	-10.6906
▁flaky	-10.6906
▁flimsy	-10.6906
▁fortified	-10.6906
▁gassy	-10.6906
▁gopher	-10.6906
▁gulp	-10.6906
▁lettuce	-10.6906
▁loud	-10.6906
▁nyc	-10.6906
▁policy	-10.6906
▁puzzle	-10.6906
▁recalled	-10.6906
▁roaster	-10.6906
▁scotch	-10.6906
▁shedding	-10.6906
▁silly	-10.6906
▁squirrel	-10.6906
▁standing	-10.6906
▁stream	-10.6906
▁suffered	-10.6906
▁sufficient	-10.6906
▁ziploc	-10.6906
▁burrito	-10.7086
▁chemically	-10.7086
▁dieter	-10.7086
▁doorstep	-10.7086
▁electric	-10.7086
▁fizzy	-10.7086
▁hydration	-10.7086
▁passing	-10.7086
▁pesto	-10.7086
▁pregnancy	-10.7086
▁prep	-10.7086
▁removing	-10.7086
▁reply	-10.7086
▁responded	-10.7086
▁rotation	-10.7086
▁row	-10.7086
▁saute	-10.7086
▁savor	-10.7086
▁seeking	-10.7086
▁session	-10.7086
▁sinus	-10.7086
▁skinny	-10.7086
▁subject	-10.7086
▁tastiest	-10.7086
▁unavailable	-10.7086
▁unbeatable	-10.7086
▁aggressive	-10.7269
▁anxious	-10.7269
▁backpack	-10.7269
▁bouillon	-10.7269
▁cheer	-10.7269
▁chest	-10.7269
▁chill	-10.7269
▁deceptive	-10.7269
▁delish	-10.7269
▁deserve	-10.7269
▁develop	-10.7269
▁distributor	-10.7269
▁employee	-10.7269
▁exceptionally	-10.7269
▁forest	-10.7269
▁foul	-10.7269
▁gripe	-10.7269
▁halfway	-10.7269
▁handed	-10.7269
▁hazard	-10.7269
▁helper	-10.7269
▁imho	-10.7269
▁influenster	-10.7269
▁lather	-10.7269
▁licked	-10.7269
▁nana	-10.7269
▁nausea	-10.7269
▁pint	-10.7269
▁pom	-10.7269
▁pureed	-10.7269
▁recycled	-10.7269
▁reese	-10.7269
▁remained	-10.7269
▁restricted	-10.7269
▁safeway	-10.7269
▁score	-10.7269
▁seek	-10.7269
▁shorter	-10.7269
▁shoulder	-10.7269
▁sigh	-10.7269
▁sniffed	-10.7269
▁squash	-10.7269
▁stating	-10.7269
▁successful	-10.7269
▁taylor	-10.7269
▁tzu	-10.7269
▁watched	-10.7269
▁whiff	-10.7269
▁airy	-10.7456
▁alaska	-10.7456
▁canadian	-10.7456
▁candied	-10.7456
▁compact	-10.7456
▁creamier	-10.7456
▁creative	-10.7456
▁crop	-10.7456
▁crowd	-10.7456
▁dance	-10.7456
▁device	-10.7456
▁diameter	-10.7456
▁gary	-10.7456
▁ghee	-10.7456
▁higgins	-10.7456
▁illness	-10.7456
▁imagination	-10.7456
▁increasing	-10.7456
▁jello	-10.7456
▁lingers	-10.7456
▁mama	-10.7456
▁mesh	-10.7456
▁multigrain	-10.7456
▁nylabone	-10.7456
▁preserved	-10.7456
▁pronounce	-10.7456
▁race	-10.7456
▁rancher	-10.7456
▁rockstar	-10.7456
▁sauteed	-10.7456
▁sticker	-10.7456
▁struggle	-10.7456
▁sudden	-10.7456
▁syrupy	-10.7456
▁tahini	-10.7456
▁thirsty	-10.7456
▁trainer	-10.7456
▁varies	-10.7456
▁wherever	-10.7456
▁altogether	-10.7647
▁appetizing	-10.7647
▁b12	-10.7647
▁balm	-10.7647
▁blind	-10.7647
▁burke	-10.7647
▁byproduct	-10.7647
▁church	-10.7647
▁colorful	-10.7647
▁dente	-10.7647
▁disapointed	-10.7647
▁dogswell	-10.7647
▁enhanced	-10.7647
▁explained	-10.7647
▁express	-10.7647
▁finer	-10.7647
▁flight	-10.7647
▁gladly	-10.7647
▁grilling	-10.7647
▁guaranteed	-10.7647
▁imitation	-10.7647
▁indicate	-10.7647
▁introduce	-10.7647
▁joes	-10.7647
▁lifetime	-10.7647
▁located	-10.7647
▁london	-10.7647
▁loyal	-10.7647
▁membership	-10.7647
▁moderately	-10.7647
▁offensive	-10.7647
▁overwhelmingly	-10.7647
▁partner	-10.7647
▁prince	-10.7647
▁ray	-10.7647
▁realizing	-10.7647
▁recovery	-10.7647
▁remainder	-10.7647
▁santa	-10.7647
▁sight	-10.7647
▁splurge	-10.7647
▁styrofoam	-10.7647
▁taurine	-10.7647
▁teething	-10.7647
▁tolerance	-10.7647
▁veg	-10.7647
▁admittedly	-10.7841
▁anticipated	-10.7841
▁approved	-10.7841
▁arizona	-10.7841
▁behold	-10.7841
▁breastfeeding	-10.7841
▁carnivore	-10.7841
▁charging	-10.7841
▁curiosity	-10.7841
▁damn	-10.7841
▁defective	-10.7841
▁del	-10.7841
▁derived	-10.7841
▁drier	-10.7841
▁duty	-10.7841
▁edition	-10.7841
▁fennel	-10.7841
▁granulated	-10.7841
▁lickety	-10.7841
▁mailed	-10.7841
▁mutt	-10.7841
▁nib	-10.7841
▁outdoor	-10.7841
▁perk	-10.7841
▁perspective	-10.7841
▁planted	-10.7841
▁played	-10.7841
▁quicker	-10.7841
▁resemble	-10.7841
▁rinsing	-10.7841
▁salami	-10.7841
▁scrambled	-10.7841
▁seltzer	-10.7841
▁september	-10.7841
▁smoking	-10.7841
▁smoothness	-10.7841
▁stik	-10.7841
▁teen	-10.7841
▁unexpected	-10.7841
▁whoever	-10.7841
▁yorkshire	-10.7841
▁applied	-10.8039
▁assured	-10.8039
▁bike	-10.8039
▁birth	-10.8039
▁boneless	-10.8039
▁bound	-10.8039
▁bragg	-10.8039
▁crock	-10.8039
▁cumin	-10.8039
▁decrease	-10.8039
▁dedicated	-10.8039
▁describes	-10.8039
▁disclaimer	-10.8039
▁fanatic	-10.8039
▁floating	-10.8039
▁gaining	-10.8039
▁hang	-10.8039
▁hormel	-10.8039
▁hunting	-10.8039
▁jolt	-10.8039
▁lesser	-10.8039
▁malted	-10.8039
▁mccormick	-10.8039
▁menadione	-10.8039
▁neutral	-10.8039
▁obsessed	-10.8039
▁orleans	-10.8039
▁producer	-10.8039
▁proof	-10.8039
▁refried	-10.8039
▁rishi	-10.8039
▁scrumptious	-10.8039
▁sencha	-10.8039
▁smokehouse	-10.8039
▁spelt	-10.8039
▁stopping	-10.8039
▁unacceptable	-10.8039
▁unsure	-10.8039
▁valentine	-10.8039
▁vitality	-10.8039
▁warmer	-10.8039
▁wary	-10.8039
▁achieve	-10.8241
▁albeit	-10.8241
▁begs	-10.8241
▁bloom	-10.8241
▁butterscotch	-10.8241
▁charm	-10.8241
▁choosing	-10.8241
▁cured	-10.8241
▁dave	-10.8241
▁disaster	-10.8241
▁dot	-10.8241
▁evidence	-10.8241
▁excuse	-10.8241
▁extended	-10.8241
▁follows	-10.8241
▁forgotten	-10.8241
▁formed	-10.8241
▁frustrated	-10.8241
▁ginseng	-10.8241
▁guar	-10.8241
▁harm	-10.8241
▁improves	-10.8241
▁intensity	-10.8241
▁jarred	-10.8241
▁lemony	-10.8241
▁listen	-10.8241
▁mainstream	-10.8241
▁motivated	-10.8241
▁niece	-10.8241
▁optional	-10.8241
▁protien	-10.8241
▁rank	-10.8241
▁recycle	-10.8241
▁river	-10.8241
▁scented	-10.8241
▁scrap	-10.8241
▁soo	-10.8241
▁specially	-10.8241
▁spectacular	-10.8241
▁sriracha	-10.8241
▁tequila	-10.8241
▁tossing	-10.8241
▁analysis	-10.8447
▁barrel	-10.8447
▁bout	-10.8447
▁brulee	-10.8447
▁cigarette	-10.8447
▁client	-10.8447
▁clog	-10.8447
▁crate	-10.8447
▁crush	-10.8447
▁curb	-10.8447
▁discounted	-10.8447
▁fifty	-10.8447
▁gem	-10.8447
▁holy	-10.8447
▁ignore	-10.8447
▁intrigued	-10.8447
▁knee	-10.8447
▁kombucha	-10.8447
▁lastly	-10.8447
▁maine	-10.8447
▁merely	-10.8447
▁mystery	-10.8447
▁nephew	-10.8447
▁oral	-10.8447
▁pulling	-10.8447
▁rebecca	-10.8447
▁recognize	-10.8447
▁reduces	-10.8447
▁replacing	-10.8447
▁ripe	-10.8447
▁rotten	-10.8447
▁rubbery	-10.8447
▁steady	-10.8447
▁steaming	-10.8447
▁strike	-10.8447
▁thicken	-10.8447
▁tore	-10.8447
▁vibrant	-10.8447
▁adorable	-10.8658
▁affected	-10.8658
▁angel	-10.8658
▁apartment	-10.8658
▁artifical	-10.8658
▁breeze	-10.8658
▁bummed	-10.8658
▁caffiene	-10.8658
▁chosen	-10.8658
▁claiming	-10.8658
▁controlled	-10.8658
▁convert	-10.8658
▁custard	-10.8658
▁destroy	-10.8658
▁dosage	-10.8658
▁erh	-10.8658
▁february	-10.8658
▁formulation	-10.8658
▁forth	-10.8658
▁fuller	-10.8658
▁gastric	-10.8658
▁granddaughter	-10.8658
▁hesitation	-10.8658
▁hodgson	-10.8658
▁insect	-10.8658
▁laxative	-10.8658
▁liner	-10.8658
▁measurement	-10.8658
▁mmmm	-10.8658
▁nipple	-10.8658
▁noticing	-10.8658
▁orgain	-10.8658
▁presented	-10.8658
▁processor	-10.8658
▁proud	-10.8658
▁publix	-10.8658
▁quote	-10.8658
▁remarkable	-10.8658
▁secure	-10.8658
▁sprinkling	-10.8658
▁supreme	-10.8658
▁task	-10.8658
▁zinc	-10.8658
▁afterward	-10.8873
▁appetizer	-10.8873
▁avoided	-10.8873
▁camper	-10.8873
▁carmel	-10.8873
▁charity	-10.8873
▁cheetos	-10.8873
▁climate	-10.8873
▁complexity	-10.8873
▁copy	-10.8873
▁crumbles	-10.8873
▁dab	-10.8873
▁devour	-10.8873
▁dying	-10.8873
▁eligible	-10.8873
▁entertained	-10.8873
▁entertaining	-10.8873
▁escape	-10.8873
▁eukanuba	-10.8873
▁frustrating	-10.8873
▁happening	-10.8873
▁harvested	-10.8873
▁horribly	-10.8873
▁identify	-10.8873
▁intestine	-10.8873
▁killed	-10.8873
▁krispies	-10.8873
▁kudos	-10.8873
▁lap	-10.8873
▁mcdougall	-10.8873
▁meeting	-10.8873
▁mommy	-10.8873
▁phenomenal	-10.8873
▁primal	-10.8873
▁purified	-10.8873
▁rat	-10.8873
▁rda	-10.8873
▁reached	-10.8873
▁reduction	-10.8873
▁resort	-10.8873
▁roller	-10.8873
▁shea	-10.8873
▁shred	-10.8873
▁spain	-10.8873
▁stiff	-10.8873
▁stix	-10.8873
▁teapot	-10.8873
▁technically	-10.8873
▁teenager	-10.8873
▁theme	-10.8873
▁tinkyada	-10.8873
▁turmeric	-10.8873
▁unfortunate	-10.8873
▁upper	-10.8873
▁utterly	-10.8873
▁wallet	-10.8873
▁weighs	-10.8873
▁zest	-10.8873
▁zukes	-10.8873
▁aussie	-10.9093
▁bamboo	-10.9093
▁bare	-10.9093
▁barista	-10.9093
▁blast	-10.9093
▁bummer	-10.9093
▁caf	-10.9093
▁caffine	-10.9093
▁caribbean	-10.9093
▁clothes	-10.9093
▁conversation	-10.9093
▁cousin	-10.9093
▁creaminess	-10.9093
▁critter	-10.9093
▁crouton	-10.9093
▁dentist	-10.9093
▁destroyed	-10.9093
▁detox	-10.9093
▁dingo	-10.9093
▁donate	-10.9093
▁eagerly	-10.9093
▁elegant	-10.9093
▁esp	-10.9093
▁exceeded	-10.9093
▁fenugreek	-10.9093
▁fermented	-10.9093
▁flu	-10.9093
▁flying	-10.9093
▁frank	-10.9093
▁frustration	-10.9093
▁goo	-10.9093
▁grows	-10.9093
▁haha	-10.9093
▁height	-10.9093
▁horseradish	-10.9093
▁hydrate	-10.9093
▁killer	-10.9093
▁kiss	-10.9093
▁maltese	-10.9093
▁maltitol	-10.9093
▁margarine	-10.9093
▁menu	-10.9093
▁metabolism	-10.9093
▁modern	-10.9093
▁paired	-10.9093
▁plaque	-10.9093
▁raving	-10.9093
▁reducing	-10.9093
▁reputation	-10.9093
▁returnable	-10.9093
▁rica	-10.9093
▁scientific	-10.9093
▁sens	-10.9093
▁shrink	-10.9093
▁shy	-10.9093
▁skippy	-10.9093
▁spirit	-10.9093
▁stuffer	-10.9093
▁swallowed	-10.9093
▁transit	-10.9093
▁wisconsin	-10.9093
▁wished	-10.9093
▁yep	-10.9093
▁absorbed	-10.9317
▁acne	-10.9317
▁agrees	-10.9317
▁applying	-10.9317
▁attribute	-10.9317
▁blade	-10.9317
▁bloating	-10.9317
▁carousel	-10.9317
▁central	-10.9317
▁clip	-10.9317
▁clumping	-10.9317
▁companion	-10.9317
▁confirmed	-10.9317
▁consists	-10.9317
▁contrary	-10.9317
▁cooling	-10.9317
▁dispense	-10.9317
▁evoo	-10.9317
▁fallen	-10.9317
▁focused	-10.9317
▁germ	-10.9317
▁glowing	-10.9317
▁grandkids	-10.9317
▁handled	-10.9317
▁hello	-10.9317
▁hiding	-10.9317
▁infuser	-10.9317
▁knorr	-10.9317
▁lil	-10.9317
▁lotus	-10.9317
▁moon	-10.9317
▁nope	-10.9317
▁nutritionist	-10.9317
▁nylabones	-10.9317
▁opener	-10.9317
▁peterson	-10.9317
▁prove	-10.9317
▁relaxed	-10.9317
▁rely	-10.9317
▁russell	-10.9317
▁series	-10.9317
▁sincerely	-10.9317
▁soymilk	-10.9317
▁speedy	-10.9317
▁spicey	-10.9317
▁spreading	-10.9317
▁spry	-10.9317
▁starving	-10.9317
▁stupid	-10.9317
▁substituted	-10.9317
▁sugared	-10.9317
▁thyroid	-10.9317
▁tiki	-10.9317
▁trusted	-10.9317
▁underneath	-10.9317
▁wasteful	-10.9317
▁10g	-10.9547
▁adores	-10.9547
▁alfalfa	-10.9547
▁ascorbic	-10.9547
▁bullet	-10.9547
▁ceramic	-10.9547
▁chick	-10.9547
▁clue	-10.9547
▁compete	-10.9547
▁confirm	-10.9547
▁cooled	-10.9547
▁couch	-10.9547
▁cuisinart	-10.9547
▁fare	-10.9547
▁fave	-10.9547
▁furry	-10.9547
▁goldfish	-10.9547
▁lightweight	-10.9547
▁lucy	-10.9547
▁masala	-10.9547
▁nescafe	-10.9547
▁overtone	-10.9547
▁overwhelmed	-10.9547
▁pickled	-10.9547
▁pooch	-10.9547
▁pricier	-10.9547
▁puffed	-10.9547
▁remotely	-10.9547
▁reordered	-10.9547
▁rescued	-10.9547
▁sawdust	-10.9547
▁steer	-10.9547
▁strongest	-10.9547
▁supporting	-10.9547
▁textured	-10.9547
▁twizzlers	-10.9547
▁walker	-10.9547
▁amber	-10.9783
▁ancient	-10.9783
▁blessing	-10.9783
▁bouquet	-10.9783
▁breastmilk	-10.9783
▁clover	-10.9783
▁cornstarch	-10.9783
▁dear	-10.9783
▁decreased	-10.9783
▁determined	-10.9783
▁distilled	-10.9783
▁dollop	-10.9783
▁dos	-10.9783
▁fattening	-10.9783
▁flea	-10.9783
▁float	-10.9783
▁flush	-10.9783
▁freshest	-10.9783
▁furniture	-10.9783
▁http	-10.9783
▁humidity	-10.9783
▁luxury	-10.9783
▁michigan	-10.9783
▁microwaving	-10.9783
▁newer	-10.9783
▁oriental	-10.9783
▁overwhelm	-10.9783
▁poo	-10.9783
▁proved	-10.9783
▁quiet	-10.9783
▁recommending	-10.9783
▁reconstituted	-10.9783
▁saltine	-10.9783
▁shopper	-10.9783
▁somebody	-10.9783
▁stovetop	-10.9783
▁survive	-10.9783
▁swallowing	-10.9783
▁teach	-10.9783
▁toothpick	-10.9783
▁tootsie	-10.9783
▁tricky	-10.9783
▁ultimately	-10.9783
▁understanding	-10.9783
▁undrinkable	-10.9783
▁yerba	-10.9783
▁zinger	-10.9783
▁accepted	-11.0024
▁africa	-11.0024
▁alike	-11.0024
▁avail	-11.0024
▁bakes	-11.0024
▁band	-11.0024
▁barbara	-11.0024
▁battle	-11.0024
▁branch	-11.0024
▁brief	-11.0024
▁brilliant	-11.0024
▁brine	-11.0024
▁cajun	-11.0024
▁closet	-11.0024
▁command	-11.0024
▁delay	-11.0024
▁dioxide	-11.0024
▁distributed	-11.0024
▁ekobrew	-11.0024
▁frappe	-11.0024
▁icky	-11.0024
▁inconsistent	-11.0024
▁intestinal	-11.0024
▁knowledge	-11.0024
▁libby	-11.0024
▁longest	-11.0024
▁lung	-11.0024
▁manager	-11.0024
▁mega	-11.0024
▁omaha	-11.0024
▁organix	-11.0024
▁overpowered	-11.0024
▁peppered	-11.0024
▁picnic	-11.0024
▁postage	-11.0024
▁resembles	-11.0024
▁resulted	-11.0024
▁screen	-11.0024
▁siamese	-11.0024
▁sourdough	-11.0024
▁spoke	-11.0024
▁strictly	-11.0024
▁technique	-11.0024
▁themed	-11.0024
▁transfer	-11.0024
▁unbelievably	-11.0024
▁unusable	-11.0024
▁wilton	-11.0024
▁2oz	-11.027
▁afghanistan	-11.027
▁amongst	-11.027
▁avocado	-11.027
▁bichon	-11.027
▁biodegradable	-11.027
▁building	-11.027
▁built	-11.027
▁bulb	-11.027
▁burton	-11.027
▁butt	-11.027
▁chocoholic	-11.027
▁confection	-11.027
▁constipated	-11.027
▁contamination	-11.027
▁crown	-11.027
▁disk	-11.027
▁disliked	-11.027
▁drained	-11.027
▁extensive	-11.027
▁flop	-11.027
▁fold	-11.027
▁fruitcake	-11.027
▁glue	-11.027
▁glutino	-11.027
▁guide	-11.027
▁happiness	-11.027
▁hostess	-11.027
▁ingest	-11.027
▁junkie	-11.027
▁keeper	-11.027
▁kelp	-11.027
▁louisiana	-11.027
▁lousy	-11.027
▁mmm	-11.027
▁native	-11.027
▁nirvana	-11.027
▁obtain	-11.027
▁offset	-11.027
▁physical	-11.027
▁proportion	-11.027
▁quench	-11.027
▁resolved	-11.027
▁ritual	-11.027
▁roof	-11.027
▁sacrifice	-11.027
▁safflower	-11.027
▁shall	-11.027
▁shift	-11.027
▁sickly	-11.027
▁smoothly	-11.027
▁spectrum	-11.027
▁spicier	-11.027
▁stainless	-11.027
▁sumatran	-11.027
▁sunbutter	-11.027
▁til	-11.027
▁tire	-11.027
▁tocopherol	-11.027
▁vague	-11.027
▁vera	-11.027
▁vote	-11.027
▁waking	-11.027
▁warming	-11.027
▁wipe	-11.027
▁zealand	-11.027
▁advertise	-11.0524
▁angry	-11.0524
▁apparent	-11.0524
▁australian	-11.0524
▁backpacking	-11.0524
▁breathe	-11.0524
▁buttered	-11.0524
▁carolina	-11.0524
▁commonly	-11.0524
▁currant	-11.0524
▁deliciousness	-11.0524
▁dew	-11.0524
▁dishwasher	-11.0524
▁disposable	-11.0524
▁distribution	-11.0524
▁dropping	-11.0524
▁fighting	-11.0524
▁flowery	-11.0524
▁gal	-11.0524
▁gathering	-11.0524
▁hottest	-11.0524
▁independent	-11.0524
▁krusteaz	-11.0524
▁kuerig	-11.0524
▁lasagna	-11.0524
▁magical	-11.0524
▁maintaining	-11.0524
▁meatloaf	-11.0524
▁monitor	-11.0524
▁monkey	-11.0524
▁musty	-11.0524
▁nurse	-11.0524
▁oldest	-11.0524
▁overpowers	-11.0524
▁pant	-11.0524
▁prescribed	-11.0524
▁protection	-11.0524
▁react	-11.0524
▁repeatedly	-11.0524
▁reuse	-11.0524
▁role	-11.0524
▁route	-11.0524
▁satisfactory	-11.0524
▁secondly	-11.0524
▁shortening	-11.0524
▁sickness	-11.0524
▁skinless	-11.0524
▁sleepy	-11.0524
▁slip	-11.0524
▁sojos	-11.0524
▁spilling	-11.0524
▁stood	-11.0524
▁successfully	-11.0524
▁sum	-11.0524
▁team	-11.0524
▁tearing	-11.0524
▁teeny	-11.0524
▁thigh	-11.0524
▁tom	-11.0524
▁traditionally	-11.0524
▁trigger	-11.0524
▁updated	-11.0524
▁usable	-11.0524
▁vermicelli	-11.0524
▁weed	-11.0524
▁xmas	-11.0524
▁advance	-11.0783
▁amaranth	-11.0783
▁associate	-11.0783
▁belgium	-11.0783
▁bliss	-11.0783
▁bloated	-11.0783
▁camp	-11.0783
▁cappucino	-11.0783
▁carob	-11.0783
▁cast	-11.0783
▁cavity	-11.0783
▁century	-11.0783
▁contaminated	-11.0783
▁corgi	-11.0783
▁corrected	-11.0783
▁counterpart	-11.0783
▁crusty	-11.0783
▁danger	-11.0783
▁defeat	-11.0783
▁density	-11.0783
▁digested	-11.0783
▁divided	-11.0783
▁dolce	-11.0783
▁douwe	-11.0783
▁dumping	-11.0783
▁dumpling	-11.0783
▁expand	-11.0783
▁figuring	-11.0783
▁fillet	-11.0783
▁gorgeous	-11.0783
▁harmony	-11.0783
▁heavier	-11.0783
▁impress	-11.0783
▁ireland	-11.0783
▁malty	-11.0783
▁mash	-11.0783
▁massage	-11.0783
▁massive	-11.0783
▁oak	-11.0783
▁painful	-11.0783
▁parchment	-11.0783
▁particle	-11.0783
▁pho	-11.0783
▁promote	-11.0783
▁puroast	-11.0783
▁revolution	-11.0783
▁rocky	-11.0783
▁sourced	-11.0783
▁taught	-11.0783
▁toxin	-11.0783
▁traveled	-11.0783
▁unused	-11.0783
▁virginia	-11.0783
▁voice	-11.0783
▁western	-11.0783
▁worrying	-11.0783
▁acting	-11.105
▁advertisement	-11.105
▁albacore	-11.105
▁ashamed	-11.105
▁atkins	-11.105
▁baggie	-11.105
▁chair	-11.105
▁champagne	-11.105
▁chocolately	-11.105
▁commercially	-11.105
▁crunchiness	-11.105
▁decoration	-11.105
▁deeper	-11.105
▁desirable	-11.105
▁discard	-11.105
▁discovering	-11.105
▁distance	-11.105
▁downfall	-11.105
▁ella	-11.105
▁experiencing	-11.105
▁foodie	-11.105
▁frig	-11.105
▁gamble	-11.105
▁hanging	-11.105
▁hr	-11.105
▁hyper	-11.105
▁import	-11.105
▁inspection	-11.105
▁lee	-11.105
▁lining	-11.105
▁lookout	-11.105
▁mandarin	-11.105
▁marathon	-11.105
▁marshall	-11.105
▁mere	-11.105
▁moroccan	-11.105
▁mouthful	-11.105
▁opted	-11.105
▁pectin	-11.105
▁pliable	-11.105
▁protective	-11.105
▁pushed	-11.105
▁raf	-11.105
▁rising	-11.105
▁runner	-11.105
▁scrape	-11.105
▁seam	-11.105
▁shirataki	-11.105
▁softened	-11.105
▁solely	-11.105
▁soupy	-11.105
▁specie	-11.105
▁steamer	-11.105
▁supper	-11.105
▁suprised	-11.105
▁tastey	-11.105
▁tracking	-11.105
▁trained	-11.105
▁usps	-11.105
▁vital	-11.105
▁yea	-11.105
▁10oz	-11.1324
▁absorbs	-11.1324
▁adjustment	-11.1324
▁airport	-11.1324
▁akin	-11.1324
▁anyhow	-11.1324
▁argue	-11.1324
▁belief	-11.1324
▁believed	-11.1324
▁bourbon	-11.1324
▁challenging	-11.1324
▁colorado	-11.1324
▁confusing	-11.1324
▁connection	-11.1324
▁custom	-11.1324
▁dramatically	-11.1324
▁drizzled	-11.1324
▁duplicate	-11.1324
▁egbert	-11.1324
▁energized	-11.1324
▁enthusiastic	-11.1324
▁ethiopian	-11.1324
▁excitement	-11.1324
▁extent	-11.1324
▁fever	-11.1324
▁fiance	-11.1324
▁forum	-11.1324
▁fountain	-11.1324
▁froth	-11.1324
▁greyhound	-11.1324
▁harry	-11.1324
▁hears	-11.1324
▁insanity	-11.1324
▁lying	-11.1324
▁maccha	-11.1324
▁oddly	-11.1324
▁oxidant	-11.1324
▁peak	-11.1324
▁pediatrician	-11.1324
▁pita	-11.1324
▁pool	-11.1324
▁porch	-11.1324
▁prevents	-11.1324
▁reaching	-11.1324
▁refreshed	-11.1324
▁reject	-11.1324
▁relieved	-11.1324
▁reluctant	-11.1324
▁reseal	-11.1324
▁rotate	-11.1324
▁scary	-11.1324
▁securely	-11.1324
▁seemingly	-11.1324
▁severely	-11.1324
▁slower	-11.1324
▁sprayed	-11.1324
▁struck	-11.1324
▁thriving	-11.1324
▁unbleached	-11.1324
▁unknown	-11.1324
▁whiskey	-11.1324
▁wooden	-11.1324
▁youngest	-11.1324
▁1000	-11.1606
▁aging	-11.1606
▁ahmad	-11.1606
▁athlete	-11.1606
▁believer	-11.1606
▁bye	-11.1606
▁capacity	-11.1606
▁cared	-11.1606
▁cauliflower	-11.1606
▁chewier	-11.1606
▁cleanse	-11.1606
▁compelled	-11.1606
▁contribute	-11.1606
▁coriander	-11.1606
▁crappy	-11.1606
▁critical	-11.1606
▁crunchies	-11.1606
▁decorating	-11.1606
▁developing	-11.1606
▁dijon	-11.1606
▁dripping	-11.1606
▁eliminated	-11.1606
▁enclosed	-11.1606
▁exposure	-11.1606
▁feral	-11.1606
▁fluke	-11.1606
▁glen	-11.1606
▁gut	-11.1606
▁hexane	-11.1606
▁hollow	-11.1606
▁inc	-11.1606
▁ingesting	-11.1606
▁insane	-11.1606
▁invest	-11.1606
▁iodine	-11.1606
▁judging	-11.1606
▁keaton	-11.1606
▁knocked	-11.1606
▁lily	-11.1606
▁luscious	-11.1606
▁maintenance	-11.1606
▁mall	-11.1606
▁mental	-11.1606
▁microwavable	-11.1606
▁milky	-11.1606
▁mortar	-11.1606
▁munchies	-11.1606
▁nom	-11.1606
▁nuke	-11.1606
▁object	-11.1606
▁overbearing	-11.1606
▁palette	-11.1606
▁panda	-11.1606
▁peet	-11.1606
▁pero	-11.1606
▁petal	-11.1606
▁pillow	-11.1606
▁poppy	-11.1606
▁precious	-11.1606
▁preventing	-11.1606
▁promotion	-11.1606
▁qualify	-11.1606
▁released	-11.1606
▁reservation	-11.1606
▁sachet	-11.1606
▁saltier	-11.1606
▁scarf	-11.1606
▁scotland	-11.1606
▁slightest	-11.1606
▁snicker	-11.1606
▁spitting	-11.1606
▁stella	-11.1606
▁sustainable	-11.1606
▁swirl	-11.1606
▁transport	-11.1606
▁tremendous	-11.1606
▁unappealing	-11.1606
▁vaguely	-11.1606
▁vietnamese	-11.1606
▁vinaigrette	-11.1606
▁visible	-11.1606
▁weighed	-11.1606
▁youtube	-11.1606
▁zoe	-11.1606
▁accent	-11.1896
▁alcoholic	-11.1896
▁asia	-11.1896
▁australia	-11.1896
▁blonde	-11.1896
▁bonito	-11.1896
▁bump	-11.1896
▁bypass	-11.1896
▁candle	-11.1896
▁cautious	-11.1896
▁chase	-11.1896
▁complimentary	-11.1896
▁convince	-11.1896
▁costing	-11.1896
▁disclosure	-11.1896
▁disgusted	-11.1896
▁disorder	-11.1896
▁donated	-11.1896
▁dusty	-11.1896
▁earned	-11.1896
▁ener	-11.1896
▁enthusiast	-11.1896
▁evident	-11.1896
▁fortunate	-11.1896
▁frame	-11.1896
▁garage	-11.1896
▁generation	-11.1896
▁glutamate	-11.1896
▁googled	-11.1896
▁grace	-11.1896
▁hopeful	-11.1896
▁ignored	-11.1896
▁itch	-11.1896
▁labor	-11.1896
▁laying	-11.1896
▁linked	-11.1896
▁mallomars	-11.1896
▁millet	-11.1896
▁moisturizing	-11.1896
▁monday	-11.1896
▁mousse	-11.1896
▁neatly	-11.1896
▁nectresse	-11.1896
▁newly	-11.1896
▁niacin	-11.1896
▁official	-11.1896
▁oregano	-11.1896
▁pasty	-11.1896
▁patience	-11.1896
▁pee	-11.1896
▁peter	-11.1896
▁pickiest	-11.1896
▁pomeranian	-11.1896
▁poster	-11.1896
▁presence	-11.1896
▁quot	-11.1896
▁ritz	-11.1896
▁separation	-11.1896
▁shinier	-11.1896
▁sky	-11.1896
▁soluble	-11.1896
▁sourness	-11.1896
▁stellar	-11.1896
▁strangely	-11.1896
▁struggled	-11.1896
▁substitution	-11.1896
▁swedish	-11.1896
▁tannin	-11.1896
▁thyme	-11.1896
▁tied	-11.1896
▁tingle	-11.1896
▁tvp	-11.1896
▁uncooked	-11.1896
▁uniform	-11.1896
▁varying	-11.1896
▁washington	-11.1896
▁12g	-11.2194
▁alter	-11.2194
▁assure	-11.2194
▁attempted	-11.2194
▁attracted	-11.2194
▁beaba	-11.2194
▁bittersweet	-11.2194
▁bravo	-11.2194
▁brazilian	-11.2194
▁browned	-11.2194
▁bush	-11.2194
▁canceled	-11.2194
▁canning	-11.2194
▁casein	-11.2194
▁chestnut	-11.2194
▁chock	-11.2194
▁choco	-11.2194
▁chutney	-11.2194
▁continuing	-11.2194
▁corporate	-11.2194
▁curly	-11.2194
▁cuz	-11.2194
▁deeply	-11.2194
▁definitly	-11.2194
▁distinctly	-11.2194
▁dramatic	-11.2194
▁dreamfields	-11.2194
▁dress	-11.2194
▁dryness	-11.2194
▁eastern	-11.2194
▁edamame	-11.2194
▁effectively	-11.2194
▁enthusiasm	-11.2194
▁environmental	-11.2194
▁exist	-11.2194
▁experimented	-11.2194
▁expires	-11.2194
▁fails	-11.2194
▁fitness	-11.2194
▁folger	-11.2194
▁foster	-11.2194
▁frothy	-11.2194
▁grip	-11.2194
▁hcg	-11.2194
▁hygiene	-11.2194
▁imagined	-11.2194
▁increasingly	-11.2194
▁isle	-11.2194
▁kale	-11.2194
▁kat	-11.2194
▁killing	-11.2194
▁kipper	-11.2194
▁krave	-11.2194
▁labrador	-11.2194
▁leash	-11.2194
▁mat	-11.2194
▁medley	-11.2194
▁micro	-11.2194
▁napkin	-11.2194
▁paleo	-11.2194
▁papaya	-11.2194
▁pass	-11.2194
▁pirate	-11.2194
▁pitted	-11.2194
▁pkg	-11.2194
▁plug	-11.2194
▁prepackaged	-11.2194
▁pretend	-11.2194
▁purely	-11.2194
▁realistic	-11.2194
▁reccommend	-11.2194
▁retain	-11.2194
▁reverse	-11.2194
▁rural	-11.2194
▁russian	-11.2194
▁sandy	-11.2194
▁scene	-11.2194
▁semolina	-11.2194
▁separated	-11.2194
▁smear	-11.2194
▁sole	-11.2194
▁strict	-11.2194
▁stringy	-11.2194
▁sucked	-11.2194
▁suffers	-11.2194
▁tast	-11.2194
▁teacher	-11.2194
▁tetley	-11.2194
▁therapy	-11.2194
▁tot	-11.2194
▁uncle	-11.2194
▁vile	-11.2194
▁walgreens	-11.2194
▁wholesale	-11.2194
▁whopping	-11.2194
▁wikipedia	-11.2194
▁zesty	-11.2194
▁zipper	-11.2194
▁1lb	-11.2502
▁2000	-11.2502
▁accordingly	-11.2502
▁adjusted	-11.2502
▁adventurous	-11.2502
▁alfredo	-11.2502
▁arsenic	-11.2502
▁attitude	-11.2502
▁blech	-11.2502
▁bless	-11.2502
▁brezza	-11.2502
▁bundle	-11.2502
▁caesar	-11.2502
▁caff	-11.2502
▁carnation	-11.2502
▁celiacs	-11.2502
▁chalk	-11.2502
▁chemistry	-11.2502
▁chewiness	-11.2502
▁choked	-11.2502
▁circle	-11.2502
▁combining	-11.2502
▁considerable	-11.2502
▁consistancy	-11.2502
▁conveniently	-11.2502
▁converted	-11.2502
▁dated	-11.2502
▁enriched	-11.2502
▁estimated	-11.2502
▁excessively	-11.2502
▁genius	-11.2502
▁ghiradelli	-11.2502
▁godsend	-11.2502
▁grabbing	-11.2502
▁grower	-11.2502
▁hardest	-11.2502
▁henry	-11.2502
▁horror	-11.2502
▁improving	-11.2502
▁indication	-11.2502
▁industrial	-11.2502
▁inhale	-11.2502
▁ito	-11.2502
▁jerkey	-11.2502
▁lacked	-11.2502
▁leonidas	-11.2502
▁listening	-11.2502
▁madagascar	-11.2502
▁minced	-11.2502
▁mozzarella	-11.2502
▁muir	-11.2502
▁nerve	-11.2502
▁ness	-11.2502
▁nitrate	-11.2502
▁ole	-11.2502
▁outlet	-11.2502
▁pak	-11.2502
▁pasteurized	-11.2502
▁peeled	-11.2502
▁perishable	-11.2502
▁placebo	-11.2502
▁planned	-11.2502
▁plantation	-11.2502
▁plentiful	-11.2502
▁pringles	-11.2502
▁promotes	-11.2502
▁regulate	-11.2502
▁rival	-11.2502
▁sage	-11.2502
▁sock	-11.2502
▁sprouting	-11.2502
▁sucking	-11.2502
▁unnatural	-11.2502
▁unwanted	-11.2502
▁usage	-11.2502
▁vase	-11.2502
▁vast	-11.2502
▁verona	-11.2502
▁vienna	-11.2502
▁war	-11.2502
▁wave	-11.2502
▁wee	-11.2502
▁whitefish	-11.2502
▁worthwhile	-11.2502
▁youth	-11.2502
▁appletini	-11.2819
▁attest	-11.2819
▁backyard	-11.2819
▁bbd	-11.2819
▁blog	-11.2819
▁bouncy	-11.2819
▁breading	-11.2819
▁carbon	-11.2819
▁cash	-11.2819
▁clearance	-11.2819
▁clementine	-11.2819
▁cod	-11.2819
▁creation	-11.2819
▁definetly	-11.2819
▁digging	-11.2819
▁disappears	-11.2819
▁discomfort	-11.2819
▁dispensing	-11.2819
▁distress	-11.2819
▁doritos	-11.2819
▁dvd	-11.2819
▁eagle	-11.2819
▁episode	-11.2819
▁explanation	-11.2819
▁favorable	-11.2819
▁fifteen	-11.2819
▁firmer	-11.2819
▁flash	-11.2819
▁forewarned	-11.2819
▁fromm	-11.2819
▁generously	-11.2819
▁harrogate	-11.2819
▁highlight	-11.2819
▁incorrect	-11.2819
▁instructed	-11.2819
▁invented	-11.2819
▁justin	-11.2819
▁lawn	-11.2819
▁log	-11.2819
▁lowered	-11.2819
▁management	-11.2819
▁marble	-11.2819
▁meantime	-11.2819
▁meh	-11.2819
▁mentioning	-11.2819
▁microwaved	-11.2819
▁mon	-11.2819
▁monin	-11.2819
▁neuro	-11.2819
▁oro	-11.2819
▁ovaltine	-11.2819
▁oyster	-11.2819
▁pencil	-11.2819
▁percolator	-11.2819
▁pin	-11.2819
▁posting	-11.2819
▁postum	-11.2819
▁powered	-11.2819
▁preferably	-11.2819
▁prima	-11.2819
▁private	-11.2819
▁punctured	-11.2819
▁rack	-11.2819
▁ref	-11.2819
▁reflect	-11.2819
▁restriction	-11.2819
▁riboflavin	-11.2819
▁scottish	-11.2819
▁sediment	-11.2819
▁shim	-11.2819
▁shook	-11.2819
▁sirloin	-11.2819
▁snail	-11.2819
▁specify	-11.2819
▁spite	-11.2819
▁staff	-11.2819
▁subscribing	-11.2819
▁substantially	-11.2819
▁substituting	-11.2819
▁sugarfree	-11.2819
▁superfood	-11.2819
▁supplied	-11.2819
▁tainted	-11.2819
▁teeccino	-11.2819
▁thaw	-11.2819
▁twisted	-11.2819
▁udon	-11.2819
▁uti	-11.2819
▁valuable	-11.2819
▁wisdom	-11.2819
▁woke	-11.2819
▁approval	-11.3147
▁astringent	-11.3147
▁banned	-11.3147
▁begun	-11.3147
▁brandy	-11.3147
▁chewable	-11.3147
▁chilli	-11.3147
▁clever	-11.3147
▁cloth	-11.3147
▁colleague	-11.3147
▁conditioning	-11.3147
▁counted	-11.3147
▁deadly	-11.3147
▁deciding	-11.3147
▁deer	-11.3147
▁devil	-11.3147
▁diner	-11.3147
▁downright	-11.3147
▁draining	-11.3147
▁eggnog	-11.3147
▁endless	-11.3147
▁estimate	-11.3147
▁exists	-11.3147
▁fifth	-11.3147
▁foreign	-11.3147
▁frizzy	-11.3147
▁guessed	-11.3147
▁happybaby	-11.3147
▁humid	-11.3147
▁husk	-11.3147
▁impulse	-11.3147
▁inclined	-11.3147
▁inconvenient	-11.3147
▁inflammation	-11.3147
▁insanely	-11.3147
▁jiffy	-11.3147
▁lychee	-11.3147
▁marinara	-11.3147
▁maximum	-11.3147
▁mercury	-11.3147
▁mission	-11.3147
▁music	-11.3147
▁narrow	-11.3147
▁nong	-11.3147
▁organ	-11.3147
▁panel	-11.3147
▁paris	-11.3147
▁permanent	-11.3147
▁prize	-11.3147
▁progresso	-11.3147
▁raising	-11.3147
▁reader	-11.3147
▁rehydrate	-11.3147
▁representative	-11.3147
▁respond	-11.3147
▁risotto	-11.3147
▁roommate	-11.3147
▁sack	-11.3147
▁sheltie	-11.3147
▁siberian	-11.3147
▁simpler	-11.3147
▁sliver	-11.3147
▁smoothest	-11.3147
▁spare	-11.3147
▁starchy	-11.3147
▁stray	-11.3147
▁suited	-11.3147
▁suspicious	-11.3147
▁tempting	-11.3147
▁toothpaste	-11.3147
▁transitioning	-11.3147
▁tunnel	-11.3147
▁unappetizing	-11.3147
▁upgrade	-11.3147
▁varied	-11.3147
▁ample	-11.3486
▁anticipation	-11.3486
▁arthur	-11.3486
▁attempting	-11.3486
▁autoship	-11.3486
▁begged	-11.3486
▁bent	-11.3486
▁boast	-11.3486
▁boat	-11.3486
▁booty	-11.3486
▁breaker	-11.3486
▁buffet	-11.3486
▁cfh	-11.3486
▁char	-11.3486
▁clumpy	-11.3486
▁cottage	-11.3486
▁deluxe	-11.3486
▁destroying	-11.3486
▁detailed	-11.3486
▁detected	-11.3486
▁dilmah	-11.3486
▁dinosaur	-11.3486
▁dissappointed	-11.3486
▁divide	-11.3486
▁dominant	-11.3486
▁ecstatic	-11.3486
▁ending	-11.3486
▁excellant	-11.3486
▁fade	-11.3486
▁flavoured	-11.3486
▁folic	-11.3486
▁freezing	-11.3486
▁gagged	-11.3486
▁gland	-11.3486
▁gunpowder	-11.3486
▁headed	-11.3486
▁inflammatory	-11.3486
▁integrity	-11.3486
▁irritation	-11.3486
▁jell	-11.3486
▁jumbo	-11.3486
▁limp	-11.3486
▁linda	-11.3486
▁lively	-11.3486
▁marinate	-11.3486
▁masked	-11.3486
▁memorable	-11.3486
▁necessity	-11.3486
▁newborn	-11.3486
▁optimal	-11.3486
▁orville	-11.3486
▁outcome	-11.3486
▁paint	-11.3486
▁periodically	-11.3486
▁potty	-11.3486
▁prominent	-11.3486
▁pun	-11.3486
▁purist	-11.3486
▁regimen	-11.3486
▁reheat	-11.3486
▁reluctantly	-11.3486
▁republic	-11.3486
▁screaming	-11.3486
▁slippery	-11.3486
▁sophisticated	-11.3486
▁specified	-11.3486
▁spongy	-11.3486
▁squeezing	-11.3486
▁stamped	-11.3486
▁status	-11.3486
▁steroid	-11.3486
▁summertime	-11.3486
▁thinly	-11.3486
▁thrive	-11.3486
▁tissue	-11.3486
▁touched	-11.3486
▁trio	-11.3486
▁undamaged	-11.3486
▁westie	-11.3486
▁yam	-11.3486
▁1oz	-11.3837
▁adventure	-11.3837
▁applies	-11.3837
▁arctic	-11.3837
▁arriving	-11.3837
▁autumn	-11.3837
▁baldwin	-11.3837
▁bam	-11.3837
▁baronet	-11.3837
▁bison	-11.3837
▁blew	-11.3837
▁bottling	-11.3837
▁brian	-11.3837
▁brushed	-11.3837
▁buster	-11.3837
▁catfood	-11.3837
▁coin	-11.3837
▁compatible	-11.3837
▁compensate	-11.3837
▁compromised	-11.3837
▁concerning	-11.3837
▁confess	-11.3837
▁confidence	-11.3837
▁coon	-11.3837
▁cowboy	-11.3837
▁crunchier	-11.3837
▁damp	-11.3837
▁dane	-11.3837
▁davis	-11.3837
▁decay	-11.3837
▁deceiving	-11.3837
▁dextrose	-11.3837
▁diagnosis	-11.3837
▁dice	-11.3837
▁digesting	-11.3837
▁dimension	-11.3837
▁dining	-11.3837
▁discontinue	-11.3837
▁dismay	-11.3837
▁dissatisfied	-11.3837
▁distinguish	-11.3837
▁dive	-11.3837
▁dorm	-11.3837
▁drag	-11.3837
▁drastically	-11.3837
▁effectiveness	-11.3837
▁enticing	-11.3837
▁evidently	-11.3837
▁existence	-11.3837
▁explosion	-11.3837
▁exquisite	-11.3837
▁furthermore	-11.3837
▁gingery	-11.3837
▁guava	-11.3837
▁harden	-11.3837
▁hat	-11.3837
▁hmm	-11.3837
▁host	-11.3837
▁hydrochloride	-11.3837
▁incident	-11.3837
▁inconvenience	-11.3837
▁incorporate	-11.3837
▁ingrediants	-11.3837
▁inhaled	-11.3837
▁introducing	-11.3837
▁jersey	-11.3837
▁jones	-11.3837
▁jumping	-11.3837
▁justice	-11.3837
▁lowfat	-11.3837
▁marmite	-11.3837
▁melon	-11.3837
▁mileage	-11.3837
▁miserable	-11.3837
▁mound	-11.3837
▁murray	-11.3837
▁nostalgic	-11.3837
▁novel	-11.3837
▁ntilde	-11.3837
▁nutrasweet	-11.3837
▁parisian	-11.3837
▁penne	-11.3837
▁pete	-11.3837
▁playful	-11.3837
▁presto	-11.3837
▁protected	-11.3837
▁pucker	-11.3837
▁pushing	-11.3837
▁randomly	-11.3837
▁rapidly	-11.3837
▁refer	-11.3837
▁requiring	-11.3837
▁seldom	-11.3837
▁settling	-11.3837
▁shoot	-11.3837
▁sleepytime	-11.3837
▁slot	-11.3837
▁smack	-11.3837
▁snapper	-11.3837
▁soothe	-11.3837
▁spin	-11.3837
▁sponge	-11.3837
▁spotted	-11.3837
▁struggling	-11.3837
▁sugarless	-11.3837
▁sweetleaf	-11.3837
▁tarter	-11.3837
▁technology	-11.3837
▁thermos	-11.3837
▁thickener	-11.3837
▁thickening	-11.3837
▁tobacco	-11.3837
▁trivedi	-11.3837
▁tryed	-11.3837
▁tupperware	-11.3837
▁ugly	-11.3837
▁unpalatable	-11.3837
▁verdict	-11.3837
▁vinegary	-11.3837
▁wasa	-11.3837
▁wilderness	-11.3837
▁woody	-11.3837
▁zen	-11.3837
▁ad	-11.4201
▁altered	-11.4201
▁artery	-11.4201
▁artichoke	-11.4201
▁bait	-11.4201
▁belt	-11.4201
▁brisket	-11.4201
▁brownish	-11.4201
▁buildup	-11.4201
▁carrageenan	-11.4201
▁chlorine	-11.4201
▁chun	-11.4201
▁closure	-11.4201
▁collar	-11.4201
▁compartment	-11.4201
▁competing	-11.4201
▁continually	-11.4201
▁cosmic	-11.4201
▁countless	-11.4201
▁crispness	-11.4201
▁crystallized	-11.4201
▁cv	-11.4201
▁dashi	-11.4201
▁dec	-11.4201
▁delicacy	-11.4201
▁dropper	-11.4201
▁emptied	-11.4201
▁expiry	-11.4201
▁explains	-11.4201
▁feather	-11.4201
▁flaked	-11.4201
▁flexible	-11.4201
▁fulfilled	-11.4201
▁garnish	-11.4201
▁glace	-11.4201
▁glove	-11.4201
▁granular	-11.4201
▁heal	-11.4201
▁horrid	-11.4201
▁in	-11.4201
▁interestingly	-11.4201
▁jif	-11.4201
▁kenya	-11.4201
▁kicking	-11.4201
▁lawry	-11.4201
▁lunchbox	-11.4201
▁maggi	-11.4201
▁manageable	-11.4201
▁manages	-11.4201
▁manna	-11.4201
▁maruchan	-11.4201
▁mature	-11.4201
▁mike	-11.4201
▁milo	-11.4201
▁monosodium	-11.4201
▁moreover	-11.4201
▁nap	-11.4201
▁nation	-11.4201
▁overload	-11.4201
▁paneer	-11.4201
▁pat	-11.4201
▁pattern	-11.4201
▁pest	-11.4201
▁poke	-11.4201
▁position	-11.4201
▁rapid	-11.4201
▁receipt	-11.4201
▁rubbed	-11.4201
▁rubbing	-11.4201
▁scheduled	-11.4201
▁scrub	-11.4201
▁sealable	-11.4201
▁sheen	-11.4201
▁slap	-11.4201
▁slept	-11.4201
▁smoker	-11.4201
▁society	-11.4201
▁sorbate	-11.4201
▁sprouter	-11.4201
▁stair	-11.4201
▁stevita	-11.4201
▁stressful	-11.4201
▁subsequent	-11.4201
▁sweetens	-11.4201
▁swell	-11.4201
▁thickens	-11.4201
▁tide	-11.4201
▁touted	-11.4201
▁tower	-11.4201
▁tremendously	-11.4201
▁tuesday	-11.4201
▁uncomfortable	-11.4201
▁volumizing	-11.4201
▁weakness	-11.4201
▁wedge	-11.4201
▁wednesday	-11.4201
▁zucchini	-11.4201
▁220	-11.4578
▁adagio	-11.4578
▁annoyed	-11.4578
▁ara	-11.4578
▁artisan	-11.4578
▁ash	-11.4578
▁asparagus	-11.4578
▁avoderm	-11.4578
▁award	-11.4578
▁bat	-11.4578
▁beside	-11.4578
▁bon	-11.4578
▁boutique	-11.4578
▁breakdown	-11.4578
▁bunn	-11.4578
▁cafeteria	-11.4578
▁carrier	-11.4578
▁castor	-11.4578
▁casual	-11.4578
▁catching	-11.4578
▁clearing	-11.4578
▁columbia	-11.4578
▁committed	-11.4578
▁contacting	-11.4578
▁coworker	-11.4578
▁criticism	-11.4578
▁cubed	-11.4578
▁danish	-11.4578
▁dealer	-11.4578
▁deficiency	-11.4578
▁discovery	-11.4578
▁dragon	-11.4578
▁enchilada	-11.4578
▁entice	-11.4578
▁flap	-11.4578
▁formulated	-11.4578
▁gastrointestinal	-11.4578
▁glossy	-11.4578
▁glycol	-11.4578
▁gopicnic	-11.4578
▁gosh	-11.4578
▁guideline	-11.4578
▁hefty	-11.4578
▁inspected	-11.4578
▁inspired	-11.4578
▁introduction	-11.4578
▁john	-11.4578
▁korea	-11.4578
▁laid	-11.4578
▁lapsang	-11.4578
▁listened	-11.4578
▁lumpy	-11.4578
▁manganese	-11.4578
▁maui	-11.4578
▁medicinals	-11.4578
▁merchandise	-11.4578
▁messed	-11.4578
▁mist	-11.4578
▁mud	-11.4578
▁notified	-11.4578
▁observation	-11.4578
▁obtained	-11.4578
▁ought	-11.4578
▁over	-11.4578
▁pam	-11.4578
▁papillon	-11.4578
▁passable	-11.4578
▁patak	-11.4578
▁pen	-11.4578
▁pepperidge	-11.4578
▁perform	-11.4578
▁phase	-11.4578
▁pike	-11.4578
▁pina	-11.4578
▁potentially	-11.4578
▁priority	-11.4578
▁proceeded	-11.4578
▁recover	-11.4578
▁recycling	-11.4578
▁reputable	-11.4578
▁rootbeer	-11.4578
▁rosehip	-11.4578
▁sacrificing	-11.4578
▁sans	-11.4578
▁shard	-11.4578
▁sheer	-11.4578
▁sickeningly	-11.4578
▁sleeve	-11.4578
▁smith	-11.4578
▁soooooo	-11.4578
▁sunshine	-11.4578
▁teddy	-11.4578
▁teff	-11.4578
▁temporary	-11.4578
▁tougher	-11.4578
▁understood	-11.4578
▁vomited	-11.4578
▁wider	-11.4578
▁wimpy	-11.4578
▁yorkies	-11.4578
▁yunnan	-11.4578
▁allspice	-11.497
▁anniversary	-11.497
▁answered	-11.497
▁arrangement	-11.497
▁beefeater	-11.497
▁bengal	-11.497
▁bicarbonate	-11.497
▁bigs	-11.497
▁birch	-11.497
▁biscoff	-11.497
▁bleached	-11.497
▁blessed	-11.497
▁bursting	-11.497
▁capture	-11.497
▁cesar	-11.497
▁chi	-11.497
▁chilies	-11.497
▁chore	-11.497
▁chuck	-11.497
▁cleanup	-11.497
▁cliff	-11.497
▁cloud	-11.497
▁cocaine	-11.497
▁colour	-11.497
▁confectioner	-11.497
▁crepe	-11.497
▁dandelion	-11.497
▁decaff	-11.497
▁defect	-11.497
▁delivering	-11.497
▁devours	-11.497
▁dime	-11.497
▁discarded	-11.497
▁drawn	-11.497
▁dunk	-11.497
▁entertain	-11.497
▁ethnic	-11.497
▁existent	-11.497
▁expressed	-11.497
▁exterior	-11.497
▁extracted	-11.497
▁fajitas	-11.497
▁fiji	-11.497
▁froze	-11.497
▁fudgy	-11.497
▁glycerin	-11.497
▁gmos	-11.497
▁hextra	-11.497
▁hive	-11.497
▁honesty	-11.497
▁honeybush	-11.497
▁horizon	-11.497
▁hotdog	-11.497
▁huh	-11.497
▁internal	-11.497
▁interval	-11.497
▁inulin	-11.497
▁jan	-11.497
▁jazzed	-11.497
▁kimchi	-11.497
▁laughing	-11.497
▁leakage	-11.497
▁lethargic	-11.497
▁lieu	-11.497
▁lowering	-11.497
▁macaroon	-11.497
▁marker	-11.497
▁messing	-11.497
▁moka	-11.497
▁motor	-11.497
▁navitas	-11.497
▁nido	-11.497
▁nonni	-11.497
▁oberto	-11.497
▁occur	-11.497
▁orbit	-11.497
▁orchard	-11.497
▁organization	-11.497
▁pipe	-11.497
▁polish	-11.497
▁proceeds	-11.497
▁pumped	-11.497
▁raccoon	-11.497
▁rainbow	-11.497
▁reg	-11.497
▁remarkably	-11.497
▁rio	-11.497
▁routinely	-11.497
▁sec	-11.497
▁sept	-11.497
▁shepard	-11.497
▁similarly	-11.497
▁simplicity	-11.497
▁skill	-11.497
▁snyder	-11.497
▁sorta	-11.497
▁sprite	-11.497
▁stinger	-11.497
▁sucrose	-11.497
▁sue	-11.497
▁sunny	-11.497
▁tamari	-11.497
▁tank	-11.497
▁thawed	-11.497
▁thiamine	-11.497
▁tic	-11.497
▁timer	-11.497
▁timing	-11.497
▁truely	-11.497
▁university	-11.497
▁unusually	-11.497
▁variant	-11.497
▁veal	-11.497
▁velvety	-11.497
▁versatility	-11.497
▁violet	-11.497
▁wheatgrass	-11.497
▁whisk	-11.497
▁wintergreen	-11.497
▁zone	-11.497
▁alittle	-11.5379
▁allowance	-11.5379
▁amaretto	-11.5379
▁amish	-11.5379
▁authority	-11.5379
▁backup	-11.5379
▁barilla	-11.5379
▁blob	-11.5379
▁bos	-11.5379
▁breadstick	-11.5379
▁bridge	-11.5379
▁bubbly	-11.5379
▁bustelo	-11.5379
▁cellophane	-11.5379
▁cet	-11.5379
▁charcoal	-11.5379
▁chart	-11.5379
▁closing	-11.5379
▁clumped	-11.5379
▁colic	-11.5379
▁communication	-11.5379
▁confusion	-11.5379
▁consequently	-11.5379
▁cork	-11.5379
▁cornmeal	-11.5379
▁crossed	-11.5379
▁dang	-11.5379
▁daycare	-11.5379
▁decorate	-11.5379
▁defiantly	-11.5379
▁deployed	-11.5379
▁deprived	-11.5379
▁development	-11.5379
▁diego	-11.5379
▁differ	-11.5379
▁dud	-11.5379
▁duke	-11.5379
▁egrave	-11.5379
▁elbow	-11.5379
▁eliminates	-11.5379
▁established	-11.5379
▁exp	-11.5379
▁extend	-11.5379
▁favored	-11.5379
▁fertilizer	-11.5379
▁formerly	-11.5379
▁forming	-11.5379
▁foundation	-11.5379
▁freaking	-11.5379
▁garbanzo	-11.5379
▁harney	-11.5379
▁hay	-11.5379
▁hoof	-11.5379
▁hook	-11.5379
▁hooray	-11.5379
▁humble	-11.5379
▁ibs	-11.5379
▁idiot	-11.5379
▁indulging	-11.5379
▁intention	-11.5379
▁inventory	-11.5379
▁irritated	-11.5379
▁jeremiah	-11.5379
▁join	-11.5379
▁keebler	-11.5379
▁landfill	-11.5379
▁largely	-11.5379
▁mangosteen	-11.5379
▁mar	-11.5379
▁meringue	-11.5379
▁midwest	-11.5379
▁milkshake	-11.5379
▁millstone	-11.5379
▁mode	-11.5379
▁mouthfeel	-11.5379
▁muddy	-11.5379
▁naan	-11.5379
▁namaste	-11.5379
▁nearest	-11.5379
▁newest	-11.5379
▁nori	-11.5379
▁norm	-11.5379
▁octopus	-11.5379
▁outdoors	-11.5379
▁overwhelms	-11.5379
▁physically	-11.5379
▁pleasurable	-11.5379
▁population	-11.5379
▁pose	-11.5379
▁propylene	-11.5379
▁puffy	-11.5379
▁quenching	-11.5379
▁ravioli	-11.5379
▁rectangular	-11.5379
▁refers	-11.5379
▁renal	-11.5379
▁replicate	-11.5379
▁restock	-11.5379
▁ribbon	-11.5379
▁saccharin	-11.5379
▁scharffen	-11.5379
▁shopped	-11.5379
▁shove	-11.5379
▁sluggish	-11.5379
▁sniffing	-11.5379
▁softness	-11.5379
▁solve	-11.5379
▁sorbitol	-11.5379
▁sorely	-11.5379
▁sorghum	-11.5379
▁souchong	-11.5379
▁spouse	-11.5379
▁subtly	-11.5379
▁supplementing	-11.5379
▁surrounded	-11.5379
▁tasteful	-11.5379
▁teenage	-11.5379
▁tetra	-11.5379
▁thread	-11.5379
▁toilet	-11.5379
▁topper	-11.5379
▁transitioned	-11.5379
▁twinnings	-11.5379
▁udi	-11.5379
▁undesirable	-11.5379
▁unlikely	-11.5379
▁valerian	-11.5379
▁vega	-11.5379
▁velvet	-11.5379
▁vice	-11.5379
▁vouch	-11.5379
▁warmth	-11.5379
▁warrant	-11.5379
▁watt	-11.5379
▁wheel	-11.5379
▁abundance	-11.5804
▁accompaniment	-11.5804
▁allot	-11.5804
▁annual	-11.5804
▁assist	-11.5804
▁awfully	-11.5804
▁awkward	-11.5804
▁berger	-11.5804
▁bff	-11.5804
▁blockage	-11.5804
▁blowing	-11.5804
▁boo	-11.5804
▁booster	-11.5804
▁bounce	-11.5804
▁brie	-11.5804
▁cadbury	-11.5804
▁cakesters	-11.5804
▁chakra	-11.5804
▁charles	-11.5804
▁checkout	-11.5804
▁checkup	-11.5804
▁chickpea	-11.5804
▁chive	-11.5804
▁chondroitin	-11.5804
▁chug	-11.5804
▁citrate	-11.5804
▁clinic	-11.5804
▁colada	-11.5804
▁concluded	-11.5804
▁delightfully	-11.5804
▁dependable	-11.5804
▁displayed	-11.5804
▁dryer	-11.5804
▁dusting	-11.5804
▁eatin	-11.5804
▁eclipse	-11.5804
▁embarrassed	-11.5804
▁enzymatic	-11.5804
▁explode	-11.5804
▁exploded	-11.5804
▁facial	-11.5804
▁fastest	-11.5804
▁fatigue	-11.5804
▁feb	-11.5804
▁fedex	-11.5804
▁fired	-11.5804
▁flowering	-11.5804
▁foamy	-11.5804
▁forty	-11.5804
▁fulfilling	-11.5804
▁gimmick	-11.5804
▁government	-11.5804
▁goya	-11.5804
▁gsd	-11.5804
▁hammer	-11.5804
▁heading	-11.5804
▁hmmm	-11.5804
▁horrendous	-11.5804
▁hydrating	-11.5804
▁icy	-11.5804
▁impart	-11.5804
▁inclusion	-11.5804
▁indistinguishable	-11.5804
▁intriguing	-11.5804
▁invention	-11.5804
▁jazz	-11.5804
▁kernals	-11.5804
▁lansinoh	-11.5804
▁leap	-11.5804
▁lends	-11.5804
▁liberally	-11.5804
▁lickin	-11.5804
▁linger	-11.5804
▁lugging	-11.5804
▁mahogany	-11.5804
▁military	-11.5804
▁mistaken	-11.5804
▁mmmmm	-11.5804
▁nerd	-11.5804
▁nightmare	-11.5804
▁nip	-11.5804
▁noon	-11.5804
▁nowadays	-11.5804
▁occurred	-11.5804
▁organically	-11.5804
▁overcooked	-11.5804
▁partly	-11.5804
▁pennsylvania	-11.5804
▁physician	-11.5804
▁portability	-11.5804
▁portland	-11.5804
▁positively	-11.5804
▁preferring	-11.5804
▁premier	-11.5804
▁pride	-11.5804
▁prof	-11.5804
▁protecting	-11.5804
▁rainy	-11.5804
▁ramune	-11.5804
▁ramyun	-11.5804
▁ranging	-11.5804
▁ration	-11.5804
▁rec	-11.5804
▁recieve	-11.5804
▁refillable	-11.5804
▁resolve	-11.5804
▁resource	-11.5804
▁retains	-11.5804
▁sensible	-11.5804
▁shaken	-11.5804
▁shiitake	-11.5804
▁sin	-11.5804
▁slit	-11.5804
▁snapped	-11.5804
▁solofill	-11.5804
▁solvent	-11.5804
▁stroke	-11.5804
▁terra	-11.5804
▁treating	-11.5804
▁understatement	-11.5804
▁whipping	-11.5804
▁writes	-11.5804
▁yuban	-11.5804
▁yuk	-11.5804
▁acesulfame	-11.6249
▁adjusting	-11.6249
▁adverse	-11.6249
▁advertises	-11.6249
▁aforementioned	-11.6249
▁ailment	-11.6249
▁airplane	-11.6249
▁alaskan	-11.6249
▁alec	-11.6249
▁anal	-11.6249
▁arrowhead	-11.6249
▁autism	-11.6249
▁bailey	-11.6249
▁baseball	-11.6249
▁bearable	-11.6249
▁beaten	-11.6249
▁bedroom	-11.6249
▁bialetti	-11.6249
▁bisulfite	-11.6249
▁bubblegum	-11.6249
▁bullion	-11.6249
▁burr	-11.6249
▁cannister	-11.6249
▁carbonate	-11.6249
▁cattle	-11.6249
▁cellulose	-11.6249
▁cheat	-11.6249
▁cleansing	-11.6249
▁co2	-11.6249
▁commit	-11.6249
▁completed	-11.6249
▁complicated	-11.6249
▁compound	-11.6249
▁conjunction	-11.6249
▁conscience	-11.6249
▁coombs	-11.6249
▁criterion	-11.6249
▁daybreak	-11.6249
▁decently	-11.6249
▁delicately	-11.6249
▁demi	-11.6249
▁depend	-11.6249
▁discern	-11.6249
▁disguise	-11.6249
▁dispose	-11.6249
▁driver	-11.6249
▁eleven	-11.6249
▁eliminating	-11.6249
▁encounter	-11.6249
▁encouraged	-11.6249
▁endorsement	-11.6249
▁enormous	-11.6249
▁extraordinary	-11.6249
▁favorably	-11.6249
▁feeder	-11.6249
▁fitting	-11.6249
▁fixing	-11.6249
▁freely	-11.6249
▁gadget	-11.6249
▁glance	-11.6249
▁golean	-11.6249
▁guacamole	-11.6249
▁hazlenut	-11.6249
▁heartily	-11.6249
▁hectic	-11.6249
▁homestyle	-11.6249
▁identified	-11.6249
▁immensely	-11.6249
▁imparts	-11.6249
▁indicating	-11.6249
▁indigestion	-11.6249
▁interior	-11.6249
▁inviting	-11.6249
▁journal	-11.6249
▁la	-11.6249
▁labelled	-11.6249
▁lactobacillus	-11.6249
▁leery	-11.6249
▁maggie	-11.6249
▁mailbox	-11.6249
▁maintains	-11.6249
▁mastiff	-11.6249
▁mcdonald	-11.6249
▁minimally	-11.6249
▁modest	-11.6249
▁monsanto	-11.6249
▁nitrite	-11.6249
▁notification	-11.6249
▁occupy	-11.6249
▁operation	-11.6249
▁opt	-11.6249
▁outrageously	-11.6249
▁overcook	-11.6249
▁patiently	-11.6249
▁pebble	-11.6249
▁pinto	-11.6249
▁pity	-11.6249
▁porcini	-11.6249
▁potatoe	-11.6249
▁praline	-11.6249
▁precisely	-11.6249
▁preferable	-11.6249
▁prevalent	-11.6249
▁progress	-11.6249
▁promising	-11.6249
▁prostate	-11.6249
▁proteinate	-11.6249
▁queen	-11.6249
▁recurring	-11.6249
▁regulation	-11.6249
▁remembering	-11.6249
▁repeated	-11.6249
▁repeating	-11.6249
▁replenish	-11.6249
▁retired	-11.6249
▁rim	-11.6249
▁rooibus	-11.6249
▁rushed	-11.6249
▁savored	-11.6249
▁scooping	-11.6249
▁scott	-11.6249
▁sealing	-11.6249
▁sinful	-11.6249
▁skimp	-11.6249
▁sludge	-11.6249
▁snapple	-11.6249
▁solves	-11.6249
▁southwest	-11.6249
▁spreadable	-11.6249
▁sri	-11.6249
▁standby	-11.6249
▁stats	-11.6249
▁strained	-11.6249
▁stressed	-11.6249
▁stuf	-11.6249
▁sunrise	-11.6249
▁tabby	-11.6249
▁tended	-11.6249
▁theatre	-11.6249
▁theory	-11.6249
▁thereby	-11.6249
▁thorough	-11.6249
▁ticket	-11.6249
▁toe	-11.6249
▁transferred	-11.6249
▁tripe	-11.6249
▁utensil	-11.6249
▁viable	-11.6249
▁visually	-11.6249
▁wag	-11.6249
▁wearing	-11.6249
▁yellowfin	-11.6249
▁yoga	-11.6249
▁acerola	-11.6714
▁adequately	-11.6714
▁advanced	-11.6714
▁aeropress	-11.6714
▁aficionado	-11.6714
▁angle	-11.6714
▁appreciates	-11.6714
▁appreciation	-11.6714
▁baja	-11.6714
▁becuase	-11.6714
▁benecol	-11.6714
▁bleeding	-11.6714
▁boldness	-11.6714
▁breastfeed	-11.6714
▁bumble	-11.6714
▁caring	-11.6714
▁choline	-11.6714
▁chomping	-11.6714
▁cloyingly	-11.6714
▁colombia	-11.6714
▁colon	-11.6714
▁committing	-11.6714
▁conditioned	-11.6714
▁consisted	-11.6714
▁cremes	-11.6714
▁critic	-11.6714
▁crockpot	-11.6714
▁crunching	-11.6714
▁cycling	-11.6714
▁dandy	-11.6714
▁data	-11.6714
▁davinci	-11.6714
▁debris	-11.6714
▁doc	-11.6714
▁dominate	-11.6714
▁egyptian	-11.6714
▁elderberry	-11.6714
▁enthusiastically	-11.6714
▁evil	-11.6714
▁explore	-11.6714
▁fairness	-11.6714
▁featured	-11.6714
▁firmness	-11.6714
▁fishing	-11.6714
▁flaw	-11.6714
▁forcing	-11.6714
▁gagging	-11.6714
▁golf	-11.6714
▁grandparent	-11.6714
▁granny	-11.6714
▁graphic	-11.6714
▁groat	-11.6714
▁halvah	-11.6714
▁harbor	-11.6714
▁hoo	-11.6714
▁houston	-11.6714
▁inn	-11.6714
▁insist	-11.6714
▁intensely	-11.6714
▁journey	-11.6714
▁junky	-11.6714
▁kava	-11.6714
▁kennel	-11.6714
▁lara	-11.6714
▁logo	-11.6714
▁longevity	-11.6714
▁loosely	-11.6714
▁lunchtime	-11.6714
▁luzianne	-11.6714
▁marinated	-11.6714
▁marketplace	-11.6714
▁mcdonalds	-11.6714
▁mechanism	-11.6714
▁menthol	-11.6714
▁mesquite	-11.6714
▁moisturized	-11.6714
▁mononitrate	-11.6714
▁mysterious	-11.6714
▁nightly	-11.6714
▁novice	-11.6714
▁nuff	-11.6714
▁nutramigen	-11.6714
▁obesity	-11.6714
▁occurring	-11.6714
▁occurs	-11.6714
▁ohio	-11.6714
▁optimum	-11.6714
▁orchid	-11.6714
▁paella	-11.6714
▁peanutty	-11.6714
▁pekoe	-11.6714
▁pellegrino	-11.6714
▁peri	-11.6714
▁pez	-11.6714
▁picante	-11.6714
▁plato	-11.6714
▁plunge	-11.6714
▁pocky	-11.6714
▁pond	-11.6714
▁porridge	-11.6714
▁potter	-11.6714
▁preface	-11.6714
▁pressing	-11.6714
▁promoting	-11.6714
▁puncture	-11.6714
▁purity	-11.6714
▁rasberry	-11.6714
▁reacts	-11.6714
▁realy	-11.6714
▁reconstitute	-11.6714
▁relationship	-11.6714
▁relieve	-11.6714
▁resemblance	-11.6714
▁reservoir	-11.6714
▁resorted	-11.6714
▁rewarding	-11.6714
▁sahale	-11.6714
▁saliva	-11.6714
▁saponin	-11.6714
▁scooped	-11.6714
▁scratcher	-11.6714
▁sends	-11.6714
▁shaved	-11.6714
▁shocking	-11.6714
▁shoppe	-11.6714
▁shortage	-11.6714
▁sift	-11.6714
▁sixty	-11.6714
▁smokiness	-11.6714
▁smuckers	-11.6714
▁soapy	-11.6714
▁song	-11.6714
▁sonoma	-11.6714
▁sophie	-11.6714
▁sparkle	-11.6714
▁spiral	-11.6714
▁spoilage	-11.6714
▁spraying	-11.6714
▁squishy	-11.6714
▁staining	-11.6714
▁standpoint	-11.6714
▁stare	-11.6714
▁starve	-11.6714
▁studied	-11.6714
▁stunned	-11.6714
▁suffice	-11.6714
▁supplemented	-11.6714
▁survived	-11.6714
▁symbol	-11.6714
▁tale	-11.6714
▁tek	-11.6714
▁thesis	-11.6714
▁thursday	-11.6714
▁totw	-11.6714
▁travelling	-11.6714
▁traverse	-11.6714
▁treasure	-11.6714
▁trend	-11.6714
▁trimmed	-11.6714
▁tulsi	-11.6714
▁ulcer	-11.6714
▁umf	-11.6714
▁unrefined	-11.6714
▁unsuspecting	-11.6714
▁uploaded	-11.6714
▁valrhona	-11.6714
▁victor	-11.6714
▁visitor	-11.6714
▁wabash	-11.6714
▁waist	-11.6714
▁wally	-11.6714
▁wean	-11.6714
▁wholefoods	-11.6714
▁winning	-11.6714
▁yumm	-11.6714
▁210	-11.7202
▁2lb	-11.7202
▁accomplish	-11.7202
▁adam	-11.7202
▁aloha	-11.7202
▁ammonia	-11.7202
▁apo	-11.7202
▁appropriately	-11.7202
▁approve	-11.7202
▁asin	-11.7202
▁association	-11.7202
▁austin	-11.7202
▁author	-11.7202
▁babycook	-11.7202
▁baggies	-11.7202
▁bisque	-11.7202
▁bleu	-11.7202
▁boba	-11.7202
▁breathing	-11.7202
▁bulky	-11.7202
▁burner	-11.7202
▁bust	-11.7202
▁carcinogen	-11.7202
▁chasing	-11.7202
▁cleanly	-11.7202
▁cloudy	-11.7202
▁colder	-11.7202
▁collect	-11.7202
▁comb	-11.7202
▁complimented	-11.7202
▁consist	-11.7202
▁consistant	-11.7202
▁coupled	-11.7202
▁craft	-11.7202
▁creature	-11.7202
▁crispbread	-11.7202
▁cruise	-11.7202
▁crumbling	-11.7202
▁curd	-11.7202
▁darned	-11.7202
▁definatly	-11.7202
▁defined	-11.7202
▁definition	-11.7202
▁defrost	-11.7202
▁denser	-11.7202
▁destroys	-11.7202
▁detract	-11.7202
▁disposal	-11.7202
▁doberman	-11.7202
▁dragging	-11.7202
▁drove	-11.7202
▁dug	-11.7202
▁duh	-11.7202
▁dusted	-11.7202
▁ebay	-11.7202
▁economic	-11.7202
▁elevated	-11.7202
▁estate	-11.7202
▁exercising	-11.7202
▁explaining	-11.7202
▁extraction	-11.7202
▁farmed	-11.7202
▁flesh	-11.7202
▁fluoride	-11.7202
▁freshen	-11.7202
▁frito	-11.7202
▁frog	-11.7202
▁fund	-11.7202
▁fuzzy	-11.7202
▁genuinely	-11.7202
▁georgia	-11.7202
▁gerd	-11.7202
▁goodie	-11.7202
▁googling	-11.7202
▁gout	-11.7202
▁graduate	-11.7202
▁greener	-11.7202
▁grin	-11.7202
▁hitting	-11.7202
▁honor	-11.7202
▁hum	-11.7202
▁hurting	-11.7202
▁importance	-11.7202
▁incentive	-11.7202
▁indoors	-11.7202
▁interactive	-11.7202
▁investigation	-11.7202
▁irresistible	-11.7202
▁irritating	-11.7202
▁isolate	-11.7202
▁issued	-11.7202
▁jalape	-11.7202
▁knot	-11.7202
▁krispy	-11.7202
▁lame	-11.7202
▁lanka	-11.7202
▁laundry	-11.7202
▁lifelong	-11.7202
▁lightning	-11.7202
▁louis	-11.7202
▁manhattan	-11.7202
▁meanwhile	-11.7202
▁mignon	-11.7202
▁mistakenly	-11.7202
▁mmmmmm	-11.7202
▁molecule	-11.7202
▁more	-11.7202
▁motion	-11.7202
▁noisy	-11.7202
▁nostalgia	-11.7202
▁nourish	-11.7202
▁nutri	-11.7202
▁originated	-11.7202
▁outdated	-11.7202
▁overboard	-11.7202
▁owns	-11.7202
▁padding	-11.7202
▁pairing	-11.7202
▁pantene	-11.7202
▁persian	-11.7202
▁personality	-11.7202
▁petroleum	-11.7202
▁phrase	-11.7202
▁presumably	-11.7202
▁princess	-11.7202
▁pyridoxine	-11.7202
▁radical	-11.7202
▁refreshment	-11.7202
▁represent	-11.7202
▁rewarded	-11.7202
▁ripoff	-11.7202
▁ripping	-11.7202
▁roach	-11.7202
▁robusta	-11.7202
▁rottweiler	-11.7202
▁sarsaparilla	-11.7202
▁scientist	-11.7202
▁scored	-11.7202
▁seizure	-11.7202
▁shelled	-11.7202
▁shirt	-11.7202
▁spatula	-11.7202
▁speck	-11.7202
▁stained	-11.7202
▁stench	-11.7202
▁strand	-11.7202
▁subsequently	-11.7202
▁surpasses	-11.7202
▁teenie	-11.7202
▁tester	-11.7202
▁thier	-11.7202
▁thinkthin	-11.7202
▁toasty	-11.7202
▁tour	-11.7202
▁turtle	-11.7202
▁tuscan	-11.7202
▁tweak	-11.7202
▁unfamiliar	-11.7202
▁universal	-11.7202
▁venture	-11.7202
▁waistline	-11.7202
▁weaning	-11.7202
▁weaver	-11.7202
▁whichever	-11.7202
▁whirl	-11.7202
▁whirley	-11.7202
▁wishing	-11.7202
▁worcestershire	-11.7202
▁wording	-11.7202
▁wysong	-11.7202
▁yup	-11.7202
▁absorbing	-11.7715
▁accessible	-11.7715
▁administration	-11.7715
▁aero	-11.7715
▁agility	-11.7715
▁alkali	-11.7715
▁americolor	-11.7715
▁as	-11.7715
▁assumption	-11.7715
▁asthma	-11.7715
▁atlanta	-11.7715
▁attract	-11.7715
▁balancing	-11.7715
▁basement	-11.7715
▁basset	-11.7715
▁beefy	-11.7715
▁ben	-11.7715
▁bend	-11.7715
▁bizarre	-11.7715
▁blair	-11.7715
▁borderline	-11.7715
▁breadmaker	-11.7715
▁brighter	-11.7715
▁browsing	-11.7715
▁butternut	-11.7715
▁cage	-11.7715
▁campfire	-11.7715
▁caper	-11.7715
▁cavalier	-11.7715
▁certification	-11.7715
▁cholula	-11.7715
▁choo	-11.7715
▁cofee	-11.7715
▁colander	-11.7715
▁colony	-11.7715
▁commitment	-11.7715
▁compassion	-11.7715
▁consult	-11.7715
▁cramping	-11.7715
▁crispier	-11.7715
▁cuban	-11.7715
▁debate	-11.7715
▁debating	-11.7715
▁deck	-11.7715
▁detectable	-11.7715
▁devouring	-11.7715
▁distracted	-11.7715
▁driven	-11.7715
▁duncan	-11.7715
▁eleuthero	-11.7715
▁energizing	-11.7715
▁ensures	-11.7715
▁era	-11.7715
▁ethical	-11.7715
▁expects	-11.7715
▁extensively	-11.7715
▁eyed	-11.7715
▁faith	-11.7715
▁fancier	-11.7715
▁farther	-11.7715
▁faulty	-11.7715
▁felidae	-11.7715
▁flatbread	-11.7715
▁flowing	-11.7715
▁football	-11.7715
▁fox	-11.7715
▁fragment	-11.7715
▁freshening	-11.7715
▁gnawing	-11.7715
▁gummis	-11.7715
▁havoc	-11.7715
▁heartier	-11.7715
▁heartland	-11.7715
▁hempseed	-11.7715
▁homework	-11.7715
▁hunter	-11.7715
▁illegal	-11.7715
▁illustrated	-11.7715
▁implies	-11.7715
▁indiana	-11.7715
▁influence	-11.7715
▁injury	-11.7715
▁involves	-11.7715
▁jane	-11.7715
▁jewel	-11.7715
▁keen	-11.7715
▁kicked	-11.7715
▁language	-11.7715
▁latin	-11.7715
▁leafy	-11.7715
▁lessen	-11.7715
▁lifting	-11.7715
▁lion	-11.7715
▁maintained	-11.7715
▁makeup	-11.7715
▁manual	-11.7715
▁mealtime	-11.7715
▁mediterranean	-11.7715
▁metromint	-11.7715
▁mobility	-11.7715
▁mylar	-11.7715
▁negligible	-11.7715
▁nougat	-11.7715
▁okra	-11.7715
▁org	-11.7715
▁orzo	-11.7715
▁osmosis	-11.7715
▁outta	-11.7715
▁overdone	-11.7715
▁overlook	-11.7715
▁parasite	-11.7715
▁peeling	-11.7715
▁pic	-11.7715
▁planting	-11.7715
▁platinum	-11.7715
▁poisoning	-11.7715
▁poptarts	-11.7715
▁prayer	-11.7715
▁precise	-11.7715
▁prevention	-11.7715
▁procedure	-11.7715
▁puerh	-11.7715
▁racing	-11.7715
▁raven	-11.7715
▁rear	-11.7715
▁redbull	-11.7715
▁reformulated	-11.7715
▁refusing	-11.7715
▁register	-11.7715
▁rejected	-11.7715
▁remote	-11.7715
▁repair	-11.7715
▁resistance	-11.7715
▁ruby	-11.7715
▁ryder	-11.7715
▁saucepan	-11.7715
▁scream	-11.7715
▁segment	-11.7715
▁seitan	-11.7715
▁seperate	-11.7715
▁shaving	-11.7715
▁sherry	-11.7715
▁simmering	-11.7715
▁sing	-11.7715
▁singing	-11.7715
▁skeptic	-11.7715
▁sleek	-11.7715
▁social	-11.7715
▁socially	-11.7715
▁speaks	-11.7715
▁squid	-11.7715
▁stalk	-11.7715
▁stewart	-11.7715
▁stonewall	-11.7715
▁studying	-11.7715
▁suitcase	-11.7715
▁sunlight	-11.7715
▁tamale	-11.7715
▁taped	-11.7715
▁tedious	-11.7715
▁temporarily	-11.7715
▁tendon	-11.7715
▁thickened	-11.7715
▁touching	-11.7715
▁traffic	-11.7715
▁transparent	-11.7715
▁truthfully	-11.7715
▁twinkie	-11.7715
▁underlying	-11.7715
▁uneven	-11.7715
▁unfair	-11.7715
▁veterinary	-11.7715
▁vial	-11.7715
▁worthless	-11.7715
▁yikes	-11.7715
▁zipfizz	-11.7715
▁10th	-11.8256
▁20g	-11.8256
▁achieved	-11.8256
▁acquire	-11.8256
▁advertized	-11.8256
▁alleviate	-11.8256
▁alley	-11.8256
▁anxiously	-11.8256
▁assistance	-11.8256
▁backed	-11.8256
▁bead	-11.8256
▁believing	-11.8256
▁bistro	-11.8256
▁bladder	-11.8256
▁blanket	-11.8256
▁branded	-11.8256
▁briefly	-11.8256
▁busted	-11.8256
▁cabbage	-11.8256
▁captain	-11.8256
▁caraway	-11.8256
▁celsius	-11.8256
▁celtic	-11.8256
▁cha	-11.8256
▁challenged	-11.8256
▁cheek	-11.8256
▁cheeseburger	-11.8256
▁chilly	-11.8256
▁cigar	-11.8256
▁citrusy	-11.8256
▁cling	-11.8256
▁coincidence	-11.8256
▁compostable	-11.8256
▁consequence	-11.8256
▁corporation	-11.8256
▁cosmetic	-11.8256
▁cottonseed	-11.8256
▁crisper	-11.8256
▁dalfour	-11.8256
▁debbie	-11.8256
▁decorative	-11.8256
▁delayed	-11.8256
▁describing	-11.8256
▁domestic	-11.8256
▁doubling	-11.8256
▁dumb	-11.8256
▁dunked	-11.8256
▁echinacea	-11.8256
▁eczema	-11.8256
▁edited	-11.8256
▁egcg	-11.8256
▁eggplant	-11.8256
▁endurance	-11.8256
▁enhancement	-11.8256
▁entr	-11.8256
▁errand	-11.8256
▁exceeds	-11.8256
▁experimentation	-11.8256
▁facebook	-11.8256
▁faced	-11.8256
▁firmly	-11.8256
▁flattened	-11.8256
▁fruitables	-11.8256
▁fuji	-11.8256
▁fullness	-11.8256
▁gap	-11.8256
▁gfcf	-11.8256
▁gnat	-11.8256
▁goose	-11.8256
▁gran	-11.8256
▁grossed	-11.8256
▁gumball	-11.8256
▁gumballs	-11.8256
▁haired	-11.8256
▁hardened	-11.8256
▁hardware	-11.8256
▁hilarious	-11.8256
▁ick	-11.8256
▁indulgent	-11.8256
▁ink	-11.8256
▁insomnia	-11.8256
▁insult	-11.8256
▁involving	-11.8256
▁jacket	-11.8256
▁jerry	-11.8256
▁jolokia	-11.8256
▁juniper	-11.8256
▁legal	-11.8256
▁listmania	-11.8256
▁locked	-11.8256
▁maca	-11.8256
▁margin	-11.8256
▁marinating	-11.8256
▁marshmellows	-11.8256
▁marzano	-11.8256
▁megafudge	-11.8256
▁mein	-11.8256
▁melty	-11.8256
▁mercy	-11.8256
▁miami	-11.8256
▁milled	-11.8256
▁mocktails	-11.8256
▁moo	-11.8256
▁muted	-11.8256
▁nauseous	-11.8256
▁nonfat	-11.8256
▁northwest	-11.8256
▁nuance	-11.8256
▁ongoing	-11.8256
▁opaque	-11.8256
▁owe	-11.8256
▁oxygen	-11.8256
▁peets	-11.8256
▁performed	-11.8256
▁piping	-11.8256
▁plane	-11.8256
▁pollen	-11.8256
▁predominant	-11.8256
▁puddle	-11.8256
▁redenbacher	-11.8256
▁reflects	-11.8256
▁relaxation	-11.8256
▁reminder	-11.8256
▁remover	-11.8256
▁repurchase	-11.8256
▁ridge	-11.8256
▁roastery	-11.8256
▁rod	-11.8256
▁rude	-11.8256
▁salon	-11.8256
▁scam	-11.8256
▁scarfed	-11.8256
▁screwed	-11.8256
▁siu	-11.8256
▁skipped	-11.8256
▁sloppy	-11.8256
▁snappy	-11.8256
▁sneaking	-11.8256
▁spell	-11.8256
▁splinter	-11.8256
▁squished	-11.8256
▁stephen	-11.8256
▁stimulant	-11.8256
▁sting	-11.8256
▁storm	-11.8256
▁sufficiently	-11.8256
▁sulfur	-11.8256
▁sustain	-11.8256
▁sustained	-11.8256
▁swears	-11.8256
▁sweating	-11.8256
▁swelling	-11.8256
▁swim	-11.8256
▁swing	-11.8256
▁switzerland	-11.8256
▁tamarind	-11.8256
▁teaching	-11.8256
▁television	-11.8256
▁tolerated	-11.8256
▁tony	-11.8256
▁trimming	-11.8256
▁unprocessed	-11.8256
▁unwrap	-11.8256
▁upright	-11.8256
▁upsetting	-11.8256
▁vastly	-11.8256
▁vegies	-11.8256
▁verified	-11.8256
▁vernors	-11.8256
▁vessel	-11.8256
▁voxbox	-11.8256
▁wegman	-11.8256
▁williams	-11.8256
▁wiped	-11.8256
▁wore	-11.8256
▁yamamotoyama	-11.8256
▁yearly	-11.8256
▁11g	-11.8827
▁absence	-11.8827
▁absorption	-11.8827
▁accessory	-11.8827
▁affair	-11.8827
▁alabama	-11.8827
▁americano	-11.8827
▁amoretti	-11.8827
▁amp	-11.8827
▁apology	-11.8827
▁army	-11.8827
▁atleast	-11.8827
▁attach	-11.8827
▁attachment	-11.8827
▁audience	-11.8827
▁awaiting	-11.8827
▁awsome	-11.8827
▁ayurvedic	-11.8827
▁bavarian	-11.8827
▁beak	-11.8827
▁beating	-11.8827
▁blackcurrant	-11.8827
▁blanc	-11.8827
▁bonnet	-11.8827
▁boullion	-11.8827
▁bouncing	-11.8827
▁brace	-11.8827
▁brag	-11.8827
▁builder	-11.8827
▁cameron	-11.8827
▁cancelling	-11.8827
▁candida	-11.8827
▁cartoon	-11.8827
▁cheaply	-11.8827
▁chebe	-11.8827
▁circumstance	-11.8827
▁classify	-11.8827
▁comedy	-11.8827
▁contributed	-11.8827
▁controlling	-11.8827
▁controversial	-11.8827
▁coughing	-11.8827
▁county	-11.8827
▁court	-11.8827
▁cracking	-11.8827
▁creek	-11.8827
▁crew	-11.8827
▁crushing	-11.8827
▁dal	-11.8827
▁dancing	-11.8827
▁demanding	-11.8827
▁denmark	-11.8827
▁depression	-11.8827
▁destructive	-11.8827
▁deter	-11.8827
▁diminished	-11.8827
▁dipotassium	-11.8827
▁discernable	-11.8827
▁discerning	-11.8827
▁distant	-11.8827
▁domatcha	-11.8827
▁donating	-11.8827
▁dunking	-11.8827
▁ect	-11.8827
▁edward	-11.8827
▁elk	-11.8827
▁engineered	-11.8827
▁exam	-11.8827
▁examine	-11.8827
▁existing	-11.8827
▁faux	-11.8827
▁fiery	-11.8827
▁floss	-11.8827
▁fong	-11.8827
▁forgiving	-11.8827
▁format	-11.8827
▁fought	-11.8827
▁frizz	-11.8827
▁geena	-11.8827
▁gentlease	-11.8827
▁gingersnap	-11.8827
▁glued	-11.8827
▁gnawhide	-11.8827
▁grate	-11.8827
▁greeted	-11.8827
▁guard	-11.8827
▁guinea	-11.8827
▁hall	-11.8827
▁hamilton	-11.8827
▁hardwood	-11.8827
▁healthwise	-11.8827
▁heartbeat	-11.8827
▁heath	-11.8827
▁heel	-11.8827
▁heritage	-11.8827
▁hop	-11.8827
▁hotness	-11.8827
▁hue	-11.8827
▁hunk	-11.8827
▁huy	-11.8827
▁incidentally	-11.8827
▁incorrectly	-11.8827
▁infestation	-11.8827
▁infested	-11.8827
▁inflated	-11.8827
▁insipid	-11.8827
▁intentionally	-11.8827
▁intoxicating	-11.8827
▁irritate	-11.8827
▁jimmy	-11.8827
▁kansa	-11.8827
▁krispie	-11.8827
▁literature	-11.8827
▁lou	-11.8827
▁lox	-11.8827
▁lug	-11.8827
▁lush	-11.8827
▁luxurious	-11.8827
▁magnificent	-11.8827
▁marriage	-11.8827
▁merlot	-11.8827
▁modification	-11.8827
▁modify	-11.8827
▁moisturize	-11.8827
▁mojitos	-11.8827
▁molar	-11.8827
▁mono	-11.8827
▁motto	-11.8827
▁multivitamin	-11.8827
▁nauseating	-11.8827
▁nibbling	-11.8827
▁nighttime	-11.8827
▁noting	-11.8827
▁nourishment	-11.8827
▁nuttier	-11.8827
▁ooze	-11.8827
▁overjoyed	-11.8827
▁pallet	-11.8827
▁palpitation	-11.8827
▁pancreatitis	-11.8827
▁pep	-11.8827
▁peru	-11.8827
▁plugged	-11.8827
▁pointer	-11.8827
▁polar	-11.8827
▁potency	-11.8827
▁pours	-11.8827
▁pristine	-11.8827
▁published	-11.8827
▁purchaser	-11.8827
▁purrfectly	-11.8827
▁qualifies	-11.8827
▁recovered	-11.8827
▁relaxes	-11.8827
▁remarked	-11.8827
▁remnant	-11.8827
▁researcher	-11.8827
▁resembling	-11.8827
▁riding	-11.8827
▁rocket	-11.8827
▁saccharine	-11.8827
▁saddened	-11.8827
▁saeco	-11.8827
▁salba	-11.8827
▁satin	-11.8827
▁scattered	-11.8827
▁scenario	-11.8827
▁selecting	-11.8827
▁setup	-11.8827
▁shampooing	-11.8827
▁shin	-11.8827
▁sifting	-11.8827
▁similarity	-11.8827
▁simmered	-11.8827
▁smiling	-11.8827
▁snackwell	-11.8827
▁soccer	-11.8827
▁southwestern	-11.8827
▁spendy	-11.8827
▁spinning	-11.8827
▁spirulina	-11.8827
▁stacy	-11.8827
▁stationed	-11.8827
▁stout	-11.8827
▁stride	-11.8827
▁submit	-11.8827
▁surrounding	-11.8827
▁swanson	-11.8827
▁sweetest	-11.8827
▁swimming	-11.8827
▁taiwan	-11.8827
▁taller	-11.8827
▁tam	-11.8827
▁tao	-11.8827
▁tennessee	-11.8827
▁tikka	-11.8827
▁tiramisu	-11.8827
▁tout	-11.8827
▁transported	-11.8827
▁tri	-11.8827
▁trim	-11.8827
▁tuck	-11.8827
▁underweight	-11.8827
▁underwhelmed	-11.8827
▁universe	-11.8827
▁upgraded	-11.8827
▁upscale	-11.8827
▁varities	-11.8827
▁vehicle	-11.8827
▁virus	-11.8827
▁visual	-11.8827
▁warhead	-11.8827
▁wegmans	-11.8827
▁weighing	-11.8827
▁whilst	-11.8827
▁whine	-11.8827
▁withdrawal	-11.8827
▁worn	-11.8827
▁yucca	-11.8827
▁abc	-11.9433
▁abuse	-11.9433
▁accidently	-11.9433
▁accommodate	-11.9433
▁acted	-11.9433
▁actively	-11.9433
▁acv	-11.9433
▁addressed	-11.9433
▁agar	-11.9433
▁alzheimer	-11.9433
▁approaching	-11.9433
▁array	-11.9433
▁arrowroot	-11.9433
▁aspertame	-11.9433
▁atop	-11.9433
▁avoids	-11.9433
▁barn	-11.9433
▁battery	-11.9433
▁bearing	-11.9433
▁beforehand	-11.9433
▁bentley	-11.9433
▁beta	-11.9433
▁blister	-11.9433
▁bothering	-11.9433
▁bow	-11.9433
▁breastfed	-11.9433
▁broil	-11.9433
▁bugger	-11.9433
▁butcher	-11.9433
▁buttercream	-11.9433
▁charlie	-11.9433
▁choclate	-11.9433
▁claw	-11.9433
▁cleanser	-11.9433
▁clearer	-11.9433
▁clerk	-11.9433
▁clinical	-11.9433
▁coffeemate	-11.9433
▁commissary	-11.9433
▁compromising	-11.9433
▁confirmation	-11.9433
▁confuse	-11.9433
▁construction	-11.9433
▁countertop	-11.9433
▁cringe	-11.9433
▁culprit	-11.9433
▁curve	-11.9433
▁dallas	-11.9433
▁damaging	-11.9433
▁decides	-11.9433
▁default	-11.9433
▁disappearing	-11.9433
▁discernible	-11.9433
▁disclose	-11.9433
▁distract	-11.9433
▁distraction	-11.9433
▁diuretic	-11.9433
▁dna	-11.9433
▁dogfood	-11.9433
▁doodle	-11.9433
▁doughy	-11.9433
▁drawing	-11.9433
▁dreaded	-11.9433
▁drool	-11.9433
▁drugstore	-11.9433
▁dublin	-11.9433
▁dundee	-11.9433
▁echo	-11.9433
▁emphasize	-11.9433
▁entered	-11.9433
▁entry	-11.9433
▁escargot	-11.9433
▁ese	-11.9433
▁est	-11.9433
▁evaluate	-11.9433
▁excellence	-11.9433
▁expiring	-11.9433
▁exploring	-11.9433
▁fart	-11.9433
▁fascinating	-11.9433
▁feces	-11.9433
▁fibre	-11.9433
▁finland	-11.9433
▁flag	-11.9433
▁flavonoid	-11.9433
▁fluff	-11.9433
▁foolish	-11.9433
▁frappuccino	-11.9433
▁frequency	-11.9433
▁gelatinous	-11.9433
▁genmaicha	-11.9433
▁gigantic	-11.9433
▁glow	-11.9433
▁greedy	-11.9433
▁guayaki	-11.9433
▁gun	-11.9433
▁handing	-11.9433
▁hardness	-11.9433
▁harmless	-11.9433
▁healthiness	-11.9433
▁hid	-11.9433
▁homegrown	-11.9433
▁humane	-11.9433
▁hydrolyzed	-11.9433
▁hypertension	-11.9433
▁income	-11.9433
▁infinitely	-11.9433
▁insisted	-11.9433
▁investigate	-11.9433
▁iraq	-11.9433
▁jackpot	-11.9433
▁jacob	-11.9433
▁jyoti	-11.9433
▁kcal	-11.9433
▁kiddos	-11.9433
▁kindness	-11.9433
▁kongs	-11.9433
▁kopi	-11.9433
▁laboratory	-11.9433
▁lane	-11.9433
▁larry	-11.9433
▁layered	-11.9433
▁leavening	-11.9433
▁leche	-11.9433
▁legged	-11.9433
▁letdown	-11.9433
▁limiting	-11.9433
▁linguine	-11.9433
▁liqueur	-11.9433
▁litterbox	-11.9433
▁lundberg	-11.9433
▁magically	-11.9433
▁marking	-11.9433
▁marrow	-11.9433
▁menstrual	-11.9433
▁merit	-11.9433
▁minimize	-11.9433
▁mislead	-11.9433
▁misled	-11.9433
▁mochi	-11.9433
▁moister	-11.9433
▁monde	-11.9433
▁mosquito	-11.9433
▁mudslide	-11.9433
▁network	-11.9433
▁notable	-11.9433
▁obese	-11.9433
▁objectionable	-11.9433
▁observed	-11.9433
▁officially	-11.9433
▁oops	-11.9433
▁oscar	-11.9433
▁outing	-11.9433
▁overpoweringly	-11.9433
▁pail	-11.9433
▁panic	-11.9433
▁patent	-11.9433
▁pause	-11.9433
▁perception	-11.9433
▁perfumed	-11.9433
▁phosphorus	-11.9433
▁pinnacle	-11.9433
▁pitbull	-11.9433
▁pleaser	-11.9433
▁poland	-11.9433
▁pollux	-11.9433
▁popularity	-11.9433
▁postal	-11.9433
▁productive	-11.9433
▁proflowers	-11.9433
▁prop	-11.9433
▁protects	-11.9433
▁provence	-11.9433
▁provider	-11.9433
▁pub	-11.9433
▁pulse	-11.9433
▁purevia	-11.9433
▁puzzled	-11.9433
▁que	-11.9433
▁realm	-11.9433
▁referred	-11.9433
▁referring	-11.9433
▁reinforcement	-11.9433
▁removal	-11.9433
▁requesting	-11.9433
▁responsive	-11.9433
▁retro	-11.9433
▁revolting	-11.9433
▁roe	-11.9433
▁rossa	-11.9433
▁roux	-11.9433
▁rug	-11.9433
▁salame	-11.9433
▁saut	-11.9433
▁scallion	-11.9433
▁secondary	-11.9433
▁server	-11.9433
▁shortcut	-11.9433
▁silicone	-11.9433
▁skipping	-11.9433
▁slab	-11.9433
▁slam	-11.9433
▁slicing	-11.9433
▁solo	-11.9433
▁someday	-11.9433
▁sounding	-11.9433
▁spec	-11.9433
▁spends	-11.9433
▁stamp	-11.9433
▁starkist	-11.9433
▁straining	-11.9433
▁stranger	-11.9433
▁studio	-11.9433
▁subdued	-11.9433
▁sublime	-11.9433
▁subscriber	-11.9433
▁subway	-11.9433
▁suger	-11.9433
▁suspected	-11.9433
▁tact	-11.9433
▁tan	-11.9433
▁tannic	-11.9433
▁tempt	-11.9433
▁thistle	-11.9433
▁titanium	-11.9433
▁tomatoe	-11.9433
▁torture	-11.9433
▁trading	-11.9433
▁translates	-11.9433
▁trout	-11.9433
▁tucked	-11.9433
▁twig	-11.9433
▁unbearable	-11.9433
▁unbroken	-11.9433
▁undoubtedly	-11.9433
▁unsafe	-11.9433
▁unwrapped	-11.9433
▁upc	-11.9433
▁utilize	-11.9433
▁utter	-11.9433
▁vigorous	-11.9433
▁vigorously	-11.9433
▁vintage	-11.9433
▁vision	-11.9433
▁vitacoco	-11.9433
▁welsh	-11.9433
▁whoa	-11.9433
▁wholeheartedly	-11.9433
▁wildly	-11.9433
▁winona	-11.9433
▁yellowish	-11.9433
▁yirgacheffe	-11.9433
▁yoghurt	-11.9433
▁yumminess	-11.9433
▁zhena	-11.9433
▁accurately	-12.0079
▁adhesive	-12.0079
▁alba	-12.0079
▁alimentum	-12.0079
▁alpen	-12.0079
▁alternating	-12.0079
▁alternatively	-12.0079
▁altitude	-12.0079
▁amazement	-12.0079
▁annoyance	-12.0079
▁apologize	-12.0079
▁apprehensive	-12.0079
▁argument	-12.0079
▁atomic	-12.0079
▁avenue	-12.0079
▁ballpark	-12.0079
▁beggin	-12.0079
▁benzoate	-12.0079
▁bil	-12.0079
▁blackstrap	-12.0079
▁brave	-12.0079
▁breadcrumb	-12.0079
▁brit	-12.0079
▁brunch	-12.0079
▁cals	-12.0079
▁camomile	-12.0079
▁cascadian	-12.0079
▁champion	-12.0079
▁channel	-12.0079
▁chipped	-12.0079
▁cleanest	-12.0079
▁climb	-12.0079
▁clogged	-12.0079
▁competitively	-12.0079
▁compressed	-12.0079
▁considers	-12.0079
▁contemplating	-12.0079
▁continuous	-12.0079
▁contributing	-12.0079
▁controversy	-12.0079
▁coop	-12.0079
▁crawling	-12.0079
▁creep	-12.0079
▁crix	-12.0079
▁cultured	-12.0079
▁decaffinated	-12.0079
▁defense	-12.0079
▁desperately	-12.0079
▁desperation	-12.0079
▁devastated	-12.0079
▁diminish	-12.0079
▁disadvantage	-12.0079
▁discus	-12.0079
▁disintegrate	-12.0079
▁downing	-12.0079
▁drastic	-12.0079
▁dude	-12.0079
▁duped	-12.0079
▁earthquake	-12.0079
▁economically	-12.0079
▁embarrassing	-12.0079
▁emergen	-12.0079
▁emptor	-12.0079
▁emulsifier	-12.0079
▁eve	-12.0079
▁evolution	-12.0079
▁exhausted	-12.0079
▁fad	-12.0079
▁faded	-12.0079
▁faucet	-12.0079
▁feared	-12.0079
▁festival	-12.0079
▁festive	-12.0079
▁flavacol	-12.0079
▁fowl	-12.0079
▁freaked	-12.0079
▁fresca	-12.0079
▁frother	-12.0079
▁genisoy	-12.0079
▁gifting	-12.0079
▁glob	-12.0079
▁glory	-12.0079
▁goldilocks	-12.0079
▁greece	-12.0079
▁gulped	-12.0079
▁hangover	-12.0079
▁hanover	-12.0079
▁hash	-12.0079
▁hazel	-12.0079
▁hero	-12.0079
▁hesitated	-12.0079
▁hobby	-12.0079
▁homeless	-12.0079
▁honeysuckle	-12.0079
▁hose	-12.0079
▁hypoallergenic	-12.0079
▁iam	-12.0079
▁icecream	-12.0079
▁impatient	-12.0079
▁indestructible	-12.0079
▁indifferent	-12.0079
▁ing	-12.0079
▁ingested	-12.0079
▁installed	-12.0079
▁insulated	-12.0079
▁invigorating	-12.0079
▁ironically	-12.0079
▁jac	-12.0079
▁jalepeno	-12.0079
▁kamut	-12.0079
▁kay	-12.0079
▁konjac	-12.0079
▁koolaid	-12.0079
▁kurig	-12.0079
▁lable	-12.0079
▁lakewood	-12.0079
▁lessened	-12.0079
▁limitation	-12.0079
▁locating	-12.0079
▁loop	-12.0079
▁loosing	-12.0079
▁lord	-12.0079
▁lozenge	-12.0079
▁macchiato	-12.0079
▁mailing	-12.0079
▁malitol	-12.0079
▁manitoba	-12.0079
▁manly	-12.0079
▁manually	-12.0079
▁maria	-12.0079
▁married	-12.0079
▁massachusetts	-12.0079
▁matched	-12.0079
▁mealy	-12.0079
▁mentally	-12.0079
▁meowing	-12.0079
▁meyer	-12.0079
▁microwaveable	-12.0079
▁mocktail	-12.0079
▁munchos	-12.0079
▁namely	-12.0079
▁neon	-12.0079
▁newbie	-12.0079
▁nickel	-12.0079
▁niederegger	-12.0079
▁noticable	-12.0079
▁nozzle	-12.0079
▁nylon	-12.0079
▁obedience	-12.0079
▁omelet	-12.0079
▁organism	-12.0079
▁output	-12.0079
▁overdo	-12.0079
▁overkill	-12.0079
▁padded	-12.0079
▁pal	-12.0079
▁pang	-12.0079
▁paso	-12.0079
▁philadelphia	-12.0079
▁philosophy	-12.0079
▁phosphorous	-12.0079
▁pitch	-12.0079
▁plea	-12.0079
▁ploy	-12.0079
▁pm	-12.0079
▁potting	-12.0079
▁preschooler	-12.0079
▁prickly	-12.0079
▁principle	-12.0079
▁prohibitive	-12.0079
▁propel	-12.0079
▁purest	-12.0079
▁qid	-12.0079
▁qualified	-12.0079
▁qualm	-12.0079
▁quoted	-12.0079
▁recipies	-12.0079
▁recognized	-12.0079
▁redeeming	-12.0079
▁refilling	-12.0079
▁refunding	-12.0079
▁reheated	-12.0079
▁relied	-12.0079
▁remembers	-12.0079
▁repackage	-12.0079
▁replaces	-12.0079
▁represented	-12.0079
▁retrieve	-12.0079
▁richly	-12.0079
▁rite	-12.0079
▁rotting	-12.0079
▁ruining	-12.0079
▁russia	-12.0079
▁ryokucha	-12.0079
▁seat	-12.0079
▁secured	-12.0079
▁seep	-12.0079
▁shallow	-12.0079
▁shave	-12.0079
▁shudder	-12.0079
▁sibling	-12.0079
▁silicon	-12.0079
▁similiar	-12.0079
▁slaw	-12.0079
▁smarter	-12.0079
▁smarties	-12.0079
▁sneaky	-12.0079
▁softens	-12.0079
▁soldier	-12.0079
▁soothes	-12.0079
▁soreness	-12.0079
▁sought	-12.0079
▁spark	-12.0079
▁stacked	-12.0079
▁stickiness	-12.0079
▁stole	-12.0079
▁strengthen	-12.0079
▁stroganoff	-12.0079
▁subjected	-12.0079
▁sulfites	-12.0079
▁swish	-12.0079
▁tame	-12.0079
▁tapatio	-12.0079
▁tension	-12.0079
▁tinge	-12.0079
▁tint	-12.0079
▁tobasco	-12.0079
▁tolerant	-12.0079
▁toned	-12.0079
▁torrone	-12.0079
▁tote	-12.0079
▁trapped	-12.0079
▁tricked	-12.0079
▁troop	-12.0079
▁trusting	-12.0079
▁tweaking	-12.0079
▁twining	-12.0079
▁typing	-12.0079
▁unaware	-12.0079
▁uneaten	-12.0079
▁uniformly	-12.0079
▁unsuccessful	-12.0079
▁upfront	-12.0079
▁valid	-12.0079
▁veges	-12.0079
▁verbena	-12.0079
▁verify	-12.0079
▁violently	-12.0079
▁vitacost	-12.0079
▁vitamix	-12.0079
▁void	-12.0079
▁wagging	-12.0079
▁ward	-12.0079
▁watkins	-12.0079
▁weary	-12.0079
▁wheaten	-12.0079
▁wired	-12.0079
▁wok	-12.0079
▁yolk	-12.0079
▁zombie	-12.0079
▁abandoned	-12.0769
▁absurd	-12.0769
▁abundant	-12.0769
▁accompany	-12.0769
▁adapter	-12.0769
▁adobo	-12.0769
▁aerator	-12.0769
▁agreeable	-12.0769
▁alongside	-12.0769
▁alton	-12.0769
▁ambrosia	-12.0769
▁amused	-12.0769
▁amusing	-12.0769
▁apiece	-12.0769
▁applaud	-12.0769
▁apt	-12.0769
▁awaken	-12.0769
▁bariani	-12.0769
▁barrier	-12.0769
▁beginner	-12.0769
▁bella	-12.0769
▁beneath	-12.0769
▁billed	-12.0769
▁bingo	-12.0769
▁bio	-12.0769
▁bionaturae	-12.0769
▁bleach	-12.0769
▁blu	-12.0769
▁boiler	-12.0769
▁booklet	-12.0769
▁boon	-12.0769
▁breakout	-12.0769
▁briefcase	-12.0769
▁bus	-12.0769
▁cactus	-12.0769
▁caffinated	-12.0769
▁calculated	-12.0769
▁campaign	-12.0769
▁capresso	-12.0769
▁carnival	-12.0769
▁cassia	-12.0769
▁catalog	-12.0769
▁cbtl	-12.0769
▁celebration	-12.0769
▁ceremony	-12.0769
▁cheated	-12.0769
▁cheating	-12.0769
▁chomp	-12.0769
▁chowing	-12.0769
▁cinammon	-12.0769
▁cincinnati	-12.0769
▁citizen	-12.0769
▁clogging	-12.0769
▁coarser	-12.0769
▁coax	-12.0769
▁cobbler	-12.0769
▁coconutty	-12.0769
▁combat	-12.0769
▁complains	-12.0769
▁connected	-12.0769
▁contest	-12.0769
▁cozy	-12.0769
▁craisins	-12.0769
▁croissant	-12.0769
▁cutter	-12.0769
▁dan	-12.0769
▁daniel	-12.0769
▁darkness	-12.0769
▁deceived	-12.0769
▁despise	-12.0769
▁dilemma	-12.0769
▁diligent	-12.0769
▁disabled	-12.0769
▁discolored	-12.0769
▁discontinuing	-12.0769
▁discourage	-12.0769
▁discussion	-12.0769
▁dishonest	-12.0769
▁dishwater	-12.0769
▁dismayed	-12.0769
▁doctored	-12.0769
▁dominated	-12.0769
▁dong	-12.0769
▁dorset	-12.0769
▁doubtful	-12.0769
▁doxie	-12.0769
▁ecobrew	-12.0769
▁emerils	-12.0769
▁enables	-12.0769
▁enemy	-12.0769
▁enhancing	-12.0769
▁entertainment	-12.0769
▁euro	-12.0769
▁exclusive	-12.0769
▁external	-12.0769
▁fajita	-12.0769
▁feta	-12.0769
▁fetch	-12.0769
▁fibrous	-12.0769
▁fiesta	-12.0769
▁fireball	-12.0769
▁firstly	-12.0769
▁flew	-12.0769
▁fluctuate	-12.0769
▁founded	-12.0769
▁founder	-12.0769
▁freakin	-12.0769
▁freshener	-12.0769
▁fritos	-12.0769
▁frugal	-12.0769
▁fruitiness	-12.0769
▁fundraiser	-12.0769
▁garlicky	-12.0769
▁gasp	-12.0769
▁gifted	-12.0769
▁glutenfreeda	-12.0769
▁gnocchi	-12.0769
▁gracious	-12.0769
▁habaneros	-12.0769
▁hansen	-12.0769
▁haul	-12.0769
▁he	-12.0769
▁healed	-12.0769
▁herr	-12.0769
▁hoisin	-12.0769
▁holland	-12.0769
▁horrific	-12.0769
▁horrified	-12.0769
▁hugger	-12.0769
▁hunmatsu	-12.0769
▁imagining	-12.0769
▁improperly	-12.0769
▁inappropriate	-12.0769
▁inform	-12.0769
▁inherent	-12.0769
▁input	-12.0769
▁insurance	-12.0769
▁investing	-12.0769
▁irritable	-12.0769
▁jammed	-12.0769
▁ken	-12.0769
▁kickin	-12.0769
▁kinder	-12.0769
▁laced	-12.0769
▁lard	-12.0769
▁lea	-12.0769
▁league	-12.0769
▁lego	-12.0769
▁lest	-12.0769
▁llc	-12.0769
▁lodge	-12.0769
▁logic	-12.0769
▁loma	-12.0769
▁madhava	-12.0769
▁madras	-12.0769
▁malamute	-12.0769
▁maryland	-12.0769
▁masking	-12.0769
▁mason	-12.0769
▁masterpiece	-12.0769
▁mayan	-12.0769
▁milkbone	-12.0769
▁minded	-12.0769
▁minority	-12.0769
▁mocafe	-12.0769
▁moisten	-12.0769
▁mojo	-12.0769
▁molded	-12.0769
▁montana	-12.0769
▁morton	-12.0769
▁motel	-12.0769
▁nada	-12.0769
▁nailed	-12.0769
▁negatively	-12.0769
▁neglected	-12.0769
▁ninety	-12.0769
▁nonsense	-12.0769
▁notify	-12.0769
▁nutshell	-12.0769
▁oct	-12.0769
▁odds	-12.0769
▁oozing	-12.0769
▁oriented	-12.0769
▁outright	-12.0769
▁overcome	-12.0769
▁overfeed	-12.0769
▁oxidation	-12.0769
▁palmer	-12.0769
▁panicked	-12.0769
▁parrot	-12.0769
▁pastorelli	-12.0769
▁peaceful	-12.0769
▁peachy	-12.0769
▁perforated	-12.0769
▁pico	-12.0769
▁pleasent	-12.0769
▁poisonous	-12.0769
▁polyphenols	-12.0769
▁pore	-12.0769
▁powerbar	-12.0769
▁prefect	-12.0769
▁premade	-12.0769
▁province	-12.0769
▁pry	-12.0769
▁puke	-12.0769
▁quibble	-12.0769
▁receiver	-12.0769
▁recovering	-12.0769
▁rectangle	-12.0769
▁rehydrated	-12.0769
▁relation	-12.0769
▁rendang	-12.0769
▁rendered	-12.0769
▁resealed	-12.0769
▁responsibility	-12.0769
▁reused	-12.0769
▁revealed	-12.0769
▁rex	-12.0769
▁rhubarb	-12.0769
▁ridder	-12.0769
▁ripened	-12.0769
▁ritter	-12.0769
▁robert	-12.0769
▁rodent	-12.0769
▁salmonella	-12.0769
▁savannah	-12.0769
▁savoring	-12.0769
▁sex	-12.0769
▁shark	-12.0769
▁silica	-12.0769
▁sinfully	-12.0769
▁sitter	-12.0769
▁sixteen	-12.0769
▁skinner	-12.0769
▁skyline	-12.0769
▁slime	-12.0769
▁slowed	-12.0769
▁slurp	-12.0769
▁smash	-12.0769
▁sno	-12.0769
▁solidified	-12.0769
▁someplace	-12.0769
▁sooooooo	-12.0769
▁splendid	-12.0769
▁stake	-12.0769
▁stealing	-12.0769
▁stiks	-12.0769
▁stunning	-12.0769
▁submitted	-12.0769
▁subtlety	-12.0769
▁supervise	-12.0769
▁surf	-12.0769
▁swig	-12.0769
▁tbls	-12.0769
▁tech	-12.0769
▁tennis	-12.0769
▁text	-12.0769
▁thereafter	-12.0769
▁thereof	-12.0769
▁tidbit	-12.0769
▁tingling	-12.0769
▁tiring	-12.0769
▁toasting	-12.0769
▁translation	-12.0769
▁treadmill	-12.0769
▁treater	-12.0769
▁triglyceride	-12.0769
▁ummm	-12.0769
▁unadulterated	-12.0769
▁unfiltered	-12.0769
▁unimpressed	-12.0769
▁unsaturated	-12.0769
▁unscrew	-12.0769
▁vegetal	-12.0769
▁vinturi	-12.0769
▁volunteer	-12.0769
▁whack	-12.0769
▁whirly	-12.0769
▁worldwide	-12.0769
▁wrinkle	-12.0769
▁yakisoba	-12.0769
▁zap	-12.0769
▁zatarain	-12.0769
▁0gcholesterol	-12.151
▁0mg	-12.151
▁1200	-12.151
▁21g	-12.151
▁absolutley	-12.151
▁accompanied	-12.151
▁acidophilus	-12.151
▁aha	-12.151
▁airline	-12.151
▁alarm	-12.151
▁amateur	-12.151
▁antibacterial	-12.151
▁appealed	-12.151
▁argentina	-12.151
▁armpit	-12.151
▁atlantic	-12.151
▁attending	-12.151
▁aweful	-12.151
▁bahlsen	-12.151
▁bai	-12.151
▁banged	-12.151
▁beast	-12.151
▁bht	-12.151
▁biased	-12.151
▁biggie	-12.151
▁blander	-12.151
▁blocked	-12.151
▁blooming	-12.151
▁bonne	-12.151
▁booda	-12.151
▁boosting	-12.151
▁boyardee	-12.151
▁brat	-12.151
▁breville	-12.151
▁brita	-12.151
▁brussels	-12.151
▁bundt	-12.151
▁buried	-12.151
▁calculate	-12.151
▁canyon	-12.151
▁capable	-12.151
▁capuccino	-12.151
▁cave	-12.151
▁chopping	-12.151
▁chorizo	-12.151
▁chuckle	-12.151
▁clarify	-12.151
▁classy	-12.151
▁clicked	-12.151
▁clipping	-12.151
▁compleats	-12.151
▁consensus	-12.151
▁consistantly	-12.151
▁contributes	-12.151
▁cookout	-12.151
▁creamed	-12.151
▁cried	-12.151
▁crisco	-12.151
▁crud	-12.151
▁curing	-12.151
▁customize	-12.151
▁cutlet	-12.151
▁cylinder	-12.151
▁daddy	-12.151
▁dagoba	-12.151
▁daisy	-12.151
▁dealt	-12.151
▁dean	-12.151
▁decadence	-12.151
▁decidedly	-12.151
▁deducted	-12.151
▁dehydrator	-12.151
▁delcious	-12.151
▁delicous	-12.151
▁dependent	-12.151
▁diedrich	-12.151
▁dimensional	-12.151
▁discouraged	-12.151
▁dispensed	-12.151
▁dissapointing	-12.151
▁dixie	-12.151
▁doughnut	-12.151
▁dreadful	-12.151
▁drown	-12.151
▁dubble	-12.151
▁dubious	-12.151
▁dukan	-12.151
▁durkee	-12.151
▁dynasty	-12.151
▁earn	-12.151
▁eatable	-12.151
▁educated	-12.151
▁eighty	-12.151
▁elephant	-12.151
▁endorse	-12.151
▁eon	-12.151
▁erin	-12.151
▁excelent	-12.151
▁execution	-12.151
▁expo	-12.151
▁ezekiel	-12.151
▁fasting	-12.151
▁ferrara	-12.151
▁ferret	-12.151
▁fiend	-12.151
▁file	-12.151
▁fluffier	-12.151
▁frothed	-12.151
▁fulfill	-12.151
▁functional	-12.151
▁gather	-12.151
▁gathered	-12.151
▁glorious	-12.151
▁greenish	-12.151
▁gristle	-12.151
▁groomer	-12.151
▁handmade	-12.151
▁hardy	-12.151
▁harvesting	-12.151
▁heb	-12.151
▁herbicide	-12.151
▁highway	-12.151
▁hong	-12.151
▁hunted	-12.151
▁hurricane	-12.151
▁immunity	-12.151
▁inadequate	-12.151
▁inducing	-12.151
▁infuse	-12.151
▁ingenious	-12.151
▁innovative	-12.151
▁inserted	-12.151
▁isolated	-12.151
▁jade	-12.151
▁jake	-12.151
▁jambalaya	-12.151
▁jason	-12.151
▁jiff	-12.151
▁joyva	-12.151
▁juiced	-12.151
▁julia	-12.151
▁karmal	-12.151
▁kikkoman	-12.151
▁kilo	-12.151
▁kneading	-12.151
▁krinkle	-12.151
▁laffy	-12.151
▁laughed	-12.151
▁leader	-12.151
▁leaky	-12.151
▁legally	-12.151
▁lend	-12.151
▁leo	-12.151
▁limb	-12.151
▁limping	-12.151
▁lit	-12.151
▁lukewarm	-12.151
▁madhouse	-12.151
▁marginally	-12.151
▁matching	-12.151
▁maxx	-12.151
▁membrane	-12.151
▁mimic	-12.151
▁miraculous	-12.151
▁monitoring	-12.151
▁mtr	-12.151
▁navy	-12.151
▁nettle	-12.151
▁newspaper	-12.151
▁niche	-12.151
▁nifty	-12.151
▁nite	-12.151
▁notoriously	-12.151
▁numb	-12.151
▁omelette	-12.151
▁oprah	-12.151
▁organized	-12.151
▁oskri	-12.151
▁ouch	-12.151
▁paperboard	-12.151
▁passionate	-12.151
▁pathetic	-12.151
▁patio	-12.151
▁pc	-12.151
▁peanutbutter	-12.151
▁pesky	-12.151
▁petit	-12.151
▁philippine	-12.151
▁pica	-12.151
▁plague	-12.151
▁platter	-12.151
▁polenta	-12.151
▁polite	-12.151
▁popchip	-12.151
▁popcorners	-12.151
▁posse	-12.151
▁pray	-12.151
▁premixed	-12.151
▁preschool	-12.151
▁problematic	-12.151
▁proceed	-12.151
▁professionally	-12.151
▁psychological	-12.151
▁pulverized	-12.151
▁radio	-12.151
▁rant	-12.151
▁reacted	-12.151
▁receives	-12.151
▁reception	-12.151
▁recipie	-12.151
▁reek	-12.151
▁refresh	-12.151
▁rendering	-12.151
▁repellent	-12.151
▁replied	-12.151
▁reserved	-12.151
▁resistant	-12.151
▁respectable	-12.151
▁restful	-12.151
▁restore	-12.151
▁retention	-12.151
▁revelation	-12.151
▁reversed	-12.151
▁robbery	-12.151
▁rot	-12.151
▁rottie	-12.151
▁runnier	-12.151
▁rushing	-12.151
▁scallop	-12.151
▁scant	-12.151
▁scar	-12.151
▁scrubbing	-12.151
▁selenium	-12.151
▁sensational	-12.151
▁serendipitea	-12.151
▁shattered	-12.151
▁sickening	-12.151
▁singer	-12.151
▁sipped	-12.151
▁skipjack	-12.151
▁slipped	-12.151
▁slump	-12.151
▁smallish	-12.151
▁smucker	-12.151
▁sockeye	-12.151
▁sorbet	-12.151
▁spa	-12.151
▁spelling	-12.151
▁spider	-12.151
▁splitting	-12.151
▁springer	-12.151
▁spritzer	-12.151
▁stashed	-12.151
▁stimulate	-12.151
▁stretched	-12.151
▁stripped	-12.151
▁structure	-12.151
▁subsitute	-12.151
▁sundae	-12.151
▁supervision	-12.151
▁swill	-12.151
▁syndrome	-12.151
▁tacs	-12.151
▁tagalong	-12.151
▁tangle	-12.151
▁tango	-12.151
▁tasts	-12.151
▁teacup	-12.151
▁technical	-12.151
▁tenderloin	-12.151
▁tickle	-12.151
▁tile	-12.151
▁tiniest	-12.151
▁tolerates	-12.151
▁transformed	-12.151
▁transmitter	-12.151
▁triscuits	-12.151
▁uncovered	-12.151
▁underwhelming	-12.151
▁unnecessarily	-12.151
▁untill	-12.151
▁upped	-12.151
▁variable	-12.151
▁vender	-12.151
▁vindaloo	-12.151
▁vit	-12.151
▁vivid	-12.151
▁waft	-12.151
▁warms	-12.151
▁weaned	-12.151
▁wendy	-12.151
▁whining	-12.151
▁william	-12.151
▁willingly	-12.151
▁willpower	-12.151
▁winery	-12.151
▁woodsy	-12.151
▁yummmm	-12.151
▁ziwipeak	-12.151
▁absent	-12.231
▁ade	-12.231
▁adhere	-12.231
▁aerogrow	-12.231
▁aesthetic	-12.231
▁aggressively	-12.231
▁agreement	-12.231
▁aide	-12.231
▁algae	-12.231
▁alpha	-12.231
▁altura	-12.231
▁antacid	-12.231
▁anticipating	-12.231
▁appliance	-12.231
▁appointment	-12.231
▁arnold	-12.231
▁arrange	-12.231
▁aseptic	-12.231
▁awaited	-12.231
▁bacterial	-12.231
▁barney	-12.231
▁bellagio	-12.231
▁belong	-12.231
▁bergamont	-12.231
▁bha	-12.231
▁bile	-12.231
▁biotin	-12.231
▁bloat	-12.231
▁bloomed	-12.231
▁bodum	-12.231
▁bond	-12.231
▁bonkers	-12.231
▁brim	-12.231
▁britain	-12.231
▁broad	-12.231
▁browning	-12.231
▁brussel	-12.231
▁cadet	-12.231
▁cardio	-12.231
▁careless	-12.231
▁cartilage	-12.231
▁cartridge	-12.231
▁cayce	-12.231
▁centered	-12.231
▁chantea	-12.231
▁chief	-12.231
▁chocofudge	-12.231
▁chubby	-12.231
▁chunkier	-12.231
▁circular	-12.231
▁clarified	-12.231
▁clipper	-12.231
▁clothing	-12.231
▁coffer	-12.231
▁collard	-12.231
▁conserve	-12.231
▁constructed	-12.231
▁contribution	-12.231
▁convincing	-12.231
▁crank	-12.231
▁craved	-12.231
▁craves	-12.231
▁crow	-12.231
▁crystalized	-12.231
▁darling	-12.231
▁deduct	-12.231
▁deleted	-12.231
▁denture	-12.231
▁depleted	-12.231
▁deposit	-12.231
▁dept	-12.231
▁develops	-12.231
▁digit	-12.231
▁ding	-12.231
▁disgustingly	-12.231
▁disodium	-12.231
▁dissapointment	-12.231
▁dissolving	-12.231
▁distribute	-12.231
▁disturbing	-12.231
▁diversity	-12.231
▁doubleshot	-12.231
▁downstairs	-12.231
▁drowsy	-12.231
▁dulce	-12.231
▁durian	-12.231
▁dyed	-12.231
▁eatting	-12.231
▁electricity	-12.231
▁elimination	-12.231
▁emphasis	-12.231
▁emptying	-12.231
▁encased	-12.231
▁encourages	-12.231
▁engaged	-12.231
▁epic	-12.231
▁ethiopia	-12.231
▁exaggerating	-12.231
▁examined	-12.231
▁existed	-12.231
▁expanding	-12.231
▁exploding	-12.231
▁fabric	-12.231
▁faintly	-12.231
▁falafel	-12.231
▁fantastically	-12.231
▁fatter	-12.231
▁federal	-12.231
▁ferment	-12.231
▁fermenting	-12.231
▁fingertip	-12.231
▁flame	-12.231
▁flare	-12.231
▁flavouring	-12.231
▁footprint	-12.231
▁foremost	-12.231
▁formation	-12.231
▁frise	-12.231
▁fusilli	-12.231
▁gang	-12.231
▁gene	-12.231
▁genetic	-12.231
▁genmai	-12.231
▁gentleman	-12.231
▁george	-12.231
▁glee	-12.231
▁global	-12.231
▁glorified	-12.231
▁glutamic	-12.231
▁gnaw	-12.231
▁goodbye	-12.231
▁gouging	-12.231
▁grande	-12.231
▁grandpa	-12.231
▁gratitude	-12.231
▁grittiness	-12.231
▁grounded	-12.231
▁guarana	-12.231
▁h2o	-12.231
▁hideous	-12.231
▁highland	-12.231
▁hmmmm	-12.231
▁honeycomb	-12.231
▁honeydew	-12.231
▁horchata	-12.231
▁huckleberry	-12.231
▁hyped	-12.231
▁ideally	-12.231
▁identifiable	-12.231
▁illinois	-12.231
▁incomplete	-12.231
▁incorporated	-12.231
▁indirect	-12.231
▁induce	-12.231
▁induced	-12.231
▁inevitably	-12.231
▁inhales	-12.231
▁inhaling	-12.231
▁insoluble	-12.231
▁irregular	-12.231
▁israel	-12.231
▁jay	-12.231
▁jealous	-12.231
▁jesus	-12.231
▁jocalat	-12.231
▁johnson	-12.231
▁juicer	-12.231
▁justified	-12.231
▁kaviar	-12.231
▁keemun	-12.231
▁kili	-12.231
▁kix	-12.231
▁knead	-12.231
▁krups	-12.231
▁kum	-12.231
▁kup	-12.231
▁lace	-12.231
▁lackluster	-12.231
▁lark	-12.231
▁ldl	-12.231
▁leach	-12.231
▁leaning	-12.231
▁leary	-12.231
▁likewise	-12.231
▁liquidy	-12.231
▁loa	-12.231
▁loin	-12.231
▁los	-12.231
▁loyalty	-12.231
▁luden	-12.231
▁luna	-12.231
▁ma	-12.231
▁markup	-12.231
▁mauna	-12.231
▁maypo	-12.231
▁melinda	-12.231
▁merry	-12.231
▁meter	-12.231
▁mex	-12.231
▁miller	-12.231
▁minnesota	-12.231
▁missouri	-12.231
▁mite	-12.231
▁monk	-12.231
▁motivation	-12.231
▁mount	-12.231
▁munched	-12.231
▁munchy	-12.231
▁mus	-12.231
▁nancy	-12.231
▁nebraska	-12.231
▁noir	-12.231
▁norte	-12.231
▁obnoxious	-12.231
▁olewo	-12.231
▁orangey	-12.231
▁orangina	-12.231
▁orderd	-12.231
▁ostrich	-12.231
▁ostrim	-12.231
▁outweigh	-12.231
▁overflow	-12.231
▁overlooked	-12.231
▁oversight	-12.231
▁pastel	-12.231
▁payment	-12.231
▁peculiar	-12.231
▁peep	-12.231
▁photograph	-12.231
▁pilaf	-12.231
▁pointless	-12.231
▁port	-12.231
▁portioned	-12.231
▁potpourri	-12.231
▁pounce	-12.231
▁pounder	-12.231
▁prairie	-12.231
▁preheat	-12.231
▁premeasured	-12.231
▁presume	-12.231
▁prompted	-12.231
▁proprietary	-12.231
▁purebites	-12.231
▁purr	-12.231
▁quai	-12.231
▁quail	-12.231
▁quenches	-12.231
▁radiation	-12.231
▁recreate	-12.231
▁reddish	-12.231
▁reflex	-12.231
▁refridgerator	-12.231
▁regime	-12.231
▁regional	-12.231
▁reheating	-12.231
▁replacer	-12.231
▁residual	-12.231
▁respectively	-12.231
▁rethink	-12.231
▁reveal	-12.231
▁revise	-12.231
▁revised	-12.231
▁richest	-12.231
▁rico	-12.231
▁ricotta	-12.231
▁romaine	-12.231
▁roobios	-12.231
▁runt	-12.231
▁rusk	-12.231
▁ryvita	-12.231
▁samoa	-12.231
▁saucer	-12.231
▁schar	-12.231
▁scratched	-12.231
▁security	-12.231
▁seeming	-12.231
▁sender	-12.231
▁separating	-12.231
▁serum	-12.231
▁shallot	-12.231
▁shortcake	-12.231
▁simultaneously	-12.231
▁slick	-12.231
▁sliding	-12.231
▁slogan	-12.231
▁slowing	-12.231
▁slows	-12.231
▁slushy	-12.231
▁snapea	-12.231
▁sneeze	-12.231
▁sofa	-12.231
▁spagetti	-12.231
▁speech	-12.231
▁spillage	-12.231
▁spritz	-12.231
▁squish	-12.231
▁stabilize	-12.231
▁stamen	-12.231
▁stopper	-12.231
▁stubborn	-12.231
▁stumble	-12.231
▁succeeded	-12.231
▁succulent	-12.231
▁suggesting	-12.231
▁supremo	-12.231
▁surpassed	-12.231
▁sweden	-12.231
▁swollen	-12.231
▁swore	-12.231
▁teh	-12.231
▁thermometer	-12.231
▁thiamin	-12.231
▁thomas	-12.231
▁thoughtful	-12.231
▁tilapia	-12.231
▁titled	-12.231
▁toothbrush	-12.231
▁toothless	-12.231
▁topic	-12.231
▁tostitos	-12.231
▁trek	-12.231
▁trusty	-12.231
▁tupelo	-12.231
▁twang	-12.231
▁uber	-12.231
▁unclear	-12.231
▁undercooked	-12.231
▁understandable	-12.231
▁undetectable	-12.231
▁union	-12.231
▁unreal	-12.231
▁unrealistic	-12.231
▁unsatisfying	-12.231
▁unscented	-12.231
▁upcoming	-12.231
▁uterus	-12.231
▁vigor	-12.231
▁village	-12.231
▁viscosity	-12.231
▁wagon	-12.231
▁washer	-12.231
▁welcomed	-12.231
▁whisked	-12.231
▁whisky	-12.231
▁wicked	-12.231
▁wierd	-12.231
▁wiser	-12.231
▁woo	-12.231
▁wrigley	-12.231
▁writer	-12.231
▁yummyearth	-12.231
▁0mgsodium	-12.318
▁11oz	-12.318
▁12th	-12.318
▁20mg	-12.318
▁acacia	-12.318
▁acana	-12.318
▁ace	-12.318
▁acre	-12.318
▁addendum	-12.318
▁administer	-12.318
▁admire	-12.318
▁affecting	-12.318
▁afterlife	-12.318
▁agressive	-12.318
▁aimed	-12.318
▁albertson	-12.318
▁alertness	-12.318
▁alessi	-12.318
▁ali	-12.318
▁alvita	-12.318
▁alway	-12.318
▁amz	-12.318
▁amzn	-12.318
▁angeles	-12.318
▁angostura	-12.318
▁ann	-12.318
▁annatto	-12.318
▁antioxidents	-12.318
▁approached	-12.318
▁arabic	-12.318
▁arguably	-12.318
▁assurance	-12.318
▁astounding	-12.318
▁attributed	-12.318
▁balloon	-12.318
▁ban	-12.318
▁basted	-12.318
▁behalf	-12.318
▁behave	-12.318
▁behaved	-12.318
▁beleive	-12.318
▁bible	-12.318
▁bisquits	-12.318
▁bitten	-12.318
▁blanched	-12.318
▁blandness	-12.318
▁blank	-12.318
▁bleh	-12.318
▁blurb	-12.318
▁boyer	-12.318
▁brach	-12.318
▁breakable	-12.318
▁bros	-12.318
▁burp	-12.318
▁bzzagent	-12.318
▁cafix	-12.318
▁carafe	-12.318
▁carring	-12.318
▁catechin	-12.318
▁caved	-12.318
▁cavender	-12.318
▁certificate	-12.318
▁charred	-12.318
▁cheapo	-12.318
▁chinatown	-12.318
▁chugging	-12.318
▁chupa	-12.318
▁chups	-12.318
▁circus	-12.318
▁classico	-12.318
▁classroom	-12.318
▁clicking	-12.318
▁climbing	-12.318
▁coffeehouse	-12.318
▁coleslaw	-12.318
▁collapse	-12.318
▁collecting	-12.318
▁comparatively	-12.318
▁complemented	-12.318
▁composed	-12.318
▁comprised	-12.318
▁conclude	-12.318
▁concord	-12.318
▁contaminant	-12.318
▁corp	-12.318
▁courtesy	-12.318
▁crafted	-12.318
▁crashing	-12.318
▁creativity	-12.318
▁creole	-12.318
▁crispiness	-12.318
▁crummy	-12.318
▁curbing	-12.318
▁cusine	-12.318
▁danny	-12.318
▁dearly	-12.318
▁deception	-12.318
▁definitley	-12.318
▁defintely	-12.318
▁dehydration	-12.318
▁deliberately	-12.318
▁dentastix	-12.318
▁dentyne	-12.318
▁departure	-12.318
▁descent	-12.318
▁deserved	-12.318
▁differnt	-12.318
▁disappoints	-12.318
▁discription	-12.318
▁disney	-12.318
▁distinction	-12.318
▁disturbed	-12.318
▁dome	-12.318
▁dragonwell	-12.318
▁duration	-12.318
▁ea	-12.318
▁eboost	-12.318
▁elite	-12.318
▁elixir	-12.318
▁enable	-12.318
▁eraser	-12.318
▁establishment	-12.318
▁estimation	-12.318
▁eternal	-12.318
▁ethoxyquin	-12.318
▁exit	-12.318
▁exorbitant	-12.318
▁expedited	-12.318
▁expeller	-12.318
▁explodes	-12.318
▁extraordinarily	-12.318
▁eyeball	-12.318
▁familia	-12.318
▁faq	-12.318
▁farming	-12.318
▁faves	-12.318
▁favs	-12.318
▁featuring	-12.318
▁fest	-12.318
▁fettuccine	-12.318
▁fin	-12.318
▁fishiness	-12.318
▁flatter	-12.318
▁flatulence	-12.318
▁flaver	-12.318
▁folded	-12.318
▁folding	-12.318
▁forbid	-12.318
▁forbidden	-12.318
▁forehead	-12.318
▁freebie	-12.318
▁funk	-12.318
▁garam	-12.318
▁gardening	-12.318
▁geriatric	-12.318
▁glitter	-12.318
▁gloppy	-12.318
▁glutten	-12.318
▁glutton	-12.318
▁gmc	-12.318
▁gnu	-12.318
▁grail	-12.318
▁grandfather	-12.318
▁gras	-12.318
▁gravity	-12.318
▁grazing	-12.318
▁greatness	-12.318
▁gulping	-12.318
▁gumbo	-12.318
▁halva	-12.318
▁hankering	-12.318
▁happybellies	-12.318
▁hara	-12.318
▁hardcore	-12.318
▁harshness	-12.318
▁harvey	-12.318
▁hating	-12.318
▁healthfood	-12.318
▁heap	-12.318
▁heed	-12.318
▁hempseeds	-12.318
▁hockey	-12.318
▁horton	-12.318
▁hugely	-12.318
▁hulled	-12.318
▁hydrogen	-12.318
▁iffy	-12.318
▁ignorance	-12.318
▁igourmet	-12.318
▁imaginable	-12.318
▁immense	-12.318
▁incorporating	-12.318
▁infected	-12.318
▁ingestion	-12.318
▁innovation	-12.318
▁inquire	-12.318
▁insure	-12.318
▁invariably	-12.318
▁investigating	-12.318
▁invite	-12.318
▁iowa	-12.318
▁joel	-12.318
▁johnny	-12.318
▁joined	-12.318
▁kap	-12.318
▁kee	-12.318
▁kenyan	-12.318
▁keuring	-12.318
▁knocking	-12.318
▁knockoff	-12.318
▁knuckle	-12.318
▁korma	-12.318
▁kups	-12.318
▁lactation	-12.318
▁leathery	-12.318
▁legit	-12.318
▁legitimate	-12.318
▁legume	-12.318
▁lengthy	-12.318
▁lever	-12.318
▁lhasa	-12.318
▁lifespan	-12.318
▁limeade	-12.318
▁lindor	-12.318
▁liquorice	-12.318
▁liven	-12.318
▁locking	-12.318
▁longing	-12.318
▁luggage	-12.318
▁lunchboxes	-12.318
▁lure	-12.318
▁lydia	-12.318
▁mackerel	-12.318
▁mae	-12.318
▁maman	-12.318
▁marine	-12.318
▁marnier	-12.318
▁martek	-12.318
▁martin	-12.318
▁masculine	-12.318
▁mashing	-12.318
▁maximize	-12.318
▁mayonaise	-12.318
▁meatless	-12.318
▁melita	-12.318
▁metabolic	-12.318
▁midday	-12.318
▁mo	-12.318
▁moistness	-12.318
▁monounsaturated	-12.318
▁moss	-12.318
▁mott	-12.318
▁nando	-12.318
▁nasal	-12.318
▁nastiest	-12.318
▁nest	-12.318
▁nestl	-12.318
▁nicest	-12.318
▁northeast	-12.318
▁norwegian	-12.318
▁nov	-12.318
▁nutricity	-12.318
▁nutritive	-12.318
▁nutter	-12.318
▁obsession	-12.318
▁occurrence	-12.318
▁offense	-12.318
▁omit	-12.318
▁omitted	-12.318
▁oomph	-12.318
▁overeat	-12.318
▁overflowing	-12.318
▁oxide	-12.318
▁packer	-12.318
▁panforte	-12.318
▁pantothenate	-12.318
▁paradise	-12.318
▁paragon	-12.318
▁perfected	-12.318
▁perrins	-12.318
▁philly	-12.318
▁pillsbury	-12.318
▁piment	-12.318
▁pitched	-12.318
▁poking	-12.318
▁pooping	-12.318
▁potted	-12.318
▁precooked	-12.318
▁preserving	-12.318
▁president	-12.318
▁prey	-12.318
▁proclaimed	-12.318
▁promotional	-12.318
▁proving	-12.318
▁pruning	-12.318
▁puerto	-12.318
▁quencher	-12.318
▁raisens	-12.318
▁ranchero	-12.318
▁receipe	-12.318
▁reclosable	-12.318
▁recognizable	-12.318
▁reconsider	-12.318
▁reeses	-12.318
▁refilled	-12.318
▁regularity	-12.318
▁reinforce	-12.318
▁relevant	-12.318
▁reliably	-12.318
▁relying	-12.318
▁remark	-12.318
▁repulsive	-12.318
▁respected	-12.318
▁restrict	-12.318
▁retained	-12.318
▁roca	-12.318
▁rome	-12.318
▁roundup	-12.318
▁russel	-12.318
▁ruth	-12.318
▁saco	-12.318
▁safest	-12.318
▁salvage	-12.318
▁sanity	-12.318
▁saucy	-12.318
▁scraped	-12.318
▁selective	-12.318
▁semisweet	-12.318
▁sen	-12.318
▁sentence	-12.318
▁serviceable	-12.318
▁sheepdog	-12.318
▁shelties	-12.318
▁shippment	-12.318
▁shriveled	-12.318
▁sickened	-12.318
▁sixth	-12.318
▁slender	-12.318
▁snacker	-12.318
▁snuck	-12.318
▁softest	-12.318
▁souper	-12.318
▁southerner	-12.318
▁specialist	-12.318
▁specialized	-12.318
▁sprat	-12.318
▁squeezable	-12.318
▁stared	-12.318
▁staring	-12.318
▁stoked	-12.318
▁stong	-12.318
▁straightforward	-12.318
▁strenuous	-12.318
▁stripe	-12.318
▁substitue	-12.318
▁survival	-12.318
▁suspended	-12.318
▁sweaty	-12.318
▁sweetz	-12.318
▁swept	-12.318
▁tarragon	-12.318
▁theo	-12.318
▁thirteen	-12.318
▁thrived	-12.318
▁tickled	-12.318
▁tortellini	-12.318
▁trait	-12.318
▁translate	-12.318
▁trifle	-12.318
▁trolli	-12.318
▁understandably	-12.318
▁unexpectedly	-12.318
▁unreasonable	-12.318
▁unrecognizable	-12.318
▁untouched	-12.318
▁utz	-12.318
▁vent	-12.318
▁veranda	-12.318
▁victim	-12.318
▁vietnam	-12.318
▁vino	-12.318
▁viola	-12.318
▁vue	-12.318
▁waiter	-12.318
▁wale	-12.318
▁walmarts	-12.318
▁warns	-12.318
▁whew	-12.318
▁whisking	-12.318
▁whopper	-12.318
▁wiggle	-12.318
▁wowed	-12.318
▁zola	-12.318
▁zoo	-12.318
▁0sodium	-12.4133
▁10lb	-12.4133
▁20oz	-12.4133
▁abandon	-12.4133
▁accented	-12.4133
▁acrid	-12.4133
▁adhd	-12.4133
▁aesthetically	-12.4133
▁ahi	-12.4133
▁albanese	-12.4133
▁alien	-12.4133
▁alwadi	-12.4133
▁announced	-12.4133
▁apologized	-12.4133
▁apso	-12.4133
▁aqua	-12.4133
▁arthritic	-12.4133
▁assault	-12.4133
▁assures	-12.4133
▁aug	-12.4133
▁awesomeness	-12.4133
▁baklava	-12.4133
▁bali	-12.4133
▁barking	-12.4133
▁beam	-12.4133
▁beaver	-12.4133
▁bedside	-12.4133
▁beeswax	-12.4133
▁belongs	-12.4133
▁bergin	-12.4133
▁biking	-12.4133
▁binder	-12.4133
▁bing	-12.4133
▁binge	-12.4133
▁biryani	-12.4133
▁bisphenol	-12.4133
▁bisto	-12.4133
▁boylan	-12.4133
▁boysenberry	-12.4133
▁branding	-12.4133
▁bridal	-12.4133
▁brightly	-12.4133
▁brightness	-12.4133
▁brisk	-12.4133
▁britt	-12.4133
▁broiled	-12.4133
▁broiler	-12.4133
▁bumped	-12.4133
▁burlap	-12.4133
▁bury	-12.4133
▁butterand	-12.4133
▁butterfinger	-12.4133
▁cab	-12.4133
▁cairn	-12.4133
▁calculation	-12.4133
▁campus	-12.4133
▁carbers	-12.4133
▁cardiovascular	-12.4133
▁carne	-12.4133
▁carnivorous	-12.4133
▁caseinate	-12.4133
▁chais	-12.4133
▁chamber	-12.4133
▁chana	-12.4133
▁cheeze	-12.4133
▁chelate	-12.4133
▁chewey	-12.4133
▁chewies	-12.4133
▁clarity	-12.4133
▁clark	-12.4133
▁clash	-12.4133
▁cockapoo	-12.4133
▁cole	-12.4133
▁collagen	-12.4133
▁collected	-12.4133
▁collector	-12.4133
▁commend	-12.4133
▁commenting	-12.4133
▁compelling	-12.4133
▁compulsive	-12.4133
▁conducted	-12.4133
▁configuration	-12.4133
▁confined	-12.4133
▁congestion	-12.4133
▁connect	-12.4133
▁conservative	-12.4133
▁constituent	-12.4133
▁consumes	-12.4133
▁convient	-12.4133
▁copied	-12.4133
▁copious	-12.4133
▁cosco	-12.4133
▁counteract	-12.4133
▁counterfeit	-12.4133
▁courage	-12.4133
▁courteous	-12.4133
▁crawl	-12.4133
▁crisped	-12.4133
▁crunched	-12.4133
▁dalmatian	-12.4133
▁darkest	-12.4133
▁decline	-12.4133
▁decor	-12.4133
▁decorated	-12.4133
▁deemed	-12.4133
▁deformed	-12.4133
▁depot	-12.4133
▁derivative	-12.4133
▁detest	-12.4133
▁detracts	-12.4133
▁dick	-12.4133
▁dietitian	-12.4133
▁diluting	-12.4133
▁dire	-12.4133
▁discriminating	-12.4133
▁diseased	-12.4133
▁district	-12.4133
▁ditch	-12.4133
▁ditto	-12.4133
▁diverse	-12.4133
▁diving	-12.4133
▁dole	-12.4133
▁dominates	-12.4133
▁downed	-12.4133
▁downer	-12.4133
▁downhill	-12.4133
▁drenched	-12.4133
▁dressed	-12.4133
▁drew	-12.4133
▁drizzling	-12.4133
▁ecc	-12.4133
▁efficiently	-12.4133
▁effortless	-12.4133
▁elaborate	-12.4133
▁elm	-12.4133
▁enamel	-12.4133
▁encouraging	-12.4133
▁endorsed	-12.4133
▁enterococcus	-12.4133
▁epa	-12.4133
▁equate	-12.4133
▁esophagus	-12.4133
▁espressione	-12.4133
▁ethically	-12.4133
▁eucalyptus	-12.4133
▁evaluated	-12.4133
▁examination	-12.4133
▁exceed	-12.4133
▁excellently	-12.4133
▁expose	-12.4133
▁fading	-12.4133
▁fahrenheit	-12.4133
▁failing	-12.4133
▁farro	-12.4133
▁filtering	-12.4133
▁fist	-12.4133
▁flakey	-12.4133
▁flan	-12.4133
▁flavorable	-12.4133
▁fleck	-12.4133
▁floored	-12.4133
▁focusing	-12.4133
▁foodservice	-12.4133
▁forgetting	-12.4133
▁frost	-12.4133
▁functioning	-12.4133
▁fungus	-12.4133
▁gaggia	-12.4133
▁ganache	-12.4133
▁gano	-12.4133
▁gasoline	-12.4133
▁gear	-12.4133
▁geek	-12.4133
▁generated	-12.4133
▁germinate	-12.4133
▁gia	-12.4133
▁gimbal	-12.4133
▁ginkgo	-12.4133
▁glico	-12.4133
▁globe	-12.4133
▁goood	-12.4133
▁gooseberry	-12.4133
▁gourmetfoodstore	-12.4133
▁gratification	-12.4133
▁grooming	-12.4133
▁grossly	-12.4133
▁growl	-12.4133
▁guayusa	-12.4133
▁gumdrop	-12.4133
▁gypsy	-12.4133
▁hallelujah	-12.4133
▁hampshire	-12.4133
▁handsome	-12.4133
▁hatch	-12.4133
▁heirloom	-12.4133
▁herd	-12.4133
▁hines	-12.4133
▁hippo	-12.4133
▁hoard	-12.4133
▁hog	-12.4133
▁holly	-12.4133
▁hometown	-12.4133
▁honees	-12.4133
▁hung	-12.4133
▁hungarian	-12.4133
▁hypoglycemia	-12.4133
▁ikea	-12.4133
▁inability	-12.4133
▁injured	-12.4133
▁instrument	-12.4133
▁intensive	-12.4133
▁intent	-12.4133
▁internally	-12.4133
▁invested	-12.4133
▁invited	-12.4133
▁invoice	-12.4133
▁involve	-12.4133
▁ion	-12.4133
▁ionic	-12.4133
▁ionized	-12.4133
▁jackson	-12.4133
▁jel	-12.4133
▁jemima	-12.4133
▁josh	-12.4133
▁judgement	-12.4133
▁judgment	-12.4133
▁jury	-12.4133
▁kal	-12.4133
▁kalamata	-12.4133
▁kellogs	-12.4133
▁keurigs	-12.4133
▁kinnikinnick	-12.4133
▁knob	-12.4133
▁kombu	-12.4133
▁landed	-12.4133
▁liberal	-12.4133
▁license	-12.4133
▁lifted	-12.4133
▁lighten	-12.4133
▁lightening	-12.4133
▁lima	-12.4133
▁lineup	-12.4133
▁litte	-12.4133
▁loading	-12.4133
▁lodged	-12.4133
▁loosen	-12.4133
▁maitland	-12.4133
▁maldon	-12.4133
▁managing	-12.4133
▁marginal	-12.4133
▁massey	-12.4133
▁mastered	-12.4133
▁mccanns	-12.4133
▁meijer	-12.4133
▁melange	-12.4133
▁menopause	-12.4133
▁mentos	-12.4133
▁mi	-12.4133
▁mickey	-12.4133
▁milka	-12.4133
▁milkbones	-12.4133
▁minpin	-12.4133
▁misread	-12.4133
▁mmmmmmm	-12.4133
▁moctail	-12.4133
▁multipack	-12.4133
▁murky	-12.4133
▁muy	-12.4133
▁myriad	-12.4133
▁narrowed	-12.4133
▁nashville	-12.4133
▁natura	-12.4133
▁netherlands	-12.4133
▁nevada	-12.4133
▁nielsen	-12.4133
▁nonexistent	-12.4133
▁notorious	-12.4133
▁nub	-12.4133
▁nuking	-12.4133
▁nursery	-12.4133
▁nutricious	-12.4133
▁nuttiness	-12.4133
▁occassional	-12.4133
▁occassionally	-12.4133
▁ofs	-12.4133
▁oilier	-12.4133
▁olio	-12.4133
▁omnivore	-12.4133
▁operate	-12.4133
▁operated	-12.4133
▁optimistic	-12.4133
▁ordeal	-12.4133
▁ortiz	-12.4133
▁out	-12.4133
▁pakistan	-12.4133
▁pancreas	-12.4133
▁paragraph	-12.4133
▁parm	-12.4133
▁partake	-12.4133
▁participate	-12.4133
▁passionfruit	-12.4133
▁payed	-12.4133
▁pbj	-12.4133
▁pei	-12.4133
▁peices	-12.4133
▁pekinese	-12.4133
▁personalized	-12.4133
▁petstore	-12.4133
▁phony	-12.4133
▁pimple	-12.4133
▁piquant	-12.4133
▁pkgs	-12.4133
▁player	-12.4133
▁plethora	-12.4133
▁polished	-12.4133
▁polyunsaturated	-12.4133
▁pony	-12.4133
▁popsicle	-12.4133
▁porous	-12.4133
▁potion	-12.4133
▁praised	-12.4133
▁precursor	-12.4133
▁premise	-12.4133
▁presently	-12.4133
▁prized	-12.4133
▁prob	-12.4133
▁puffiness	-12.4133
▁puggle	-12.4133
▁punched	-12.4133
▁purport	-12.4133
▁purveyor	-12.4133
▁pvc	-12.4133
▁qualita	-12.4133
▁quirky	-12.4133
▁recomended	-12.4133
▁refrigerating	-12.4133
▁registered	-12.4133
▁regretted	-12.4133
▁regulated	-12.4133
▁reportedly	-12.4133
▁responsibly	-12.4133
▁retaining	-12.4133
▁retirement	-12.4133
▁revv	-12.4133
▁rican	-12.4133
▁ringing	-12.4133
▁risen	-12.4133
▁rodeo	-12.4133
▁roni	-12.4133
▁rotating	-12.4133
▁runa	-12.4133
▁saf	-12.4133
▁salting	-12.4133
▁sandwhich	-12.4133
▁satiated	-12.4133
▁sauteing	-12.4133
▁savvy	-12.4133
▁scarfing	-12.4133
▁schidigera	-12.4133
▁scorch	-12.4133
▁scoville	-12.4133
▁scramble	-12.4133
▁seitenbacher	-12.4133
▁selenite	-12.4133
▁senna	-12.4133
▁seperately	-12.4133
▁shasta	-12.4133
▁sheep	-12.4133
▁shield	-12.4133
▁sided	-12.4133
▁sidewalk	-12.4133
▁sifted	-12.4133
▁sifter	-12.4133
▁signing	-12.4133
▁silken	-12.4133
▁skimpy	-12.4133
▁slipping	-12.4133
▁smacking	-12.4133
▁smeared	-12.4133
▁smiled	-12.4133
▁snackmasters	-12.4133
▁soba	-12.4133
▁somthing	-12.4133
▁soooooooo	-12.4133
▁sourcing	-12.4133
▁spasm	-12.4133
▁speciality	-12.4133
▁spicing	-12.4133
▁spooned	-12.4133
▁stabilizer	-12.4133
▁staleness	-12.4133
▁stanley	-12.4133
▁stave	-12.4133
▁steadily	-12.4133
▁sterile	-12.4133
▁stimulating	-12.4133
▁strategy	-12.4133
▁suchard	-12.4133
▁sunkist	-12.4133
▁suppress	-12.4133
▁suprise	-12.4133
▁surround	-12.4133
▁sustainably	-12.4133
▁swap	-12.4133
▁sweep	-12.4133
▁sweetheart	-12.4133
▁sweetish	-12.4133
▁tac	-12.4133
▁tahitian	-12.4133
▁tar	-12.4133
▁tease	-12.4133
▁teaspoonful	-12.4133
▁tenderness	-12.4133
▁tex	-12.4133
▁thrill	-12.4133
▁thunder	-12.4133
▁tick	-12.4133
▁tienda	-12.4133
▁tiptree	-12.4133
▁token	-12.4133
▁tomatillo	-12.4133
▁tommy	-12.4133
▁toner	-12.4133
▁tourangelle	-12.4133
▁traded	-12.4133
▁trademark	-12.4133
▁transferring	-12.4133
▁travelled	-12.4133
▁triggered	-12.4133
▁trimester	-12.4133
▁tropic	-12.4133
▁trung	-12.4133
▁trunk	-12.4133
▁tulip	-12.4133
▁turducken	-12.4133
▁twizzler	-12.4133
▁ubiquitous	-12.4133
▁unattractive	-12.4133
▁uncertain	-12.4133
▁uniquely	-12.4133
▁unpleasantly	-12.4133
▁unsurpassed	-12.4133
▁uuml	-12.4133
▁vain	-12.4133
▁viewing	-12.4133
▁ware	-12.4133
▁wavy	-12.4133
▁weakest	-12.4133
▁welch	-12.4133
▁wit	-12.4133
▁wolfed	-12.4133
▁wrestle	-12.4133
▁wtf	-12.4133
▁yahoo	-12.4133
▁yahushua	-12.4133
▁youngster	-12.4133
▁ziti	-12.4133
▁zojirushi	-12.4133
▁10x	-12.5187
▁1yr	-12.5187
▁20lb	-12.5187
▁22g	-12.5187
▁2lbs	-12.5187
▁aback	-12.5187
▁abnormal	-12.5187
▁absolutly	-12.5187
▁accompanying	-12.5187
▁accomplished	-12.5187
▁acknowledge	-12.5187
▁adapt	-12.5187
▁adjustable	-12.5187
▁adulterated	-12.5187
▁advocate	-12.5187
▁ahhh	-12.5187
▁al	-12.5187
▁albertsons	-12.5187
▁alerted	-12.5187
▁allsorts	-12.5187
▁andrew	-12.5187
▁annies	-12.5187
▁anticipate	-12.5187
▁antique	-12.5187
▁appalled	-12.5187
▁artisana	-12.5187
▁arugula	-12.5187
▁asheville	-12.5187
▁asiago	-12.5187
▁aspen	-12.5187
▁attaching	-12.5187
▁attractively	-12.5187
▁aversion	-12.5187
▁await	-12.5187
▁babe	-12.5187
▁babyfood	-12.5187
▁baconnaise	-12.5187
▁baguette	-12.5187
▁barefoot	-12.5187
▁bariatric	-12.5187
▁beany	-12.5187
▁beignet	-12.5187
▁belive	-12.5187
▁bench	-12.5187
▁benzocaine	-12.5187
▁bernard	-12.5187
▁bicycle	-12.5187
▁bikram	-12.5187
▁billy	-12.5187
▁bjs	-12.5187
▁boosted	-12.5187
▁bothersome	-12.5187
▁bowling	-12.5187
▁braid	-12.5187
▁bratwurst	-12.5187
▁breaded	-12.5187
▁bristle	-12.5187
▁bruce	-12.5187
▁brutal	-12.5187
▁bulging	-12.5187
▁butterworth	-12.5187
▁cabernet	-12.5187
▁calmed	-12.5187
▁calmer	-12.5187
▁cappuchino	-12.5187
▁captured	-12.5187
▁cardamon	-12.5187
▁cardboardy	-12.5187
▁catherine	-12.5187
▁cattleman	-12.5187
▁ceased	-12.5187
▁celebrate	-12.5187
▁celebrated	-12.5187
▁celebrity	-12.5187
▁cellar	-12.5187
▁cement	-12.5187
▁centerpiece	-12.5187
▁cento	-12.5187
▁chardonnay	-12.5187
▁charger	-12.5187
▁cherished	-12.5187
▁cherrios	-12.5187
▁chiclets	-12.5187
▁chilling	-12.5187
▁chin	-12.5187
▁chocking	-12.5187
▁chopper	-12.5187
▁christ	-12.5187
▁chrysanthemum	-12.5187
▁cinnamony	-12.5187
▁clueless	-12.5187
▁coach	-12.5187
▁coladas	-12.5187
▁colitis	-12.5187
▁column	-12.5187
▁communicate	-12.5187
▁complementary	-12.5187
▁concrete	-12.5187
▁conference	-12.5187
▁congested	-12.5187
▁consisting	-12.5187
▁contaminate	-12.5187
▁continuously	-12.5187
▁convience	-12.5187
▁convienent	-12.5187
▁cord	-12.5187
▁corned	-12.5187
▁coyote	-12.5187
▁crammed	-12.5187
▁craze	-12.5187
▁crime	-12.5187
▁crinkle	-12.5187
▁crispbreads	-12.5187
▁crucial	-12.5187
▁cubic	-12.5187
▁da	-12.5187
▁dakota	-12.5187
▁daytime	-12.5187
▁dedication	-12.5187
▁definitive	-12.5187
▁delonghi	-12.5187
▁denver	-12.5187
▁deny	-12.5187
▁destruction	-12.5187
▁detergent	-12.5187
▁devoid	-12.5187
▁devoted	-12.5187
▁dextrin	-12.5187
▁differentiate	-12.5187
▁digital	-12.5187
▁digress	-12.5187
▁dilutes	-12.5187
▁director	-12.5187
▁discussed	-12.5187
▁disolve	-12.5187
▁disposed	-12.5187
▁disregard	-12.5187
▁dizzy	-12.5187
▁doctoring	-12.5187
▁documented	-12.5187
▁dogfoodadvisor	-12.5187
▁doh	-12.5187
▁doll	-12.5187
▁downtown	-12.5187
▁doxy	-12.5187
▁drooling	-12.5187
▁drum	-12.5187
▁dum	-12.5187
▁educate	-12.5187
▁education	-12.5187
▁educational	-12.5187
▁efficacy	-12.5187
▁elated	-12.5187
▁elementary	-12.5187
▁elfman	-12.5187
▁elusive	-12.5187
▁endangered	-12.5187
▁endure	-12.5187
▁energizer	-12.5187
▁enought	-12.5187
▁entertains	-12.5187
▁err	-12.5187
▁estrogen	-12.5187
▁excercise	-12.5187
▁expanded	-12.5187
▁expecially	-12.5187
▁explosive	-12.5187
▁export	-12.5187
▁extending	-12.5187
▁extends	-12.5187
▁extraneous	-12.5187
▁eyebrow	-12.5187
▁fab	-12.5187
▁faecium	-12.5187
▁falsely	-12.5187
▁fate	-12.5187
▁feasible	-12.5187
▁fecal	-12.5187
▁fiancee	-12.5187
▁fife	-12.5187
▁financial	-12.5187
▁fingernail	-12.5187
▁flamin	-12.5187
▁flavourful	-12.5187
▁flawlessly	-12.5187
▁flexibility	-12.5187
▁flint	-12.5187
▁florist	-12.5187
▁fondarific	-12.5187
▁foo	-12.5187
▁francis	-12.5187
▁fred	-12.5187
▁freight	-12.5187
▁fulfillment	-12.5187
▁fume	-12.5187
▁fussiness	-12.5187
▁galore	-12.5187
▁gardenia	-12.5187
▁gasket	-12.5187
▁gauge	-12.5187
▁gee	-12.5187
▁germinated	-12.5187
▁germination	-12.5187
▁gluey	-12.5187
▁gm	-12.5187
▁gnc	-12.5187
▁goodlife	-12.5187
▁grant	-12.5187
▁grapeseed	-12.5187
▁gravel	-12.5187
▁greased	-12.5187
▁grief	-12.5187
▁groom	-12.5187
▁guidance	-12.5187
▁guinness	-12.5187
▁gyokuro	-12.5187
▁haley	-12.5187
▁hardens	-12.5187
▁hartz	-12.5187
▁hauling	-12.5187
▁hawk	-12.5187
▁heady	-12.5187
▁heartedly	-12.5187
▁highlighted	-12.5187
▁hiker	-12.5187
▁hippie	-12.5187
▁hispanic	-12.5187
▁hmmmmm	-12.5187
▁holic	-12.5187
▁hon	-12.5187
▁hood	-12.5187
▁horn	-12.5187
▁horrifying	-12.5187
▁hosting	-12.5187
▁illusion	-12.5187
▁implied	-12.5187
▁imply	-12.5187
▁incomparable	-12.5187
▁independently	-12.5187
▁indicator	-12.5187
▁indonesia	-12.5187
▁induction	-12.5187
▁inevitable	-12.5187
▁infact	-12.5187
▁inflamed	-12.5187
▁inflation	-12.5187
▁informative	-12.5187
▁innocent	-12.5187
▁inquiry	-12.5187
▁inspecting	-12.5187
▁installation	-12.5187
▁insufficient	-12.5187
▁investigated	-12.5187
▁invisible	-12.5187
▁iodized	-12.5187
▁irresistable	-12.5187
▁italiano	-12.5187
▁joking	-12.5187
▁jose	-12.5187
▁judy	-12.5187
▁juicing	-12.5187
▁jules	-12.5187
▁kaps	-12.5187
▁karo	-12.5187
▁kentucky	-12.5187
▁kiddo	-12.5187
▁kindle	-12.5187
▁kopiko	-12.5187
▁kringle	-12.5187
▁lamp	-12.5187
▁layla	-12.5187
▁leached	-12.5187
▁leaching	-12.5187
▁lied	-12.5187
▁lifeboat	-12.5187
▁lingered	-12.5187
▁linketts	-12.5187
▁lipid	-12.5187
▁liptons	-12.5187
▁literal	-12.5187
▁loco	-12.5187
▁logged	-12.5187
▁logical	-12.5187
▁longtime	-12.5187
▁loooove	-12.5187
▁luwak	-12.5187
▁lysine	-12.5187
▁mailman	-12.5187
▁makhani	-12.5187
▁mandatory	-12.5187
▁mannitol	-12.5187
▁marie	-12.5187
▁matchas	-12.5187
▁medaglia	-12.5187
▁medallion	-12.5187
▁melamine	-12.5187
▁meld	-12.5187
▁mellows	-12.5187
▁milligram	-12.5187
▁milling	-12.5187
▁minestrone	-12.5187
▁miniscule	-12.5187
▁mislabeled	-12.5187
▁misnomer	-12.5187
▁misshapen	-12.5187
▁moistened	-12.5187
▁montmorillonite	-12.5187
▁montreal	-12.5187
▁moxie	-12.5187
▁mtn	-12.5187
▁mucous	-12.5187
▁multitude	-12.5187
▁musketeer	-12.5187
▁nalgene	-12.5187
▁napa	-12.5187
▁nascar	-12.5187
▁newsletter	-12.5187
▁nitrogen	-12.5187
▁nourished	-12.5187
▁objective	-12.5187
▁obligate	-12.5187
▁obscure	-12.5187
▁occupies	-12.5187
▁odorless	-12.5187
▁offended	-12.5187
▁oiliness	-12.5187
▁ointment	-12.5187
▁oligofructose	-12.5187
▁ordinarily	-12.5187
▁orginal	-12.5187
▁outfit	-12.5187
▁overbearingly	-12.5187
▁oversized	-12.5187
▁oxo	-12.5187
▁ozs	-12.5187
▁pakistani	-12.5187
▁paks	-12.5187
▁palak	-12.5187
▁pamelas	-12.5187
▁pamphlet	-12.5187
▁panang	-12.5187
▁panko	-12.5187
▁parcel	-12.5187
▁parve	-12.5187
▁pataks	-12.5187
▁patrick	-12.5187
▁performs	-12.5187
▁perked	-12.5187
▁perky	-12.5187
▁perrier	-12.5187
▁pharmacy	-12.5187
▁phenylalanine	-12.5187
▁pickup	-12.5187
▁pimento	-12.5187
▁pittsburgh	-12.5187
▁plot	-12.5187
▁plucked	-12.5187
▁plunger	-12.5187
▁pocketbook	-12.5187
▁poly	-12.5187
▁poof	-12.5187
▁possession	-12.5187
▁powerhouse	-12.5187
▁prank	-12.5187
▁preventative	-12.5187
▁proactive	-12.5187
▁proudly	-12.5187
▁provolone	-12.5187
▁pumpernickel	-12.5187
▁purported	-12.5187
▁purring	-12.5187
▁putrid	-12.5187
▁pyrex	-12.5187
▁queso	-12.5187
▁ra	-12.5187
▁rachel	-12.5187
▁radiant	-12.5187
▁ralphs	-12.5187
▁rattle	-12.5187
▁ravenous	-12.5187
▁recording	-12.5187
▁rediscovered	-12.5187
▁redskin	-12.5187
▁reflection	-12.5187
▁refresher	-12.5187
▁regarded	-12.5187
▁rehydrating	-12.5187
▁relate	-12.5187
▁render	-12.5187
▁replicating	-12.5187
▁represents	-12.5187
▁reproduce	-12.5187
▁reseller	-12.5187
▁resembled	-12.5187
▁resting	-12.5187
▁resturant	-12.5187
▁revive	-12.5187
▁rick	-12.5187
▁ridgeback	-12.5187
▁rigid	-12.5187
▁risky	-12.5187
▁robusto	-12.5187
▁roman	-12.5187
▁rotisserie	-12.5187
▁russa	-12.5187
▁rusty	-12.5187
▁saigon	-12.5187
▁sambar	-12.5187
▁sandies	-12.5187
▁sangria	-12.5187
▁satan	-12.5187
▁sayin	-12.5187
▁scheme	-12.5187
▁scooter	-12.5187
▁scorched	-12.5187
▁scratchy	-12.5187
▁sel	-12.5187
▁shadow	-12.5187
▁shar	-12.5187
▁shed	-12.5187
▁shellfish	-12.5187
▁shiney	-12.5187
▁shorthair	-12.5187
▁shoved	-12.5187
▁signal	-12.5187
▁simplify	-12.5187
▁skepticism	-12.5187
▁skyrocketed	-12.5187
▁slathered	-12.5187
▁slave	-12.5187
▁slop	-12.5187
▁smoothed	-12.5187
▁smoothing	-12.5187
▁smores	-12.5187
▁snackwells	-12.5187
▁solving	-12.5187
▁somersault	-12.5187
▁southeast	-12.5187
▁sparkly	-12.5187
▁spat	-12.5187
▁spoiling	-12.5187
▁spoken	-12.5187
▁sportea	-12.5187
▁squeaky	-12.5187
▁squirting	-12.5187
▁stapled	-12.5187
▁starved	-12.5187
▁stepped	-12.5187
▁stepping	-12.5187
▁stiffness	-12.5187
▁stimulates	-12.5187
▁stimulation	-12.5187
▁streusel	-12.5187
▁suet	-12.5187
▁sunmaid	-12.5187
▁superfruit	-12.5187
▁surfing	-12.5187
▁susan	-12.5187
▁sustenance	-12.5187
▁sway	-12.5187
▁swirled	-12.5187
▁tack	-12.5187
▁tackle	-12.5187
▁tamper	-12.5187
▁tandoor	-12.5187
▁tanginess	-12.5187
▁tangled	-12.5187
▁tantalizing	-12.5187
▁targeted	-12.5187
▁tase	-12.5187
▁tastewise	-12.5187
▁tastiness	-12.5187
▁tcp	-12.5187
▁teenies	-12.5187
▁temper	-12.5187
▁tempered	-12.5187
▁tenth	-12.5187
▁tepid	-12.5187
▁thankyou	-12.5187
▁thermal	-12.5187
▁thinning	-12.5187
▁threat	-12.5187
▁tinged	-12.5187
▁tipped	-12.5187
▁tokyo	-12.5187
▁toxicity	-12.5187
▁tracked	-12.5187
▁tragedy	-12.5187
▁transplant	-12.5187
▁transplanted	-12.5187
▁traveler	-12.5187
▁tristan	-12.5187
▁turbinado	-12.5187
▁understated	-12.5187
▁universally	-12.5187
▁unmarked	-12.5187
▁unrefrigerated	-12.5187
▁unsatisfied	-12.5187
▁upstairs	-12.5187
▁utah	-12.5187
▁vacationing	-12.5187
▁valentina	-12.5187
▁vanished	-12.5187
▁vegemite	-12.5187
▁venti	-12.5187
▁verry	-12.5187
▁verse	-12.5187
▁viscous	-12.5187
▁von	-12.5187
▁waaay	-12.5187
▁wand	-12.5187
▁waxed	-12.5187
▁weaken	-12.5187
▁weber	-12.5187
▁weighted	-12.5187
▁weightless	-12.5187
▁weimaraner	-12.5187
▁westies	-12.5187
▁whisker	-12.5187
▁widespread	-12.5187
▁withstand	-12.5187
▁woe	-12.5187
▁woof	-12.5187
▁workplace	-12.5187
▁worthington	-12.5187
▁wretched	-12.5187
▁wyler	-12.5187
▁ymmv	-12.5187
▁yummm	-12.5187
▁102	-12.6365
▁10lbs	-12.6365
▁1tsp	-12.6365
▁20th	-12.6365
▁abomination	-12.6365
▁acceptance	-12.6365
▁acknowledged	-12.6365
▁acquaintance	-12.6365
▁actuality	-12.6365
▁admitting	-12.6365
▁adopt	-12.6365
▁adoption	-12.6365
▁adored	-12.6365
▁affiliated	-12.6365
▁agency	-12.6365
▁ahem	-12.6365
▁ahold	-12.6365
▁aholic	-12.6365
▁akc	-12.6365
▁akita	-12.6365
▁alkalized	-12.6365
▁almondina	-12.6365
▁almondy	-12.6365
▁altering	-12.6365
▁amos	-12.6365
▁ana	-12.6365
▁andie	-12.6365
▁angelina	-12.6365
▁antiseptic	-12.6365
▁anyday	-12.6365
▁aphid	-12.6365
▁appearing	-12.6365
▁archer	-12.6365
▁arf	-12.6365
▁arise	-12.6365
▁arises	-12.6365
▁artemis	-12.6365
▁artist	-12.6365
▁aspirin	-12.6365
▁assembled	-12.6365
▁assembly	-12.6365
▁assertive	-12.6365
▁assessment	-12.6365
▁astounded	-12.6365
▁atom	-12.6365
▁atrocious	-12.6365
▁attraction	-12.6365
▁augment	-12.6365
▁authenticity	-12.6365
▁autistic	-12.6365
▁autolyzed	-12.6365
▁averaging	-12.6365
▁azteca	-12.6365
▁baffled	-12.6365
▁bald	-12.6365
▁balsamics	-12.6365
▁bandwagon	-12.6365
▁beetle	-12.6365
▁behavioral	-12.6365
▁benadryl	-12.6365
▁benefited	-12.6365
▁benifits	-12.6365
▁bhut	-12.6365
▁bind	-12.6365
▁bisquik	-12.6365
▁bissinger	-12.6365
▁blackened	-12.6365
▁blink	-12.6365
▁blocking	-12.6365
▁blond	-12.6365
▁bluebird	-12.6365
▁blush	-12.6365
▁bodywash	-12.6365
▁bogus	-12.6365
▁bosch	-12.6365
▁boulder	-12.6365
▁bounty	-12.6365
▁braided	-12.6365
▁brake	-12.6365
▁brow	-12.6365
▁bruschetta	-12.6365
▁burping	-12.6365
▁butler	-12.6365
▁cabin	-12.6365
▁caffein	-12.6365
▁calamari	-12.6365
▁calif	-12.6365
▁camano	-12.6365
▁camel	-12.6365
▁camera	-12.6365
▁canceling	-12.6365
▁cannellini	-12.6365
▁cape	-12.6365
▁caramelized	-12.6365
▁carcinogenic	-12.6365
▁carnitine	-12.6365
▁carotene	-12.6365
▁carpeted	-12.6365
▁carte	-12.6365
▁casei	-12.6365
▁cease	-12.6365
▁cecco	-12.6365
▁ceiling	-12.6365
▁cerelac	-12.6365
▁certo	-12.6365
▁chang	-12.6365
▁charlee	-12.6365
▁charleston	-12.6365
▁cheesey	-12.6365
▁cheeto	-12.6365
▁chickory	-12.6365
▁chime	-12.6365
▁chipolte	-12.6365
▁chlorinated	-12.6365
▁chlorophyll	-12.6365
▁choosy	-12.6365
▁chrome	-12.6365
▁chronically	-12.6365
▁cinnabon	-12.6365
▁circulation	-12.6365
▁cleanliness	-12.6365
▁cleansed	-12.6365
▁clicker	-12.6365
▁clumsy	-12.6365
▁coal	-12.6365
▁cob	-12.6365
▁cocnut	-12.6365
▁colman	-12.6365
▁coma	-12.6365
▁comfortably	-12.6365
▁communion	-12.6365
▁completly	-12.6365
▁complication	-12.6365
▁concious	-12.6365
▁concur	-12.6365
▁congrats	-12.6365
▁connecticut	-12.6365
▁contented	-12.6365
▁continental	-12.6365
▁conversion	-12.6365
▁cordial	-12.6365
▁cornflakes	-12.6365
▁correction	-12.6365
▁cous	-12.6365
▁cranky	-12.6365
▁creatine	-12.6365
▁creator	-12.6365
▁crf	-12.6365
▁crimson	-12.6365
▁cruel	-12.6365
▁crusted	-12.6365
▁cubicle	-12.6365
▁cyclist	-12.6365
▁cyst	-12.6365
▁dangerously	-12.6365
▁darken	-12.6365
▁deboned	-12.6365
▁decafe	-12.6365
▁decanter	-12.6365
▁deceased	-12.6365
▁deceptively	-12.6365
▁declared	-12.6365
▁deet	-12.6365
▁defeated	-12.6365
▁defrosted	-12.6365
▁degrade	-12.6365
▁dehydrate	-12.6365
▁densely	-12.6365
▁deoderant	-12.6365
▁designated	-12.6365
▁designer	-12.6365
▁destrooper	-12.6365
▁detroit	-12.6365
▁deviled	-12.6365
▁devotee	-12.6365
▁diagnose	-12.6365
▁dictate	-12.6365
▁dipper	-12.6365
▁dis	-12.6365
▁disability	-12.6365
▁disconcerting	-12.6365
▁discrepancy	-12.6365
▁discussing	-12.6365
▁disguised	-12.6365
▁disgust	-12.6365
▁dissatisfaction	-12.6365
▁distinguishes	-12.6365
▁distracting	-12.6365
▁divider	-12.6365
▁division	-12.6365
▁diy	-12.6365
▁donates	-12.6365
▁donation	-12.6365
▁doo	-12.6365
▁dosen	-12.6365
▁downgraded	-12.6365
▁drama	-12.6365
▁dread	-12.6365
▁drift	-12.6365
▁driveway	-12.6365
▁drowning	-12.6365
▁eatery	-12.6365
▁edgar	-12.6365
▁effortlessly	-12.6365
▁ehr	-12.6365
▁elder	-12.6365
▁emotional	-12.6365
▁engaging	-12.6365
▁engineering	-12.6365
▁ensured	-12.6365
▁ensuring	-12.6365
▁entrance	-12.6365
▁equation	-12.6365
▁eric	-12.6365
▁espelette	-12.6365
▁evolved	-12.6365
▁excitedly	-12.6365
▁expansion	-12.6365
▁exposing	-12.6365
▁expression	-12.6365
▁extension	-12.6365
▁fageolets	-12.6365
▁faithful	-12.6365
▁fame	-12.6365
▁fettucine	-12.6365
▁fibromyalgia	-12.6365
▁fireplace	-12.6365
▁fisherman	-12.6365
▁fizzies	-12.6365
▁flaming	-12.6365
▁flatten	-12.6365
▁flavorfull	-12.6365
▁flawed	-12.6365
▁fleur	-12.6365
▁flipped	-12.6365
▁flossies	-12.6365
▁fluctuates	-12.6365
▁foie	-12.6365
▁folate	-12.6365
▁fondue	-12.6365
▁forgive	-12.6365
▁forgo	-12.6365
▁fostering	-12.6365
▁franchise	-12.6365
▁frappucino	-12.6365
▁frisky	-12.6365
▁fungal	-12.6365
▁ganoderma	-12.6365
▁geared	-12.6365
▁generate	-12.6365
▁gentler	-12.6365
▁gigi	-12.6365
▁gingerly	-12.6365
▁gluton	-12.6365
▁gobbling	-12.6365
▁goddess	-12.6365
▁gracie	-12.6365
▁grader	-12.6365
▁grained	-12.6365
▁graininess	-12.6365
▁grasp	-12.6365
▁grub	-12.6365
▁guiltless	-12.6365
▁gunk	-12.6365
▁gustaf	-12.6365
▁habitat	-12.6365
▁hack	-12.6365
▁hain	-12.6365
▁hamster	-12.6365
▁handbag	-12.6365
▁hanout	-12.6365
▁harissa	-12.6365
▁harris	-12.6365
▁hater	-12.6365
▁havanese	-12.6365
▁heals	-12.6365
▁healthfully	-12.6365
▁healty	-12.6365
▁hehe	-12.6365
▁hinge	-12.6365
▁hitch	-12.6365
▁homeade	-12.6365
▁hors	-12.6365
▁hortons	-12.6365
▁housemate	-12.6365
▁hulless	-12.6365
▁humor	-12.6365
▁hybrid	-12.6365
▁hyperthyroid	-12.6365
▁idaho	-12.6365
▁ignorant	-12.6365
▁ignoring	-12.6365
▁imbalance	-12.6365
▁immersed	-12.6365
▁impacted	-12.6365
▁indefinitely	-12.6365
▁indigestible	-12.6365
▁infamous	-12.6365
▁infrequently	-12.6365
▁injected	-12.6365
▁inspect	-12.6365
▁inspiring	-12.6365
▁install	-12.6365
▁intelligence	-12.6365
▁intending	-12.6365
▁interfere	-12.6365
▁interview	-12.6365
▁iodide	-12.6365
▁ironic	-12.6365
▁israeli	-12.6365
▁jamba	-12.6365
▁jewish	-12.6365
▁johnnie	-12.6365
▁jordan	-12.6365
▁jovial	-12.6365
▁juan	-12.6365
▁judged	-12.6365
▁jura	-12.6365
▁justifies	-12.6365
▁kernal	-12.6365
▁keruig	-12.6365
▁kim	-12.6365
▁kindly	-12.6365
▁kingdom	-12.6365
▁kist	-12.6365
▁kmart	-12.6365
▁labradoodle	-12.6365
▁lactaid	-12.6365
▁lactic	-12.6365
▁larva	-12.6365
▁launch	-12.6365
▁lawsuit	-12.6365
▁leeper	-12.6365
▁legendary	-12.6365
▁lettering	-12.6365
▁library	-12.6365
▁lingonberry	-12.6365
▁lipoma	-12.6365
▁liquified	-12.6365
▁listerine	-12.6365
▁lizano	-12.6365
▁lizzie	-12.6365
▁loc	-12.6365
▁lolly	-12.6365
▁lollypops	-12.6365
▁loudly	-12.6365
▁lowrey	-12.6365
▁luau	-12.6365
▁lube	-12.6365
▁mainstay	-12.6365
▁mangled	-12.6365
▁map	-12.6365
▁martinelli	-12.6365
▁matrix	-12.6365
▁mattered	-12.6365
▁mead	-12.6365
▁medal	-12.6365
▁medjool	-12.6365
▁mehmet	-12.6365
▁melba	-12.6365
▁metro	-12.6365
▁mfg	-12.6365
▁microscopic	-12.6365
▁mikey	-12.6365
▁mildest	-12.6365
▁mince	-12.6365
▁mingle	-12.6365
▁minsi	-12.6365
▁minuscule	-12.6365
▁mir	-12.6365
▁mirror	-12.6365
▁moctails	-12.6365
▁moisturizers	-12.6365
▁molly	-12.6365
▁monocalcium	-12.6365
▁monte	-12.6365
▁monterey	-12.6365
▁moose	-12.6365
▁mor	-12.6365
▁motivator	-12.6365
▁msm	-12.6365
▁multiply	-12.6365
▁mung	-12.6365
▁myth	-12.6365
▁naga	-12.6365
▁nationwide	-12.6365
▁nauseated	-12.6365
▁nell	-12.6365
▁nibbled	-12.6365
▁noone	-12.6365
▁norway	-12.6365
▁nostril	-12.6365
▁notably	-12.6365
▁notifying	-12.6365
▁notion	-12.6365
▁nuisance	-12.6365
▁nunaturals	-12.6365
▁ocha	-12.6365
▁oniony	-12.6365
▁organizer	-12.6365
▁orgran	-12.6365
▁overdoing	-12.6365
▁overdose	-12.6365
▁overeating	-12.6365
▁overheated	-12.6365
▁overtly	-12.6365
▁painless	-12.6365
▁pampered	-12.6365
▁panama	-12.6365
▁pao	-12.6365
▁passage	-12.6365
▁patented	-12.6365
▁pearled	-12.6365
▁pearly	-12.6365
▁penetrate	-12.6365
▁penguin	-12.6365
▁peroxide	-12.6365
▁persimmon	-12.6365
▁persistent	-12.6365
▁phoenix	-12.6365
▁pilling	-12.6365
▁pinata	-12.6365
▁pinwheel	-12.6365
▁polaner	-12.6365
▁ponder	-12.6365
▁posole	-12.6365
▁prebiotic	-12.6365
▁prebiotics	-12.6365
▁precaution	-12.6365
▁prednisone	-12.6365
▁predominantly	-12.6365
▁proclaims	-12.6365
▁prolong	-12.6365
▁prolonged	-12.6365
▁prominently	-12.6365
▁promo	-12.6365
▁promoted	-12.6365
▁prospect	-12.6365
▁psoriasis	-12.6365
▁psyched	-12.6365
▁psyllium	-12.6365
▁pumkin	-12.6365
▁punishment	-12.6365
▁purposely	-12.6365
▁quanity	-12.6365
▁quietly	-12.6365
▁quirk	-12.6365
▁quisp	-12.6365
▁rained	-12.6365
▁raining	-12.6365
▁ranked	-12.6365
▁rapunzel	-12.6365
▁realemon	-12.6365
▁reassuring	-12.6365
▁receipes	-12.6365
▁recieving	-12.6365
▁recived	-12.6365
▁redness	-12.6365
▁reed	-12.6365
▁regained	-12.6365
▁religiously	-12.6365
▁reminding	-12.6365
▁renowned	-12.6365
▁repertoire	-12.6365
▁replenishing	-12.6365
▁reporting	-12.6365
▁resent	-12.6365
▁responds	-12.6365
▁reunion	-12.6365
▁reveals	-12.6365
▁revenge	-12.6365
▁ribena	-12.6365
▁riceselect	-12.6365
▁rightfully	-12.6365
▁rogan	-12.6365
▁rosa	-12.6365
▁sac	-12.6365
▁sacramento	-12.6365
▁sadie	-12.6365
▁saltiest	-12.6365
▁satifying	-12.6365
▁sauerkraut	-12.6365
▁sautee	-12.6365
▁sauvignon	-12.6365
▁scandal	-12.6365
▁scarce	-12.6365
▁schipperke	-12.6365
▁scottie	-12.6365
▁semester	-12.6365
▁serendipity	-12.6365
▁serrano	-12.6365
▁setter	-12.6365
▁sharper	-12.6365
▁shephard	-12.6365
▁shiba	-12.6365
▁shimmer	-12.6365
▁shore	-12.6365
▁shovel	-12.6365
▁shrunk	-12.6365
▁simplified	-12.6365
▁siphon	-12.6365
▁skittle	-12.6365
▁slew	-12.6365
▁smeagol	-12.6365
▁snag	-12.6365
▁snake	-12.6365
▁snatched	-12.6365
▁snub	-12.6365
▁softener	-12.6365
▁softening	-12.6365
▁span	-12.6365
▁sparse	-12.6365
▁spine	-12.6365
▁sporting	-12.6365
▁sprayer	-12.6365
▁spruce	-12.6365
▁squat	-12.6365
▁starburst	-12.6365
▁steakhouse	-12.6365
▁stickier	-12.6365
▁stiffer	-12.6365
▁stingy	-12.6365
▁stockpile	-12.6365
▁stunk	-12.6365
▁sturdier	-12.6365
▁subtract	-12.6365
▁summarize	-12.6365
▁sunk	-12.6365
▁sunset	-12.6365
▁supersaver	-12.6365
▁supervised	-12.6365
▁supple	-12.6365
▁suprisingly	-12.6365
▁surge	-12.6365
▁surgeon	-12.6365
▁suscribe	-12.6365
▁sweetie	-12.6365
▁sweetly	-12.6365
▁swiftly	-12.6365
▁systemic	-12.6365
▁taibi	-12.6365
▁tampered	-12.6365
▁tastless	-12.6365
▁tater	-12.6365
▁tellicherry	-12.6365
▁tenderize	-12.6365
▁terro	-12.6365
▁testimonial	-12.6365
▁th	-12.6365
▁tha	-12.6365
▁thee	-12.6365
▁thickest	-12.6365
▁threatening	-12.6365
▁threshold	-12.6365
▁tier	-12.6365
▁tilda	-12.6365
▁timed	-12.6365
▁ting	-12.6365
▁tisano	-12.6365
▁tlc	-12.6365
▁toll	-12.6365
▁tooo	-12.6365
▁tortuga	-12.6365
▁totaling	-12.6365
▁treacle	-12.6365
▁trepidation	-12.6365
▁tribute	-12.6365
▁trinity	-12.6365
▁tumbler	-12.6365
▁tumeric	-12.6365
▁tumor	-12.6365
▁tune	-12.6365
▁turd	-12.6365
▁turnover	-12.6365
▁tweaked	-12.6365
▁umami	-12.6365
▁umph	-12.6365
▁unanimous	-12.6365
▁uncomfortably	-12.6365
▁unfrosted	-12.6365
▁unmistakable	-12.6365
▁uno	-12.6365
▁unsatisfactory	-12.6365
▁unsealed	-12.6365
▁unsulfured	-12.6365
▁upwards	-12.6365
▁urban	-12.6365
▁variance	-12.6365
▁venezuela	-12.6365
▁venue	-12.6365
▁versa	-12.6365
▁visibly	-12.6365
▁vizsla	-12.6365
▁voluntarily	-12.6365
▁vons	-12.6365
▁walgreen	-12.6365
▁warranty	-12.6365
▁weapon	-12.6365
▁webpage	-12.6365
▁weevil	-12.6365
▁weirdest	-12.6365
▁werther	-12.6365
▁whitish	-12.6365
▁wholly	-12.6365
▁width	-12.6365
▁wil	-12.6365
▁wiping	-12.6365
▁wisk	-12.6365
▁wissotzky	-12.6365
▁wks	-12.6365
▁wool	-12.6365
▁wrestling	-12.6365
▁wrist	-12.6365
▁yacon	-12.6365
▁yearning	-12.6365
▁yell	-12.6365
▁yummier	-12.6365
▁yummiest	-12.6365
▁2002	-12.77
▁200mg	-12.77
▁absinthe	-12.77
▁accommodating	-12.77
▁acetic	-12.77
▁acme	-12.77
▁actor	-12.77
▁adjective	-12.77
▁adopting	-12.77
▁adrenal	-12.77
▁advisable	-12.77
▁aerobie	-12.77
▁afficionado	-12.77
▁afterwords	-12.77
▁aggravate	-12.77
▁ahhhh	-12.77
▁aim	-12.77
▁airedale	-12.77
▁alarmed	-12.77
▁alarming	-12.77
▁allegedly	-12.77
▁alphabet	-12.77
▁alpo	-12.77
▁altoid	-12.77
▁amazes	-12.77
▁ambrosoli	-12.77
▁americanized	-12.77
▁americanos	-12.77
▁analog	-12.77
▁ancho	-12.77
▁andi	-12.77
▁andy	-12.77
▁annually	-12.77
▁appreciative	-12.77
▁arginine	-12.77
▁ashby	-12.77
▁aspergillus	-12.77
▁assemble	-12.77
▁assignment	-12.77
▁assumes	-12.77
▁astronaut	-12.77
▁atmosphere	-12.77
▁attacked	-12.77
▁attacking	-12.77
▁automated	-12.77
▁avacado	-12.77
▁avent	-12.77
▁awe	-12.77
▁aztec	-12.77
▁bachelor	-12.77
▁bacillus	-12.77
▁backing	-12.77
▁backwards	-12.77
▁bacos	-12.77
▁bagging	-12.77
▁banner	-12.77
▁bargin	-12.77
▁bartender	-12.77
▁baseline	-12.77
▁basenji	-12.77
▁basketball	-12.77
▁bassett	-12.77
▁baste	-12.77
▁basting	-12.77
▁batman	-12.77
▁becasue	-12.77
▁beech	-12.77
▁behaves	-12.77
▁being	-12.77
▁berkshire	-12.77
▁bertie	-12.77
▁bilberry	-12.77
▁binding	-12.77
▁biodynamic	-12.77
▁bitty	-12.77
▁blindfolded	-12.77
▁blondies	-12.77
▁bobo	-12.77
▁boldest	-12.77
▁bolognese	-12.77
▁bomba	-12.77
▁bonita	-12.77
▁botulism	-12.77
▁bridgford	-12.77
▁briny	-12.77
▁bronchitis	-12.77
▁bruise	-12.77
▁bubbling	-12.77
▁bumblebee	-12.77
▁c2o	-12.77
▁caking	-12.77
▁callebaut	-12.77
▁cam	-12.77
▁caramelize	-12.77
▁carber	-12.77
▁carbing	-12.77
▁carboy	-12.77
▁cardia	-12.77
▁cardiologist	-12.77
▁casbah	-12.77
▁cassis	-12.77
▁catahoula	-12.77
▁catfish	-12.77
▁catsure	-12.77
▁cautiously	-12.77
▁cello	-12.77
▁centimeter	-12.77
▁chamomille	-12.77
▁chapped	-12.77
▁charming	-12.77
▁chat	-12.77
▁cheapskate	-12.77
▁cheerful	-12.77
▁chemo	-12.77
▁chewability	-12.77
▁chiropractor	-12.77
▁chocked	-12.77
▁chocolatier	-12.77
▁chocoperfection	-12.77
▁chopstick	-12.77
▁cinch	-12.77
▁cited	-12.77
▁classical	-12.77
▁clint	-12.77
▁coarsely	-12.77
▁coffeee	-12.77
▁colicky	-12.77
▁combing	-12.77
▁commodity	-12.77
▁commute	-12.77
▁compaired	-12.77
▁compensated	-12.77
▁completing	-12.77
▁compliant	-12.77
▁composting	-12.77
▁compote	-12.77
▁concert	-12.77
▁confetti	-12.77
▁confirming	-12.77
▁contata	-12.77
▁convienient	-12.77
▁cooperative	-12.77
▁corny	-12.77
▁coz	-12.77
▁crabmeat	-12.77
▁creamiest	-12.77
▁creeping	-12.77
▁criminal	-12.77
▁crisis	-12.77
▁crowded	-12.77
▁crumpled	-12.77
▁crunchie	-12.77
▁cruz	-12.77
▁cue	-12.77
▁cult	-12.77
▁cultivated	-12.77
▁cumbersome	-12.77
▁curled	-12.77
▁dainty	-12.77
▁darby	-12.77
▁daring	-12.77
▁dasani	-12.77
▁daylight	-12.77
▁deadman	-12.77
▁decafinated	-12.77
▁decompose	-12.77
▁decreasing	-12.77
▁deducting	-12.77
▁deficient	-12.77
▁deflated	-12.77
▁dehydrating	-12.77
▁delete	-12.77
▁delia	-12.77
▁delta	-12.77
▁demonstrates	-12.77
▁den	-12.77
▁denta	-12.77
▁denting	-12.77
▁depressed	-12.77
▁detour	-12.77
▁dial	-12.77
▁diane	-12.77
▁diffuser	-12.77
▁digestibility	-12.77
▁diglycerides	-12.77
▁dilution	-12.77
▁discarding	-12.77
▁disinterested	-12.77
▁displeased	-12.77
▁dissipate	-12.77
▁distinguishable	-12.77
▁disturb	-12.77
▁dividing	-12.77
▁doable	-12.77
▁dock	-12.77
▁dogfoodanalysis	-12.77
▁domestically	-12.77
▁dominating	-12.77
▁dragged	-12.77
▁drainage	-12.77
▁dreamed	-12.77
▁dreaming	-12.77
▁dreg	-12.77
▁dumpster	-12.77
▁durability	-12.77
▁durum	-12.77
▁dynamic	-12.77
▁earthiness	-12.77
▁ecstasy	-12.77
▁ecuador	-12.77
▁effected	-12.77
▁efficiency	-12.77
▁eiermann	-12.77
▁eldest	-12.77
▁elmo	-12.77
▁embark	-12.77
▁embedded	-12.77
▁embrace	-12.77
▁emphasized	-12.77
▁emulsified	-12.77
▁emulsion	-12.77
▁enlarged	-12.77
▁enterprise	-12.77
▁envy	-12.77
▁erewhon	-12.77
▁evaluating	-12.77
▁evolve	-12.77
▁exaggeration	-12.77
▁excel	-12.77
▁expiredtimothy	-12.77
▁extracting	-12.77
▁eyelid	-12.77
▁facing	-12.77
▁fairmont	-12.77
▁fascinated	-12.77
▁fatal	-12.77
▁fatigued	-12.77
▁feat	-12.77
▁fettucini	-12.77
▁fianc	-12.77
▁fierce	-12.77
▁filed	-12.77
▁filing	-12.77
▁filtration	-12.77
▁firehouse	-12.77
▁firmed	-12.77
▁fixture	-12.77
▁flagship	-12.77
▁flair	-12.77
▁flaking	-12.77
▁flapjack	-12.77
▁flex	-12.77
▁flood	-12.77
▁flooding	-12.77
▁flour1	-12.77
▁flushing	-12.77
▁foamed	-12.77
▁follower	-12.77
▁fondly	-12.77
▁foodshouldtastegood	-12.77
▁foodstuff	-12.77
▁formal	-12.77
▁fort	-12.77
▁frankie	-12.77
▁frap	-12.77
▁freedom	-12.77
▁friggin	-12.77
▁fruitier	-12.77
▁fujian	-12.77
▁funbites	-12.77
▁funnel	-12.77
▁gabriella	-12.77
▁gastro	-12.77
▁giovanni	-12.77
▁glanced	-12.77
▁gloss	-12.77
▁goldendoodle	-12.77
▁golem	-12.77
▁goof	-12.77
▁goofy	-12.77
▁gouda	-12.77
▁grabber	-12.77
▁grater	-12.77
▁greed	-12.77
▁greenfire	-12.77
▁grinded	-12.77
▁gumpaste	-12.77
▁guru	-12.77
▁guzzle	-12.77
▁habenero	-12.77
▁hagen	-12.77
▁halal	-12.77
▁happiest	-12.77
▁harsher	-12.77
▁hassel	-12.77
▁healer	-12.77
▁heartbroken	-12.77
▁heather	-12.77
▁heeler	-12.77
▁heft	-12.77
▁hellman	-12.77
▁herbes	-12.77
▁himalaya	-12.77
▁hindsight	-12.77
▁hinted	-12.77
▁homeopathic	-12.77
▁hots	-12.77
▁hotspot	-12.77
▁hubbard	-12.77
▁humanity	-12.77
▁hurray	-12.77
▁hyperactive	-12.77
▁hyperactivity	-12.77
▁icon	-12.77
▁ignores	-12.77
▁iherb	-12.77
▁imitator	-12.77
▁implying	-12.77
▁inadvertently	-12.77
▁inca	-12.77
▁incarnation	-12.77
▁incase	-12.77
▁inclination	-12.77
▁inconsistency	-12.77
▁incorporates	-12.77
▁indomie	-12.77
▁indonesian	-12.77
▁inexpensively	-12.77
▁infinite	-12.77
▁influenced	-12.77
▁injection	-12.77
▁insecticide	-12.77
▁insulting	-12.77
▁interpret	-12.77
▁intervention	-12.77
▁invent	-12.77
▁ivory	-12.77
▁izzy	-12.77
▁james	-12.77
▁jeffrey	-12.77
▁jen	-12.77
▁jerquee	-12.77
▁junior	-12.77
▁jus	-12.77
▁kasugai	-12.77
▁katharena	-12.77
▁kauai	-12.77
▁kavli	-12.77
▁kellog	-12.77
▁kimbo	-12.77
▁kindergarten	-12.77
▁kobe	-12.77
▁kreme	-12.77
▁kringles	-12.77
▁labrada	-12.77
▁lager	-12.77
▁latch	-12.77
▁laurie	-12.77
▁lava	-12.77
▁laziness	-12.77
▁leaner	-12.77
▁leek	-12.77
▁leepers	-12.77
▁lesion	-12.77
▁lifebites	-12.77
▁lifebits	-12.77
▁lightness	-12.77
▁loacker	-12.77
▁loos	-12.77
▁looser	-12.77
▁loser	-12.77
▁lunchbag	-12.77
▁macarons	-12.77
▁mack	-12.77
▁mag	-12.77
▁magnum	-12.77
▁mahi	-12.77
▁malaysia	-12.77
▁malic	-12.77
▁manure	-12.77
▁marjoram	-12.77
▁masa	-12.77
▁meager	-12.77
▁measly	-12.77
▁mechanical	-12.77
▁medela	-12.77
▁melatonin	-12.77
▁metabolize	-12.77
▁mg	-12.77
▁micheal	-12.77
▁midway	-12.77
▁mil	-12.77
▁minature	-12.77
▁mindful	-12.77
▁miserably	-12.77
▁misguided	-12.77
▁mock	-12.77
▁moisturizes	-12.77
▁momma	-12.77
▁monopoly	-12.77
▁monotony	-12.77
▁motivate	-12.77
▁mouthwash	-12.77
▁mowing	-12.77
▁muck	-12.77
▁muddled	-12.77
▁mulch	-12.77
▁mulling	-12.77
▁nagging	-12.77
▁naive	-12.77
▁namesake	-12.77
▁nay	-12.77
▁necklace	-12.77
▁neocate	-12.77
▁nestum	-12.77
▁neutralize	-12.77
▁nguyen	-12.77
▁nickname	-12.77
▁nilgiri	-12.77
▁nod	-12.77
▁nominal	-12.77
▁nuf	-12.77
▁objection	-12.77
▁occassion	-12.77
▁oeuvre	-12.77
▁ofcourse	-12.77
▁offending	-12.77
▁olfactory	-12.77
▁openly	-12.77
▁operating	-12.77
▁orginally	-12.77
▁orlando	-12.77
▁osteoporosis	-12.77
▁outweighs	-12.77
▁overloaded	-12.77
▁owning	-12.77
▁oxidized	-12.77
▁painfully	-12.77
▁papua	-12.77
▁paramount	-12.77
▁paranoid	-12.77
▁parthenon	-12.77
▁pending	-12.77
▁penetrating	-12.77
▁peony	-12.77
▁perceived	-12.77
▁perennial	-12.77
▁perfer	-12.77
▁perforation	-12.77
▁perfumey	-12.77
▁permeated	-12.77
▁permission	-12.77
▁permit	-12.77
▁persuaded	-12.77
▁peruvian	-12.77
▁petrolatum	-12.77
▁pickier	-12.77
▁pickling	-12.77
▁pigeon	-12.77
▁piqued	-12.77
▁pissed	-12.77
▁placement	-12.77
▁plagued	-12.77
▁plasticy	-12.77
▁playdough	-12.77
▁pleasingly	-12.77
▁plocky	-12.77
▁poem	-12.77
▁poker	-12.77
▁pole	-12.77
▁political	-12.77
▁polluted	-12.77
▁pomace	-12.77
▁pomi	-12.77
▁pooped	-12.77
▁popcornopolis	-12.77
▁popeye	-12.77
▁poppyseed	-12.77
▁por	-12.77
▁potluck	-12.77
▁pouched	-12.77
▁pounding	-12.77
▁practicing	-12.77
▁prefered	-12.77
▁preservation	-12.77
▁pretzles	-12.77
▁preview	-12.77
▁primo	-12.77
▁projected	-12.77
▁proposition	-12.77
▁protocol	-12.77
▁prowl	-12.77
▁publicity	-12.77
▁puking	-12.77
▁pulpy	-12.77
▁pumpkinseed	-12.77
▁pur	-12.77
▁pureeing	-12.77
▁quesadilla	-12.77
▁questioning	-12.77
▁quickie	-12.77
▁quik	-12.77
▁qvc	-12.77
▁radar	-12.77
▁radish	-12.77
▁raging	-12.77
▁ragu	-12.77
▁ralph	-12.77
▁rancilio	-12.77
▁rarity	-12.77
▁rasp	-12.77
▁raya	-12.77
▁razor	-12.77
▁reactive	-12.77
▁realizes	-12.77
▁reasoning	-12.77
▁reccomended	-12.77
▁recommed	-12.77
▁recourse	-12.77
▁redundant	-12.77
▁refridgerated	-12.77
▁reggie	-12.77
▁reincarnation	-12.77
▁reinforced	-12.77
▁releasing	-12.77
▁religious	-12.77
▁repurchasing	-12.77
▁resorting	-12.77
▁respecting	-12.77
▁resume	-12.77
▁reusing	-12.77
▁rev	-12.77
▁richard	-12.77
▁riesling	-12.77
▁riot	-12.77
▁risking	-12.77
▁roaming	-12.77
▁robustness	-12.77
▁rollerball	-12.77
▁romano	-12.77
▁romantic	-12.77
▁romeo	-12.77
▁rooting	-12.77
▁ruff	-12.77
▁salivating	-12.77
▁samson	-12.77
▁samu	-12.77
▁sane	-12.77
▁sanka	-12.77
▁sauted	-12.77
▁savior	-12.77
▁scan	-12.77
▁sceptical	-12.77
▁scoby	-12.77
▁scoopable	-12.77
▁scooper	-12.77
▁scour	-12.77
▁screwdriver	-12.77
▁searing	-12.77
▁seasonally	-12.77
▁seductive	-12.77
▁seedless	-12.77
▁seedling	-12.77
▁seeping	-12.77
▁selects	-12.77
▁sentiment	-12.77
▁seventh	-12.77
▁seventy	-12.77
▁sewage	-12.77
▁sexy	-12.77
▁shattering	-12.77
▁shep	-12.77
▁shiniest	-12.77
▁shooting	-12.77
▁shorted	-12.77
▁shoving	-12.77
▁shoyu	-12.77
▁sicily	-12.77
▁sinew	-12.77
▁sippy	-12.77
▁sizable	-12.77
▁skincare	-12.77
▁skull	-12.77
▁skyrocket	-12.77
▁slapped	-12.77
▁slighly	-12.77
▁slighty	-12.77
▁slimming	-12.77
▁smidge	-12.77
▁smushed	-12.77
▁snackimals	-12.77
▁snagged	-12.77
▁snapz	-12.77
▁snickerdoodles	-12.77
▁snip	-12.77
▁snout	-12.77
▁snuggle	-12.77
▁sobe	-12.77
▁softly	-12.77
▁sojo	-12.77
▁solomon	-12.77
▁sonic	-12.77
▁soulistic	-12.77
▁spaetzle	-12.77
▁sparked	-12.77
▁sparking	-12.77
▁specimen	-12.77
▁spiciest	-12.77
▁spicyness	-12.77
▁spiked	-12.77
▁spiritual	-12.77
▁spitz	-12.77
▁splintered	-12.77
▁sporadically	-12.77
▁sprecher	-12.77
▁spree	-12.77
▁springy	-12.77
▁sprung	-12.77
▁squeak	-12.77
▁squeaker	-12.77
▁squishing	-12.77
▁stabilizing	-12.77
▁stacking	-12.77
▁staggering	-12.77
▁stall	-12.77
▁standalone	-12.77
▁starsthis	-12.77
▁startled	-12.77
▁starvation	-12.77
▁stateside	-12.77
▁stoneridge	-12.77
▁stonger	-12.77
▁storebought	-12.77
▁stormy	-12.77
▁stretching	-12.77
▁striking	-12.77
▁stringent	-12.77
▁strive	-12.77
▁stumbling	-12.77
▁subpar	-12.77
▁succeed	-12.77
▁suds	-12.77
▁sufferer	-12.77
▁supplemental	-12.77
▁supplying	-12.77
▁suppressant	-12.77
▁suspicion	-12.77
▁sustainability	-12.77
▁sweeping	-12.77
▁swheat	-12.77
▁swirling	-12.77
▁szechuan	-12.77
▁tabouli	-12.77
▁tahina	-12.77
▁takeout	-12.77
▁taker	-12.77
▁tandoori	-12.77
▁tee	-12.77
▁tense	-12.77
▁terrified	-12.77
▁testify	-12.77
▁texan	-12.77
▁thanked	-12.77
▁theanine	-12.77
▁thrip	-12.77
▁tierra	-12.77
▁timeless	-12.77
▁tincture	-12.77
▁tinker	-12.77
▁tinny	-12.77
▁tmj	-12.77
▁togethers	-12.77
▁tortas	-12.77
▁tractor	-12.77
▁tradeoff	-12.77
▁trailer	-12.77
▁transfats	-12.77
▁transmission	-12.77
▁transportation	-12.77
▁trendy	-12.77
▁triangular	-12.77
▁tricalcium	-12.77
▁tripled	-12.77
▁triscuit	-12.77
▁truthful	-12.77
▁tso	-12.77
▁tum	-12.77
▁tuned	-12.77
▁turnip	-12.77
▁turnoff	-12.77
▁tuxedo	-12.77
▁twinning	-12.77
▁tyler	-12.77
▁typed	-12.77
▁tzus	-12.77
▁umm	-12.77
▁unattended	-12.77
▁uncontrollable	-12.77
▁unfit	-12.77
▁unfortunatly	-12.77
▁unfurl	-12.77
▁uniformity	-12.77
▁uninterested	-12.77
▁unknowingly	-12.77
▁unpredictable	-12.77
▁unroll	-12.77
▁unsuccessfully	-12.77
▁unwrapping	-12.77
▁updating	-12.77
▁usd	-12.77
▁useable	-12.77
▁vaccum	-12.77
▁valencia	-12.77
▁varity	-12.77
▁vat	-12.77
▁vco	-12.77
▁vein	-12.77
▁venom	-12.77
▁ventresca	-12.77
▁ventured	-12.77
▁vernor	-12.77
▁versitile	-12.77
▁vertical	-12.77
▁vias	-12.77
▁violent	-12.77
▁virtue	-12.77
▁volcanic	-12.77
▁vowed	-12.77
▁wacky	-12.77
▁wage	-12.77
▁wandered	-12.77
▁waring	-12.77
▁warranted	-12.77
▁waterproof	-12.77
▁wei	-12.77
▁weirdly	-12.77
▁wetter	-12.77
▁wimp	-12.77
▁witness	-12.77
▁wonton	-12.77
▁woodpecker	-12.77
▁wrinkled	-12.77
▁wuyi	-12.77
▁xanthum	-12.77
▁xylichew	-12.77
▁yeasty	-12.77
▁yellowing	-12.77
▁yen	-12.77
▁yielded	-12.77
▁yin	-12.77
▁yogourmet	-12.77
▁youndoo	-12.77
▁yummo	-12.77
▁zang	-12.77
▁zatarains	-12.77
▁zebra	-12.77
▁0total	-12.9242
▁100g	-12.9242
▁100mg	-12.9242
▁100x	-12.9242
▁101	-12.9242
▁2012i	-12.9242
▁21st	-12.9242
▁2nds	-12.9242
▁aafco	-12.9242
▁abd	-12.9242
▁abdominal	-12.9242
▁abide	-12.9242
▁abroad	-12.9242
▁absurdly	-12.9242
▁academy	-12.9242
▁accidental	-12.9242
▁accuracy	-12.9242
▁aching	-12.9242
▁acknowledgement	-12.9242
▁activate	-12.9242
▁adapted	-12.9242
▁adapts	-12.9242
▁adhered	-12.9242
▁admitted	-12.9242
▁adversely	-12.9242
▁aerated	-12.9242
▁affliction	-12.9242
▁agreat	-12.9242
▁airborne	-12.9242
▁aji	-12.9242
▁akhdar	-12.9242
▁album	-12.9242
▁alergic	-12.9242
▁alex	-12.9242
▁alka	-12.9242
▁alkalinity	-12.9242
▁allegro	-12.9242
▁allen	-12.9242
▁allergenic	-12.9242
▁alliance	-12.9242
▁alligator	-12.9242
▁alpine	-12.9242
▁alteration	-12.9242
▁alters	-12.9242
▁amazaon	-12.9242
▁amaze	-12.9242
▁ambassador	-12.9242
▁amend	-12.9242
▁amendment	-12.9242
▁amidst	-12.9242
▁ammount	-12.9242
▁amore	-12.9242
▁an	-12.9242
▁analyzing	-12.9242
▁anchor	-12.9242
▁anna	-12.9242
▁annoyingly	-12.9242
▁annoys	-12.9242
▁answering	-12.9242
▁antidote	-12.9242
▁apex	-12.9242
▁apollo	-12.9242
▁appletinis	-12.9242
▁approximate	-12.9242
▁aquafina	-12.9242
▁aquired	-12.9242
▁arbequina	-12.9242
▁arkansas	-12.9242
▁aromatherapy	-12.9242
▁aromatics	-12.9242
▁aroy	-12.9242
▁arranged	-12.9242
▁arsenal	-12.9242
▁artic	-12.9242
▁ashtray	-12.9242
▁ashy	-12.9242
▁ass	-12.9242
▁asthmatic	-12.9242
▁astonishing	-12.9242
▁astronomical	-12.9242
▁attended	-12.9242
▁attentive	-12.9242
▁austria	-12.9242
▁authorized	-12.9242
▁awarded	-12.9242
▁aways	-12.9242
▁awesomely	-12.9242
▁axe	-12.9242
▁babka	-12.9242
▁backcountry	-12.9242
▁backordered	-12.9242
▁baggy	-12.9242
▁baltimore	-12.9242
▁barlean	-12.9242
▁baron	-12.9242
▁barrista	-12.9242
▁bathed	-12.9242
▁bathtub	-12.9242
▁baught	-12.9242
▁bayer	-12.9242
▁beau	-12.9242
▁bedding	-12.9242
▁befor	-12.9242
▁beige	-12.9242
▁benign	-12.9242
▁bernese	-12.9242
▁betting	-12.9242
▁bib	-12.9242
▁bifidus	-12.9242
▁bigalow	-12.9242
▁billing	-12.9242
▁binging	-12.9242
[...]
