<unk>	0
<s>	0
</s>	0
▁eot	-1.81086
▁sot	-1.81086
▁great	-3.86957
▁the	-4.12486
▁good	-4.21061
▁not	-4.37343
▁a	-4.42505
▁for	-4.48266
▁and	-4.56863
▁best	-4.61755
▁it	-4.69874
▁is	-4.8831
▁love	-4.89714
▁i	-4.90658
▁my	-4.91929
▁but	-4.93171
▁this	-4.96308
▁to	-5.02374
▁coffee	-5.0653
▁of	-5.11262
▁tea	-5.1138
▁product	-5.12208
▁delicious	-5.18883
▁taste	-5.27837
▁very	-5.36993
▁in	-5.45855
▁excellent	-5.5533
▁like	-5.58025
▁flavor	-5.5859
▁you	-5.66576
▁price	-5.7161
▁tasty	-5.7212
▁yummy	-5.75682
▁these	-5.76029
▁as	-5.82096
▁with	-5.82575
▁ever	-5.84004
▁food	-5.84048
▁dog	-5.8496
▁too	-5.92237
▁so	-5.93788
▁favorite	-5.95835
▁stuff	-6.00242
▁are	-6.01949
▁on	-6.04961
▁have	-6.05645
▁better	-6.1306
▁just	-6.14282
▁free	-6.16493
▁no	-6.17541
▁what	-6.24894
▁chocolate	-6.25664
▁snack	-6.26034
▁than	-6.26744
▁tastes	-6.27186
▁loves	-6.27391
▁do	-6.27562
▁healthy	-6.27562
▁awesome	-6.28767
▁them	-6.29987
▁nice	-6.30162
▁yum	-6.35168
▁sweet	-6.38014
▁perfect	-6.38166
▁quality	-6.38471
▁really	-6.3943
▁wonderful	-6.4032
▁at	-6.4114
▁dogs	-6.42522
▁all	-6.4563
▁one	-6.46
▁tasting	-6.49475
▁buy	-6.51151
▁bad	-6.51498
▁your	-6.56171
▁be	-6.56444
▁me	-6.58195
▁hot	-6.60738
▁cat	-6.6112
▁treat	-6.62034
▁from	-6.6281
▁sugar	-6.64133
▁little	-6.67443
▁that	-6.67648
▁gluten	-6.68468
▁mix	-6.68675
▁amazing	-6.68985
▁easy	-6.6914
▁if	-6.7601
▁more	-6.76847
▁will	-6.77691
▁was	-6.79573
▁cup	-6.81315
▁organic	-6.81961
▁they	-6.8208
▁candy	-6.82494
▁much	-6.83207
▁value	-6.85136
▁can	-6.90384
▁does	-6.90899
▁sauce	-6.90963
▁treats	-6.91481
▁ok	-6.93115
▁cats	-6.94042
▁k	-6.94242
▁way	-6.94376
▁cereal	-6.96195
▁fantastic	-6.97151
▁or	-6.98463
▁pretty	-6.98603
▁amazon	-6.99935
▁out	-7.00146
▁works	-7.00217
▁green	-7.01499
▁drink	-7.02798
▁an	-7.04482
▁only	-7.06271
▁get	-7.08245
▁cookies	-7.09092
▁oil	-7.10025
▁low	-7.10494
▁up	-7.11361
▁fresh	-7.13682
▁real	-7.14169
▁water	-7.1515
▁cannot	-7.18832
▁deal	-7.19431
▁find	-7.20292
▁gift	-7.21336
▁salt	-7.21336
▁made	-7.22302
▁had	-7.22744
▁high	-7.22833
▁our	-7.23724
▁strong	-7.25167
▁time	-7.25349
▁expensive	-7.25622
▁hard	-7.26079
▁new	-7.26263
▁did	-7.26355
▁there	-7.26815
▁soup	-7.26908
▁use	-7.28491
▁coconut	-7.28773
▁happy	-7.2953
▁rice	-7.29815
▁would	-7.30963
▁eat	-7.31445
▁go	-7.33398
▁well	-7.33596
▁bread	-7.34091
▁worth	-7.34191
▁natural	-7.34589
▁chips	-7.34689
▁pasta	-7.35592
▁old	-7.36097
▁bar	-7.363
▁service	-7.36605
▁alternative	-7.37013
▁disappointed	-7.37835
▁wow	-7.38351
▁am	-7.38663
▁popcorn	-7.38663
▁butter	-7.39603
▁by	-7.40764
▁review	-7.41831
▁vanilla	-7.43563
▁packaging	-7.43891
▁kids	-7.4422
▁expected	-7.45547
▁makes	-7.45994
▁super	-7.46106
▁bars	-7.46893
▁milk	-7.47345
▁has	-7.48256
▁beans	-7.50571
▁cups	-7.50688
▁decaf	-7.51158
▁money	-7.51512
▁we	-7.51986
▁shipping	-7.52582
▁big	-7.52821
▁baby	-7.53542
▁breakfast	-7.53542
▁loved	-7.53663
▁smooth	-7.53784
▁dark	-7.54269
▁quick	-7.54634
▁make	-7.54878
▁convenient	-7.57479
▁some	-7.58108
▁again	-7.58361
▁absolutely	-7.59892
▁could	-7.60149
▁without	-7.60149
▁item	-7.61446
▁fast	-7.61707
▁blend	-7.62628
▁gum	-7.62628
▁peanut	-7.63557
▁honey	-7.63958
▁chicken	-7.64899
▁small	-7.65713
▁okay	-7.66123
▁instant	-7.66397
▁energy	-7.66534
▁other	-7.66534
▁spicy	-7.675
▁found	-7.67917
▁syrup	-7.67917
▁horrible	-7.68196
▁light	-7.68336
▁bit	-7.68756
▁even	-7.6932
▁work	-7.69461
▁fruit	-7.69886
▁far	-7.70171
▁terrible	-7.70314
▁right	-7.70456
▁cheese	-7.70599
▁cookie	-7.70742
▁black	-7.71606
▁ginger	-7.74093
▁about	-7.75435
▁still	-7.76644
▁try	-7.76644
▁beware	-7.76796
▁pack	-7.77101
▁poor	-7.77254
▁crackers	-7.78484
▁when	-7.79417
▁dry	-7.80359
▁enough	-7.80675
▁chai	-7.80834
▁first	-7.80834
▁now	-7.80992
▁decent	-7.81629
▁thing	-7.83077
▁finally	-7.83728
▁whole	-7.84547
▁crunchy	-7.85207
▁size	-7.85705
▁ingredients	-7.85871
▁nothing	-7.86038
▁oatmeal	-7.86205
▁bag	-7.8654
▁never	-7.86708
▁protein	-7.87045
▁refreshing	-7.87214
▁salty	-7.88403
▁its	-7.88746
▁roast	-7.89434
▁choice	-7.8978
▁awful	-7.89954
▁fabulous	-7.90127
▁most	-7.90127
▁simply	-7.90127
▁red	-7.90476
▁flavored	-7.9065
▁must	-7.91352
▁box	-7.91705
▁bold	-7.93128
▁fun	-7.93128
▁substitute	-7.93308
▁flavors	-7.93487
▁got	-7.93667
▁long	-7.93667
▁bitter	-7.94028
▁seasoning	-7.94028
▁used	-7.94209
▁stale	-7.94391
▁over	-7.95119
▁diet	-7.95302
▁spice	-7.95302
▁variety	-7.95669
▁different	-7.95853
▁addictive	-7.97151
▁juice	-7.97151
▁flavorful	-7.97338
▁nuts	-7.97712
▁quite	-7.98277
▁rich	-7.98465
▁same	-7.98465
▁less	-7.98844
▁texture	-7.99224
▁tasted	-8.01537
▁granola	-8.01927
▁stars	-8.02123
▁corn	-8.0232
▁order	-8.02516
▁tried	-8.02911
▁how	-8.03307
▁weak	-8.04103
▁yuck	-8.04103
▁bags	-8.04504
▁fine	-8.04907
▁brand	-8.05108
▁wrong	-8.05311
▁day	-8.05513
▁were	-8.05716
▁any	-8.06124
▁back	-8.06328
▁espresso	-8.06738
▁cinnamon	-8.07149
▁formula	-8.07356
▁world	-8.07356
▁noodles	-8.07563
▁disappointing	-8.0777
▁why	-8.0777
▁store	-8.07978
▁cake	-8.08394
▁off	-8.08394
▁gf	-8.09023
▁jerky	-8.09023
▁market	-8.09023
▁meal	-8.09023
▁home	-8.09233
▁white	-8.09233
▁another	-8.10291
▁after	-8.10504
▁cheaper	-8.10504
▁overpriced	-8.10504
▁powder	-8.12442
▁worst	-8.13096
▁pricey	-8.13535
▁health	-8.13755
▁every	-8.13975
▁family	-8.14418
▁who	-8.14418
▁o	-8.14639
▁soft	-8.15532
▁need	-8.15757
▁cocoa	-8.15982
▁here	-8.16207
▁fat	-8.16433
▁regular	-8.1666
▁almost	-8.16887
▁where	-8.17114
▁wheat	-8.1803
▁outstanding	-8.1826
▁flour	-8.18491
▁life	-8.18491
▁purchase	-8.18491
▁licorice	-8.18954
▁smell	-8.18954
▁likes	-8.19186
▁should	-8.19186
▁customer	-8.2012
▁around	-8.20355
▁heaven	-8.20355
▁smells	-8.20591
▁full	-8.20827
▁oh	-8.21301
▁soda	-8.22016
▁down	-8.22496
▁iced	-8.22978
▁calories	-8.23219
▁recommended	-8.23219
▁canned	-8.24193
▁picky	-8.24193
▁always	-8.24929
▁kind	-8.25671
▁want	-8.25919
▁many	-8.26418
▁carb	-8.27171
▁morning	-8.27676
▁pleased	-8.27929
▁beef	-8.28438
▁goodness	-8.2895
▁baking	-8.29206
▁available	-8.29464
▁delivery	-8.29464
▁starbucks	-8.29464
▁dried	-8.29981
▁oz	-8.29981
▁seeds	-8.29981
▁sure	-8.29981
▁keurig	-8.3024
▁special	-8.3024
▁cans	-8.30761
▁chews	-8.30761
▁lot	-8.30761
▁original	-8.31022
▁waste	-8.31022
▁lemon	-8.31547
▁idea	-8.31811
▁snacks	-8.31811
▁pods	-8.32605
▁yet	-8.32872
▁something	-8.33139
▁surprisingly	-8.33139
▁please	-8.33406
▁hair	-8.33675
▁cream	-8.33944
▁highly	-8.34485
▁chili	-8.34756
▁say	-8.34756
▁yes	-8.34756
▁lovers	-8.35301
▁last	-8.35575
▁china	-8.35849
▁think	-8.35849
▁mild	-8.36124
▁know	-8.364
▁filling	-8.36677
▁wish	-8.38071
▁french	-8.38352
▁bland	-8.38635
▁exactly	-8.38918
▁house	-8.39201
▁ice	-8.40057
▁s	-8.40057
▁brown	-8.40344
▁nutritious	-8.40632
▁needs	-8.4092
▁apple	-8.415
▁puppy	-8.415
▁sour	-8.41791
▁chew	-8.42376
▁cheap	-8.42964
▁chewy	-8.42964
▁looking	-8.42964
▁pure	-8.42964
▁star	-8.43556
▁olive	-8.43853
▁lover	-8.44151
▁soy	-8.44151
▁eating	-8.4445
▁those	-8.45051
▁grain	-8.45959
▁two	-8.46263
▁fiber	-8.46568
▁been	-8.46875
▁calorie	-8.46875
▁nut	-8.46875
▁hit	-8.47182
▁senseo	-8.4749
▁give	-8.49045
▁package	-8.49045
▁bought	-8.49359
▁lots	-8.49359
▁aftertaste	-8.49674
▁bean	-8.49674
▁non	-8.4999
▁products	-8.50625
▁pumpkin	-8.50625
▁company	-8.50944
▁option	-8.50944
▁people	-8.50944
▁misleading	-8.51264
▁raw	-8.5223
▁tuna	-8.5223
▁dressing	-8.52554
▁mustard	-8.52554
▁n	-8.52554
▁orange	-8.52554
▁extra	-8.53206
▁delish	-8.54191
▁gross	-8.54191
▁son	-8.54191
▁vegan	-8.54191
▁fan	-8.54853
▁own	-8.54853
▁bottle	-8.55186
▁cracker	-8.55186
▁toy	-8.55186
▁change	-8.5552
▁sweetener	-8.5552
▁their	-8.5552
▁us	-8.56867
▁thought	-8.57206
▁date	-8.57547
▁pleasant	-8.57547
▁blue	-8.57889
▁priced	-8.58232
▁pepper	-8.58576
▁disgusting	-8.59268
▁liked	-8.59268
▁recipe	-8.59268
▁beautiful	-8.59616
▁chip	-8.59616
▁crazy	-8.59616
▁kitty	-8.59616
▁nasty	-8.59616
▁simple	-8.59616
▁things	-8.59616
▁advertised	-8.60315
▁cooking	-8.60667
▁lovely	-8.60667
▁clean	-8.6102
▁e	-8.61729
▁pop	-8.63524
▁says	-8.63524
▁broken	-8.63887
▁contains	-8.63887
▁terrific	-8.63887
▁creamy	-8.64252
▁satisfying	-8.64617
▁top	-8.64617
▁years	-8.64617
▁average	-8.64984
▁grey	-8.64984
▁arrived	-8.65352
▁true	-8.65352
▁though	-8.65722
▁cherry	-8.66093
▁crunch	-8.66466
▁actually	-8.66839
▁before	-8.66839
▁may	-8.66839
▁omg	-8.66839
▁artificial	-8.67215
▁ordered	-8.67215
▁everything	-8.67591
▁save	-8.67591
▁aroma	-8.67969
▁delight	-8.67969
▁potato	-8.68349
▁cost	-8.6873
▁wanted	-8.69112
▁gourmet	-8.69496
▁mint	-8.69496
▁earl	-8.69881
▁thank	-8.69881
▁sodium	-8.70268
▁t	-8.70268
▁almond	-8.70657
▁definitely	-8.70657
▁nutrition	-8.70657
▁almonds	-8.71047
▁versatile	-8.71438
▁addicted	-8.71831
▁surprised	-8.71831
▁add	-8.72621
▁brew	-8.72621
▁ounce	-8.72621
▁warning	-8.73019
▁year	-8.73019
▁classic	-8.73418
▁keep	-8.73819
▁changed	-8.74625
▁received	-8.74625
▁weight	-8.74625
▁foods	-8.75031
▁caffeine	-8.75847
▁name	-8.75847
▁curry	-8.76258
▁superb	-8.76258
▁teas	-8.7667
▁cold	-8.77085
▁then	-8.77085
▁unique	-8.77085
▁impressed	-8.775
▁salad	-8.775
▁reviews	-8.77918
▁wine	-8.77918
▁close	-8.78337
▁salmon	-8.78758
▁italian	-8.79606
▁large	-8.79606
▁mountain	-8.79606
▁stevia	-8.79606
▁experience	-8.80032
▁going	-8.80032
▁m	-8.8046
▁earth	-8.80891
▁making	-8.80891
▁sticks	-8.80891
▁maple	-8.82192
▁pizza	-8.82192
▁stores	-8.8263
▁away	-8.83069
▁half	-8.83069
▁homemade	-8.83069
▁training	-8.83069
▁everyone	-8.83511
▁mom	-8.83511
▁rocks	-8.83954
▁delightful	-8.844
▁interesting	-8.844
▁dented	-8.84847
▁replacement	-8.84847
▁seems	-8.84847
▁buying	-8.85297
▁meat	-8.85297
▁husband	-8.85748
▁maybe	-8.85748
▁enjoy	-8.86657
▁staple	-8.86657
▁cute	-8.87115
▁incredible	-8.87115
▁jelly	-8.87115
▁mixed	-8.87115
▁sea	-8.87115
▁description	-8.87575
▁peach	-8.87575
▁satisfied	-8.87575
▁daughter	-8.88036
▁heat	-8.88036
▁nom	-8.88036
▁peanuts	-8.88036
▁fish	-8.885
▁pancakes	-8.885
▁take	-8.885
▁garlic	-8.88967
▁greatest	-8.88967
▁hazelnut	-8.88967
▁tree	-8.88967
▁surprise	-8.89435
▁teeth	-8.89435
▁believe	-8.89906
▁read	-8.89906
▁truly	-8.89906
▁worked	-8.89906
▁addition	-8.90378
▁bears	-8.90378
▁winner	-8.90378
▁healthier	-8.90854
▁w	-8.90854
▁else	-8.91331
▁glad	-8.91331
▁kick	-8.91331
▁meh	-8.91331
▁allergies	-8.9181
▁caramel	-8.9181
▁ingredient	-8.9181
▁seller	-8.9181
▁bacon	-8.92292
▁anything	-8.92777
▁medium	-8.92777
▁pretzels	-8.93263
▁addicting	-8.93752
▁looks	-8.94244
▁packaged	-8.94244
▁greenies	-8.94738
▁pet	-8.94738
▁source	-8.95234
▁gummy	-8.95732
▁hate	-8.95732
▁help	-8.95732
▁keeps	-8.95732
▁favorites	-8.96234
▁rip	-8.96234
▁kid	-8.96738
▁machine	-8.96738
▁plastic	-8.96738
▁b	-8.97753
▁bargain	-8.97753
▁noodle	-8.97753
▁wild	-8.97753
▁added	-8.98264
▁huge	-8.98264
▁kit	-8.98264
▁bulk	-8.98779
▁cherries	-8.98779
▁look	-8.98779
▁lunch	-8.98779
▁bbq	-8.99295
▁live	-8.99295
▁plain	-8.99815
▁recommend	-9.00337
▁gone	-9.00862
▁helps	-9.00862
▁ground	-9.0139
▁mints	-9.0139
▁strawberry	-9.0139
▁gold	-9.0192
▁mini	-9.0192
▁mmmm	-9.0192
▁authentic	-9.02453
▁raspberry	-9.02453
▁totally	-9.02453
▁beverage	-9.0299
▁goes	-9.0299
▁problems	-9.0299
▁difference	-9.03529
▁handy	-9.03529
▁extremely	-9.04071
▁miracle	-9.04071
▁plus	-9.04071
▁mouth	-9.04616
▁oats	-9.04616
▁she	-9.04616
▁baked	-9.05164
▁crispy	-9.05164
▁mmm	-9.05164
▁problem	-9.05164
▁pancake	-9.05715
▁pie	-9.05715
▁plant	-9.05715
▁expiration	-9.06269
▁mac	-9.06269
▁message	-9.06269
▁seed	-9.06269
▁start	-9.06826
▁stop	-9.06826
▁convenience	-9.07386
▁disappointment	-9.07386
▁feel	-9.07386
▁few	-9.07386
▁premium	-9.07386
▁sensitive	-9.07386
▁smaller	-9.07386
▁bite	-9.07949
▁blueberry	-9.07949
▁hands	-9.07949
▁wife	-9.07949
▁peppermint	-9.08516
▁version	-9.08516
▁watch	-9.08516
▁english	-9.09086
▁vinegar	-9.09086
▁mocha	-9.09659
▁ramen	-9.09659
▁berry	-9.10235
▁grocery	-9.10235
▁saver	-9.10235
▁bob	-9.10815
▁buyer	-9.10815
▁cook	-9.10815
▁lipton	-9.10815
▁picture	-9.10815
▁weird	-9.10815
▁effective	-9.11398
▁kitchen	-9.11398
▁side	-9.11398
▁three	-9.11398
▁care	-9.11984
▁mill	-9.11984
▁ones	-9.11984
▁tart	-9.11984
▁bones	-9.12574
▁christmas	-9.12574
▁herbal	-9.12574
▁mango	-9.12574
▁cappuccino	-9.13168
▁dessert	-9.13168
▁flakes	-9.13765
▁pb	-9.13765
▁sick	-9.13765
▁latte	-9.14366
▁thin	-9.14366
▁crystal	-9.1497
▁solid	-9.1497
▁control	-9.15578
▁cool	-9.15578
▁per	-9.15578
▁splenda	-9.15578
▁thai	-9.15578
▁zero	-9.16189
▁dinner	-9.16805
▁melted	-9.16805
▁banana	-9.17424
▁careful	-9.17424
▁others	-9.17424
▁shampoo	-9.17424
▁tasteless	-9.17424
▁c	-9.18047
▁d	-9.18047
▁drinks	-9.18047
▁slightly	-9.18047
▁gummi	-9.18674
▁jar	-9.18674
▁selection	-9.18674
▁style	-9.18674
▁summer	-9.18674
▁amount	-9.19305
▁biscuits	-9.19305
▁bone	-9.19305
▁bran	-9.19305
▁childhood	-9.19305
▁described	-9.19305
▁longer	-9.19305
▁pill	-9.19305
▁rock	-9.19305
▁tiny	-9.19305
▁tomato	-9.19305
▁memories	-9.1994
▁pleasantly	-9.1994
▁remember	-9.1994
▁results	-9.1994
▁thanks	-9.1994
▁chocolates	-9.20579
▁needed	-9.20579
▁nutty	-9.20579
▁brownies	-9.21222
▁stomach	-9.21222
▁beer	-9.21869
▁roasted	-9.21869
▁boxes	-9.2252
▁crack	-9.2252
▁fair	-9.2252
▁instead	-9.2252
▁job	-9.2252
▁paste	-9.2252
▁brands	-9.23176
▁count	-9.23176
▁fruity	-9.23176
▁gets	-9.23176
▁lime	-9.23176
▁might	-9.23176
▁open	-9.23176
▁g	-9.23836
▁miss	-9.23836
▁damaged	-9.2517
▁false	-9.2517
▁mess	-9.2517
▁quaker	-9.2517
▁into	-9.25843
▁leaves	-9.25843
▁pay	-9.25843
▁pick	-9.25843
▁also	-9.26521
▁everyday	-9.26521
▁kona	-9.26521
▁vegetarian	-9.26521
▁absolute	-9.27204
▁anyone	-9.27204
▁candies	-9.27204
▁pantry	-9.27204
▁color	-9.27891
▁local	-9.27891
▁perfectly	-9.27891
▁affordable	-9.28583
▁jam	-9.28583
▁olives	-9.28583
▁pieces	-9.28583
▁liquid	-9.2928
▁matcha	-9.2928
▁nature	-9.2928
▁assortment	-9.29982
▁doggie	-9.29982
▁leaf	-9.29982
▁party	-9.29982
▁come	-9.30688
▁lasting	-9.30688
▁usa	-9.30688
▁acid	-9.314
▁agave	-9.314
▁babies	-9.314
▁base	-9.314
▁crisp	-9.314
▁cut	-9.314
▁daily	-9.314
▁five	-9.314
▁issues	-9.314
▁month	-9.314
▁packs	-9.314
▁sardines	-9.314
▁tough	-9.314
▁cal	-9.32117
▁prefer	-9.32117
▁second	-9.32117
▁advertising	-9.32839
▁approved	-9.32839
▁because	-9.32839
▁darn	-9.32839
▁truffle	-9.32839
▁days	-9.33566
▁yeast	-9.33566
▁expired	-9.34299
▁heavenly	-9.34299
▁loose	-9.34299
▁messy	-9.34299
▁mmmmm	-9.34299
▁being	-9.35037
▁both	-9.35037
▁extract	-9.35037
▁getting	-9.35037
▁basket	-9.3578
▁came	-9.3578
▁drinking	-9.3578
▁salsa	-9.3578
▁tummy	-9.3578
▁crust	-9.36529
▁expect	-9.36529
▁guilt	-9.36529
▁hint	-9.36529
▁let	-9.36529
▁newman	-9.36529
▁cafe	-9.37284
▁friendly	-9.37284
▁short	-9.37284
▁skin	-9.37284
▁subtle	-9.37284
▁y	-9.37284
▁put	-9.38045
▁see	-9.38045
▁switch	-9.38045
▁allergy	-9.38811
▁amazingly	-9.38811
▁beat	-9.38811
▁boost	-9.38811
▁grape	-9.38811
▁sampler	-9.38811
▁haribo	-9.39583
▁he	-9.39583
▁strange	-9.39583
▁tomatoes	-9.39583
▁waffles	-9.39583
▁gravy	-9.40361
▁mediocre	-9.40361
▁odd	-9.40361
▁planet	-9.40361
▁pork	-9.40361
▁reasonable	-9.40361
▁com	-9.41146
▁finicky	-9.41146
▁golden	-9.41146
▁magic	-9.41146
▁steak	-9.41936
▁stick	-9.41936
▁superior	-9.41936
▁bonsai	-9.42733
▁litter	-9.42733
▁lollipops	-9.42733
▁shipped	-9.42733
▁spices	-9.42733
▁toddler	-9.42733
▁yumm	-9.42733
▁missing	-9.43536
▁pamela	-9.43536
▁sticky	-9.43536
▁body	-9.44346
▁bottles	-9.44346
▁pictured	-9.44346
▁secret	-9.44346
▁friend	-9.45162
▁man	-9.45162
▁mostly	-9.45162
▁sent	-9.45162
▁batch	-9.45985
▁fix	-9.45985
▁marinade	-9.45985
▁once	-9.45985
▁r	-9.45985
▁standard	-9.45985
▁twinings	-9.45985
▁yogurt	-9.45985
▁dairy	-9.46815
▁flowers	-9.46815
▁hoped	-9.46815
▁maker	-9.46815
▁movie	-9.46815
▁office	-9.46815
▁through	-9.46815
▁uses	-9.46815
▁balance	-9.47652
▁lower	-9.47652
▁paws	-9.47652
▁pockets	-9.47652
▁while	-9.47652
▁agree	-9.48496
▁enjoyable	-9.48496
▁purpose	-9.48496
▁tell	-9.48496
▁edible	-9.49347
▁starter	-9.49347
▁using	-9.49347
▁waffle	-9.49347
▁coffees	-9.50205
▁container	-9.50205
▁drinker	-9.50205
▁grass	-9.50205
▁heavy	-9.50205
▁hemp	-9.50205
▁kitties	-9.50205
▁pod	-9.50205
▁safe	-9.50205
▁bpa	-9.51071
▁de	-9.51071
▁flavoring	-9.51071
▁jasmine	-9.51071
▁mother	-9.51071
▁set	-9.51071
▁stock	-9.51071
▁vs	-9.51071
▁check	-9.51944
▁lavazza	-9.51944
▁nutritional	-9.51944
▁probably	-9.51944
▁robust	-9.51944
▁such	-9.51944
▁busy	-9.52826
▁dental	-9.52826
▁single	-9.52826
▁smoked	-9.52826
▁thick	-9.52826
▁touch	-9.52826
▁berries	-9.53714
▁chemical	-9.53714
▁diabetic	-9.53714
▁dish	-9.53714
▁double	-9.53714
▁eater	-9.53714
▁his	-9.53714
▁hooked	-9.53714
▁months	-9.53714
▁tangy	-9.53714
▁trap	-9.53714
▁clear	-9.54611
▁coffe	-9.54611
▁fake	-9.54611
▁soothing	-9.54611
▁storage	-9.54611
▁timothy	-9.54611
▁broth	-9.55516
▁kraft	-9.55516
▁least	-9.55516
▁line	-9.55516
▁chewers	-9.56429
▁heart	-9.56429
▁quinoa	-9.56429
▁raisins	-9.56429
▁rub	-9.56429
▁spaghetti	-9.56429
▁her	-9.57351
▁lb	-9.57351
▁sooo	-9.57351
▁brownie	-9.58281
▁gas	-9.58281
▁past	-9.58281
▁perfection	-9.58281
▁since	-9.58281
▁yeah	-9.58281
▁dream	-9.5922
▁egg	-9.5922
▁joe	-9.5922
▁period	-9.5922
▁seriously	-9.5922
▁sweetner	-9.5922
▁veggie	-9.5922
▁bay	-9.60168
▁exceptional	-9.60168
▁l	-9.60168
▁label	-9.60168
▁turkey	-9.60168
▁aid	-9.61125
▁awsome	-9.61125
▁balanced	-9.61125
▁case	-9.61125
▁caution	-9.61125
▁cola	-9.61125
▁conditioner	-9.61125
▁especially	-9.61125
▁fancy	-9.61125
▁gives	-9.61125
▁junk	-9.61125
▁soooo	-9.61125
▁ate	-9.62091
▁bring	-9.62091
▁eaten	-9.62091
▁elsewhere	-9.62091
▁hearty	-9.62091
▁helped	-9.62091
▁increase	-9.62091
▁moist	-9.62091
▁online	-9.62091
▁pops	-9.62091
▁subscribe	-9.62091
▁watery	-9.62091
▁anywhere	-9.63067
▁basic	-9.63067
▁cakes	-9.63067
▁inexpensive	-9.63067
▁muffins	-9.63067
▁pound	-9.63067
▁pup	-9.63067
▁quickly	-9.63067
▁scent	-9.63067
▁sesame	-9.63067
▁taco	-9.63067
▁takes	-9.63067
▁except	-9.64052
▁grade	-9.64052
▁prices	-9.64052
▁punch	-9.64052
▁raisin	-9.64052
▁shipment	-9.64052
▁stay	-9.64052
▁travel	-9.64052
▁anymore	-9.65047
▁belly	-9.65047
▁chef	-9.65047
▁chinese	-9.65047
▁eats	-9.65047
▁ordering	-9.65047
▁quantity	-9.65047
▁tooth	-9.65047
▁eh	-9.66052
▁gave	-9.66052
▁none	-9.66052
▁powdered	-9.66052
▁san	-9.66052
▁call	-9.67068
▁cardboard	-9.67068
▁easily	-9.67068
▁flax	-9.67068
▁graham	-9.67068
▁list	-9.67068
▁somewhat	-9.67068
▁vitamin	-9.67068
▁yourself	-9.67068
▁content	-9.68093
▁delivered	-9.68093
▁either	-9.68093
▁nutiva	-9.68093
▁ready	-9.68093
▁smart	-9.68093
▁type	-9.68093
▁yuk	-9.68093
▁addiction	-9.69129
▁indian	-9.69129
▁irish	-9.69129
▁power	-9.69129
▁pricing	-9.69129
▁rather	-9.69129
▁recipes	-9.69129
▁rooibos	-9.69129
▁wholesome	-9.69129
▁worse	-9.69129
▁combination	-9.70177
▁dr	-9.70177
▁easier	-9.70177
▁fit	-9.70177
▁german	-9.70177
▁holiday	-9.70177
▁packed	-9.70177
▁stash	-9.70177
▁supplement	-9.70177
▁wellness	-9.70177
▁avoid	-9.71235
▁breath	-9.71235
▁comfort	-9.71235
▁dip	-9.71235
▁expectations	-9.71235
▁mmmmmm	-9.71235
▁oolong	-9.71235
▁packets	-9.71235
▁run	-9.71235
▁trying	-9.71235
▁vegetable	-9.71235
▁bodied	-9.72304
▁country	-9.72304
▁diabetics	-9.72304
▁fudge	-9.72304
▁pot	-9.72304
▁sunflower	-9.72304
▁test	-9.72304
▁carbs	-9.73385
▁enjoyed	-9.73385
▁fragrant	-9.73385
▁overall	-9.73385
▁pleasure	-9.73385
▁saved	-9.73385
▁scrumptious	-9.73385
▁shake	-9.73385
▁american	-9.74478
▁benefits	-9.74478
▁cider	-9.74478
▁creamer	-9.74478
▁fuel	-9.74478
▁gummies	-9.74478
▁hand	-9.74478
▁next	-9.74478
▁ridiculous	-9.74478
▁bowl	-9.75583
▁feast	-9.75583
▁four	-9.75583
▁god	-9.75583
▁hour	-9.75583
▁packing	-9.75583
▁restaurant	-9.75583
▁shelf	-9.75583
▁shop	-9.75583
▁went	-9.75583
▁word	-9.75583
▁bigelow	-9.76701
▁bubble	-9.76701
▁burnt	-9.76701
▁cheddar	-9.76701
▁cheesy	-9.76701
▁compared	-9.76701
▁mate	-9.76701
▁pink	-9.76701
▁soups	-9.76701
▁adults	-9.77831
▁allergic	-9.77831
▁break	-9.77831
▁comes	-9.77831
▁deceptive	-9.77831
▁funny	-9.77831
▁microwave	-9.77831
▁onion	-9.77831
▁opinion	-9.77831
▁scalp	-9.77831
▁sorry	-9.77831
▁thumbs	-9.77831
▁vet	-9.77831
▁crumbs	-9.78973
▁each	-9.78973
▁loving	-9.78973
▁prepare	-9.78973
▁spread	-9.78973
▁afternoon	-9.8013
▁pomegranate	-9.8013
▁purchased	-9.8013
▁seem	-9.8013
▁stinky	-9.8013
▁veggies	-9.8013
▁aromatic	-9.81299
▁done	-9.81299
▁inconsistent	-9.81299
▁nectar	-9.81299
▁p	-9.81299
▁potatoes	-9.81299
▁rate	-9.81299
▁ship	-9.81299
▁truffles	-9.81299
▁cashews	-9.82483
▁chewing	-9.82483
▁clock	-9.82483
▁creme	-9.82483
▁dangerous	-9.82483
▁happened	-9.82483
▁root	-9.82483
▁tastey	-9.82483
▁total	-9.82483
▁twice	-9.82483
▁warm	-9.82483
▁acquired	-9.8368
▁alright	-9.8368
▁bits	-9.8368
▁bully	-9.8368
▁complete	-9.8368
▁deliciously	-9.8368
▁expecting	-9.8368
▁greasy	-9.8368
▁kashi	-9.8368
▁kosher	-9.8368
▁la	-9.8368
▁multi	-9.8368
▁packages	-9.8368
▁place	-9.8368
▁said	-9.8368
▁toffee	-9.8368
▁traditional	-9.8368
▁wait	-9.8368
▁wake	-9.8368
▁yogi	-9.8368
▁concentrate	-9.84892
▁cuppa	-9.84892
▁feed	-9.84892
▁puffs	-9.84892
▁serious	-9.84892
▁sold	-9.84892
▁unusual	-9.84892
▁useful	-9.84892
▁beyond	-9.86119
▁concept	-9.86119
▁dates	-9.86119
▁deliciousness	-9.86119
▁diets	-9.86119
▁items	-9.86119
▁minty	-9.86119
▁minutes	-9.86119
▁oily	-9.86119
▁serving	-9.86119
▁taffy	-9.86119
▁ultimate	-9.86119
▁valley	-9.86119
▁eggs	-9.87362
▁jack	-9.87362
▁ketchup	-9.87362
▁lab	-9.87362
▁locally	-9.87362
▁meals	-9.87362
▁mixes	-9.87362
▁oat	-9.87362
▁portion	-9.87362
▁rawhide	-9.87362
▁anytime	-9.8862
▁difficult	-9.8862
▁illy	-9.8862
▁kidding	-9.8862
▁peas	-9.8862
▁pudding	-9.8862
▁snacking	-9.8862
▁ugh	-9.8862
▁wonderfully	-9.8862
▁xylitol	-9.8862
▁yay	-9.8862
▁adult	-9.89893
▁completely	-9.89893
▁delicate	-9.89893
▁eight	-9.89893
▁fructose	-9.89893
▁garbage	-9.89893
▁girl	-9.89893
▁improved	-9.89893
▁intense	-9.89893
▁larger	-9.89893
▁lemonade	-9.89893
▁part	-9.89893
▁rancid	-9.89893
▁reliable	-9.89893
▁rum	-9.89893
▁seasonings	-9.89893
▁balsamic	-9.91184
▁bear	-9.91184
▁birthday	-9.91184
▁bites	-9.91184
▁condition	-9.91184
▁crap	-9.91184
▁fall	-9.91184
▁farms	-9.91184
▁fave	-9.91184
▁holy	-9.91184
▁odor	-9.91184
▁pleasing	-9.91184
▁rating	-9.91184
▁sparkling	-9.91184
▁sweetness	-9.91184
▁tips	-9.91184
▁trail	-9.91184
▁altoids	-9.92491
▁consistency	-9.92491
▁dissapointed	-9.92491
▁drop	-9.92491
▁fav	-9.92491
▁folgers	-9.92491
▁lacking	-9.92491
▁mellow	-9.92491
▁night	-9.92491
▁overly	-9.92491
▁sauces	-9.92491
▁smoothies	-9.92491
▁spiced	-9.92491
▁spoiled	-9.92491
▁yellow	-9.92491
▁yummm	-9.92491
▁fairly	-9.93815
▁garden	-9.93815
▁incredibly	-9.93815
▁info	-9.93815
▁jars	-9.93815
▁mexican	-9.93815
▁moldy	-9.93815
▁roll	-9.93815
▁spot	-9.93815
▁boy	-9.95158
▁chocolatey	-9.95158
▁covered	-9.95158
▁cranberry	-9.95158
▁forget	-9.95158
▁glass	-9.95158
▁pecan	-9.95158
▁vitamins	-9.95158
▁coco	-9.96518
▁grow	-9.96518
▁hershey	-9.96518
▁hype	-9.96518
▁improvement	-9.96518
▁knew	-9.96518
▁normal	-9.96518
▁older	-9.96518
▁rose	-9.96518
▁sugary	-9.96518
▁theater	-9.96518
▁virgin	-9.96518
▁blood	-9.97898
▁catnip	-9.97898
▁digestive	-9.97898
▁end	-9.97898
▁guess	-9.97898
▁mine	-9.97898
▁nd	-9.97898
▁pets	-9.97898
▁plants	-9.97898
▁slow	-9.97898
▁sushi	-9.97898
▁tazo	-9.97898
▁until	-9.97898
▁wet	-9.97898
▁blah	-9.99296
▁indeed	-9.99296
▁mrs	-9.99296
▁nearly	-9.99296
▁portable	-9.99296
▁royal	-9.99296
▁sometimes	-9.99296
▁st	-9.99296
▁steel	-9.99296
▁tin	-9.99296
▁toddlers	-9.99296
▁diamond	-10.0071
▁freeze	-10.0071
▁information	-10.0071
▁rolls	-10.0071
▁twist	-10.0071
▁child	-10.0215
▁colors	-10.0215
▁delicous	-10.0215
▁door	-10.0215
▁grown	-10.0215
▁h	-10.0215
▁jet	-10.0215
▁lt	-10.0215
▁rest	-10.0215
▁savory	-10.0215
▁serve	-10.0215
▁sized	-10.0215
▁solution	-10.0215
▁torani	-10.0215
▁bomb	-10.0361
▁buffalo	-10.0361
▁chowder	-10.0361
▁dirty	-10.0361
▁herb	-10.0361
▁lost	-10.0361
▁maxwell	-10.0361
▁popchips	-10.0361
▁stand	-10.0361
▁sweetened	-10.0361
▁typical	-10.0361
▁v	-10.0361
▁wasabi	-10.0361
▁annie	-10.051
▁costco	-10.051
▁crushed	-10.051
▁decadent	-10.051
▁doggy	-10.051
▁grains	-10.051
▁lean	-10.051
▁medicine	-10.051
▁outrageous	-10.051
▁ruined	-10.051
▁sausage	-10.051
▁walmart	-10.051
▁winter	-10.051
▁working	-10.051
▁bake	-10.066
▁costs	-10.066
▁crisps	-10.066
▁design	-10.066
▁die	-10.066
▁economical	-10.066
▁f	-10.066
▁flavour	-10.066
▁gmo	-10.066
▁gods	-10.066
▁japanese	-10.066
▁king	-10.066
▁penny	-10.066
▁ripoff	-10.066
▁snaps	-10.066
▁times	-10.066
▁topping	-10.066
▁vendor	-10.066
▁bigger	-10.0813
▁bother	-10.0813
▁bugs	-10.0813
▁carbonated	-10.0813
▁deep	-10.0813
▁filled	-10.0813
▁grandma	-10.0813
▁inside	-10.0813
▁lousy	-10.0813
▁margarita	-10.0813
▁pre	-10.0813
▁puppies	-10.0813
▁sandwich	-10.0813
▁tender	-10.0813
▁via	-10.0813
▁brewed	-10.0968
▁buck	-10.0968
▁called	-10.0968
▁chamomile	-10.0968
▁diarrhea	-10.0968
▁everlasting	-10.0968
▁feline	-10.0968
▁fooled	-10.0968
▁hubby	-10.0968
▁peppers	-10.0968
▁possibly	-10.0968
▁seaweed	-10.0968
▁sucralose	-10.0968
▁supply	-10.0968
▁supposed	-10.0968
▁tassimo	-10.0968
▁took	-10.0968
▁unpleasant	-10.0968
▁usual	-10.0968
▁wonder	-10.0968
▁x	-10.0968
▁yummmm	-10.0968
▁chipotle	-10.1125
▁francisco	-10.1125
▁java	-10.1125
▁manuka	-10.1125
▁mary	-10.1125
▁paprika	-10.1125
▁pine	-10.1125
▁ranch	-10.1125
▁sleep	-10.1125
▁sun	-10.1125
▁acidic	-10.1285
▁aspartame	-10.1285
▁bottled	-10.1285
▁crumbly	-10.1285
▁dead	-10.1285
▁giving	-10.1285
▁goji	-10.1285
▁meow	-10.1285
▁mum	-10.1285
▁mushy	-10.1285
▁options	-10.1285
▁return	-10.1285
▁tarts	-10.1285
▁beats	-10.1448
▁between	-10.1448
▁bull	-10.1448
▁chia	-10.1448
▁duck	-10.1448
▁essential	-10.1448
▁feeling	-10.1448
▁hope	-10.1448
▁jalapeno	-10.1448
▁lasts	-10.1448
▁mayo	-10.1448
▁mind	-10.1448
▁pinch	-10.1448
▁pretzel	-10.1448
▁sample	-10.1448
▁similar	-10.1448
▁slim	-10.1448
▁smokey	-10.1448
▁smoky	-10.1448
▁which	-10.1448
▁acai	-10.1613
▁adds	-10.1613
▁blueberries	-10.1613
▁cheerios	-10.1613
▁closest	-10.1613
▁contain	-10.1613
▁freshness	-10.1613
▁gooey	-10.1613
▁licious	-10.1613
▁listed	-10.1613
▁loss	-10.1613
▁mushrooms	-10.1613
▁pass	-10.1613
▁piece	-10.1613
▁pups	-10.1613
▁relaxing	-10.1613
▁relief	-10.1613
▁remembered	-10.1613
▁sale	-10.1613
▁someone	-10.1613
▁system	-10.1613
▁toast	-10.1613
▁addict	-10.1781
▁asian	-10.1781
▁durable	-10.1781
▁eaters	-10.1781
▁fashioned	-10.1781
▁form	-10.1781
▁grapefruit	-10.1781
▁kitten	-10.1781
▁lifesaver	-10.1781
▁naturally	-10.1781
▁pills	-10.1781
▁tropical	-10.1781
▁wafers	-10.1781
▁bell	-10.1952
▁british	-10.1952
▁combo	-10.1952
▁drops	-10.1952
▁hated	-10.1952
▁helper	-10.1952
▁juicy	-10.1952
▁mama	-10.1952
▁miso	-10.1952
▁shells	-10.1952
▁smelly	-10.1952
▁tiger	-10.1952
▁today	-10.1952
▁balls	-10.2126
▁bang	-10.2126
▁dishes	-10.2126
▁equal	-10.2126
▁fig	-10.2126
▁flavorless	-10.2126
▁ham	-10.2126
▁healthful	-10.2126
▁ideal	-10.2126
▁impressive	-10.2126
▁italy	-10.2126
▁jolly	-10.2126
▁lamb	-10.2126
▁mio	-10.2126
▁oreo	-10.2126
▁pistachios	-10.2126
▁reminds	-10.2126
▁sumatra	-10.2126
▁tofu	-10.2126
▁tully	-10.2126
▁vita	-10.2126
▁apples	-10.2303
▁brewers	-10.2303
▁choc	-10.2303
▁college	-10.2303
▁cough	-10.2303
▁fans	-10.2303
▁fishy	-10.2303
▁frozen	-10.2303
▁hawaiian	-10.2303
▁hours	-10.2303
▁incorrect	-10.2303
▁instructions	-10.2303
▁island	-10.2303
▁kcup	-10.2303
▁kettle	-10.2303
▁liver	-10.2303
▁lol	-10.2303
▁marzipan	-10.2303
▁mistake	-10.2303
▁mold	-10.2303
▁pg	-10.2303
▁pineapple	-10.2303
▁pleaser	-10.2303
▁point	-10.2303
▁possible	-10.2303
▁powerful	-10.2303
▁questionable	-10.2303
▁reason	-10.2303
▁sooooo	-10.2303
▁unless	-10.2303
▁usually	-10.2303
▁biscotti	-10.2483
▁coca	-10.2483
▁crema	-10.2483
▁divine	-10.2483
▁donut	-10.2483
▁during	-10.2483
▁excellant	-10.2483
▁forever	-10.2483
▁kcups	-10.2483
▁kool	-10.2483
▁matter	-10.2483
▁present	-10.2483
▁promised	-10.2483
▁six	-10.2483
▁subscription	-10.2483
▁thins	-10.2483
▁thrilled	-10.2483
▁update	-10.2483
▁yorkie	-10.2483
▁ale	-10.2667
▁aware	-10.2667
▁ball	-10.2667
▁bliss	-10.2667
▁buds	-10.2667
▁clam	-10.2667
▁flat	-10.2667
▁gelatin	-10.2667
▁gritty	-10.2667
▁hibiscus	-10.2667
▁hoping	-10.2667
▁india	-10.2667
▁joy	-10.2667
▁late	-10.2667
▁pace	-10.2667
▁paper	-10.2667
▁roland	-10.2667
▁season	-10.2667
▁smoke	-10.2667
▁stronger	-10.2667
▁threw	-10.2667
▁throat	-10.2667
▁watermelon	-10.2667
▁actual	-10.2854
▁already	-10.2854
▁barely	-10.2854
▁celestial	-10.2854
▁dad	-10.2854
▁defective	-10.2854
▁fire	-10.2854
▁grew	-10.2854
▁lbs	-10.2854
▁muesli	-10.2854
▁nicely	-10.2854
▁overpowering	-10.2854
▁reese	-10.2854
▁shot	-10.2854
▁spam	-10.2854
▁squeeze	-10.2854
▁tastiest	-10.2854
▁um	-10.2854
▁unbelievably	-10.2854
▁ya	-10.2854
▁brings	-10.3044
▁cet	-10.3044
▁chemicals	-10.3044
▁directions	-10.3044
▁emeril	-10.3044
▁friends	-10.3044
▁grove	-10.3044
▁however	-10.3044
▁inedible	-10.3044
▁major	-10.3044
▁notch	-10.3044
▁nutella	-10.3044
▁pouch	-10.3044
▁reasonably	-10.3044
▁saffron	-10.3044
▁shortbread	-10.3044
▁shrimp	-10.3044
▁spectacular	-10.3044
▁square	-10.3044
▁steaks	-10.3044
▁stopped	-10.3044
▁sweeter	-10.3044
▁under	-10.3044
▁animal	-10.3238
▁broke	-10.3238
▁cacao	-10.3238
▁children	-10.3238
▁class	-10.3238
▁cornbread	-10.3238
▁cow	-10.3238
▁ick	-10.3238
▁kibble	-10.3238
▁muffin	-10.3238
▁poorly	-10.3238
▁post	-10.3238
▁sad	-10.3238
▁salads	-10.3238
▁school	-10.3238
▁snap	-10.3238
▁throw	-10.3238
▁trade	-10.3238
▁turkish	-10.3238
▁unbelievable	-10.3238
▁yucky	-10.3238
▁able	-10.3436
▁above	-10.3436
▁biscuit	-10.3436
▁buddy	-10.3436
▁club	-10.3436
▁craving	-10.3436
▁dieters	-10.3436
▁dough	-10.3436
▁drawer	-10.3436
▁finest	-10.3436
▁fried	-10.3436
▁greens	-10.3436
▁hazard	-10.3436
▁issue	-10.3436
▁mean	-10.3436
▁molasses	-10.3436
▁photo	-10.3436
▁prompt	-10.3436
▁tortilla	-10.3436
▁unhappy	-10.3436
▁apricot	-10.3638
▁based	-10.3638
▁blast	-10.3638
▁blech	-10.3638
▁coming	-10.3638
▁consistent	-10.3638
▁consistently	-10.3638
▁drinkers	-10.3638
▁dust	-10.3638
▁effect	-10.3638
▁european	-10.3638
▁exotic	-10.3638
▁fussy	-10.3638
▁gingerbread	-10.3638
▁hates	-10.3638
▁hits	-10.3638
▁key	-10.3638
▁lite	-10.3638
▁lobster	-10.3638
▁preserves	-10.3638
▁re	-10.3638
▁shakes	-10.3638
▁smoothie	-10.3638
▁soon	-10.3638
▁straight	-10.3638
▁strips	-10.3638
▁walnuts	-10.3638
▁workout	-10.3638
▁air	-10.3844
▁anti	-10.3844
▁bitterness	-10.3844
▁celiac	-10.3844
▁chewer	-10.3844
▁citrus	-10.3844
▁coke	-10.3844
▁condiment	-10.3844
▁couscous	-10.3844
▁decaffeinated	-10.3844
▁effects	-10.3844
▁giant	-10.3844
▁guys	-10.3844
▁hamburger	-10.3844
▁leave	-10.3844
▁limited	-10.3844
▁lucky	-10.3844
▁mighty	-10.3844
▁mole	-10.3844
▁mr	-10.3844
▁mushroom	-10.3844
▁popular	-10.3844
▁pricy	-10.3844
▁sealed	-10.3844
▁search	-10.3844
▁stew	-10.3844
▁supermarket	-10.3844
▁sweeteners	-10.3844
▁wedding	-10.3844
▁acceptable	-10.4055
▁america	-10.4055
▁arrival	-10.4055
▁cheez	-10.4055
▁chunky	-10.4055
▁cooked	-10.4055
▁doctor	-10.4055
▁england	-10.4055
▁etc	-10.4055
▁gel	-10.4055
▁helpful	-10.4055
▁human	-10.4055
▁lacks	-10.4055
▁lightly	-10.4055
▁macadamia	-10.4055
▁nylabone	-10.4055
▁pounds	-10.4055
▁prime	-10.4055
▁receive	-10.4055
▁rye	-10.4055
▁seafood	-10.4055
▁sell	-10.4055
▁shape	-10.4055
▁slight	-10.4055
▁unhealthy	-10.4055
▁brilliant	-10.427
▁cocktail	-10.427
▁colombian	-10.427
▁drinkable	-10.427
▁eye	-10.427
▁guilty	-10.427
▁herbs	-10.427
▁hips	-10.427
▁itself	-10.427
▁lavender	-10.427
▁malt	-10.427
▁move	-10.427
▁negative	-10.427
▁otherwise	-10.427
▁pain	-10.427
▁plenty	-10.427
▁sodas	-10.427
▁step	-10.427
▁th	-10.427
▁week	-10.427
▁betty	-10.449
▁boring	-10.449
▁cereals	-10.449
▁choking	-10.449
▁columbian	-10.449
▁direct	-10.449
▁friskies	-10.449
▁frosting	-10.449
▁gloria	-10.449
▁grind	-10.449
▁highest	-10.449
▁jerk	-10.449
▁lose	-10.449
▁melt	-10.449
▁numi	-10.449
▁perhaps	-10.449
▁pero	-10.449
▁pig	-10.449
▁saves	-10.449
▁spray	-10.449
▁title	-10.449
▁bait	-10.4715
▁bloody	-10.4715
▁carousel	-10.4715
▁caviar	-10.4715
▁comparison	-10.4715
▁complaints	-10.4715
▁excited	-10.4715
▁goods	-10.4715
▁grits	-10.4715
▁grounds	-10.4715
▁having	-10.4715
▁included	-10.4715
▁joke	-10.4715
▁kept	-10.4715
▁means	-10.4715
▁melitta	-10.4715
▁oils	-10.4715
▁personal	-10.4715
▁salted	-10.4715
▁seen	-10.4715
▁senior	-10.4715
▁southern	-10.4715
▁stomachs	-10.4715
▁strawberries	-10.4715
▁tad	-10.4715
▁wash	-10.4715
▁win	-10.4715
▁yummmmm	-10.4715
▁yummo	-10.4715
▁alot	-10.4944
▁barley	-10.4944
▁discontinued	-10.4944
▁enhancer	-10.4944
▁feeding	-10.4944
▁feels	-10.4944
▁fluffy	-10.4944
▁greek	-10.4944
▁healthiest	-10.4944
▁household	-10.4944
▁jello	-10.4944
▁left	-10.4944
▁level	-10.4944
▁lids	-10.4944
▁lives	-10.4944
▁owner	-10.4944
▁palm	-10.4944
▁pickles	-10.4944
▁ridiculously	-10.4944
▁rinds	-10.4944
▁round	-10.4944
▁sam	-10.4944
▁savings	-10.4944
▁spring	-10.4944
▁strength	-10.4944
▁stuffed	-10.4944
▁sucks	-10.4944
▁trick	-10.4944
▁worthy	-10.4944
▁wrapped	-10.4944
▁belgian	-10.518
▁benecol	-10.518
▁blackberry	-10.518
▁brewer	-10.518
▁buttery	-10.518
▁california	-10.518
▁collection	-10.518
▁correct	-10.518
▁cotton	-10.518
▁davidson	-10.518
▁extreme	-10.518
▁favourite	-10.518
▁fragrance	-10.518
▁funky	-10.518
▁hmmm	-10.518
▁impossible	-10.518
▁jim	-10.518
▁kill	-10.518
▁knorr	-10.518
▁lentils	-10.518
▁match	-10.518
▁note	-10.518
▁pear	-10.518
▁potent	-10.518
▁prunes	-10.518
▁space	-10.518
▁spearmint	-10.518
▁swiss	-10.518
▁texas	-10.518
▁upset	-10.518
▁user	-10.518
▁boxed	-10.5421
▁broccoli	-10.5421
▁cashew	-10.5421
▁caused	-10.5421
▁chunks	-10.5421
▁claims	-10.5421
▁coloring	-10.5421
▁ears	-10.5421
▁earthy	-10.5421
▁favor	-10.5421
▁figs	-10.5421
▁fog	-10.5421
▁general	-10.5421
▁glycemic	-10.5421
▁hey	-10.5421
▁honest	-10.5421
▁izze	-10.5421
▁kiwi	-10.5421
▁multiple	-10.5421
▁myself	-10.5421
▁neat	-10.5421
▁organics	-10.5421
▁peppercorns	-10.5421
▁snob	-10.5421
▁sounds	-10.5421
▁south	-10.5421
▁stir	-10.5421
▁tested	-10.5421
▁together	-10.5421
▁tonic	-10.5421
▁updated	-10.5421
▁vegetables	-10.5421
▁weeks	-10.5421
▁additive	-10.5668
▁ages	-10.5668
▁bakery	-10.5668
▁calm	-10.5668
▁caribou	-10.5668
▁carry	-10.5668
▁cranberries	-10.5668
▁cure	-10.5668
▁da	-10.5668
▁damn	-10.5668
▁delivers	-10.5668
▁died	-10.5668
▁dipping	-10.5668
▁entire	-10.5668
▁excelent	-10.5668
▁favors	-10.5668
▁flaxseed	-10.5668
▁flops	-10.5668
▁folks	-10.5668
▁heinz	-10.5668
▁hell	-10.5668
▁higher	-10.5668
▁lindt	-10.5668
▁loaded	-10.5668
▁marmalade	-10.5668
▁merrick	-10.5668
▁nostalgia	-10.5668
▁number	-10.5668
▁pouches	-10.5668
▁puck	-10.5668
▁road	-10.5668
▁room	-10.5668
▁sprout	-10.5668
▁toxic	-10.5668
▁ups	-10.5668
▁weather	-10.5668
▁apparently	-10.5921
▁breast	-10.5921
▁caffeinated	-10.5921
▁click	-10.5921
▁coat	-10.5921
▁confused	-10.5921
▁darjeeling	-10.5921
▁delicioso	-10.5921
▁dispenser	-10.5921
▁eden	-10.5921
▁enjoying	-10.5921
▁finish	-10.5921
▁gusto	-10.5921
▁him	-10.5921
▁leaking	-10.5921
▁naked	-10.5921
▁nestle	-10.5921
▁packet	-10.5921
▁poop	-10.5921
▁processed	-10.5921
▁pug	-10.5921
▁rated	-10.5921
▁satisfaction	-10.5921
▁satisfies	-10.5921
▁several	-10.5921
▁sliced	-10.5921
▁smelling	-10.5921
▁sprinkles	-10.5921
▁train	-10.5921
▁trans	-10.5921
▁trip	-10.5921
▁unsweetened	-10.5921
▁waiting	-10.5921
▁within	-10.5921
▁zevia	-10.5921
▁zico	-10.5921
▁adding	-10.6181
▁blends	-10.6181
▁bright	-10.6181
▁chihuahua	-10.6181
▁community	-10.6181
▁crab	-10.6181
▁cravings	-10.6181
▁crocker	-10.6181
▁dill	-10.6181
▁dutch	-10.6181
▁empty	-10.6181
▁filter	-10.6181
▁frontier	-10.6181
▁gu	-10.6181
▁guy	-10.6181
▁halloween	-10.6181
▁hide	-10.6181
▁kellogg	-10.6181
▁killer	-10.6181
▁kittens	-10.6181
▁macaroni	-10.6181
▁martini	-10.6181
▁medicinal	-10.6181
▁men	-10.6181
▁opened	-10.6181
▁planters	-10.6181
▁plump	-10.6181
▁pooch	-10.6181
▁postum	-10.6181
▁reaction	-10.6181
▁servings	-10.6181
▁shown	-10.6181
▁smokehouse	-10.6181
▁sort	-10.6181
▁spanish	-10.6181
▁sub	-10.6181
▁superfood	-10.6181
▁tahini	-10.6181
▁teriyaki	-10.6181
▁trust	-10.6181
▁unfortunately	-10.6181
▁walnut	-10.6181
▁young	-10.6181
▁among	-10.6447
▁ask	-10.6447
▁attention	-10.6447
▁barbecue	-10.6447
▁below	-10.6447
▁certainly	-10.6447
▁chicory	-10.6447
▁co	-10.6447
▁coating	-10.6447
▁costly	-10.6447
▁cracked	-10.6447
▁crowd	-10.6447
▁doggies	-10.6447
▁easiest	-10.6447
▁everywhere	-10.6447
▁fly	-10.6447
▁frosted	-10.6447
▁grams	-10.6447
▁hardly	-10.6447
▁hearts	-10.6447
▁himalayan	-10.6447
▁holder	-10.6447
▁hormel	-10.6447
▁indulgence	-10.6447
▁lid	-10.6447
▁madagascar	-10.6447
▁mccann	-10.6447
▁melts	-10.6447
▁path	-10.6447
▁presentation	-10.6447
▁pro	-10.6447
▁pump	-10.6447
▁purina	-10.6447
▁question	-10.6447
▁reduced	-10.6447
▁response	-10.6447
▁seal	-10.6447
▁send	-10.6447
▁sf	-10.6447
▁shame	-10.6447
▁skinny	-10.6447
▁success	-10.6447
▁tast	-10.6447
▁toasted	-10.6447
▁wonders	-10.6447
▁alert	-10.6721
▁angel	-10.6721
▁assorted	-10.6721
▁bamboo	-10.6721
▁become	-10.6721
▁bouillon	-10.6721
▁breed	-10.6721
▁brittle	-10.6721
▁certified	-10.6721
▁containers	-10.6721
▁deceiving	-10.6721
▁dolce	-10.6721
▁due	-10.6721
▁evoo	-10.6721
▁expresso	-10.6721
▁face	-10.6721
▁fizzy	-10.6721
▁fries	-10.6721
▁gentle	-10.6721
▁goat	-10.6721
▁grainy	-10.6721
▁grows	-10.6721
▁head	-10.6721
▁hello	-10.6721
▁hidden	-10.6721
▁hydrogenated	-10.6721
▁indoor	-10.6721
▁known	-10.6721
▁labeling	-10.6721
▁later	-10.6721
▁lunches	-10.6721
▁main	-10.6721
▁mmmmmmm	-10.6721
▁pea	-10.6721
▁rare	-10.6721
▁risotto	-10.6721
▁ultra	-10.6721
▁unsalted	-10.6721
▁wolfgang	-10.6721
▁alone	-10.7003
▁anyway	-10.7003
▁bitters	-10.7003
▁business	-10.7003
▁cajun	-10.7003
▁campbell	-10.7003
▁canine	-10.7003
▁chex	-10.7003
▁cubes	-10.7003
▁delightfully	-10.7003
▁elegant	-10.7003
▁gevalia	-10.7003
▁grab	-10.7003
▁growing	-10.7003
▁lady	-10.7003
▁living	-10.7003
▁lo	-10.7003
▁marmite	-10.7003
▁middle	-10.7003
▁ms	-10.7003
▁naturals	-10.7003
▁ordinary	-10.7003
▁peaches	-10.7003
▁play	-10.7003
▁poison	-10.7003
▁rescue	-10.7003
▁roses	-10.7003
▁seasons	-10.7003
▁shirataki	-10.7003
▁stuck	-10.7003
▁syrups	-10.7003
▁target	-10.7003
▁vomit	-10.7003
▁although	-10.7293
▁anchovies	-10.7293
▁bananas	-10.7293
▁beauty	-10.7293
▁book	-10.7293
▁boys	-10.7293
▁buckwheat	-10.7293
▁canin	-10.7293
▁charm	-10.7293
▁delectable	-10.7293
▁dense	-10.7293
▁depends	-10.7293
▁filler	-10.7293
▁fry	-10.7293
▁ghost	-10.7293
▁glaze	-10.7293
▁guests	-10.7293
▁gumballs	-10.7293
▁gums	-10.7293
▁hawaii	-10.7293
▁holidays	-10.7293
▁hungry	-10.7293
▁important	-10.7293
▁interested	-10.7293
▁j	-10.7293
▁jean	-10.7293
▁lasted	-10.7293
▁machines	-10.7293
▁malted	-10.7293
▁marvelous	-10.7293
▁movies	-10.7293
▁near	-10.7293
▁omega	-10.7293
▁rabbit	-10.7293
▁repeat	-10.7293
▁reviewers	-10.7293
▁rotten	-10.7293
▁runny	-10.7293
▁shopping	-10.7293
▁show	-10.7293
▁splendid	-10.7293
▁tins	-10.7293
▁tradition	-10.7293
▁transaction	-10.7293
▁traveling	-10.7293
▁useless	-10.7293
▁woof	-10.7293
▁active	-10.7591
▁alcohol	-10.7591
▁auto	-10.7591
▁bagged	-10.7591
▁brewing	-10.7591
▁caffe	-10.7591
▁camping	-10.7591
▁chance	-10.7591
▁chaser	-10.7591
▁choices	-10.7591
▁dandruff	-10.7591
▁delights	-10.7591
▁dirt	-10.7591
▁disaster	-10.7591
▁dove	-10.7591
▁freshest	-10.7591
▁gifts	-10.7591
▁goood	-10.7591
▁grilled	-10.7591
▁kahlua	-10.7591
▁korean	-10.7591
▁lish	-10.7591
▁mail	-10.7591
▁missed	-10.7591
▁often	-10.7591
▁pacific	-10.7591
▁pickle	-10.7591
▁plum	-10.7591
▁positive	-10.7591
▁prepared	-10.7591
▁relatively	-10.7591
▁scratch	-10.7591
▁surprising	-10.7591
▁tabasco	-10.7591
▁table	-10.7591
▁tastier	-10.7591
▁tootsie	-10.7591
▁traps	-10.7591
▁watchers	-10.7591
▁ways	-10.7591
▁additives	-10.7899
▁adequate	-10.7899
▁adorable	-10.7899
▁ago	-10.7899
▁ah	-10.7899
▁amy	-10.7899
▁apart	-10.7899
▁badly	-10.7899
▁basmati	-10.7899
▁bunnies	-10.7899
▁burst	-10.7899
▁calming	-10.7899
▁cane	-10.7899
▁city	-10.7899
▁compare	-10.7899
▁custard	-10.7899
▁dingo	-10.7899
▁doing	-10.7899
▁filters	-10.7899
▁fixed	-10.7899
▁floral	-10.7899
▁flower	-10.7899
▁gatorade	-10.7899
▁ghee	-10.7899
▁girls	-10.7899
▁grahams	-10.7899
▁grill	-10.7899
▁hydration	-10.7899
▁kong	-10.7899
▁mills	-10.7899
▁minute	-10.7899
▁mojito	-10.7899
▁notice	-10.7899
▁onions	-10.7899
▁ounces	-10.7899
▁passion	-10.7899
▁pistachio	-10.7899
▁properly	-10.7899
▁recall	-10.7899
▁running	-10.7899
▁seconds	-10.7899
▁silk	-10.7899
▁skip	-10.7899
▁slices	-10.7899
▁spicey	-10.7899
▁split	-10.7899
▁sprouted	-10.7899
▁sprouting	-10.7899
▁tacos	-10.7899
▁trident	-10.7899
▁twin	-10.7899
▁vienna	-10.7899
▁west	-10.7899
▁alive	-10.8217
▁applesauce	-10.8217
▁benefit	-10.8217
▁bisquick	-10.8217
▁capsules	-10.8217
▁caramels	-10.8217
▁caught	-10.8217
▁chocolaty	-10.8217
▁comparable	-10.8217
▁dehydrated	-10.8217
▁digestion	-10.8217
▁discovery	-10.8217
▁effort	-10.8217
▁emerald	-10.8217
▁exquisite	-10.8217
▁eyes	-10.8217
▁follow	-10.8217
▁fruits	-10.8217
▁gingery	-10.8217
▁godsend	-10.8217
▁goldfish	-10.8217
▁hfcs	-10.8217
▁hold	-10.8217
▁holistic	-10.8217
▁horrid	-10.8217
▁hummus	-10.8217
▁individually	-10.8217
▁inferior	-10.8217
▁insanely	-10.8217
▁mixer	-10.8217
▁nor	-10.8217
▁orgain	-10.8217
▁pad	-10.8217
▁paid	-10.8217
▁par	-10.8217
▁pez	-10.8217
▁poodle	-10.8217
▁puffed	-10.8217
▁research	-10.8217
▁rush	-10.8217
▁sharp	-10.8217
▁soooooo	-10.8217
▁soul	-10.8217
▁suckers	-10.8217
▁supreme	-10.8217
▁sweets	-10.8217
▁talk	-10.8217
▁town	-10.8217
▁turned	-10.8217
▁watered	-10.8217
▁words	-10.8217
▁african	-10.8544
▁answer	-10.8544
▁appetite	-10.8544
▁arizona	-10.8544
▁baker	-10.8544
▁bedtime	-10.8544
▁bowls	-10.8544
▁bucks	-10.8544
▁cancer	-10.8544
▁carefully	-10.8544
▁celiacs	-10.8544
▁cheapest	-10.8544
▁cholesterol	-10.8544
▁cleaner	-10.8544
▁conscious	-10.8544
▁cooks	-10.8544
▁cupcakes	-10.8544
▁desert	-10.8544
▁disapointed	-10.8544
▁eacute	-10.8544
▁farm	-10.8544
▁finger	-10.8544
▁glutino	-10.8544
▁gorgeous	-10.8544
▁hotter	-10.8544
▁hygiene	-10.8544
▁individual	-10.8544
▁jamaica	-10.8544
▁jug	-10.8544
▁masala	-10.8544
▁mexico	-10.8544
▁northern	-10.8544
▁oral	-10.8544
▁parents	-10.8544
▁peace	-10.8544
▁peachy	-10.8544
▁person	-10.8544
▁pita	-10.8544
▁pu	-10.8544
▁rain	-10.8544
▁rave	-10.8544
▁reflux	-10.8544
▁ripped	-10.8544
▁sadly	-10.8544
▁sandwiches	-10.8544
▁satisfy	-10.8544
▁scam	-10.8544
▁shiny	-10.8544
▁shots	-10.8544
▁sinfully	-10.8544
▁soap	-10.8544
▁soo	-10.8544
▁sore	-10.8544
▁stix	-10.8544
▁sugars	-10.8544
▁tablets	-10.8544
▁ten	-10.8544
▁terribly	-10.8544
▁tons	-10.8544
▁tortillas	-10.8544
▁umm	-10.8544
▁vegans	-10.8544
▁yorkshire	-10.8544
▁yummiest	-10.8544
▁zuke	-10.8544
▁ahmad	-10.8883
▁amazed	-10.8883
▁apricots	-10.8883
▁booster	-10.8883
▁buttermilk	-10.8883
▁carnation	-10.8883
▁causes	-10.8883
▁costa	-10.8883
▁course	-10.8883
▁death	-10.8883
▁disc	-10.8883
▁dollar	-10.8883
▁dye	-10.8883
▁evening	-10.8883
▁fits	-10.8883
▁hodgson	-10.8883
▁hooray	-10.8883
▁itchy	-10.8883
▁listing	-10.8883
▁looked	-10.8883
▁marshmallows	-10.8883
▁meets	-10.8883
▁met	-10.8883
▁michael	-10.8883
▁moms	-10.8883
▁nespresso	-10.8883
▁news	-10.8883
▁newton	-10.8883
▁nibs	-10.8883
▁orleans	-10.8883
▁pocket	-10.8883
▁portions	-10.8883
▁preferred	-10.8883
▁previous	-10.8883
▁recieved	-10.8883
▁rules	-10.8883
▁select	-10.8883
▁sip	-10.8883
▁soggy	-10.8883
▁spelt	-10.8883
▁squares	-10.8883
▁sturdy	-10.8883
▁thinking	-10.8883
▁tired	-10.8883
▁tool	-10.8883
▁trader	-10.8883
▁walden	-10.8883
▁write	-10.8883
▁zing	-10.8883
▁bergamot	-10.9234
▁bottom	-10.9234
▁budget	-10.9234
▁burned	-10.9234
▁celtic	-10.9234
▁cha	-10.9234
▁choco	-10.9234
▁cleaning	-10.9234
▁concentrated	-10.9234
▁constipation	-10.9234
▁core	-10.9234
▁crave	-10.9234
▁dissapointing	-10.9234
▁excellence	-10.9234
▁fresher	-10.9234
▁genuine	-10.9234
▁gerber	-10.9234
▁ghirardelli	-10.9234
▁goodbye	-10.9234
▁harvest	-10.9234
▁ill	-10.9234
▁international	-10.9234
▁kirkland	-10.9234
▁lactose	-10.9234
▁leaks	-10.9234
▁libby	-10.9234
▁lifesavers	-10.9234
▁lighter	-10.9234
▁links	-10.9234
▁luck	-10.9234
▁mccormick	-10.9234
▁memory	-10.9234
▁nantucket	-10.9234
▁nescafe	-10.9234
▁normally	-10.9234
▁num	-10.9234
▁oregon	-10.9234
▁oreos	-10.9234
▁parmesan	-10.9234
▁popping	-10.9234
▁prince	-10.9234
▁refried	-10.9234
▁retro	-10.9234
▁rosemary	-10.9234
▁scoop	-10.9234
▁scottish	-10.9234
▁seasoned	-10.9234
▁sons	-10.9234
▁sports	-10.9234
▁supplier	-10.9234
▁support	-10.9234
▁tim	-10.9234
▁twists	-10.9234
▁un	-10.9234
▁unexpected	-10.9234
▁varieties	-10.9234
▁winning	-10.9234
▁worms	-10.9234
▁accurate	-10.9598
▁ad	-10.9598
▁along	-10.9598
▁automatic	-10.9598
▁barry	-10.9598
▁beneful	-10.9598
▁bouquet	-10.9598
▁bye	-10.9598
▁carmel	-10.9598
▁catch	-10.9598
▁cents	-10.9598
▁changes	-10.9598
▁clusters	-10.9598
▁complex	-10.9598
▁cramps	-10.9598
▁crystals	-10.9598
▁describe	-10.9598
▁discs	-10.9598
▁dogswell	-10.9598
▁dreams	-10.9598
▁facts	-10.9598
▁famous	-10.9598
▁fence	-10.9598
▁firm	-10.9598
▁gag	-10.9598
▁given	-10.9598
▁handle	-10.9598
▁happiness	-10.9598
▁hi	-10.9598
▁hike	-10.9598
▁honestly	-10.9598
▁jell	-10.9598
▁joint	-10.9598
▁law	-10.9598
▁liking	-10.9598
▁lil	-10.9598
▁luxury	-10.9598
▁mm	-10.9598
▁moth	-10.9598
▁offer	-10.9598
▁outside	-10.9598
▁palate	-10.9598
▁pastry	-10.9598
▁ph	-10.9598
▁pies	-10.9598
▁plan	-10.9598
▁points	-10.9598
▁pressure	-10.9598
▁purchasing	-10.9598
▁purple	-10.9598
▁recovery	-10.9598
▁relish	-10.9598
▁rings	-10.9598
▁rubber	-10.9598
▁saving	-10.9598
▁selling	-10.9598
▁sensation	-10.9598
▁sleepy	-10.9598
▁switched	-10.9598
▁trouble	-10.9598
▁uncle	-10.9598
▁volume	-10.9598
▁welcome	-10.9598
▁yummie	-10.9598
▁zesty	-10.9598
▁allergen	-10.9975
▁alternatives	-10.9975
▁amish	-10.9975
▁approve	-10.9975
▁bleh	-10.9975
▁brazil	-10.9975
▁brought	-10.9975
▁burger	-10.9975
▁burn	-10.9975
▁cap	-10.9975
▁caveat	-10.9975
▁ceylon	-10.9975
▁chow	-10.9975
▁comment	-10.9975
▁consumer	-10.9975
▁ct	-10.9975
▁dang	-10.9975
▁definite	-10.9975
▁deserves	-10.9975
▁dollars	-10.9975
▁doubled	-10.9975
▁douwe	-10.9975
▁early	-10.9975
▁easter	-10.9975
▁ehh	-10.9975
▁entertainment	-10.9975
▁erh	-10.9975
▁expires	-10.9975
▁fizz	-10.9975
▁fortune	-10.9975
▁france	-10.9975
▁fruitcake	-10.9975
▁goodies	-10.9975
▁habanero	-10.9975
▁habit	-10.9975
▁halvah	-10.9975
▁hextra	-10.9975
▁horse	-10.9975
▁hunger	-10.9975
▁jacks	-10.9975
▁leather	-10.9975
▁lemony	-10.9975
▁literally	-10.9975
▁marketing	-10.9975
▁meant	-10.9975
▁mildly	-10.9975
▁millstone	-10.9975
▁monster	-10.9975
▁moths	-10.9975
▁obsessed	-10.9975
▁passable	-10.9975
▁pearl	-10.9975
▁peppery	-10.9975
▁pho	-10.9975
▁preservatives	-10.9975
▁proof	-10.9975
▁rainforest	-10.9975
▁remedy	-10.9975
▁reviewer	-10.9975
▁ride	-10.9975
▁satisfactory	-10.9975
▁scones	-10.9975
▁sensational	-10.9975
▁shredded	-10.9975
▁snickers	-10.9975
▁spoon	-10.9975
▁stocking	-10.9975
▁suprisingly	-10.9975
▁swedish	-10.9975
▁trash	-10.9975
▁tummies	-10.9975
▁understand	-10.9975
▁upon	-10.9975
▁utterly	-10.9975
▁vermont	-10.9975
▁vile	-10.9975
▁whoa	-10.9975
▁yerba	-10.9975
▁yr	-10.9975
▁aerogarden	-11.0368
▁approves	-11.0368
▁beach	-11.0368
▁bed	-11.0368
▁bee	-11.0368
▁bourbon	-11.0368
▁brooklyn	-11.0368
▁catfood	-11.0368
▁cheetos	-11.0368
▁chi	-11.0368
▁chocolately	-11.0368
▁chun	-11.0368
▁chunk	-11.0368
▁chutney	-11.0368
▁cleans	-11.0368
▁commercial	-11.0368
▁creek	-11.0368
▁crispbread	-11.0368
▁danger	-11.0368
▁decaff	-11.0368
▁despite	-11.0368
▁digest	-11.0368
▁drip	-11.0368
▁el	-11.0368
▁emergency	-11.0368
▁ew	-11.0368
▁fab	-11.0368
▁fatty	-11.0368
▁fear	-11.0368
▁fondant	-11.0368
▁game	-11.0368
▁grilling	-11.0368
▁grinder	-11.0368
▁horseradish	-11.0368
▁intolerant	-11.0368
▁japan	-11.0368
▁keeper	-11.0368
▁keeping	-11.0368
▁knows	-11.0368
▁lack	-11.0368
▁lisa	-11.0368
▁luscious	-11.0368
▁maid	-11.0368
▁mallomars	-11.0368
▁mashed	-11.0368
▁master	-11.0368
▁mega	-11.0368
▁minus	-11.0368
▁mmmmmmmm	-11.0368
▁mommy	-11.0368
▁mona	-11.0368
▁munchies	-11.0368
▁mystery	-11.0368
▁nope	-11.0368
▁nose	-11.0368
▁pan	-11.0368
▁pecans	-11.0368
▁protien	-11.0368
▁rainbow	-11.0368
▁reeses	-11.0368
▁rejoice	-11.0368
▁reward	-11.0368
▁rid	-11.0368
▁salami	-11.0368
▁sand	-11.0368
▁shepherd	-11.0368
▁silky	-11.0368
▁skippy	-11.0368
▁spit	-11.0368
▁stays	-11.0368
▁taking	-11.0368
▁teabags	-11.0368
▁third	-11.0368
▁truth	-11.0368
▁turns	-11.0368
▁ummm	-11.0368
▁velveeta	-11.0368
▁warned	-11.0368
▁according	-11.0776
▁adore	-11.0776
▁appealing	-11.0776
▁ass	-11.0776
▁beverages	-11.0776
▁bulldog	-11.0776
▁bunny	-11.0776
▁buzz	-11.0776
▁cadbury	-11.0776
▁caff	-11.0776
▁camper	-11.0776
▁canada	-11.0776
▁carrot	-11.0776
▁chalky	-11.0776
▁choose	-11.0776
▁consider	-11.0776
▁couple	-11.0776
▁crumbled	-11.0776
▁deluxe	-11.0776
▁destroyed	-11.0776
▁detox	-11.0776
▁dissolve	-11.0776
▁enjoys	-11.0776
▁exceeded	-11.0776
▁fingers	-11.0776
▁finishing	-11.0776
▁hcg	-11.0776
▁heartburn	-11.0776
▁ignore	-11.0776
▁inaccurate	-11.0776
▁invention	-11.0776
▁jump	-11.0776
▁kombucha	-11.0776
▁krispies	-11.0776
▁lasagna	-11.0776
▁lattes	-11.0776
▁listen	-11.0776
▁lotion	-11.0776
▁mark	-11.0776
▁marshmallow	-11.0776
▁mayonnaise	-11.0776
▁mo	-11.0776
▁munch	-11.0776
▁neither	-11.0776
▁nirvana	-11.0776
▁nummy	-11.0776
▁ole	-11.0776
▁paul	-11.0776
▁poo	-11.0776
▁pulp	-11.0776
▁reasons	-11.0776
▁retail	-11.0776
▁risk	-11.0776
▁seasonal	-11.0776
▁served	-11.0776
▁shih	-11.0776
▁shock	-11.0776
▁solved	-11.0776
▁speedy	-11.0776
▁spinach	-11.0776
▁spry	-11.0776
▁stable	-11.0776
▁stains	-11.0776
▁stated	-11.0776
▁thailand	-11.0776
▁tic	-11.0776
▁toys	-11.0776
▁traverse	-11.0776
▁twizzlers	-11.0776
▁udon	-11.0776
▁valentine	-11.0776
▁vegetarians	-11.0776
▁verona	-11.0776
▁vines	-11.0776
▁walkers	-11.0776
▁website	-11.0776
▁whey	-11.0776
▁wise	-11.0776
▁worthless	-11.0776
▁al	-11.1201
▁anise	-11.1201
▁aweful	-11.1201
▁batter	-11.1201
▁beetlejuice	-11.1201
▁board	-11.1201
▁boot	-11.1201
▁boston	-11.1201
▁breadsticks	-11.1201
▁buns	-11.1201
▁butterscotch	-11.1201
▁chestnuts	-11.1201
▁clams	-11.1201
▁consumption	-11.1201
▁contents	-11.1201
▁cuisine	-11.1201
▁dew	-11.1201
▁dieting	-11.1201
▁drank	-11.1201
▁entertaining	-11.1201
▁entirely	-11.1201
▁essence	-11.1201
▁evo	-11.1201
▁execution	-11.1201
▁fell	-11.1201
▁finding	-11.1201
▁fool	-11.1201
▁freezer	-11.1201
▁further	-11.1201
▁ginseng	-11.1201
▁godiva	-11.1201
▁hairball	-11.1201
▁hairballs	-11.1201
▁heck	-11.1201
▁hmm	-11.1201
▁hopes	-11.1201
▁horribly	-11.1201
▁hottest	-11.1201
▁hum	-11.1201
▁image	-11.1201
▁imitation	-11.1201
▁insane	-11.1201
▁iron	-11.1201
▁jiffy	-11.1201
▁jumbo	-11.1201
▁kitchens	-11.1201
▁larabar	-11.1201
▁lie	-11.1201
▁loaf	-11.1201
▁magical	-11.1201
▁metallic	-11.1201
▁mixing	-11.1201
▁mug	-11.1201
▁mush	-11.1201
▁necessary	-11.1201
▁newtons	-11.1201
▁nong	-11.1201
▁nori	-11.1201
▁outdated	-11.1201
▁panko	-11.1201
▁powdery	-11.1201
▁practical	-11.1201
▁puff	-11.1201
▁refreshingly	-11.1201
▁rolled	-11.1201
▁scented	-11.1201
▁searching	-11.1201
▁sense	-11.1201
▁share	-11.1201
▁sister	-11.1201
▁sport	-11.1201
▁started	-11.1201
▁story	-11.1201
▁talking	-11.1201
▁tapioca	-11.1201
▁timely	-11.1201
▁undrinkable	-11.1201
▁veg	-11.1201
▁wins	-11.1201
▁yep	-11.1201
▁yummmy	-11.1201
▁zukes	-11.1201
▁aggressive	-11.1646
▁aloe	-11.1646
▁ambrosia	-11.1646
▁ants	-11.1646
▁attractive	-11.1646
▁availability	-11.1646
▁bagel	-11.1646
▁basil	-11.1646
▁bet	-11.1646
▁bunch	-11.1646
▁candied	-11.1646
▁cause	-11.1646
▁center	-11.1646
▁chile	-11.1646
▁colorful	-11.1646
▁compares	-11.1646
▁confusing	-11.1646
▁convert	-11.1646
▁created	-11.1646
▁culinary	-11.1646
▁definately	-11.1646
▁delighted	-11.1646
▁dents	-11.1646
▁dietary	-11.1646
▁dissappointed	-11.1646
▁father	-11.1646
▁fennel	-11.1646
▁halo	-11.1646
▁harney	-11.1646
▁harsh	-11.1646
▁heads	-11.1646
▁healing	-11.1646
▁hickory	-11.1646
▁ho	-11.1646
▁husky	-11.1646
▁iams	-11.1646
▁icky	-11.1646
▁issimo	-11.1646
▁jamaican	-11.1646
▁lazy	-11.1646
▁linda	-11.1646
▁monkey	-11.1646
▁nourishing	-11.1646
▁nutricious	-11.1646
▁pedigree	-11.1646
▁pk	-11.1646
▁process	-11.1646
▁recently	-11.1646
▁refined	-11.1646
▁restaurants	-11.1646
▁ribs	-11.1646
▁seemed	-11.1646
▁shim	-11.1646
▁shocked	-11.1646
▁similac	-11.1646
▁skeptical	-11.1646
▁smile	-11.1646
▁snow	-11.1646
▁sooner	-11.1646
▁spend	-11.1646
▁states	-11.1646
▁suck	-11.1646
▁sunbutter	-11.1646
▁sunshine	-11.1646
▁tang	-11.1646
▁taster	-11.1646
▁teething	-11.1646
▁term	-11.1646
▁therapy	-11.1646
▁thirst	-11.1646
▁trio	-11.1646
▁turn	-11.1646
▁unlike	-11.1646
▁vomiting	-11.1646
▁wafer	-11.1646
▁wasted	-11.1646
▁worlds	-11.1646
▁wtf	-11.1646
▁yea	-11.1646
▁zip	-11.1646
▁advertisement	-11.2111
▁arrowhead	-11.2111
▁arsenic	-11.2111
▁awesomeness	-11.2111
▁bagels	-11.2111
▁basically	-11.2111
▁believer	-11.2111
▁bisque	-11.2111
▁booty	-11.2111
▁breads	-11.2111
▁canidae	-11.2111
▁car	-11.2111
▁citric	-11.2111
▁cloves	-11.2111
▁coarse	-11.2111
▁colada	-11.2111
▁concerned	-11.2111
▁correctly	-11.2111
▁crown	-11.2111
▁dangerously	-11.2111
▁delcious	-11.2111
▁disappoint	-11.2111
▁disposakups	-11.2111
▁dunkin	-11.2111
▁east	-11.2111
▁egberts	-11.2111
▁everytime	-11.2111
▁extraordinary	-11.2111
▁fail	-11.2111
▁failure	-11.2111
▁faint	-11.2111
▁fats	-11.2111
▁functional	-11.2111
▁fur	-11.2111
▁germany	-11.2111
▁gi	-11.2111
▁gopher	-11.2111
▁hassle	-11.2111
▁helping	-11.2111
▁herring	-11.2111
▁hoo	-11.2111
▁hurry	-11.2111
▁internet	-11.2111
▁kat	-11.2111
▁kefir	-11.2111
▁kernels	-11.2111
▁kisses	-11.2111
▁knock	-11.2111
▁laxative	-11.2111
▁liquorice	-11.2111
▁loa	-11.2111
▁maine	-11.2111
▁mid	-11.2111
▁moderation	-11.2111
▁moisturizer	-11.2111
▁nostalgic	-11.2111
▁orders	-11.2111
▁ovaltine	-11.2111
▁overrated	-11.2111
▁palatable	-11.2111
▁pears	-11.2111
▁pepsi	-11.2111
▁perfume	-11.2111
▁pesto	-11.2111
▁petite	-11.2111
▁pickled	-11.2111
▁pit	-11.2111
▁professional	-11.2111
▁rasberry	-11.2111
▁ravioli	-11.2111
▁rope	-11.2111
▁safety	-11.2111
▁santa	-11.2111
▁sencha	-11.2111
▁shower	-11.2111
▁smelled	-11.2111
▁soymilk	-11.2111
▁sprouts	-11.2111
▁starbuck	-11.2111
▁stinks	-11.2111
▁sugarfree	-11.2111
▁suitable	-11.2111
▁sweetleaf	-11.2111
▁topper	-11.2111
▁tops	-11.2111
▁tray	-11.2111
▁truvia	-11.2111
▁types	-11.2111
▁tzu	-11.2111
▁udi	-11.2111
▁uh	-11.2111
▁vinaigrette	-11.2111
▁vodka	-11.2111
▁warehouse	-11.2111
▁waxy	-11.2111
▁wheats	-11.2111
▁whiskas	-11.2111
▁yo	-11.2111
▁yummers	-11.2111
▁antioxidants	-11.2599
▁atomic	-11.2599
▁breaks	-11.2599
▁bug	-11.2599
▁buyers	-11.2599
▁cabinet	-11.2599
▁calcium	-11.2599
▁cameron	-11.2599
▁capers	-11.2599
▁caps	-11.2599
▁coast	-11.2599
▁coombs	-11.2599
▁dentist	-11.2599
▁dreamfields	-11.2599
▁europe	-11.2599
▁everybody	-11.2599
▁fed	-11.2599
▁flaw	-11.2599
▁foul	-11.2599
▁fridge	-11.2599
▁generic	-11.2599
▁gfcf	-11.2599
▁ghiradelli	-11.2599
▁glucose	-11.2599
▁gooood	-11.2599
▁goooood	-11.2599
▁granulated	-11.2599
▁gumbo	-11.2599
▁holds	-11.2599
▁improve	-11.2599
▁infant	-11.2599
▁ish	-11.2599
▁jacobs	-11.2599
▁jerkey	-11.2599
▁jims	-11.2599
▁juices	-11.2599
▁lame	-11.2599
▁learn	-11.2599
▁lies	-11.2599
▁lowest	-11.2599
▁lucy	-11.2599
▁makers	-11.2599
▁math	-11.2599
▁mcdougall	-11.2599
▁meet	-11.2599
▁mg	-11.2599
▁misrepresented	-11.2599
▁mixture	-11.2599
▁moon	-11.2599
▁nifty	-11.2599
▁nutrients	-11.2599
▁ouch	-11.2599
▁oven	-11.2599
▁particularly	-11.2599
▁paw	-11.2599
▁pectin	-11.2599
▁phenomenal	-11.2599
▁potential	-11.2599
▁pregnant	-11.2599
▁produced	-11.2599
▁pros	-11.2599
▁queen	-11.2599
▁rancher	-11.2599
▁rd	-11.2599
▁relax	-11.2599
▁replace	-11.2599
▁required	-11.2599
▁ritz	-11.2599
▁savers	-11.2599
▁science	-11.2599
▁semi	-11.2599
▁sizes	-11.2599
▁smashed	-11.2599
▁snails	-11.2599
▁softer	-11.2599
▁sourdough	-11.2599
▁starch	-11.2599
▁stink	-11.2599
▁sugarless	-11.2599
▁tangerine	-11.2599
▁thus	-11.2599
▁treasure	-11.2599
▁tug	-11.2599
▁victor	-11.2599
▁view	-11.2599
▁wants	-11.2599
▁watching	-11.2599
▁whatever	-11.2599
▁yikes	-11.2599
▁yuban	-11.2599
▁acne	-11.3112
▁ahead	-11.3112
▁animals	-11.3112
▁appears	-11.3112
▁assam	-11.3112
▁aunt	-11.3112
▁bam	-11.3112
▁barbeque	-11.3112
▁beautifully	-11.3112
▁bees	-11.3112
▁beneficial	-11.3112
▁bentley	-11.3112
▁bill	-11.3112
▁birds	-11.3112
▁blended	-11.3112
▁boxer	-11.3112
▁brothers	-11.3112
▁caesar	-11.3112
▁cardamom	-11.3112
▁carrying	-11.3112
▁cayenne	-11.3112
▁celery	-11.3112
▁champagne	-11.3112
▁charms	-11.3112
▁cheesecake	-11.3112
▁chilli	-11.3112
▁cofee	-11.3112
▁colored	-11.3112
▁con	-11.3112
▁cone	-11.3112
▁cons	-11.3112
▁crappy	-11.3112
▁crunchies	-11.3112
▁current	-11.3112
▁damage	-11.3112
▁danish	-11.3112
▁david	-11.3112
▁decafe	-11.3112
▁desserts	-11.3112
▁dislike	-11.3112
▁donuts	-11.3112
▁ear	-11.3112
▁ended	-11.3112
▁enfamil	-11.3112
▁error	-11.3112
▁exellent	-11.3112
▁failed	-11.3112
▁falls	-11.3112
▁fever	-11.3112
▁fillers	-11.3112
▁fountain	-11.3112
▁freakin	-11.3112
▁goo	-11.3112
▁greenie	-11.3112
▁gumball	-11.3112
▁handling	-11.3112
▁heard	-11.3112
▁interest	-11.3112
▁jolt	-11.3112
▁kills	-11.3112
▁larabars	-11.3112
▁lentil	-11.3112
▁link	-11.3112
▁lived	-11.3112
▁loses	-11.3112
▁maca	-11.3112
▁mars	-11.3112
▁mart	-11.3112
▁mass	-11.3112
▁matters	-11.3112
▁mauna	-11.3112
▁mi	-11.3112
▁minced	-11.3112
▁mochas	-11.3112
▁mornings	-11.3112
▁mothers	-11.3112
▁multigrain	-11.3112
▁natures	-11.3112
▁om	-11.3112
▁opening	-11.3112
▁paris	-11.3112
▁pest	-11.3112
▁plate	-11.3112
▁policy	-11.3112
▁porridge	-11.3112
▁prep	-11.3112
▁press	-11.3112
▁range	-11.3112
▁requires	-11.3112
▁residue	-11.3112
▁saturated	-11.3112
▁scone	-11.3112
▁scout	-11.3112
▁sending	-11.3112
▁sensible	-11.3112
▁ships	-11.3112
▁sickness	-11.3112
▁singles	-11.3112
▁site	-11.3112
▁slice	-11.3112
▁slimy	-11.3112
▁smoothest	-11.3112
▁somewhere	-11.3112
▁stress	-11.3112
▁stupid	-11.3112
▁teavana	-11.3112
▁tinkyada	-11.3112
▁tortuga	-11.3112
▁turmeric	-11.3112
▁twins	-11.3112
▁uneven	-11.3112
▁video	-11.3112
▁weruva	-11.3112
▁women	-11.3112
▁ww	-11.3112
▁zoe	-11.3112
▁ahoy	-11.3653
▁alfredo	-11.3653
▁anchovy	-11.3653
▁area	-11.3653
▁baronet	-11.3653
▁behind	-11.3653
▁bird	-11.3653
▁bon	-11.3653
▁bonito	-11.3653
▁bubbles	-11.3653
▁bueno	-11.3653
▁canisters	-11.3653
▁carob	-11.3653
▁chest	-11.3653
▁clumps	-11.3653
▁coated	-11.3653
▁comforting	-11.3653
▁competition	-11.3653
▁compleats	-11.3653
▁counter	-11.3653
▁crash	-11.3653
▁creative	-11.3653
▁critter	-11.3653
▁cube	-11.3653
▁cured	-11.3653
▁customers	-11.3653
▁dandy	-11.3653
▁dash	-11.3653
▁del	-11.3653
▁desired	-11.3653
▁devil	-11.3653
▁disease	-11.3653
▁distinctive	-11.3653
▁dogfood	-11.3653
▁dreadful	-11.3653
▁eclipse	-11.3653
▁eggnog	-11.3653
▁enchilada	-11.3653
▁environment	-11.3653
▁excessive	-11.3653
▁factor	-11.3653
▁fashion	-11.3653
▁fda	-11.3653
▁felt	-11.3653
▁flawed	-11.3653
▁flea	-11.3653
▁flies	-11.3653
▁flimsy	-11.3653
▁flossies	-11.3653
▁forward	-11.3653
▁fragile	-11.3653
▁gem	-11.3653
▁gems	-11.3653
▁glazed	-11.3653
▁gr	-11.3653
▁grand	-11.3653
▁gummis	-11.3653
▁gunpowder	-11.3653
▁hempseed	-11.3653
▁hip	-11.3653
▁imagine	-11.3653
▁include	-11.3653
▁increased	-11.3653
▁intake	-11.3653
▁july	-11.3653
▁kicking	-11.3653
▁land	-11.3653
▁lemongrass	-11.3653
▁maltese	-11.3653
▁mandarin	-11.3653
▁manufacturer	-11.3653
▁maruchan	-11.3653
▁marzano	-11.3653
▁max	-11.3653
▁meaty	-11.3653
▁medley	-11.3653
▁min	-11.3653
▁mineral	-11.3653
▁named	-11.3653
▁nausea	-11.3653
▁navitas	-11.3653
▁necco	-11.3653
▁net	-11.3653
▁nuggets	-11.3653
▁overwhelming	-11.3653
▁owners	-11.3653
▁partially	-11.3653
▁patch	-11.3653
▁pearls	-11.3653
▁pina	-11.3653
▁potassium	-11.3653
▁preference	-11.3653
▁produce	-11.3653
▁reading	-11.3653
▁reduce	-11.3653
▁river	-11.3653
▁robbery	-11.3653
▁rocky	-11.3653
▁safer	-11.3653
▁sells	-11.3653
▁shea	-11.3653
▁signature	-11.3653
▁sitting	-11.3653
▁skittles	-11.3653
▁sky	-11.3653
▁sleepytime	-11.3653
▁station	-11.3653
▁straws	-11.3653
▁students	-11.3653
▁tastic	-11.3653
▁terrier	-11.3653
▁ton	-11.3653
▁tricky	-11.3653
▁unit	-11.3653
▁variation	-11.3653
▁vary	-11.3653
▁vitality	-11.3653
▁wraps	-11.3653
▁zen	-11.3653
▁adores	-11.4224
▁aerator	-11.4224
▁albacore	-11.4224
▁artichoke	-11.4224
▁backpacking	-11.4224
▁bark	-11.4224
▁bonus	-11.4224
▁bravo	-11.4224
▁breakers	-11.4224
▁brews	-11.4224
▁bummer	-11.4224
▁burgers	-11.4224
▁buster	-11.4224
▁cappucino	-11.4224
▁carries	-11.4224
▁charge	-11.4224
▁chilled	-11.4224
▁chopped	-11.4224
▁clearly	-11.4224
▁combined	-11.4224
▁cover	-11.4224
▁crock	-11.4224
▁cupboard	-11.4224
▁cytomax	-11.4224
▁deodorant	-11.4224
▁diabetes	-11.4224
▁dig	-11.4224
▁disposable	-11.4224
▁dissatisfied	-11.4224
▁doubt	-11.4224
▁dusty	-11.4224
▁en	-11.4224
▁environmentally	-11.4224
▁er	-11.4224
▁factory	-11.4224
▁filet	-11.4224
▁fireballs	-11.4224
▁fuss	-11.4224
▁gassy	-11.4224
▁grandson	-11.4224
▁guiltless	-11.4224
▁hmmmm	-11.4224
▁imho	-11.4224
▁leak	-11.4224
▁leaked	-11.4224
▁levels	-11.4224
▁lickin	-11.4224
▁lollipop	-11.4224
▁maggi	-11.4224
▁mangoes	-11.4224
▁mangosteen	-11.4224
▁manhattan	-11.4224
▁meds	-11.4224
▁midnight	-11.4224
▁morsels	-11.4224
▁nabisco	-11.4224
▁nights	-11.4224
▁nutrient	-11.4224
▁outrageously	-11.4224
▁paradise	-11.4224
▁passed	-11.4224
▁pastries	-11.4224
▁pate	-11.4224
▁patients	-11.4224
▁peggy	-11.4224
▁polenta	-11.4224
▁popped	-11.4224
▁proper	-11.4224
▁revolting	-11.4224
▁ring	-11.4224
▁rule	-11.4224
▁runs	-11.4224
▁russian	-11.4224
▁scary	-11.4224
▁seven	-11.4224
▁shabby	-11.4224
▁shine	-11.4224
▁sinful	-11.4224
▁soba	-11.4224
▁sound	-11.4224
▁sriracha	-11.4224
▁student	-11.4224
▁stuffer	-11.4224
▁substantial	-11.4224
▁substitue	-11.4224
▁sue	-11.4224
▁suppose	-11.4224
▁swallow	-11.4224
▁tartar	-11.4224
▁thinks	-11.4224
▁tip	-11.4224
▁tongue	-11.4224
▁toss	-11.4224
▁tub	-11.4224
▁van	-11.4224
▁velvet	-11.4224
▁venison	-11.4224
▁walk	-11.4224
▁watering	-11.4224
▁waters	-11.4224
▁whiskey	-11.4224
▁wicked	-11.4224
▁wierd	-11.4224
▁woman	-11.4224
▁wonderfull	-11.4224
▁wood	-11.4224
▁yumminess	-11.4224
▁afford	-11.4831
▁appreciated	-11.4831
▁approval	-11.4831
▁begin	-11.4831
▁biggest	-11.4831
▁bio	-11.4831
▁boo	-11.4831
▁brazilian	-11.4831
▁brulee	-11.4831
▁bumble	-11.4831
▁burning	-11.4831
▁butt	-11.4831
▁caf	-11.4831
▁caffiene	-11.4831
▁caffine	-11.4831
▁canadian	-11.4831
▁carbers	-11.4831
▁card	-11.4831
▁cares	-11.4831
▁carrots	-11.4831
▁certain	-11.4831
▁cesar	-11.4831
▁changing	-11.4831
▁charges	-11.4831
▁cincinnati	-11.4831
▁claim	-11.4831
▁comments	-11.4831
▁cry	-11.4831
▁daughters	-11.4831
▁details	-11.4831
▁diaper	-11.4831
▁diced	-11.4831
▁discovered	-11.4831
▁distinct	-11.4831
▁doo	-11.4831
▁drug	-11.4831
▁dumplings	-11.4831
▁ease	-11.4831
▁edge	-11.4831
▁evil	-11.4831
▁exciting	-11.4831
▁faulty	-11.4831
▁feelings	-11.4831
▁franks	-11.4831
▁freaking	-11.4831
▁freshly	-11.4831
▁gallon	-11.4831
▁gnats	-11.4831
▁gobbled	-11.4831
▁golean	-11.4831
▁gouging	-11.4831
▁goya	-11.4831
▁guava	-11.4831
▁jarred	-11.4831
▁jordan	-11.4831
▁junkie	-11.4831
▁keebler	-11.4831
▁kicks	-11.4831
▁kidney	-11.4831
▁laffy	-11.4831
▁lego	-11.4831
▁lick	-11.4831
▁london	-11.4831
▁lotta	-11.4831
▁lumpy	-11.4831
▁lundberg	-11.4831
▁luzianne	-11.4831
▁maltodextrin	-11.4831
▁marathon	-11.4831
▁mon	-11.4831
▁mousse	-11.4831
▁necessity	-11.4831
▁nobody	-11.4831
▁noticed	-11.4831
▁nursing	-11.4831
▁offers	-11.4831
▁paleo	-11.4831
▁particular	-11.4831
▁parties	-11.4831
▁paying	-11.4831
▁peanutbutter	-11.4831
▁poppy	-11.4831
▁practically	-11.4831
▁pringles	-11.4831
▁program	-11.4831
▁puree	-11.4831
▁puroast	-11.4831
▁raspberries	-11.4831
▁recent	-11.4831
▁reorder	-11.4831
▁reviewing	-11.4831
▁revolution	-11.4831
▁salts	-11.4831
▁sardine	-11.4831
▁sausages	-11.4831
▁sawdust	-11.4831
▁shockingly	-11.4831
▁silver	-11.4831
▁sipping	-11.4831
▁sodastream	-11.4831
▁specialty	-11.4831
▁spike	-11.4831
▁splash	-11.4831
▁squirrels	-11.4831
▁sucker	-11.4831
▁sufferers	-11.4831
▁sweetners	-11.4831
▁tasteful	-11.4831
▁teeccino	-11.4831
▁toaster	-11.4831
▁uk	-11.4831
▁unacceptable	-11.4831
▁understatement	-11.4831
▁unsatisfied	-11.4831
▁urinary	-11.4831
▁wary	-11.4831
▁wasa	-11.4831
▁wilton	-11.4831
▁wings	-11.4831
▁won	-11.4831
▁worthwhile	-11.4831
▁yorkies	-11.4831
▁yup	-11.4831
▁action	-11.5476
▁advertized	-11.5476
▁appletini	-11.5476
▁aromat	-11.5476
▁arthritis	-11.5476
▁artificially	-11.5476
▁autumn	-11.5476
▁awhile	-11.5476
▁bare	-11.5476
▁bath	-11.5476
▁became	-11.5476
▁bella	-11.5476
▁bellies	-11.5476
▁blender	-11.5476
▁block	-11.5476
▁boyfriend	-11.5476
▁brach	-11.5476
▁breaking	-11.5476
▁breeds	-11.5476
▁burns	-11.5476
▁burton	-11.5476
▁campbells	-11.5476
▁chebe	-11.5476
▁chock	-11.5476
▁chocoholics	-11.5476
▁clif	-11.5476
▁clove	-11.5476
▁clumping	-11.5476
▁condensed	-11.5476
▁considering	-11.5476
▁constant	-11.5476
▁continue	-11.5476
▁croutons	-11.5476
▁darker	-11.5476
▁dee	-11.5476
▁designed	-11.5476
▁disagree	-11.5476
▁disappointingly	-11.5476
▁disappoints	-11.5476
▁electrolytes	-11.5476
▁ener	-11.5476
▁energizing	-11.5476
▁ewww	-11.5476
▁expectation	-11.5476
▁expire	-11.5476
▁fills	-11.5476
▁flaky	-11.5476
▁flowering	-11.5476
▁forest	-11.5476
▁forgot	-11.5476
▁frying	-11.5476
▁fusion	-11.5476
▁galore	-11.5476
▁gray	-11.5476
▁happier	-11.5476
▁happily	-11.5476
▁highway	-11.5476
▁imported	-11.5476
▁jane	-11.5476
▁jitters	-11.5476
▁kenya	-11.5476
▁kits	-11.5476
▁leaky	-11.5476
▁lift	-11.5476
▁loyal	-11.5476
▁macadamias	-11.5476
▁margaritas	-11.5476
▁mask	-11.5476
▁maui	-11.5476
▁meats	-11.5476
▁milder	-11.5476
▁minis	-11.5476
▁mis	-11.5476
▁moderate	-11.5476
▁moisture	-11.5476
▁necta	-11.5476
▁notes	-11.5476
▁novelty	-11.5476
▁occasional	-11.5476
▁offering	-11.5476
▁omaha	-11.5476
▁oops	-11.5476
▁orville	-11.5476
▁overseas	-11.5476
▁panda	-11.5476
▁peter	-11.5476
▁pilaf	-11.5476
▁pleases	-11.5476
▁pocky	-11.5476
▁preparation	-11.5476
▁preserve	-11.5476
▁production	-11.5476
▁profile	-11.5476
▁q	-11.5476
▁recalled	-11.5476
▁refreshment	-11.5476
▁retriever	-11.5476
▁ridder	-11.5476
▁rise	-11.5476
▁rishi	-11.5476
▁saeco	-11.5476
▁salba	-11.5476
▁seals	-11.5476
▁seattle	-11.5476
▁seltzer	-11.5476
▁shelled	-11.5476
▁slap	-11.5476
▁smoking	-11.5476
▁sojos	-11.5476
▁speed	-11.5476
▁sprinkle	-11.5476
▁stuffing	-11.5476
▁syrupy	-11.5476
▁tap	-11.5476
▁taylors	-11.5476
▁team	-11.5476
▁thru	-11.5476
▁tract	-11.5476
▁tvp	-11.5476
▁ugly	-11.5476
▁universe	-11.5476
▁usda	-11.5476
▁virginia	-11.5476
▁whipped	-11.5476
▁wing	-11.5476
▁wonka	-11.5476
▁wrap	-11.5476
▁york	-11.5476
▁youth	-11.5476
▁yummmmmm	-11.5476
▁yummmmmy	-11.5476
▁z	-11.5476
▁zinger	-11.5476
▁against	-11.6166
▁age	-11.6166
▁aluminum	-11.6166
▁amounts	-11.6166
▁anticipated	-11.6166
▁appetizer	-11.6166
▁arrives	-11.6166
▁asked	-11.6166
▁awesomely	-11.6166
▁bai	-11.6166
▁bakers	-11.6166
▁baklava	-11.6166
▁balm	-11.6166
▁bank	-11.6166
▁barney	-11.6166
▁batman	-11.6166
▁beginner	-11.6166
▁besides	-11.6166
▁bubbly	-11.6166
▁chewies	-11.6166
▁clever	-11.6166
▁clumpy	-11.6166
▁cocaine	-11.6166
▁compromise	-11.6166
▁concern	-11.6166
▁cooker	-11.6166
▁creamers	-11.6166
▁cumin	-11.6166
▁cupcake	-11.6166
▁curls	-11.6166
▁dave	-11.6166
▁decadence	-11.6166
▁deliver	-11.6166
▁dieter	-11.6166
▁dijon	-11.6166
▁dilmah	-11.6166
▁dioxide	-11.6166
▁directly	-11.6166
▁discount	-11.6166
▁dorm	-11.6166
▁dragon	-11.6166
▁dull	-11.6166
▁eco	-11.6166
▁efficient	-11.6166
▁essentials	-11.6166
▁ex	-11.6166
▁exceptionally	-11.6166
▁experienced	-11.6166
▁fenugreek	-11.6166
▁fight	-11.6166
▁final	-11.6166
▁flake	-11.6166
▁fond	-11.6166
▁fully	-11.6166
▁fyi	-11.6166
▁genius	-11.6166
▁gin	-11.6166
▁gnocchi	-11.6166
▁greater	-11.6166
▁hansen	-11.6166
▁happen	-11.6166
▁harrogate	-11.6166
▁hash	-11.6166
▁hay	-11.6166
▁hill	-11.6166
▁houtte	-11.6166
▁huckleberry	-11.6166
▁hurt	-11.6166
▁iffy	-11.6166
▁includes	-11.6166
▁infants	-11.6166
▁intended	-11.6166
▁introduction	-11.6166
▁ireland	-11.6166
▁italiano	-11.6166
▁jeans	-11.6166
▁juniper	-11.6166
▁kikkoman	-11.6166
▁killed	-11.6166
▁krusteaz	-11.6166
▁lapsang	-11.6166
▁larry	-11.6166
▁lifestyle	-11.6166
▁lifetime	-11.6166
▁likely	-11.6166
▁liquor	-11.6166
▁listened	-11.6166
▁louisiana	-11.6166
▁lychee	-11.6166
▁mad	-11.6166
▁meatballs	-11.6166
▁melon	-11.6166
▁minimal	-11.6166
▁moisturizing	-11.6166
▁mums	-11.6166
▁muscle	-11.6166
▁nacho	-11.6166
▁namaste	-11.6166
▁origin	-11.6166
▁pamelas	-11.6166
▁papaya	-11.6166
▁pepperoni	-11.6166
▁planter	-11.6166
▁pom	-11.6166
▁poppers	-11.6166
▁poptarts	-11.6166
▁porcini	-11.6166
▁practice	-11.6166
▁prefers	-11.6166
▁prevent	-11.6166
▁print	-11.6166
▁pugs	-11.6166
▁pull	-11.6166
▁purse	-11.6166
▁quencher	-11.6166
▁quit	-11.6166
▁raised	-11.6166
▁ranchers	-11.6166
▁recommendation	-11.6166
▁reformulated	-11.6166
▁refused	-11.6166
▁relaxation	-11.6166
▁remove	-11.6166
▁returned	-11.6166
▁rica	-11.6166
▁rican	-11.6166
▁saw	-11.6166
▁scotch	-11.6166
▁sen	-11.6166
▁severe	-11.6166
▁shows	-11.6166
▁slowly	-11.6166
▁sophisticated	-11.6166
▁southwest	-11.6166
▁spendy	-11.6166
▁stella	-11.6166
▁suprised	-11.6166
▁switching	-11.6166
▁tastebuds	-11.6166
▁textured	-11.6166
▁thanksgiving	-11.6166
▁thee	-11.6166
▁told	-11.6166
▁torn	-11.6166
▁triple	-11.6166
▁trips	-11.6166
▁tube	-11.6166
▁tulsi	-11.6166
▁twining	-11.6166
▁ummmm	-11.6166
▁unsure	-11.6166
▁users	-11.6166
▁vino	-11.6166
▁violet	-11.6166
▁whatsoever	-11.6166
▁wheatena	-11.6166
▁worries	-11.6166
▁wrapper	-11.6166
▁writing	-11.6166
▁yummies	-11.6166
▁yummyearth	-11.6166
▁ahhh	-11.6907
▁alike	-11.6907
▁amaretto	-11.6907
▁angry	-11.6907
▁anna	-11.6907
▁antioxidant	-11.6907
▁arrive	-11.6907
▁art	-11.6907
▁baskets	-11.6907
▁beaba	-11.6907
▁beg	-11.6907
▁bergin	-11.6907
▁biscoff	-11.6907
▁bisto	-11.6907
▁blending	-11.6907
▁blk	-11.6907
▁blues	-11.6907
▁boba	-11.6907
▁boneless	-11.6907
▁brick	-11.6907
▁bringing	-11.6907
▁caraway	-11.6907
▁category	-11.6907
▁challenge	-11.6907
▁chocoholic	-11.6907
▁comparing	-11.6907
▁competitive	-11.6907
▁conditions	-11.6907
▁cones	-11.6907
▁crumbles	-11.6907
▁decorating	-11.6907
▁deelish	-11.6907
▁deli	-11.6907
▁deserve	-11.6907
▁disposakup	-11.6907
▁dressings	-11.6907
▁duncan	-11.6907
▁economy	-11.6907
▁entree	-11.6907
▁erin	-11.6907
▁erythritol	-11.6907
▁escapes	-11.6907
▁escargot	-11.6907
▁explosion	-11.6907
▁express	-11.6907
▁ezekiel	-11.6907
▁fails	-11.6907
▁falafel	-11.6907
▁fault	-11.6907
▁feet	-11.6907
▁fettuccine	-11.6907
▁fi	-11.6907
▁figure	-11.6907
▁fill	-11.6907
▁finely	-11.6907
▁florida	-11.6907
▁forming	-11.6907
▁frogs	-11.6907
▁future	-11.6907
▁gain	-11.6907
▁generous	-11.6907
▁gobble	-11.6907
▁goodie	-11.6907
▁gout	-11.6907
▁grease	-11.6907
▁greatness	-11.6907
▁gsd	-11.6907
▁gustaf	-11.6907
▁halva	-11.6907
▁halves	-11.6907
▁harbor	-11.6907
▁harder	-11.6907
▁hazelnuts	-11.6907
▁hazlenut	-11.6907
▁hole	-11.6907
▁horizon	-11.6907
▁husbands	-11.6907
▁icing	-11.6907
▁immune	-11.6907
▁including	-11.6907
▁incomplete	-11.6907
▁infusion	-11.6907
▁innova	-11.6907
▁intact	-11.6907
▁islands	-11.6907
▁jittery	-11.6907
▁kelloggs	-11.6907
▁kinds	-11.6907
▁kiss	-11.6907
▁krave	-11.6907
▁lawry	-11.6907
▁leading	-11.6907
▁learning	-11.6907
▁licking	-11.6907
▁lip	-11.6907
▁loma	-11.6907
▁lowrey	-11.6907
▁marinara	-11.6907
▁marketed	-11.6907
▁meatloaf	-11.6907
▁mentos	-11.6907
▁michigan	-11.6907
▁millet	-11.6907
▁mincemeat	-11.6907
▁minor	-11.6907
▁mislabeled	-11.6907
▁mt	-11.6907
▁mudslide	-11.6907
▁nana	-11.6907
▁nathan	-11.6907
▁necessarily	-11.6907
▁newmans	-11.6907
▁nutmeg	-11.6907
▁ny	-11.6907
▁oberto	-11.6907
▁occasion	-11.6907
▁oddly	-11.6907
▁offered	-11.6907
▁originals	-11.6907
▁orijen	-11.6907
▁oyster	-11.6907
▁oysters	-11.6907
▁patties	-11.6907
▁peppercorn	-11.6907
▁picked	-11.6907
▁pkg	-11.6907
▁pour	-11.6907
▁praise	-11.6907
▁puke	-11.6907
▁pumkin	-11.6907
▁ray	-11.6907
▁restricted	-11.6907
▁returns	-11.6907
▁runts	-11.6907
▁russell	-11.6907
▁saf	-11.6907
▁sahale	-11.6907
▁sause	-11.6907
▁scare	-11.6907
▁self	-11.6907
▁setting	-11.6907
▁shaped	-11.6907
▁shaved	-11.6907
▁shelves	-11.6907
▁shin	-11.6907
▁shipper	-11.6907
▁sloppy	-11.6907
▁snappy	-11.6907
▁snyder	-11.6907
▁solo	-11.6907
▁souper	-11.6907
▁soybean	-11.6907
▁stacy	-11.6907
▁standby	-11.6907
▁starting	-11.6907
▁starts	-11.6907
▁steep	-11.6907
▁sticking	-11.6907
▁subsitute	-11.6907
▁tacs	-11.6907
▁tails	-11.6907
▁tetley	-11.6907
▁theatre	-11.6907
▁thicker	-11.6907
▁tiki	-11.6907
▁tiramisu	-11.6907
▁toothpicks	-11.6907
▁tower	-11.6907
▁unbeatable	-11.6907
▁underwhelming	-11.6907
▁unfortunate	-11.6907
▁vege	-11.6907
▁vegemite	-11.6907
▁vending	-11.6907
▁vote	-11.6907
▁waaaay	-11.6907
▁washed	-11.6907
▁wheels	-11.6907
▁wintergreen	-11.6907
▁worried	-11.6907
▁wrappers	-11.6907
▁xmas	-11.6907
▁yummi	-11.6907
▁across	-11.7707
▁additional	-11.7707
▁afraid	-11.7707
▁alkaline	-11.7707
▁allsorts	-11.7707
▁amber	-11.7707
▁appetizing	-11.7707
▁arnold	-11.7707
▁artisan	-11.7707
▁asparagus	-11.7707
▁atkins	-11.7707
▁au	-11.7707
▁award	-11.7707
▁beefy	-11.7707
▁blind	-11.7707
▁blows	-11.7707
▁border	-11.7707
▁boullion	-11.7707
▁bowel	-11.7707
▁bragg	-11.7707
▁brother	-11.7707
▁bustelo	-11.7707
▁button	-11.7707
▁calling	-11.7707
▁caloric	-11.7707
▁cancelled	-11.7707
▁carbonation	-11.7707
▁caribbean	-11.7707
▁causing	-11.7707
▁champions	-11.7707
▁checkups	-11.7707
▁cheeses	-11.7707
▁choclate	-11.7707
▁chorizo	-11.7707
▁cleanser	-11.7707
▁clump	-11.7707
▁cofffee	-11.7707
▁common	-11.7707
▁compact	-11.7707
▁complain	-11.7707
▁connoisseur	-11.7707
▁convience	-11.7707
▁coon	-11.7707
▁crepes	-11.7707
▁critters	-11.7707
▁crystallized	-11.7707
▁cuban	-11.7707
▁curly	-11.7707
▁deadly	-11.7707
▁deer	-11.7707
▁devour	-11.7707
▁dha	-11.7707
▁disapointing	-11.7707
▁disapointment	-11.7707
▁discontinue	-11.7707
▁dubble	-11.7707
▁dulce	-11.7707
▁earths	-11.7707
▁edited	-11.7707
▁edition	-11.7707
▁ehhh	-11.7707
▁exact	-11.7707
▁exp	-11.7707
▁expert	-11.7707
▁fare	-11.7707
▁feedback	-11.7707
▁fiji	-11.7707
▁fillets	-11.7707
▁flavours	-11.7707
▁flop	-11.7707
▁foil	-11.7707
▁formulation	-11.7707
▁frank	-11.7707
▁frappe	-11.7707
▁frustrated	-11.7707
▁furry	-11.7707
▁glucosamine	-11.7707
▁glue	-11.7707
▁gooooood	-11.7707
▁gosh	-11.7707
▁gotten	-11.7707
▁grace	-11.7707
▁grandkids	-11.7707
▁grated	-11.7707
▁growth	-11.7707
▁harry	-11.7707
▁hound	-11.7707
▁hulls	-11.7707
▁humans	-11.7707
▁illegal	-11.7707
▁imagined	-11.7707
▁immediately	-11.7707
▁increases	-11.7707
▁insect	-11.7707
▁instinct	-11.7707
▁intolerance	-11.7707
▁irresistible	-11.7707
▁jams	-11.7707
▁jimmies	-11.7707
▁john	-11.7707
▁judge	-11.7707
▁kaviar	-11.7707
▁kernel	-11.7707
▁kimchi	-11.7707
▁kinder	-11.7707
▁kups	-11.7707
▁labs	-11.7707
▁learned	-11.7707
▁leche	-11.7707
▁lee	-11.7707
▁lily	-11.7707
▁lord	-11.7707
▁madhava	-11.7707
▁manufacturing	-11.7707
▁martinis	-11.7707
▁matzo	-11.7707
▁meatless	-11.7707
▁med	-11.7707
▁memorable	-11.7707
▁method	-11.7707
▁microwavable	-11.7707
▁milka	-11.7707
▁milo	-11.7707
▁mocktail	-11.7707
▁moderately	-11.7707
▁moles	-11.7707
▁mount	-11.7707
▁mtn	-11.7707
▁mud	-11.7707
▁neutral	-11.7707
▁noticeable	-11.7707
▁obviously	-11.7707
▁occasions	-11.7707
▁oldie	-11.7707
▁olds	-11.7707
▁page	-11.7707
▁painful	-11.7707
▁peel	-11.7707
▁pellets	-11.7707
▁pitcher	-11.7707
▁plums	-11.7707
▁popper	-11.7707
▁poultry	-11.7707
▁premier	-11.7707
▁pungent	-11.7707
▁purchaser	-11.7707
▁putting	-11.7707
▁puzzle	-11.7707
▁rabbits	-11.7707
▁ratio	-11.7707
▁recipient	-11.7707
▁recommends	-11.7707
▁refill	-11.7707
▁refrigerated	-11.7707
▁refund	-11.7707
▁remarkable	-11.7707
▁repellent	-11.7707
▁resealable	-11.7707
▁reserve	-11.7707
▁result	-11.7707
▁reviewed	-11.7707
▁rough	-11.7707
▁routine	-11.7707
▁ruby	-11.7707
▁ruin	-11.7707
▁saccharin	-11.7707
▁savor	-11.7707
▁senses	-11.7707
▁sheets	-11.7707
▁shortage	-11.7707
▁sickly	-11.7707
▁sirloin	-11.7707
▁sit	-11.7707
▁smarties	-11.7707
▁smokin	-11.7707
▁smoother	-11.7707
▁snapea	-11.7707
▁soooooooo	-11.7707
▁spain	-11.7707
▁squid	-11.7707
▁stain	-11.7707
▁standards	-11.7707
▁stok	-11.7707
▁strongest	-11.7707
▁summertime	-11.7707
▁supplies	-11.7707
▁survival	-11.7707
▁taken	-11.7707
▁themselves	-11.7707
▁thoughts	-11.7707
▁thunder	-11.7707
▁till	-11.7707
▁tom	-11.7707
▁tot	-11.7707
▁treatment	-11.7707
▁trees	-11.7707
▁twinnings	-11.7707
▁unable	-11.7707
▁unnatural	-11.7707
▁valentines	-11.7707
▁versus	-11.7707
▁vinci	-11.7707
▁vinturi	-11.7707
▁waggin	-11.7707
▁wakes	-11.7707
▁wallet	-11.7707
▁warming	-11.7707
▁wax	-11.7707
▁whip	-11.7707
▁wide	-11.7707
▁wished	-11.7707
▁woo	-11.7707
▁worry	-11.7707
▁worthington	-11.7707
▁yummmmmmm	-11.7707
▁yummmmy	-11.7707
▁zingy	-11.7707
▁acidity	-11.8577
▁addicts	-11.8577
▁admit	-11.8577
▁aerogrow	-11.8577
▁aged	-11.8577
▁aka	-11.8577
▁albanese	-11.8577
▁alternate	-11.8577
▁americolor	-11.8577
▁appreciate	-11.8577
▁appropriate	-11.8577
▁artifical	-11.8577
▁awfully	-11.8577
▁baja	-11.8577
▁batches	-11.8577
▁bb	-11.8577
▁beet	-11.8577
▁beginning	-11.8577
▁bellys	-11.8577
▁bittersweet	-11.8577
▁bizarre	-11.8577
▁bladder	-11.8577
▁blame	-11.8577
▁bow	-11.8577
▁boyardee	-11.8577
▁brain	-11.8577
▁breathe	-11.8577
▁brush	-11.8577
▁bud	-11.8577
▁busted	-11.8577
▁canes	-11.8577
▁capsule	-11.8577
▁celsius	-11.8577
▁chick	-11.8577
▁chihuahuas	-11.8577
▁chummies	-11.8577
▁cleanse	-11.8577
▁coats	-11.8577
▁cocktails	-11.8577
▁companion	-11.8577
▁complement	-11.8577
▁compostable	-11.8577
▁concerns	-11.8577
▁counting	-11.8577
▁create	-11.8577
▁cross	-11.8577
▁crumble	-11.8577
▁currently	-11.8577
▁dachshund	-11.8577
▁dare	-11.8577
▁darned	-11.8577
▁davinci	-11.8577
▁decision	-11.8577
▁depending	-11.8577
▁desk	-11.8577
▁disappeared	-11.8577
▁disguise	-11.8577
▁dose	-11.8577
▁duty	-11.8577
▁elderly	-11.8577
▁ella	-11.8577
▁emerils	-11.8577
▁emptor	-11.8577
▁ese	-11.8577
▁esp	-11.8577
▁essentia	-11.8577
▁experiment	-11.8577
▁expiry	-11.8577
▁ez	-11.8577
▁fantastically	-11.8577
▁farro	-11.8577
▁fattening	-11.8577
▁faves	-11.8577
▁fe	-11.8577
▁flavoured	-11.8577
▁former	-11.8577
▁frappuccino	-11.8577
▁function	-11.8577
▁fussie	-11.8577
▁galil	-11.8577
▁garbanzo	-11.8577
▁geat	-11.8577
▁gerd	-11.8577
▁gimmick	-11.8577
▁girlfriend	-11.8577
▁glace	-11.8577
▁glorified	-11.8577
▁glorious	-11.8577
▁gmos	-11.8577
▁granddaughter	-11.8577
▁grandmother	-11.8577
▁grateful	-11.8577
▁guacamole	-11.8577
▁gym	-11.8577
▁ha	-11.8577
▁hagen	-11.8577
▁harmful	-11.8577
▁healty	-11.8577
▁heritage	-11.8577
▁hexane	-11.8577
▁hines	-11.8577
▁hints	-11.8577
▁hp	-11.8577
▁ibs	-11.8577
▁iexcl	-11.8577
▁impress	-11.8577
▁ineffective	-11.8577
▁invented	-11.8577
▁jaw	-11.8577
▁jel	-11.8577
▁joes	-11.8577
▁kamut	-11.8577
▁kap	-11.8577
▁kim	-11.8577
▁kracker	-11.8577
▁labeled	-11.8577
▁lakes	-11.8577
▁latest	-11.8577
▁limit	-11.8577
▁lingonberry	-11.8577
▁lotsa	-11.8577
▁lyons	-11.8577
▁mackerel	-11.8577
▁magnesium	-11.8577
▁magnificent	-11.8577
▁mangos	-11.8577
▁manna	-11.8577
▁manufactured	-11.8577
▁marinades	-11.8577
▁marley	-11.8577
▁masterpiece	-11.8577
▁metromint	-11.8577
▁mignon	-11.8577
▁minerals	-11.8577
▁minimum	-11.8577
▁miracles	-11.8577
▁miraculous	-11.8577
▁mmmmmmmmmm	-11.8577
▁mochi	-11.8577
▁modification	-11.8577
▁moment	-11.8577
▁monin	-11.8577
▁mood	-11.8577
▁mores	-11.8577
▁motion	-11.8577
▁muir	-11.8577
▁muy	-11.8577
▁neuro	-11.8577
▁north	-11.8577
▁novice	-11.8577
▁nowhere	-11.8577
▁nutritionally	-11.8577
▁ocean	-11.8577
▁olde	-11.8577
▁oranges	-11.8577
▁oriental	-11.8577
▁oro	-11.8577
▁outdoor	-11.8577
▁overload	-11.8577
▁palmer	-11.8577
▁panettone	-11.8577
▁parts	-11.8577
▁pasty	-11.8577
▁penne	-11.8577
▁performance	-11.8577
▁persian	-11.8577
▁perspective	-11.8577
▁picnic	-11.8577
▁pictures	-11.8577
▁piggy	-11.8577
▁popcorners	-11.8577
▁powering	-11.8577
▁pralines	-11.8577
▁precious	-11.8577
▁pressed	-11.8577
▁prize	-11.8577
▁project	-11.8577
▁promptly	-11.8577
▁provide	-11.8577
▁provides	-11.8577
▁pucker	-11.8577
▁pumpernickel	-11.8577
▁purposes	-11.8577
▁pyramid	-11.8577
▁quantities	-11.8577
▁rack	-11.8577
▁ramyun	-11.8577
▁rawhides	-11.8577
▁regret	-11.8577
▁resist	-11.8577
▁resolved	-11.8577
▁rinse	-11.8577
▁rootbeer	-11.8577
▁rosehip	-11.8577
▁saltines	-11.8577
▁schnauzer	-11.8577
▁sellers	-11.8577
▁sharing	-11.8577
▁shedding	-11.8577
▁siamese	-11.8577
▁sign	-11.8577
▁skillet	-11.8577
▁skimpy	-11.8577
▁skinless	-11.8577
▁snapple	-11.8577
▁sooooooo	-11.8577
▁souchong	-11.8577
▁soynut	-11.8577
▁spoil	-11.8577
▁sportea	-11.8577
▁spots	-11.8577
▁steal	-11.8577
▁stellar	-11.8577
▁stews	-11.8577
▁stretch	-11.8577
▁strip	-11.8577
▁strongly	-11.8577
▁substance	-11.8577
▁substitutes	-11.8577
▁successful	-11.8577
▁sucked	-11.8577
▁sucrose	-11.8577
▁sugared	-11.8577
▁sunkist	-11.8577
▁suprise	-11.8577
▁survive	-11.8577
▁sweeten	-11.8577
▁sylvia	-11.8577
▁synthetic	-11.8577
▁tabouli	-11.8577
▁tastless	-11.8577
▁tasy	-11.8577
▁tellicherry	-11.8577
▁temptations	-11.8577
▁testing	-11.8577
▁thinner	-11.8577
▁throwing	-11.8577
▁tight	-11.8577
▁ting	-11.8577
▁toasty	-11.8577
▁tremendous	-11.8577
▁tripe	-11.8577
▁trusted	-11.8577
▁unexpectedly	-11.8577
▁unimpressed	-11.8577
▁upper	-11.8577
▁vibrant	-11.8577
▁viva	-11.8577
▁waaay	-11.8577
▁waist	-11.8577
▁wal	-11.8577
▁warmed	-11.8577
▁warnings	-11.8577
▁westie	-11.8577
▁wisconsin	-11.8577
▁wolf	-11.8577
▁yi	-11.8577
▁aa	-11.9531
▁absurd	-11.9531
▁addictively	-11.9531
▁adventure	-11.9531
▁agreed	-11.9531
▁alaska	-11.9531
▁allergens	-11.9531
▁ancient	-11.9531
▁appreciation	-11.9531
▁aquired	-11.9531
▁arctic	-11.9531
▁arrangement	-11.9531
▁aside	-11.9531
▁athletes	-11.9531
▁attack	-11.9531
▁avid	-11.9531
▁avocado	-11.9531
▁awake	-11.9531
▁babycook	-11.9531
▁barn	-11.9531
▁basis	-11.9531
▁beagle	-11.9531
▁beggin	-11.9531
▁bengal	-11.9531
▁bichon	-11.9531
▁blossom	-11.9531
▁bogus	-11.9531
▁breading	-11.9531
▁breastmilk	-11.9531
▁breeze	-11.9531
▁bulbs	-11.9531
▁bummed	-11.9531
▁bunches	-11.9531
▁bursting	-11.9531
▁butler	-11.9531
▁butters	-11.9531
▁cafix	-11.9531
▁canister	-11.9531
▁canola	-11.9531
▁cascadian	-11.9531
▁chain	-11.9531
▁chalk	-11.9531
▁character	-11.9531
▁chewed	-11.9531
▁cigarettes	-11.9531
▁cleansing	-11.9531
▁closer	-11.9531
▁coconutty	-11.9531
▁coffeee	-11.9531
▁collie	-11.9531
▁colman	-11.9531
▁compatible	-11.9531
▁controlled	-11.9531
▁converted	-11.9531
▁crackle	-11.9531
▁dated	-11.9531
▁dear	-11.9531
▁decaffinated	-11.9531
▁decide	-11.9531
▁deeelicious	-11.9531
▁deliscious	-11.9531
▁dente	-11.9531
▁dentyne	-11.9531
▁dependable	-11.9531
▁depth	-11.9531
▁developed	-11.9531
▁devine	-11.9531
▁dipped	-11.9531
▁dips	-11.9531
▁disliked	-11.9531
▁ditto	-11.9531
▁don	-11.9531
▁doritos	-11.9531
▁downright	-11.9531
▁drain	-11.9531
▁drive	-11.9531
▁dude	-11.9531
▁dumb	-11.9531
▁dumpling	-11.9531
▁durkee	-11.9531
▁dvd	-11.9531
▁eczema	-11.9531
▁eggplant	-11.9531
▁egrave	-11.9531
▁electric	-11.9531
▁electrolyte	-11.9531
▁equivalent	-11.9531
▁est	-11.9531
▁eww	-11.9531
▁excelente	-11.9531
▁excuse	-11.9531
▁exploding	-11.9531
▁facial	-11.9531
▁fact	-11.9531
▁fanatic	-11.9531
▁farmer	-11.9531
▁faux	-11.9531
▁fee	-11.9531
▁fewer	-11.9531
▁finn	-11.9531
▁fizzies	-11.9531
▁flatbread	-11.9531
▁flexible	-11.9531
▁flowery	-11.9531
▁flu	-11.9531
▁flying	-11.9531
▁folger	-11.9531
▁fraud	-11.9531
▁frog	-11.9531
▁frothy	-11.9531
▁frs	-11.9531
▁fudgy	-11.9531
▁furikake	-11.9531
▁gal	-11.9531
▁generally	-11.9531
▁glee	-11.9531
▁gogo	-11.9531
▁grapeseed	-11.9531
▁grassy	-11.9531
▁groats	-11.9531
▁hangover	-11.9531
▁happens	-11.9531
▁happybaby	-11.9531
▁harmony	-11.9531
▁hersheys	-11.9531
▁homestyle	-11.9531
▁huh	-11.9531
▁hungarian	-11.9531
▁ii	-11.9531
▁improves	-11.9531
▁increasing	-11.9531
▁index	-11.9531
▁indigestion	-11.9531
▁innovative	-11.9531
▁ins	-11.9531
▁itch	-11.9531
▁jazzed	-11.9531
▁jellies	-11.9531
▁jeremiah	-11.9531
▁joints	-11.9531
▁jury	-11.9531
▁justin	-11.9531
▁kava	-11.9531
▁kibbles	-11.9531
▁kiddos	-11.9531
▁kipper	-11.9531
▁knox	-11.9531
▁koolaid	-11.9531
▁labrada	-11.9531
▁lakewood	-11.9531
▁lard	-11.9531
▁lasagne	-11.9531
▁leads	-11.9531
▁leg	-11.9531
▁legged	-11.9531
▁linguine	-11.9531
▁loops	-11.9531
▁losing	-11.9531
▁lowfat	-11.9531
▁luxurious	-11.9531
▁ma	-11.9531
▁macchiato	-11.9531
▁madras	-11.9531
▁mainly	-11.9531
▁maintenance	-11.9531
▁maltitol	-11.9531
▁malty	-11.9531
▁mash	-11.9531
▁masters	-11.9531
▁maypo	-11.9531
▁medication	-11.9531
▁melting	-11.9531
▁menu	-11.9531
▁merchandise	-11.9531
▁merchant	-11.9531
▁metal	-11.9531
▁meyer	-11.9531
▁million	-11.9531
▁misses	-11.9531
▁modifications	-11.9531
▁musty	-11.9531
▁nips	-11.9531
▁nog	-11.9531
▁noisy	-11.9531
▁nu	-11.9531
▁nutricity	-11.9531
▁nylabones	-11.9531
▁oatcakes	-11.9531
▁obsession	-11.9531
▁opener	-11.9531
▁oregano	-11.9531
▁overpowers	-11.9531
▁paneer	-11.9531
▁pastas	-11.9531
▁payday	-11.9531
▁pigs	-11.9531
▁pirate	-11.9531
▁places	-11.9531
▁pleasures	-11.9531
▁pms	-11.9531
▁positively	-11.9531
▁postage	-11.9531
▁potter	-11.9531
▁pregnancy	-11.9531
▁promise	-11.9531
▁protection	-11.9531
▁provence	-11.9531
▁purchases	-11.9531
▁que	-11.9531
▁questions	-11.9531
▁quintessential	-11.9531
▁random	-11.9531
▁rash	-11.9531
▁reduces	-11.9531
▁refills	-11.9531
▁relationship	-11.9531
▁reminiscent	-11.9531
▁replaces	-11.9531
▁reusable	-11.9531
▁revised	-11.9531
▁rib	-11.9531
▁roasting	-11.9531
▁rockstar	-11.9531
▁rossa	-11.9531
▁ruins	-11.9531
▁schar	-11.9531
▁scratcher	-11.9531
▁screw	-11.9531
▁serves	-11.9531
▁shopper	-11.9531
▁sicilian	-11.9531
▁silly	-11.9531
▁sleeping	-11.9531
▁smiles	-11.9531
▁sneaky	-11.9531
▁soldier	-11.9531
▁soldiers	-11.9531
▁solids	-11.9531
▁somebody	-11.9531
▁sorta	-11.9531
▁spagetti	-11.9531
▁spent	-11.9531
▁spritzer	-11.9531
▁starburst	-11.9531
▁state	-11.9531
▁stocked	-11.9531
▁stone	-11.9531
▁strangely	-11.9531
▁stunning	-11.9531
▁stylish	-11.9531
▁subtly	-11.9531
▁tac	-11.9531
▁tamarind	-11.9531
▁tears	-11.9531
▁teenie	-11.9531
▁tempting	-11.9531
▁tequila	-11.9531
▁thankful	-11.9531
▁thickness	-11.9531
▁thoroughly	-11.9531
▁tidy	-11.9531
▁timothys	-11.9531
▁tomatoe	-11.9531
▁tony	-11.9531
▁trial	-11.9531
▁troops	-11.9531
▁tum	-11.9531
▁tv	-11.9531
▁twisted	-11.9531
▁underwhelmed	-11.9531
▁uniquely	-11.9531
▁unremarkable	-11.9531
▁unusable	-11.9531
▁variable	-11.9531
▁varies	-11.9531
▁verified	-11.9531
▁volumizing	-11.9531
▁waking	-11.9531
▁wasteful	-11.9531
▁web	-11.9531
▁wee	-11.9531
▁weed	-11.9531
▁wheatgrass	-11.9531
▁willing	-11.9531
▁wimpy	-11.9531
▁wondering	-11.9531
▁wu	-11.9531
▁zealand	-11.9531
▁zipfizz	-11.9531
▁abc	-12.0584
▁accessory	-12.0584
▁additions	-12.0584
▁advice	-12.0584
▁alessi	-12.0584
▁alton	-12.0584
▁altura	-12.0584
▁antler	-12.0584
▁appear	-12.0584
▁asia	-12.0584
▁australian	-12.0584
▁avoderm	-12.0584
▁baconnaise	-12.0584
▁badia	-12.0584
▁beets	-12.0584
▁belgium	-12.0584
▁berg	-12.0584
▁blow	-12.0584
▁bridge	-12.0584
▁bros	-12.0584
▁ca	-12.0584
▁capital	-12.0584
▁cases	-12.0584
▁casserole	-12.0584
▁cd	-12.0584
▁cent	-12.0584
▁century	-12.0584
▁cheated	-12.0584
▁chewable	-12.0584
▁chill	-12.0584
▁chives	-12.0584
▁choke	-12.0584
▁claimed	-12.0584
▁clothes	-12.0584
▁cloying	-12.0584
▁colds	-12.0584
▁colombia	-12.0584
▁columbia	-12.0584
▁complaint	-12.0584
▁confection	-12.0584
▁confirmed	-12.0584
▁continues	-12.0584
▁conveniently	-12.0584
▁copper	-12.0584
▁corgi	-12.0584
▁cornmeal	-12.0584
▁cr	-12.0584
▁creole	-12.0584
▁critical	-12.0584
▁crumby	-12.0584
▁cucumber	-12.0584
▁cures	-12.0584
▁currant	-12.0584
▁cutting	-12.0584
▁dab	-12.0584
▁dachshunds	-12.0584
▁dance	-12.0584
▁dane	-12.0584
▁decorations	-12.0584
▁deee	-12.0584
▁deeeelicious	-12.0584
▁degree	-12.0584
▁demand	-12.0584
▁demi	-12.0584
▁dent	-12.0584
▁desperate	-12.0584
▁device	-12.0584
▁disappear	-12.0584
▁discover	-12.0584
▁display	-12.0584
▁doses	-12.0584
▁drawbacks	-12.0584
▁du	-12.0584
▁eagle	-12.0584
▁earlier	-12.0584
▁eatin	-12.0584
▁edit	-12.0584
▁ends	-12.0584
▁energizer	-12.0584
▁erewhon	-12.0584
▁explosive	-12.0584
▁families	-12.0584
▁festive	-12.0584
▁feta	-12.0584
▁fiesta	-12.0584
▁filtered	-12.0584
▁flan	-12.0584
▁floor	-12.0584
▁fluid	-12.0584
▁focus	-12.0584
▁foodie	-12.0584
▁foreign	-12.0584
▁formulas	-12.0584
▁furniture	-12.0584
▁fusilli	-12.0584
▁gels	-12.0584
▁glen	-12.0584
▁glitter	-12.0584
▁gm	-12.0584
▁grail	-12.0584
▁gram	-12.0584
▁group	-12.0584
▁gut	-12.0584
▁haggis	-12.0584
▁hallelujah	-12.0584
▁haters	-12.0584
▁headache	-12.0584
▁heartland	-12.0584
▁heathy	-12.0584
▁heavily	-12.0584
▁henry	-12.0584
▁hiking	-12.0584
▁hoisin	-12.0584
▁hollow	-12.0584
▁honeybush	-12.0584
▁horrendous	-12.0584
▁hostess	-12.0584
▁hurts	-12.0584
▁ideas	-12.0584
▁incorrectly	-12.0584
▁indulgent	-12.0584
▁infections	-12.0584
▁infused	-12.0584
▁insects	-12.0584
▁instantly	-12.0584
▁irresistable	-12.0584
▁israeli	-12.0584
▁ito	-12.0584
▁jade	-12.0584
▁ka	-12.0584
▁kale	-12.0584
▁kili	-12.0584
▁kippers	-12.0584
▁kix	-12.0584
▁kronung	-12.0584
▁laden	-12.0584
▁lemons	-12.0584
▁lesson	-12.0584
▁lindor	-12.0584
▁lively	-12.0584
▁lock	-12.0584
▁lunchboxes	-12.0584
▁lush	-12.0584
▁mainstream	-12.0584
▁male	-12.0584
▁manner	-12.0584
▁maya	-12.0584
▁mccoy	-12.0584
▁measure	-12.0584
▁mile	-12.0584
▁milky	-12.0584
▁minestrone	-12.0584
▁mmmmmmmmm	-12.0584
▁mocafe	-12.0584
▁mojo	-12.0584
▁moka	-12.0584
▁momma	-12.0584
▁moroccan	-12.0584
▁mouse	-12.0584
▁multipurpose	-12.0584
▁newbie	-12.0584
▁nine	-12.0584
▁official	-12.0584
▁orbit	-12.0584
▁orchids	-12.0584
▁organix	-12.0584
▁organizer	-12.0584
▁orgran	-12.0584
▁orzo	-12.0584
▁overcooked	-12.0584
▁passes	-12.0584
▁pebbles	-12.0584
▁peri	-12.0584
▁perky	-12.0584
▁pinto	-12.0584
▁primal	-12.0584
▁probiotics	-12.0584
▁puts	-12.0584
▁ramune	-12.0584
▁rates	-12.0584
▁redbull	-12.0584
▁redenbacher	-12.0584
▁regularly	-12.0584
▁remind	-12.0584
▁removed	-12.0584
▁renal	-12.0584
▁replaced	-12.0584
▁republic	-12.0584
▁responsive	-12.0584
▁rising	-12.0584
▁ritter	-12.0584
▁roasters	-12.0584
▁rounds	-12.0584
▁rubs	-12.0584
▁sage	-12.0584
▁sampling	-12.0584
▁sams	-12.0584
▁savior	-12.0584
▁scoops	-12.0584
▁sensitivity	-12.0584
▁server	-12.0584
▁sex	-12.0584
▁shocking	-12.0584
▁shops	-12.0584
▁shoulders	-12.0584
▁shoyu	-12.0584
▁sigh	-12.0584
▁sinus	-12.0584
▁situation	-12.0584
▁smoker	-12.0584
▁soak	-12.0584
▁sounded	-12.0584
▁species	-12.0584
▁spectrum	-12.0584
▁spiciness	-12.0584
▁standing	-12.0584
▁stands	-12.0584
▁starving	-12.0584
▁steamed	-12.0584
▁stems	-12.0584
▁stong	-12.0584
▁stool	-12.0584
▁stout	-12.0584
▁stream	-12.0584
▁stride	-12.0584
▁sublime	-12.0584
▁suggested	-12.0584
▁suits	-12.0584
▁sunday	-12.0584
▁supermarkets	-12.0584
▁surprises	-12.0584
▁sustainable	-12.0584
▁swear	-12.0584
▁sweat	-12.0584
▁sweetening	-12.0584
▁symptoms	-12.0584
▁tall	-12.0584
▁tandoori	-12.0584
▁taylor	-12.0584
▁teabag	-12.0584
▁teenagers	-12.0584
▁teff	-12.0584
▁temperature	-12.0584
▁thickener	-12.0584
▁timer	-12.0584
▁tobacco	-12.0584
▁tolerable	-12.0584
▁tomatos	-12.0584
▁tone	-12.0584
▁tones	-12.0584
▁toothpaste	-12.0584
▁torrone	-12.0584
▁tots	-12.0584
▁transit	-12.0584
▁travels	-12.0584
▁tricks	-12.0584
▁tries	-12.0584
▁triscuits	-12.0584
▁truely	-12.0584
▁tuscan	-12.0584
▁unappealing	-12.0584
▁unnecessary	-12.0584
▁usable	-12.0584
▁vacation	-12.0584
▁vera	-12.0584
▁vernors	-12.0584
▁vidalia	-12.0584
▁vintage	-12.0584
▁walkerswood	-12.0584
▁watcher	-12.0584
▁weaker	-12.0584
▁yam	-12.0584
▁ziwipeak	-12.0584
▁zotz	-12.0584
▁accent	-12.1762
▁act	-12.1762
▁advance	-12.1762
▁advised	-12.1762
▁aero	-12.1762
▁ahh	-12.1762
▁ahhhh	-12.1762
▁alaskan	-12.1762
▁aloha	-12.1762
▁angostura	-12.1762
▁anniversary	-12.1762
▁anxiety	-12.1762
▁appeal	-12.1762
▁appearance	-12.1762
▁april	-12.1762
▁arf	-12.1762
▁arrowroot	-12.1762
▁asthma	-12.1762
▁barista	-12.1762
▁becoming	-12.1762
▁begging	-12.1762
▁beginners	-12.1762
▁belts	-12.1762
▁bestest	-12.1762
▁bills	-12.1762
▁bitty	-12.1762
▁blackcurrant	-12.1762
▁blessing	-12.1762
▁blooming	-12.1762
▁blown	-12.1762
▁bobs	-12.1762
▁boiled	-12.1762
▁boles	-12.1762
▁boss	-12.1762
▁bouncy	-12.1762
▁branston	-12.1762
▁breeder	-12.1762
▁brine	-12.1762
▁bust	-12.1762
▁cadet	-12.1762
▁campfire	-12.1762
▁carnivores	-12.1762
▁carton	-12.1762
▁cartons	-12.1762
▁casings	-12.1762
▁cassia	-12.1762
▁caveats	-12.1762
▁cdm	-12.1762
▁certo	-12.1762
▁charger	-12.1762
▁chiclets	-12.1762
▁chilis	-12.1762
▁chimes	-12.1762
▁chronic	-12.1762
▁cigars	-12.1762
▁cilantro	-12.1762
▁cinnamony	-12.1762
▁clay	-12.1762
▁coconuts	-12.1762
▁colas	-12.1762
▁conditioning	-12.1762
▁contest	-12.1762
▁coo	-12.1762
▁corned	-12.1762
▁cornflakes	-12.1762
▁counters	-12.1762
▁cozy	-12.1762
▁creates	-12.1762
▁crumb	-12.1762
▁crunchier	-12.1762
▁crunchmaster	-12.1762
▁crusts	-12.1762
▁cs	-12.1762
▁currants	-12.1762
▁cycling	-12.1762
▁dalfour	-12.1762
▁deboles	-12.1762
▁decoration	-12.1762
▁demerara	-12.1762
▁dentastix	-12.1762
▁devoured	-12.1762
▁differ	-12.1762
▁dinners	-12.1762
▁dinosaur	-12.1762
▁disgustingly	-12.1762
▁dishwasher	-12.1762
▁dishwater	-12.1762
▁dissapointment	-12.1762
▁doctoring	-12.1762
▁downhill	-12.1762
▁doxies	-12.1762
▁dreamy	-12.1762
▁dress	-12.1762
▁dublin	-12.1762
▁dyes	-12.1762
▁earthborn	-12.1762
▁elderberry	-12.1762
▁emergencies	-12.1762
▁endurance	-12.1762
▁energetic	-12.1762
▁enjoyment	-12.1762
▁entertained	-12.1762
▁envirokidz	-12.1762
▁epic	-12.1762
▁equals	-12.1762
▁ethiopian	-12.1762
▁eureka	-12.1762
▁evar	-12.1762
▁exclusive	-12.1762
▁exercise	-12.1762
▁exploded	-12.1762
▁extracts	-12.1762
▁fajitas	-12.1762
▁faster	-12.1762
▁favs	-12.1762
▁felines	-12.1762
▁ferrero	-12.1762
▁fido	-12.1762
▁field	-12.1762
▁filets	-12.1762
▁finds	-12.1762
▁flash	-12.1762
▁flavorfull	-12.1762
▁flavorings	-12.1762
▁flip	-12.1762
▁floss	-12.1762
▁fluff	-12.1762
▁fondarific	-12.1762
▁foot	-12.1762
▁forms	-12.1762
▁freak	-12.1762
▁frequent	-12.1762
▁fromm	-12.1762
▁front	-12.1762
▁fruitables	-12.1762
▁fulfilling	-12.1762
▁gardening	-12.1762
▁gardens	-12.1762
▁genmai	-12.1762
▁genova	-12.1762
▁germ	-12.1762
▁germination	-12.1762
▁glasses	-12.1762
▁gooseberries	-12.1762
▁gran	-12.1762
▁grandpa	-12.1762
▁granny	-12.1762
▁granules	-12.1762
▁grapes	-12.1762
▁greece	-12.1762
▁grinds	-12.1762
▁grit	-12.1762
▁grocer	-12.1762
▁groceries	-12.1762
▁grownups	-12.1762
▁guar	-12.1762
▁guayaki	-12.1762
▁halal	-12.1762
▁hardy	-12.1762
▁havahart	-12.1762
▁headaches	-12.1762
▁heath	-12.1762
▁heavens	-12.1762
▁hesitate	-12.1762
▁higgins	-12.1762
▁highland	-12.1762
▁holes	-12.1762
▁honeycomb	-12.1762
▁hooves	-12.1762
▁horrific	-12.1762
▁horses	-12.1762
▁hunt	-12.1762
▁ibd	-12.1762
▁import	-12.1762
▁inch	-12.1762
▁indestructible	-12.1762
▁infested	-12.1762
▁inner	-12.1762
▁intensely	-12.1762
▁jake	-12.1762
▁jellybeans	-12.1762
▁jif	-12.1762
▁johnny	-12.1762
▁joyva	-12.1762
▁justify	-12.1762
▁kellogs	-12.1762
▁kernals	-12.1762
▁kickin	-12.1762
▁kingdom	-12.1762
▁lactation	-12.1762
▁ladies	-12.1762
▁lane	-12.1762
▁lanka	-12.1762
▁lather	-12.1762
▁lava	-12.1762
▁le	-12.1762
▁lined	-12.1762
▁liter	-12.1762
▁location	-12.1762
▁lollies	-12.1762
▁lorann	-12.1762
▁lovin	-12.1762
▁luvs	-12.1762
▁lyle	-12.1762
▁mahogany	-12.1762
▁management	-12.1762
▁markers	-12.1762
▁marks	-12.1762
▁mcvities	-12.1762
▁medjool	-12.1762
▁merlot	-12.1762
▁messed	-12.1762
▁migraines	-12.1762
▁milled	-12.1762
▁ml	-12.1762
▁mmmmmmmmmmm	-12.1762
▁modified	-12.1762
▁moisturizes	-12.1762
▁monde	-12.1762
▁monitor	-12.1762
▁mounds	-12.1762
▁muddy	-12.1762
▁nastiest	-12.1762
▁needing	-12.1762
▁neighbor	-12.1762
▁nervous	-12.1762
▁ness	-12.1762
▁nicer	-12.1762
▁nightmare	-12.1762
▁nip	-12.1762
▁nonetheless	-12.1762
▁nonfat	-12.1762
▁nougat	-12.1762
▁oak	-12.1762
▁officially	-12.1762
▁ooh	-12.1762
▁organically	-12.1762
▁organo	-12.1762
▁oscar	-12.1762
▁ought	-12.1762
▁ours	-12.1762
▁pappy	-12.1762
▁parent	-12.1762
▁patient	-12.1762
▁pee	-12.1762
▁pepperidge	-12.1762
▁phenominal	-12.1762
▁plane	-12.1762
▁po	-12.1762
▁poisoning	-12.1762
▁polar	-12.1762
▁poodles	-12.1762
▁poppin	-12.1762
▁potentially	-12.1762
▁potion	-12.1762
▁prairie	-12.1762
▁prefect	-12.1762
▁prepackaged	-12.1762
▁prescription	-12.1762
▁prickly	-12.1762
▁primary	-12.1762
▁princess	-12.1762
▁produces	-12.1762
▁progresso	-12.1762
▁properties	-12.1762
▁proud	-12.1762
▁prune	-12.1762
▁pulling	-12.1762
▁pulpy	-12.1762
▁purrfectly	-12.1762
▁reactions	-12.1762
▁realize	-12.1762
▁refresher	-12.1762
▁rehab	-12.1762
▁relieved	-12.1762
▁rendang	-12.1762
▁replacer	-12.1762
▁report	-12.1762
▁returnable	-12.1762
▁roasts	-12.1762
▁rocket	-12.1762
▁rubbery	-12.1762
▁runner	-12.1762
▁ryvita	-12.1762
▁sales	-12.1762
▁salsas	-12.1762
▁sambazon	-12.1762
▁sanity	-12.1762
▁sans	-12.1762
▁satisified	-12.1762
▁sauerkraut	-12.1762
▁section	-12.1762
▁seemingly	-12.1762
▁seitan	-12.1762
▁semolina	-12.1762
▁sets	-12.1762
▁settle	-12.1762
▁shaker	-12.1762
▁shorted	-12.1762
▁shreds	-12.1762
▁siberian	-12.1762
▁sinuses	-12.1762
▁slurp	-12.1762
▁snacker	-12.1762
▁snapper	-12.1762
▁snobs	-12.1762
▁socks	-12.1762
▁sparingly	-12.1762
▁specific	-12.1762
▁spilled	-12.1762
▁spirit	-12.1762
▁splurge	-12.1762
▁spoonful	-12.1762
▁sri	-12.1762
▁stage	-12.1762
▁stephen	-12.1762
▁stevita	-12.1762
▁stools	-12.1762
▁strike	-12.1762
▁styrofoam	-12.1762
▁succulent	-12.1762
▁suckin	-12.1762
▁suggestion	-12.1762
▁suisse	-12.1762
▁suited	-12.1762
▁suspect	-12.1762
▁sweetest	-12.1762
▁tail	-12.1762
▁teddy	-12.1762
▁terra	-12.1762
▁terriers	-12.1762
▁texmati	-12.1762
▁thankfully	-12.1762
▁thinkthin	-12.1762
▁thriving	-12.1762
▁til	-12.1762
▁tire	-12.1762
▁toilet	-12.1762
▁tooo	-12.1762
▁tooooo	-12.1762
▁transition	-12.1762
▁tubes	-12.1762
▁tubs	-12.1762
▁tullys	-12.1762
▁tweak	-12.1762
▁tweaking	-12.1762
▁twix	-12.1762
▁unappetizing	-12.1762
▁unavailable	-12.1762
▁unflavored	-12.1762
▁units	-12.1762
▁unpalatable	-12.1762
▁unreal	-12.1762
▁upgrade	-12.1762
▁utz	-12.1762
▁vacuum	-12.1762
▁vermicelli	-12.1762
▁verry	-12.1762
▁vinegary	-12.1762
▁virtually	-12.1762
▁watkins	-12.1762
▁whenever	-12.1762
▁whether	-12.1762
▁workouts	-12.1762
▁wowee	-12.1762
▁wuyi	-12.1762
▁yakisoba	-12.1762
▁yams	-12.1762
▁yesterday	-12.1762
▁yrs	-12.1762
▁yumyum	-12.1762
▁zest	-12.1762
▁accept	-12.3097
▁accident	-12.3097
▁acres	-12.3097
▁adulterated	-12.3097
▁advertise	-12.3097
▁aging	-12.3097
▁agrees	-12.3097
▁airline	-12.3097
▁alfalfa	-12.3097
▁alittle	-12.3097
▁allows	-12.3097
▁altoid	-12.3097
▁amore	-12.3097
▁ancho	-12.3097
▁anne	-12.3097
▁annoying	-12.3097
▁anonymous	-12.3097
▁approach	-12.3097
▁aptly	-12.3097
▁arriba	-12.3097
▁artichokes	-12.3097
▁aspen	-12.3097
▁attempt	-12.3097
▁attract	-12.3097
▁babe	-12.3097
▁babyfood	-12.3097
▁backup	-12.3097
▁bali	-12.3097
▁band	-12.3097
▁bariani	-12.3097
▁beam	-12.3097
▁becareful	-12.3097
▁begs	-12.3097
▁belief	-12.3097
▁bff	-12.3097
▁bht	-12.3097
▁bil	-12.3097
▁biodegradable	-12.3097
▁birch	-12.3097
▁bleck	-12.3097
▁blonde	-12.3097
▁boil	-12.3097
▁bored	-12.3097
▁bowser	-12.3097
▁brainer	-12.3097
▁breaker	-12.3097
▁breakfasts	-12.3097
▁breastfeeding	-12.3097
▁britain	-12.3097
▁brits	-12.3097
▁broadway	-12.3097
▁brookside	-12.3097
▁brussel	-12.3097
▁bs	-12.3097
▁bucket	-12.3097
▁buffet	-12.3097
▁building	-12.3097
▁bullies	-12.3097
▁bun	-12.3097
▁burke	-12.3097
▁bush	-12.3097
▁callard	-12.3097
▁cals	-12.3097
▁cancel	-12.3097
▁candle	-12.3097
▁carbohydrate	-12.3097
▁carpet	-12.3097
▁carrageenan	-12.3097
▁casein	-12.3097
▁catsup	-12.3097
▁ch	-12.3097
▁charlie	-12.3097
▁charming	-12.3097
▁cheat	-12.3097
▁cheers	-12.3097
▁cheeseburger	-12.3097
▁cheeze	-12.3097
▁chestnut	-12.3097
▁chik	-12.3097
▁chiles	-12.3097
▁chops	-12.3097
▁cinn	-12.3097
▁cinnabon	-12.3097
▁cleared	-12.3097
▁clementine	-12.3097
▁clogs	-12.3097
▁coach	-12.3097
▁cobbler	-12.3097
▁cod	-12.3097
▁code	-12.3097
▁coffeemate	-12.3097
▁coins	-12.3097
▁colic	-12.3097
▁companies	-12.3097
▁considered	-12.3097
▁containing	-12.3097
▁contaminated	-12.3097
▁contender	-12.3097
▁controls	-12.3097
▁conventional	-12.3097
▁conversation	-12.3097
▁convienent	-12.3097
▁convient	-12.3097
▁convinced	-12.3097
▁crabmeat	-12.3097
▁crate	-12.3097
▁cuts	-12.3097
▁daddy	-12.3097
▁dal	-12.3097
▁dallmayr	-12.3097
▁dancing	-12.3097
▁dashi	-12.3097
▁deals	-12.3097
▁dececco	-12.3097
▁deceived	-12.3097
▁decently	-12.3097
▁deeply	-12.3097
▁delicacy	-12.3097
▁delizioso	-12.3097
▁deployed	-12.3097
▁designer	-12.3097
▁destroy	-12.3097
▁detail	-12.3097
▁devils	-12.3097
▁di	-12.3097
▁digestable	-12.3097
▁digging	-12.3097
▁diluted	-12.3097
▁diner	-12.3097
▁direction	-12.3097
▁disappearing	-12.3097
▁disclaimer	-12.3097
▁dishonest	-12.3097
▁dispensing	-12.3097
▁disposal	-12.3097
▁dissolves	-12.3097
▁dissolving	-12.3097
▁ditch	-12.3097
▁doh	-12.3097
▁dots	-12.3097
▁drives	-12.3097
▁dropped	-12.3097
▁droste	-12.3097
▁drugs	-12.3097
▁dud	-12.3097
▁dukan	-12.3097
▁eastern	-12.3097
▁eboost	-12.3097
▁economic	-12.3097
▁elk	-12.3097
▁elusive	-12.3097
▁enhancing	-12.3097
▁enthusiastic	-12.3097
▁enzymatic	-12.3097
▁equipment	-12.3097
▁escargots	-12.3097
▁evenly	-12.3097
▁example	-12.3097
▁familiar	-12.3097
▁fantabulous	-12.3097
▁fantasic	-12.3097
▁fantastico	-12.3097
▁fermented	-12.3097
▁fertilizer	-12.3097
▁figured	-12.3097
▁finer	-12.3097
▁fitness	-12.3097
▁flavourful	-12.3097
▁flours	-12.3097
▁fo	-12.3097
▁foodies	-12.3097
▁formerly	-12.3097
▁frenchie	-12.3097
▁gamble	-12.3097
▁garam	-12.3097
▁gardenia	-12.3097
▁garlicky	-12.3097
▁gins	-12.3097
▁goodlife	-12.3097
▁goof	-12.3097
▁goooooood	-12.3097
▁gophers	-12.3097
▁greyhounds	-12.3097
▁grossly	-12.3097
▁grreat	-12.3097
▁gun	-12.3097
▁hammer	-12.3097
▁handful	-12.3097
▁hanover	-12.3097
▁hartz	-12.3097
▁hear	-12.3097
▁hero	-12.3097
▁highlander	-12.3097
▁hing	-12.3097
▁history	-12.3097
▁hog	-12.3097
▁hr	-12.3097
▁hunk	-12.3097
▁hunter	-12.3097
▁hurricane	-12.3097
▁hydrated	-12.3097
▁ignored	-12.3097
▁indispensable	-12.3097
▁inducing	-12.3097
▁informed	-12.3097
▁infuser	-12.3097
▁initial	-12.3097
▁ink	-12.3097
▁inn	-12.3097
▁install	-12.3097
▁itching	-12.3097
▁izzy	-12.3097
▁jac	-12.3097
▁jalapenos	-12.3097
▁joking	-12.3097
▁joseph	-12.3097
▁junket	-12.3097
▁jus	-12.3097
▁kaps	-12.3097
▁kellog	-12.3097
▁kiddo	-12.3097
▁killing	-12.3097
▁kluski	-12.3097
▁koala	-12.3097
▁korea	-12.3097
▁kudos	-12.3097
▁kuerig	-12.3097
▁labor	-12.3097
▁laces	-12.3097
▁lackluster	-12.3097
▁lara	-12.3097
▁lead	-12.3097
▁legal	-12.3097
▁lesser	-12.3097
▁li	-12.3097
▁lickety	-12.3097
▁lightweight	-12.3097
▁likey	-12.3097
▁lingering	-12.3097
▁lingonberries	-12.3097
▁load	-12.3097
▁loud	-12.3097
▁macaroons	-12.3097
▁mae	-12.3097
▁maggots	-12.3097
▁maman	-12.3097
▁mammoth	-12.3097
▁marble	-12.3097
▁marginal	-12.3097
▁marie	-12.3097
▁masses	-12.3097
▁massive	-12.3097
▁mastiff	-12.3097
▁mat	-12.3097
▁mature	-12.3097
▁measurements	-12.3097
▁mediterranean	-12.3097
▁megafudge	-12.3097
▁mein	-12.3097
▁member	-12.3097
▁members	-12.3097
▁mention	-12.3097
▁mesquite	-12.3097
▁mikey	-12.3097
▁misrepresentation	-12.3097
▁model	-12.3097
▁molly	-12.3097
▁moo	-12.3097
▁moore	-12.3097
▁morocco	-12.3097
▁morton	-12.3097
▁moscato	-12.3097
▁mouthful	-12.3097
▁mutt	-12.3097
▁mystic	-12.3097
▁nc	-12.3097
▁nescaf	-12.3097
▁nestles	-12.3097
▁newest	-12.3097
▁nonni	-12.3097
▁ntilde	-12.3097
▁nutrasweet	-12.3097
▁nutri	-12.3097
▁nuttzo	-12.3097
▁occupied	-12.3097
▁october	-12.3097
▁officepro	-12.3097
▁ohhh	-12.3097
▁oooh	-12.3097
▁orchard	-12.3097
▁oskri	-12.3097
▁overweight	-12.3097
▁parchment	-12.3097
▁park	-12.3097
▁parker	-12.3097
▁passionfruit	-12.3097
▁pat	-12.3097
▁patience	-12.3097
▁peanutty	-12.3097
▁peeled	-12.3097
▁peet	-12.3097
▁percent	-12.3097
▁perfecto	-12.3097
▁perfumed	-12.3097
▁perks	-12.3097
▁perrier	-12.3097
▁personally	-12.3097
▁perugina	-12.3097
▁petal	-12.3097
▁pete	-12.3097
▁petrodex	-12.3097
▁petroleum	-12.3097
▁phoenix	-12.3097
▁picks	-12.3097
▁pike	-12.3097
▁placed	-12.3097
▁plato	-12.3097
▁ploy	-12.3097
▁polish	-12.3097
▁pooches	-12.3097
▁popchip	-12.3097
▁potty	-12.3097
▁pounce	-12.3097
▁powders	-12.3097
▁praline	-12.3097
▁president	-12.3097
▁prevents	-12.3097
▁pricier	-12.3097
▁pride	-12.3097
▁probiotic	-12.3097
▁promises	-12.3097
▁prone	-12.3097
▁proven	-12.3097
▁provided	-12.3097
▁purees	-12.3097
▁putrid	-12.3097
▁quest	-12.3097
▁ranchero	-12.3097
▁raving	-12.3097
▁reach	-12.3097
▁refrigeration	-12.3097
▁refuse	-12.3097
▁reg	-12.3097
▁rejected	-12.3097
▁remains	-12.3097
▁repellant	-12.3097
▁retailer	-12.3097
▁reuse	-12.3097
▁ribbon	-12.3097
▁riceselect	-12.3097
▁richer	-12.3097
▁richest	-12.3097
▁richly	-12.3097
▁rotisserie	-12.3097
▁ruth	-12.3097
▁saco	-12.3097
▁salame	-12.3097
▁samples	-12.3097
▁sanka	-12.3097
▁scale	-12.3097
▁scared	-12.3097
▁scarpetta	-12.3097
▁schedule	-12.3097
▁scotland	-12.3097
▁scouts	-12.3097
▁screen	-12.3097
▁screwed	-12.3097
▁sees	-12.3097
▁seitenbacher	-12.3097
▁sexy	-12.3097
▁shepherds	-12.3097
▁shines	-12.3097
▁showed	-12.3097
▁sight	-12.3097
▁skins	-12.3097
▁slime	-12.3097
▁slimey	-12.3097
▁slivers	-12.3097
▁snyders	-12.3097
▁sourced	-12.3097
▁sours	-12.3097
▁spa	-12.3097
▁sparkle	-12.3097
▁speak	-12.3097
▁splinters	-12.3097
▁sprayer	-12.3097
▁sprite	-12.3097
▁squash	-12.3097
▁squirrel	-12.3097
▁stacks	-12.3097
▁steaming	-12.3097
▁steaz	-12.3097
▁stonewall	-12.3097
▁stops	-12.3097
▁straw	-12.3097
▁street	-12.3097
▁strictly	-12.3097
▁stroganoff	-12.3097
▁substitution	-12.3097
▁suger	-12.3097
▁sulfur	-12.3097
▁sunrise	-12.3097
▁superlative	-12.3097
▁supplements	-12.3097
▁supremo	-12.3097
▁surely	-12.3097
▁swanson	-12.3097
▁swirl	-12.3097
▁systems	-12.3097
▁taiwan	-12.3097
▁tamales	-12.3097
▁tangles	-12.3097
▁tao	-12.3097
▁tase	-12.3097
▁tastiness	-12.3097
▁tasts	-12.3097
▁teapot	-12.3097
▁tear	-12.3097
▁teeny	-12.3097
▁teh	-12.3097
▁temptation	-12.3097
▁theory	-12.3097
▁ticket	-12.3097
▁tier	-12.3097
▁tikka	-12.3097
▁toddy	-12.3097
▁turtle	-12.3097
▁turtles	-12.3097
▁twigs	-12.3097
▁unbearably	-12.3097
▁unclear	-12.3097
▁undecided	-12.3097
▁unfrosted	-12.3097
▁unite	-12.3097
▁unknown	-12.3097
▁unsafe	-12.3097
▁unsealed	-12.3097
▁veggiedent	-12.3097
▁vender	-12.3097
▁veri	-12.3097
▁village	-12.3097
▁vine	-12.3097
▁virbac	-12.3097
▁vomited	-12.3097
▁wa	-12.3097
▁wabash	-12.3097
▁wakeup	-12.3097
▁walker	-12.3097
▁warms	-12.3097
▁warrior	-12.3097
▁washington	-12.3097
▁wedderspoon	-12.3097
▁weekend	-12.3097
▁western	-12.3097
▁whisker	-12.3097
▁whisky	-12.3097
▁woeber	-12.3097
▁woody	-12.3097
▁written	-12.3097
▁xylosweet	-12.3097
▁yamamotoyama	-12.3097
▁yech	-12.3097
▁yoo	-12.3097
▁younger	-12.3097
▁yukky	-12.3097
▁yums	-12.3097
▁abby	-12.4639
▁absinthe	-12.4639
▁accepted	-12.4639
▁accompaniment	-12.4639
▁ack	-12.4639
▁adagio	-12.4639
▁addictingly	-12.4639
▁advise	-12.4639
▁aesthetically	-12.4639
▁afghanistan	-12.4639
▁aide	-12.4639
▁ails	-12.4639
▁airy	-12.4639
▁albeit	-12.4639
▁alpen	-12.4639
▁amazin	-12.4639
▁answered	-12.4639
▁anthon	-12.4639
▁appetizers	-12.4639
▁applewood	-12.4639
▁arabica	-12.4639
▁arcor	-12.4639
▁article	-12.4639
▁asks	-12.4639
▁autoship	-12.4639
▁avoiding	-12.4639
▁awfull	-12.4639
▁awkward	-12.4639
▁az	-12.4639
▁baba	-12.4639
▁bacony	-12.4639
▁barbara	-12.4639
▁barilla	-12.4639
▁bases	-12.4639
▁bays	-12.4639
▁beast	-12.4639
▁becomes	-12.4639
▁beetles	-12.4639
▁behalf	-12.4639
▁bellagio	-12.4639
▁bent	-12.4639
▁bertie	-12.4639
▁betcha	-12.4639
▁bike	-12.4639
▁bionaturae	-12.4639
▁biryani	-12.4639
▁bj	-12.4639
▁blackened	-12.4639
▁blessed	-12.4639
▁bleu	-12.4639
▁blooms	-12.4639
▁blu	-12.4639
▁bolder	-12.4639
▁bonanza	-12.4639
▁bonkers	-12.4639
▁bonne	-12.4639
▁bounty	-12.4639
▁boysenberries	-12.4639
▁braided	-12.4639
▁brezza	-12.4639
▁brian	-12.4639
▁bugles	-12.4639
▁bulb	-12.4639
▁bulldogs	-12.4639
▁bullion	-12.4639
▁butterfinger	-12.4639
▁cabbage	-12.4639
▁camano	-12.4639
▁candybar	-12.4639
▁canning	-12.4639
▁captain	-12.4639
▁carbon	-12.4639
▁cardamon	-12.4639
▁carried	-12.4639
▁cavender	-12.4639
▁cc	-12.4639
▁cecco	-12.4639
▁celebrate	-12.4639
▁challenging	-12.4639
▁changs	-12.4639
▁charged	-12.4639
▁charlee	-12.4639
▁chee	-12.4639
▁cheezy	-12.4639
▁chemically	-12.4639
▁cheri	-12.4639
▁chewey	-12.4639
▁chicago	-12.4639
▁chickpeas	-12.4639
▁chilies	-12.4639
▁chomp	-12.4639
▁circle	-12.4639
▁clark	-12.4639
▁clears	-12.4639
▁clog	-12.4639
▁closed	-12.4639
▁cloud	-12.4639
▁cloyingly	-12.4639
▁cocunut	-12.4639
▁colorado	-12.4639
▁combos	-12.4639
▁competitors	-12.4639
▁complaining	-12.4639
▁compost	-12.4639
▁composting	-12.4639
▁concur	-12.4639
▁confusion	-12.4639
▁congestion	-12.4639
▁conscience	-12.4639
▁construction	-12.4639
▁contamination	-12.4639
▁cooler	-12.4639
▁cooling	-12.4639
▁corazonas	-12.4639
▁coriander	-12.4639
▁corner	-12.4639
▁crawlers	-12.4639
▁creamiest	-12.4639
▁creation	-12.4639
▁crispies	-12.4639
▁crush	-12.4639
▁crusty	-12.4639
▁crystalized	-12.4639
▁curbs	-12.4639
▁curd	-12.4639
▁curious	-12.4639
▁custom	-12.4639
▁cutter	-12.4639
▁daisy	-12.4639
▁dale	-12.4639
▁dandelion	-12.4639
▁daybreak	-12.4639
▁decades	-12.4639
▁deception	-12.4639
▁deeeeelicious	-12.4639
▁delallo	-12.4639
▁delite	-12.4639
▁differently	-12.4639
▁diggity	-12.4639
▁dilute	-12.4639
▁dingos	-12.4639
▁dinty	-12.4639
▁discriminating	-12.4639
▁disgusted	-12.4639
▁dispense	-12.4639
▁distraction	-12.4639
▁distribution	-12.4639
▁dole	-12.4639
▁domestic	-12.4639
▁dop	-12.4639
▁downside	-12.4639
▁dozen	-12.4639
▁drawback	-12.4639
▁driver	-12.4639
▁dynamite	-12.4639
▁echinacea	-12.4639
▁edamame	-12.4639
▁ekojava	-12.4639
▁elbow	-12.4639
▁eliminate	-12.4639
▁emergen	-12.4639
▁endangered	-12.4639
▁engaging	-12.4639
▁enhanced	-12.4639
▁enhances	-12.4639
▁enthusiast	-12.4639
▁escape	-12.4639
▁eukanuba	-12.4639
▁evaluation	-12.4639
▁evangers	-12.4639
▁ewwwww	-12.4639
▁excess	-12.4639
▁exist	-12.4639
▁exists	-12.4639
▁experimenting	-12.4639
▁explodes	-12.4639
▁facility	-12.4639
▁familia	-12.4639
▁fanatics	-12.4639
▁farts	-12.4639
▁fatal	-12.4639
▁favored	-12.4639
▁ferrara	-12.4639
▁ferrets	-12.4639
▁ff	-12.4639
▁ficus	-12.4639
▁fighting	-12.4639
▁fisher	-12.4639
▁fishies	-12.4639
▁fl	-12.4639
▁flashback	-12.4639
▁flor	-12.4639
▁fong	-12.4639
▁fork	-12.4639
▁fran	-12.4639
▁fred	-12.4639
▁freshener	-12.4639
▁frustrating	-12.4639
▁ful	-12.4639
▁fulfillment	-12.4639
▁funbites	-12.4639
▁funnel	-12.4639
▁ga	-12.4639
▁gallons	-12.4639
▁games	-12.4639
▁genmaicha	-12.4639
▁genuinely	-12.4639
▁george	-12.4639
▁gg	-12.4639
▁gingerale	-12.4639
▁glory	-12.4639
▁glow	-12.4639
▁goddess	-12.4639
▁goody	-12.4639
▁goulash	-12.4639
▁grandchildren	-12.4639
▁gras	-12.4639
▁grat	-12.4639
▁greatly	-12.4639
▁greed	-12.4639
▁greenbox	-12.4639
▁greyhound	-12.4639
▁grinders	-12.4639
▁grogg	-12.4639
▁guaranteed	-12.4639
▁gummys	-12.4639
▁gypsy	-12.4639
▁gyro	-12.4639
▁hail	-12.4639
▁happybellies	-12.4639
▁hardcore	-12.4639
▁harissa	-12.4639
▁harm	-12.4639
▁hashbrowns	-12.4639
▁healthly	-12.4639
▁held	-12.4639
▁hellmann	-12.4639
▁hides	-12.4639
▁hilarious	-12.4639
▁hills	-12.4639
▁hollandaise	-12.4639
▁hometown	-12.4639
▁honeys	-12.4639
▁honeyville	-12.4639
▁hotness	-12.4639
▁hots	-12.4639
▁hugger	-12.4639
▁husks	-12.4639
▁hydrate	-12.4639
▁icy	-12.4639
▁impact	-12.4639
▁improvements	-12.4639
▁inconsistant	-12.4639
▁indicated	-12.4639
▁initially	-12.4639
▁insanity	-12.4639
▁insulin	-12.4639
▁interactive	-12.4639
▁intro	-12.4639
▁investment	-12.4639
▁itty	-12.4639
▁jacob	-12.4639
▁jalepeno	-12.4639
▁jaws	-12.4639
▁jersey	-12.4639
▁jewish	-12.4639
▁jones	-12.4639
▁jr	-12.4639
▁junky	-12.4639
▁justice	-12.4639
▁kalamata	-12.4639
▁kee	-12.4639
▁keen	-12.4639
▁kentucky	-12.4639
▁kenyan	-12.4639
▁kookaburra	-12.4639
▁kopi	-12.4639
▁krazy	-12.4639
▁krispie	-12.4639
▁kroger	-12.4639
▁lacked	-12.4639
▁lakerol	-12.4639
▁lance	-12.4639
▁lately	-12.4639
▁lays	-12.4639
▁lea	-12.4639
▁league	-12.4639
▁leakage	-12.4639
▁leaving	-12.4639
▁liars	-12.4639
▁licks	-12.4639
▁liqueur	-12.4639
▁liv	-12.4639
▁lizano	-12.4639
▁lizzie	-12.4639
▁log	-12.4639
▁logic	-12.4639
▁longest	-12.4639
▁loooove	-12.4639
▁lowered	-12.4639
▁lunchbox	-12.4639
▁macarons	-12.4639
▁madness	-12.4639
▁maggie	-12.4639
▁magnet	-12.4639
▁magnifico	-12.4639
▁mariani	-12.4639
▁marketspice	-12.4639
▁mas	-12.4639
▁massey	-12.4639
▁material	-12.4639
▁mays	-12.4639
▁mc	-12.4639
▁mccormicks	-12.4639
▁mcdonalds	-12.4639
▁medications	-12.4639
▁mejor	-12.4639
▁melba	-12.4639
▁melissa	-12.4639
▁mestemacher	-12.4639
▁mia	-12.4639
▁mice	-12.4639
▁micro	-12.4639
▁migraine	-12.4639
▁mike	-12.4639
▁military	-12.4639
▁miniature	-12.4639
▁minority	-12.4639
▁mission	-12.4639
▁mist	-12.4639
▁mistaken	-12.4639
▁mister	-12.4639
▁mocktails	-12.4639
▁mojitos	-12.4639
▁moly	-12.4639
▁moments	-12.4639
▁montreal	-12.4639
▁moss	-12.4639
▁mozzarella	-12.4639
▁munchy	-12.4639
▁mung	-12.4639
▁muscles	-12.4639
▁muss	-12.4639
▁myrtle	-12.4639
▁nada	-12.4639
▁names	-12.4639
▁nando	-12.4639
▁navy	-12.4639
▁nectasweet	-12.4639
▁nellie	-12.4639
▁nephew	-12.4639
▁nerds	-12.4639
▁nesquik	-12.4639
▁nielsen	-12.4639
▁noh	-12.4639
▁noticable	-12.4639
▁nt	-12.4639
▁nugo	-12.4639
▁oishii	-12.4639
▁oodles	-12.4639
▁opens	-12.4639
▁opinions	-12.4639
▁opportunity	-12.4639
▁orchid	-12.4639
▁orgasmic	-12.4639
▁os	-12.4639
▁otc	-12.4639
▁outweigh	-12.4639
▁overbearing	-12.4639
▁overnight	-12.4639
▁overwhelmed	-12.4639
▁owned	-12.4639
▁oxidant	-12.4639
▁oxymoron	-12.4639
▁pa	-12.4639
▁paella	-12.4639
▁paint	-12.4639
▁pair	-12.4639
▁pale	-12.4639
▁pampered	-12.4639
▁paragon	-12.4639
▁parsley	-12.4639
▁partial	-12.4639
▁partner	-12.4639
▁pasteurized	-12.4639
▁patak	-12.4639
▁pathetic	-12.4639
▁pc	-12.4639
▁pekingese	-12.4639
▁pens	-12.4639
▁pep	-12.4639
▁peru	-12.4639
▁pesky	-12.4639
▁petsmart	-12.4639
▁pf	-12.4639
▁picante	-12.4639
▁pickapeppa	-12.4639
▁pilling	-12.4639
▁pinnacle	-12.4639
▁plentiful	-12.4639
▁poke	-12.4639
▁popsicles	-12.4639
▁port	-12.4639
▁presented	-12.4639
▁preservative	-12.4639
▁previously	-12.4639
▁private	-12.4639
▁problematic	-12.4639
▁prod	-12.4639
▁puffy	-12.4639
▁pulled	-12.4639
▁pulse	-12.4639
▁pumping	-12.4639
▁pumps	-12.4639
▁purely	-12.4639
▁purified	-12.4639
▁quadratini	-12.4639
▁qualita	-12.4639
▁quart	-12.4639
▁quench	-12.4639
▁quenching	-12.4639
▁quot	-12.4639
▁ran	-12.4639
▁ratings	-12.4639
▁realized	-12.4639
▁realy	-12.4639
▁receipt	-12.4639
▁recomended	-12.4639
▁record	-12.4639
▁recycle	-12.4639
▁reed	-12.4639
▁regarding	-12.4639
▁region	-12.4639
▁reliably	-12.4639
▁relieve	-12.4639
▁remarkably	-12.4639
▁remotely	-12.4639
▁reports	-12.4639
▁request	-12.4639
▁require	-12.4639
▁reservations	-12.4639
▁reunion	-12.4639
▁revv	-12.4639
▁riffic	-12.4639
▁rific	-12.4639
▁rio	-12.4639
▁robert	-12.4639
▁romano	-12.4639
▁ropes	-12.4639
▁ruff	-12.4639
▁sachets	-12.4639
▁sacrificing	-12.4639
▁sake	-12.4639
▁sal	-12.4639
▁saltine	-12.4639
▁sammy	-12.4639
▁sandy	-12.4639
▁sangria	-12.4639
▁saying	-12.4639
▁scharffen	-12.4639
▁score	-12.4639
▁scores	-12.4639
▁scorpion	-12.4639
▁scottie	-12.4639
▁scratching	-12.4639
▁seat	-12.4639
▁seeing	-12.4639
▁seeking	-12.4639
▁selections	-12.4639
▁seneca	-12.4639
▁sensitivities	-12.4639
▁senso	-12.4639
▁sensual	-12.4639
▁separate	-12.4639
▁serviceable	-12.4639
▁sesmark	-12.4639
▁shade	-12.4639
▁shapes	-12.4639
▁sheer	-12.4639
▁sherry	-12.4639
▁shiba	-12.4639
▁shoe	-12.4639
▁simplicity	-12.4639
▁sin	-12.4639
▁skunk	-12.4639
▁skyline	-12.4639
▁sludge	-12.4639
▁smoooooth	-12.4639
▁smooooth	-12.4639
▁snak	-12.4639
▁sneak	-12.4639
▁sniff	-12.4639
▁snuff	-12.4639
▁solves	-12.4639
▁soupy	-12.4639
▁sources	-12.4639
▁soursop	-12.4639
▁sparkly	-12.4639
▁spicing	-12.4639
▁spiral	-12.4639
▁sponge	-12.4639
▁spreadable	-12.4639
▁ss	-12.4639
▁starchy	-12.4639
▁starkist	-12.4639
▁staying	-12.4639
▁steps	-12.4639
▁stik	-12.4639
▁stole	-12.4639
▁stoned	-12.4639
▁stones	-12.4639
▁stove	-12.4639
▁stupendous	-12.4639
▁subpar	-12.4639
▁suchard	-12.4639
▁suet	-12.4639
▁sulfites	-12.4639
▁sum	-12.4639
▁superfine	-12.4639
▁supurb	-12.4639
▁surgery	-12.4639
▁syndrome	-12.4639
▁szeged	-12.4639
▁ta	-12.4639
▁tab	-12.4639
▁tam	-12.4639
▁tapenade	-12.4639
▁tasters	-12.4639
▁tee	-12.4639
▁tendons	-12.4639
▁textures	-12.4639
▁theme	-12.4639
▁thomas	-12.4639
▁thrown	-12.4639
▁tinny	-12.4639
▁titanium	-12.4639
▁tobasco	-12.4639
▁track	-12.4639
▁treacle	-12.4639
▁treated	-12.4639
▁triplets	-12.4639
▁tuff	-12.4639
▁tuffy	-12.4639
▁tupelo	-12.4639
▁tuscany	-12.4639
▁twinkies	-12.4639
▁typhoo	-12.4639
▁underrated	-12.4639
▁understated	-12.4639
▁undertones	-12.4639
▁unreliable	-12.4639
▁unsatisfying	-12.4639
▁usps	-12.4639
▁uti	-12.4639
▁utter	-12.4639
▁uuml	-12.4639
▁values	-12.4639
▁veal	-12.4639
▁venus	-12.4639
▁verde	-12.4639
▁versitile	-12.4639
▁veterinarian	-12.4639
▁vietnam	-12.4639
▁vietnamese	-12.4639
▁visible	-12.4639
▁vitacoco	-12.4639
▁voted	-12.4639
▁vue	-12.4639
▁waistline	-12.4639
▁wakame	-12.4639
▁wanting	-12.4639
▁wars	-12.4639
▁wears	-12.4639
▁weaver	-12.4639
▁weber	-12.4639
▁weightwatchers	-12.4639
▁welch	-12.4639
▁whew	-12.4639
▁whim	-12.4639
▁whites	-12.4639
▁whoppers	-12.4639
▁wii	-12.4639
▁willy	-12.4639
▁worcestershire	-12.4639
▁wowza	-12.4639
▁writer	-12.4639
▁wysong	-12.4639
▁xylichew	-12.4639
▁yard	-12.4639
▁yoghurt	-12.4639
▁yogourmet	-12.4639
▁yours	-12.4639
▁zatarain	-12.4639
▁zebra	-12.4639
▁zhena	-12.4639
▁zippy	-12.4639
▁zola	-12.4639
▁aaa	-12.6462
▁access	-12.6462
▁ache	-12.6462
▁activity	-12.6462
▁adjust	-12.6462
▁adventurous	-12.6462
▁affect	-12.6462
▁africa	-12.6462
▁agar	-12.6462
▁agressive	-12.6462
▁ahhhhh	-12.6462
▁alcoholic	-12.6462
▁alergies	-12.6462
▁alphabet	-12.6462
▁amaranth	-12.6462
▁americana	-12.6462
▁americano	-12.6462
▁aminos	-12.6462
▁amora	-12.6462
▁amos	-12.6462
▁andy	-12.6462
▁ann	-12.6462
▁ant	-12.6462
▁anybody	-12.6462
▁applications	-12.6462
▁approx	-12.6462
▁arborio	-12.6462
▁arm	-12.6462
▁ash	-12.6462
▁ashamed	-12.6462
▁ashtray	-12.6462
▁aspertame	-12.6462
▁astronaut	-12.6462
▁aug	-12.6462
▁australia	-12.6462
▁avenue	-12.6462
▁ay	-12.6462
▁bachelor	-12.6462
▁backyard	-12.6462
▁bakes	-12.6462
▁barf	-12.6462
▁barfing	-12.6462
▁bariatric	-12.6462
▁barolo	-12.6462
▁bartenders	-12.6462
▁bassett	-12.6462
▁bathroom	-12.6462
▁battle	-12.6462
▁bazooka	-12.6462
▁beanitos	-12.6462
▁beers	-12.6462
▁beetle	-12.6462
▁believed	-12.6462
▁belle	-12.6462
▁ben	-12.6462
▁berger	-12.6462
▁bewley	-12.6462
▁bialetti	-12.6462
▁biased	-12.6462
▁bigs	-12.6462
▁billy	-12.6462
▁bin	-12.6462
▁bing	-12.6462
▁biscuts	-12.6462
▁bison	-12.6462
▁bisphenol	-12.6462
▁biting	-12.6462
▁blackberries	-12.6462
▁blackstrap	-12.6462
▁blew	-12.6462
▁bloom	-12.6462
▁bloomed	-12.6462
▁blowing	-12.6462
▁bonita	-12.6462
▁bottoms	-12.6462
▁boylan	-12.6462
▁brandy	-12.6462
▁breadcrumbs	-12.6462
▁breakage	-12.6462
▁bricks	-12.6462
▁brighter	-12.6462
▁brm	-12.6462
▁browns	-12.6462
▁brushing	-12.6462
▁bubblegum	-12.6462
▁bulgur	-12.6462
▁bundle	-12.6462
▁burritos	-12.6462
▁buttered	-12.6462
▁butternut	-12.6462
▁camomile	-12.6462
▁candida	-12.6462
▁canines	-12.6462
▁cannoli	-12.6462
▁caravan	-12.6462
▁carba	-12.6462
▁caring	-12.6462
▁carmels	-12.6462
▁carnival	-12.6462
▁carnivorous	-12.6462
▁carolina	-12.6462
▁casing	-12.6462
▁castor	-12.6462
▁catalina	-12.6462
▁catit	-12.6462
▁ceral	-12.6462
▁cerial	-12.6462
▁cfl	-12.6462
▁changer	-12.6462
▁charity	-12.6462
▁cheaply	-12.6462
▁cheer	-12.6462
▁cheerful	-12.6462
▁chicklets	-12.6462
▁chipolte	-12.6462
▁chocolove	-12.6462
▁choked	-12.6462
▁chubby	-12.6462
▁cigar	-12.6462
▁cincy	-12.6462
▁circus	-12.6462
▁classics	-12.6462
▁classy	-12.6462
▁clients	-12.6462
▁cliff	-12.6462
▁clone	-12.6462
▁clorets	-12.6462
▁closet	-12.6462
▁cm	-12.6462
▁cock	-12.6462
▁cocnut	-12.6462
▁cody	-12.6462
▁collectable	-12.6462
▁combine	-12.6462
▁comfortable	-12.6462
▁commercially	-12.6462
▁compliment	-12.6462
▁comvita	-12.6462
▁concentration	-12.6462
▁confessions	-12.6462
▁connoisseurs	-12.6462
▁consistant	-12.6462
▁consumed	-12.6462
▁contact	-12.6462
▁contained	-12.6462
▁convinient	-12.6462
▁coolers	-12.6462
▁cooper	-12.6462
▁cornnuts	-12.6462
▁corporate	-12.6462
▁corrected	-12.6462
▁cosmic	-12.6462
▁counts	-12.6462
▁craft	-12.6462
▁creepy	-12.6462
▁crf	-12.6462
▁crickets	-12.6462
▁crisis	-12.6462
▁crop	-12.6462
▁cruncy	-12.6462
▁curbing	-12.6462
▁cytosport	-12.6462
▁dan	-12.6462
▁dashed	-12.6462
▁deadman	-12.6462
▁dealer	-12.6462
▁dean	-12.6462
▁dec	-12.6462
▁december	-12.6462
▁decorative	-12.6462
▁delecious	-12.6462
▁delectible	-12.6462
▁depend	-12.6462
▁depression	-12.6462
▁derived	-12.6462
▁deterrent	-12.6462
▁dextrose	-12.6462
▁dice	-12.6462
▁diego	-12.6462
▁digesting	-12.6462
▁digestives	-12.6462
▁discerning	-12.6462
▁discounted	-12.6462
▁discription	-12.6462
▁disks	-12.6462
▁dislikes	-12.6462
▁dispensers	-12.6462
▁displeased	-12.6462
▁distasteful	-12.6462
▁distress	-12.6462
▁diva	-12.6462
▁diverse	-12.6462
▁dixie	-12.6462
▁diy	-12.6462
▁dk	-12.6462
▁doa	-12.6462
▁doberman	-12.6462
▁doctors	-12.6462
▁doesn	-12.6462
▁domino	-12.6462
▁doubles	-12.6462
▁doughy	-12.6462
▁doxie	-12.6462
▁dragonwell	-12.6462
▁dripping	-12.6462
▁duh	-12.6462
▁duke	-12.6462
▁dummies	-12.6462
▁dump	-12.6462
▁durian	-12.6462
▁dwarf	-12.6462
▁dying	-12.6462
▁dynasty	-12.6462
▁eatable	-12.6462
▁edibles	-12.6462
▁elbows	-12.6462
▁elvis	-12.6462
▁embarrassing	-12.6462
▁encountered	-12.6462
▁energize	-12.6462
▁enhancers	-12.6462
▁enormous	-12.6462
▁ensure	-12.6462
▁entry	-12.6462
▁environmental	-12.6462
▁ethical	-12.6462
▁ethnic	-12.6462
▁evaporated	-12.6462
▁everday	-12.6462
▁exceeds	-12.6462
▁excellente	-12.6462
▁excitement	-12.6462
▁exclusively	-12.6462
▁existence	-12.6462
▁explain	-12.6462
▁fad	-12.6462
▁faith	-12.6462
▁faithful	-12.6462
▁fallen	-12.6462
▁falling	-12.6462
▁fantasy	-12.6462
▁fart	-12.6462
▁feature	-12.6462
▁features	-12.6462
▁feeder	-12.6462
▁fer	-12.6462
▁fern	-12.6462
▁fiery	-12.6462
▁fights	-12.6462
▁file	-12.6462
▁fillings	-12.6462
▁film	-12.6462
▁flaked	-12.6462
▁flamingo	-12.6462
▁flav	-12.6462
▁florentine	-12.6462
▁flossie	-12.6462
▁foam	-12.6462
▁foamy	-12.6462
▁foie	-12.6462
▁fondue	-12.6462
▁forgotten	-12.6462
▁forte	-12.6462
▁foundation	-12.6462
▁fox	-12.6462
▁fr	-12.6462
▁frantoia	-12.6462
▁frappucino	-12.6462
▁fresca	-12.6462
▁frito	-12.6462
▁frugal	-12.6462
▁fuji	-12.6462
▁fuzzy	-12.6462
▁gaining	-12.6462
▁gano	-12.6462
▁gardener	-12.6462
▁garnish	-12.6462
▁gasoline	-12.6462
▁genetically	-12.6462
▁gentlease	-12.6462
▁gfree	-12.6462
▁glutenfree	-12.6462
▁gobbles	-12.6462
▁gooooooooood	-12.6462
▁gorilla	-12.6462
▁gp	-12.6462
▁graet	-12.6462
▁granular	-12.6462
▁gravel	-12.6462
▁greedy	-12.6462
▁grrrreat	-12.6462
▁gummie	-12.6462
▁hater	-12.6462
▁havanese	-12.6462
▁heated	-12.6462
▁heed	-12.6462
▁herr	-12.6462
▁hiding	-12.6462
▁hirt	-12.6462
▁hmmmmmm	-12.6462
▁holding	-12.6462
▁holly	-12.6462
▁homegrown	-12.6462
▁homework	-12.6462
▁hook	-12.6462
▁hopeful	-12.6462
▁hopefully	-12.6462
▁horchata	-12.6462
▁host	-12.6462
▁hotdog	-12.6462
▁hotel	-12.6462
▁houses	-12.6462
▁hull	-12.6462
▁hummm	-12.6462
▁hurray	-12.6462
▁huskies	-12.6462
▁hybrid	-12.6462
▁hydrating	-12.6462
▁hypoallergenic	-12.6462
▁icecream	-12.6462
▁icicle	-12.6462
▁id	-12.6462
▁identity	-12.6462
▁igourmet	-12.6462
▁ikea	-12.6462
▁illustrated	-12.6462
▁incense	-12.6462
▁inconvenient	-12.6462
▁indus	-12.6462
▁industry	-12.6462
▁infection	-12.6462
▁inflated	-12.6462
▁ing	-12.6462
▁ingrediant	-12.6462
▁ingrediants	-12.6462
▁insufficient	-12.6462
▁introduced	-12.6462
▁inulin	-12.6462
▁involved	-12.6462
▁iranian	-12.6462
▁iraq	-12.6462
▁irritation	-12.6462
▁jambalaya	-12.6462
▁jan	-12.6462
▁jeff	-12.6462
▁jewel	-12.6462
▁jocalat	-12.6462
▁jolokia	-12.6462
▁js	-12.6462
▁jubilee	-12.6462
▁judy	-12.6462
▁jumped	-12.6462
▁jungle	-12.6462
▁kaffir	-12.6462
▁kalua	-12.6462
▁kasha	-12.6462
▁kc	-12.6462
▁keenan	-12.6462
▁kelp	-12.6462
▁knees	-12.6462
▁kringle	-12.6462
▁krispy	-12.6462
▁kum	-12.6462
▁labels	-12.6462
▁lake	-12.6462
▁laws	-12.6462
▁lay	-12.6462
▁lecithin	-12.6462
▁leftover	-12.6462
▁legendary	-12.6462
▁legit	-12.6462
▁leonidas	-12.6462
▁lettuce	-12.6462
▁lifting	-12.6462
▁lightning	-12.6462
▁lights	-12.6462
▁linguini	-12.6462
▁lion	-12.6462
▁lips	-12.6462
▁ll	-12.6462
▁loads	-12.6462
▁lolipops	-12.6462
▁lollypops	-12.6462
▁longtime	-12.6462
▁looses	-12.6462
▁lotus	-12.6462
▁lucious	-12.6462
▁ly	-12.6462
▁lying	-12.6462
▁mainstay	-12.6462
▁maldon	-12.6462
▁mallo	-12.6462
▁manageable	-12.6462
▁marinated	-12.6462
▁mario	-12.6462
▁marked	-12.6462
▁marketplace	-12.6462
▁markets	-12.6462
▁markup	-12.6462
▁martinson	-12.6462
▁massage	-12.6462
▁matching	-12.6462
▁maynard	-12.6462
▁mazing	-12.6462
▁mead	-12.6462
▁measured	-12.6462
▁medical	-12.6462
▁mentioned	-12.6462
▁merely	-12.6462
▁meringue	-12.6462
▁mfg	-12.6462
▁microwaveable	-12.6462
▁minded	-12.6462
▁miserable	-12.6462
▁mislead	-12.6462
▁misnomer	-12.6462
▁misty	-12.6462
▁molded	-12.6462
▁molto	-12.6462
▁moma	-12.6462
▁monte	-12.6462
▁moringa	-12.6462
▁mouths	-12.6462
▁moved	-12.6462
▁moving	-12.6462
▁moxie	-12.6462
▁mui	-12.6462
▁munchie	-12.6462
▁munching	-12.6462
▁music	-12.6462
▁mussels	-12.6462
▁naan	-12.6462
▁nachos	-12.6462
▁nancy	-12.6462
▁nation	-12.6462
▁native	-12.6462
▁natura	-12.6462
▁naughty	-12.6462
▁ne	-12.6462
▁nearby	-12.6462
▁needle	-12.6462
▁nesco	-12.6462
▁newborn	-12.6462
▁nibble	-12.6462
▁nibbles	-12.6462
▁nick	-12.6462
▁nido	-12.6462
▁nj	-12.6462
▁noms	-12.6462
▁nongshim	-12.6462
▁noses	-12.6462
▁november	-12.6462
▁numbers	-12.6462
▁nutro	-12.6462
▁occasionally	-12.6462
▁oi	-12.6462
▁olio	-12.6462
▁omgosh	-12.6462
▁ooooh	-12.6462
▁ooops	-12.6462
▁optimal	-12.6462
▁orangina	-12.6462
▁ostrim	-12.6462
▁overwhelms	-12.6462
▁pads	-12.6462
▁pal	-12.6462
▁panni	-12.6462
▁pant	-12.6462
▁particles	-12.6462
▁peak	-12.6462
▁peculiar	-12.6462
▁pekoe	-12.6462
▁pellet	-12.6462
▁penguin	-12.6462
▁peppered	-12.6462
▁permanent	-12.6462
▁pesticides	-12.6462
▁pests	-12.6462
▁petals	-12.6462
▁petco	-12.6462
▁philly	-12.6462
▁pickiest	-12.6462
▁pickwick	-12.6462
▁pico	-12.6462
▁pillsbury	-12.6462
▁pin	-12.6462
▁pint	-12.6462
▁pirates	-12.6462
▁pits	-12.6462
▁pitted	-12.6462
▁pizzas	-12.6462
▁placebo	-12.6462
▁placing	-12.6462
▁playing	-12.6462
▁pleasent	-12.6462
▁plocky	-12.6462
▁poptart	-12.6462
▁portability	-12.6462
▁pots	-12.6462
▁poured	-12.6462
▁pow	-12.6462
▁powerbar	-12.6462
▁powered	-12.6462
▁prima	-12.6462
▁primo	-12.6462
▁pristine	-12.6462
▁prodomo	-12.6462
▁producer	-12.6462
▁producers	-12.6462
▁promotes	-12.6462
▁propel	-12.6462
▁provider	-12.6462
▁pruduct	-12.6462
▁pub	-12.6462
▁puerh	-12.6462
▁purest	-12.6462
▁purr	-12.6462
▁purrfect	-12.6462
▁purrrfect	-12.6462
▁qc	-12.6462
▁qualities	-12.6462
▁quanity	-12.6462
▁quicker	-12.6462
▁quiet	-12.6462
▁ragu	-12.6462
▁rainy	-12.6462
▁raising	-12.6462
▁rapid	-12.6462
▁rats	-12.6462
▁readily	-12.6462
▁realistic	-12.6462
▁reality	-12.6462
▁reccomend	-12.6462
▁reception	-12.6462
▁recipie	-12.6462
▁recipients	-12.6462
▁rediculous	-12.6462
▁ref	-12.6462
▁refrigerate	-12.6462
▁rejects	-12.6462
▁reluctant	-12.6462
▁remembering	-12.6462
▁reminder	-12.6462
▁remover	-12.6462
▁repackaged	-12.6462
▁repel	-12.6462
▁replacing	-12.6462
▁represented	-12.6462
▁repulsive	-12.6462
▁reputation	-12.6462
▁resort	-12.6462
▁responsible	-12.6462
▁retired	-12.6462
▁rev	-12.6462
▁revelation	-12.6462
▁revisited	-12.6462
▁revitalizing	-12.6462
▁rhubarb	-12.6462
▁riceworks	-12.6462
▁richard	-12.6462
▁rind	-12.6462
▁rival	-12.6462
▁ro	-12.6462
▁rockin	-12.6462
▁roe	-12.6462
▁roof	-12.6462
▁rosso	-12.6462
▁rottweiler	-12.6462
▁roulette	-12.6462
▁rounded	-12.6462
▁roxy	-12.6462
▁ruining	-12.6462
▁safari	-12.6462
▁safest	-12.6462
▁salmonella	-12.6462
▁salon	-12.6462
▁samoa	-12.6462
▁sapporo	-12.6462
▁sassafras	-12.6462
▁sassy	-12.6462
▁sat	-12.6462
▁satay	-12.6462
▁scooby	-12.6462
▁searched	-12.6462
▁seas	-12.6462
▁secrets	-12.6462
▁sediment	-12.6462
▁seek	-12.6462
▁sel	-12.6462
▁senna	-12.6462
▁sensations	-12.6462
▁separated	-12.6462
▁setup	-12.6462
▁severely	-12.6462
▁shall	-12.6462
▁shampoos	-12.6462
▁shark	-12.6462
▁shelter	-12.6462
▁sheltie	-12.6462
▁shift	-12.6462
▁shocker	-12.6462
▁shortcake	-12.6462
▁shortchanged	-12.6462
▁shortcut	-12.6462
▁shy	-12.6462
▁siljans	-12.6462
▁sir	-12.6462
▁skeptic	-12.6462
▁slop	-12.6462
▁smints	-12.6462
▁smith	-12.6462
▁smokies	-12.6462
▁smuckers	-12.6462
▁snackin	-12.6462
▁snake	-12.6462
▁sockeye	-12.6462
▁soooooooooo	-12.6462
▁sooooooooooo	-12.6462
▁sophie	-12.6462
▁sorghum	-12.6462
▁soulistic	-12.6462
▁spare	-12.6462
▁speaking	-12.6462
▁spicier	-12.6462
▁spiders	-12.6462
▁spills	-12.6462
▁spirals	-12.6462
▁spits	-12.6462
▁spitz	-12.6462
▁spoken	-12.6462
▁spouse	-12.6462
▁spout	-12.6462
▁spreads	-12.6462
▁sprouter	-12.6462
▁squeaky	-12.6462
▁squeezed	-12.6462
▁staff	-12.6462
▁stamped	-12.6462
▁staples	-12.6462
▁status	-12.6462
▁steam	-12.6462
▁steve	-12.6462
▁stewart	-12.6462
▁stiff	-12.6462
▁stoneridge	-12.6462
▁stopping	-12.6462
▁stover	-12.6462
▁stressful	-12.6462
▁string	-12.6462
▁stripe	-12.6462
▁stroopwafels	-12.6462
▁stubb	-12.6462
▁study	-12.6462
▁subjective	-12.6462
▁sucanat	-12.6462
▁sucre	-12.6462
▁suddenly	-12.6462
▁sufferer	-12.6462
▁suffers	-12.6462
▁suggest	-12.6462
▁suggestions	-12.6462
▁sumatran	-12.6462
▁sunny	-12.6462
▁supper	-12.6462
▁survived	-12.6462
▁swap	-12.6462
▁sweetz	-12.6462
▁swheat	-12.6462
▁switzerland	-12.6462
▁symphony	-12.6462
▁tabs	-12.6462
▁tacky	-12.6462
▁tag	-12.6462
▁tahina	-12.6462
▁tamale	-12.6462
▁tandoor	-12.6462
▁tanka	-12.6462
▁tape	-12.6462
▁tasing	-12.6462
▁tatse	-12.6462
▁tb	-12.6462
▁techno	-12.6462
▁teen	-12.6462
▁teenager	-12.6462
▁teens	-12.6462
▁tel	-12.6462
▁temp	-12.6462
▁tenderizer	-12.6462
▁tenders	-12.6462
▁terms	-12.6462
▁tetra	-12.6462
▁themed	-12.6462
▁thermometer	-12.6462
▁thirsty	-12.6462
▁thoughtful	-12.6462
▁thousand	-12.6462
▁threads	-12.6462
▁throats	-12.6462
▁throughout	-12.6462
▁throws	-12.6462
▁thyme	-12.6462
▁timing	-12.6462
▁tj	-12.6462
▁tlc	-12.6462
▁tolerate	-12.6462
▁toooo	-12.6462
▁toothbrush	-12.6462
▁toothless	-12.6462
▁travelling	-12.6462
▁treasures	-12.6462
▁tri	-12.6462
▁troubles	-12.6462
▁tumeric	-12.6462
▁twang	-12.6462
▁tweaks	-12.6462
▁twelve	-12.6462
▁twenty	-12.6462
▁twizzler	-12.6462
▁ultimately	-12.6462
▁ultramix	-12.6462
▁unfiltered	-12.6462
▁united	-12.6462
▁universal	-12.6462
▁unparalleled	-12.6462
▁unrefined	-12.6462
▁unsatisfactory	-12.6462
▁unsweet	-12.6462
▁unusually	-12.6462
▁upgraded	-12.6462
▁uplifting	-12.6462
▁upscale	-12.6462
▁upsets	-12.6462
▁urge	-12.6462
▁usage	-12.6462
▁useable	-12.6462
▁va	-12.6462
▁valerian	-12.6462
▁variations	-12.6462
▁varied	-12.6462
▁vegeta	-12.6462
▁velvety	-12.6462
▁versatility	-12.6462
▁vials	-12.6462
▁virtuous	-12.6462
▁vital	-12.6462
▁vizsla	-12.6462
▁void	-12.6462
▁wadi	-12.6462
▁wages	-12.6462
▁waited	-12.6462
▁wales	-12.6462
▁warheads	-12.6462
▁wave	-12.6462
▁weapon	-12.6462
▁weighs	-12.6462
▁werther	-12.6462
▁wheaten	-12.6462
▁wheel	-12.6462
▁wholesale	-12.6462
▁wholly	-12.6462
▁widely	-12.6462
▁wildly	-12.6462
▁williams	-12.6462
▁wilted	-12.6462
▁wind	-12.6462
▁windows	-12.6462
▁windsor	-12.6462
▁wondeful	-12.6462
▁worker	-12.6462
▁wrigley	-12.6462
▁wunderbar	-12.6462
▁wurly	-12.6462
▁www	-12.6462
▁yak	-12.6462
▁yankee	-12.6462
▁ye	-12.6462
▁yin	-12.6462
▁yoshida	-12.6462
▁yowza	-12.6462
▁yuch	-12.6462
▁ziggies	-12.6462
▁ziwi	-12.6462
▁zots	-12.6462
▁absolutley	-12.8693
▁absurdly	-12.8693
▁acana	-12.8693
▁acesulfame	-12.8693
▁aches	-12.8693
▁aching	-12.8693
▁achiote	-12.8693
▁acids	-12.8693
▁ackee	-12.8693
▁acquire	-12.8693
▁ade	-12.8693
▁adenium	-12.8693
▁ads	-12.8693
▁advanced	-12.8693
▁advantage	-12.8693
▁advertisment	-12.8693
▁affects	-12.8693
▁aficionado	-12.8693
▁aficionados	-12.8693
▁aids	-12.8693
▁airplane	-12.8693
▁airport	-12.8693
▁ajvar	-12.8693
▁alarm	-12.8693
▁alba	-12.8693
▁alien	-12.8693
▁allen	-12.8693
▁allowed	-12.8693
▁almondy	-12.8693
▁alpine	-12.8693
▁alsosalt	-12.8693
▁amazons	-12.8693
▁ambiguous	-12.8693
▁amd	-12.8693
▁amongst	-12.8693
▁angelina	-12.8693
▁annies	-12.8693
▁annoyed	-12.8693
▁annual	-12.8693
▁antlers	-12.8693
▁apo	-12.8693
▁apocalypse	-12.8693
▁apparent	-12.8693
▁appassionato	-12.8693
▁appetites	-12.8693
▁ar	-12.8693
▁archway	-12.8693
▁arco	-12.8693
▁areas	-12.8693
▁arepas	-12.8693
▁arguably	-12.8693
▁argue	-12.8693
▁aromatherapy	-12.8693
▁arsenal	-12.8693
▁arthur	-12.8693
▁artic	-12.8693
▁ashes	-12.8693
▁asiago	-12.8693
▁aspect	-12.8693
▁astonishingly	-12.8693
▁astringent	-12.8693
▁atrocious	-12.8693
▁attacks	-12.8693
▁audience	-12.8693
▁aussies	-12.8693
▁autistic	-12.8693
▁aw	-12.8693
▁awesom	-12.8693
▁ayurvedic	-12.8693
▁backcountry	-12.8693
▁bahlsen	-12.8693
▁bailey	-12.8693
▁baklawa	-12.8693
▁banged	-12.8693
▁barlean	-12.8693
▁barrel	-12.8693
▁basics	-12.8693
▁basketeers	-12.8693
▁basset	-12.8693
▁battery	-12.8693
▁bavarian	-12.8693
▁bd	-12.8693
▁beads	-12.8693
▁beefeaters	-12.8693
▁began	-12.8693
▁begone	-12.8693
▁behavior	-12.8693
▁believing	-12.8693
▁belongs	-12.8693
▁berbere	-12.8693
▁berres	-12.8693
▁bettlejuice	-12.8693
▁bibi	-12.8693
▁biobag	-12.8693
▁biobags	-12.8693
▁bisquits	-12.8693
▁bistro	-12.8693
▁blair	-12.8693
▁blanched	-12.8693
▁blasts	-12.8693
▁bleached	-12.8693
▁bleah	-12.8693
▁bloated	-12.8693
▁bombay	-12.8693
▁bombs	-12.8693
▁booda	-12.8693
▁born	-12.8693
▁botts	-12.8693
▁boycott	-12.8693
▁boyer	-12.8693
▁brachs	-12.8693
▁braggs	-12.8693
▁brats	-12.8693
▁breaded	-12.8693
▁breasts	-12.8693
▁breathing	-12.8693
▁brie	-12.8693
▁brisket	-12.8693
▁brisling	-12.8693
▁brooks	-12.8693
▁bru	-12.8693
▁bruschetta	-12.8693
▁brutal	-12.8693
▁bubba	-12.8693
▁budding	-12.8693
▁buen	-12.8693
▁build	-12.8693
▁built	-12.8693
▁bullet	-12.8693
▁bumps	-12.8693
▁burner	-12.8693
▁butts	-12.8693
▁buzzworthy	-12.8693
▁cabin	-12.8693
▁cactus	-12.8693
▁camp	-12.8693
▁campers	-12.8693
▁candycane	-12.8693
▁canfield	-12.8693
▁canterbury	-12.8693
▁capp	-12.8693
▁capresso	-12.8693
▁capuccino	-12.8693
▁carber	-12.8693
▁carbquik	-12.8693
▁carcinogen	-12.8693
▁carr	-12.8693
▁cars	-12.8693
▁casbah	-12.8693
▁casual	-12.8693
▁cauliflower	-12.8693
▁cautious	-12.8693
▁cavalier	-12.8693
▁cbtl	-12.8693
▁cee	-12.8693
▁celebration	-12.8693
▁cement	-12.8693
▁centers	-12.8693
▁cento	-12.8693
▁cf	-12.8693
▁champ	-12.8693
▁charging	-12.8693
▁charleston	-12.8693
▁cheating	-12.8693
▁checked	-12.8693
▁chedder	-12.8693
▁chees	-12.8693
▁cheesoning	-12.8693
▁chemistry	-12.8693
▁chewie	-12.8693
▁chewier	-12.8693
▁chico	-12.8693
▁chipotles	-12.8693
▁chipped	-12.8693
▁chloride	-12.8693
▁chocolat	-12.8693
▁chocula	-12.8693
▁chokecherry	-12.8693
▁cholestrol	-12.8693
▁chop	-12.8693
▁chuck	-12.8693
▁chupa	-12.8693
▁chups	-12.8693
▁cinammon	-12.8693
▁cindy	-12.8693
▁civilized	-12.8693
▁clarification	-12.8693
▁claxton	-12.8693
▁cleanest	-12.8693
▁cleanup	-12.8693
▁clearing	-12.8693
▁cocao	-12.8693
▁cockapoo	-12.8693
▁cockroaches	-12.8693
▁colavita	-12.8693
▁coleman	-12.8693
▁collector	-12.8693
▁collectors	-12.8693
▁colon	-12.8693
▁colony	-12.8693
▁columela	-12.8693
▁component	-12.8693
▁compressed	-12.8693
▁computer	-12.8693
▁conch	-12.8693
▁concious	-12.8693
▁concoction	-12.8693
▁considerations	-12.8693
▁consistancy	-12.8693
▁consistantly	-12.8693
▁constantly	-12.8693
▁constipated	-12.8693
▁consume	-12.8693
▁consumers	-12.8693
▁consuming	-12.8693
▁converting	-12.8693
▁cookin	-12.8693
▁copy	-12.8693
▁cordials	-12.8693
▁cornucopia	-12.8693
▁cortas	-12.8693
▁counterfeit	-12.8693
▁countertop	-12.8693
▁coupon	-12.8693
▁cous	-12.8693
▁covenient	-12.8693
▁covers	-12.8693
▁cracklin	-12.8693
▁cracks	-12.8693
▁crakers	-12.8693
▁cramping	-12.8693
▁creamier	-12.8693
▁creamsicle	-12.8693
▁creativity	-12.8693
▁crepe	-12.8693
▁crew	-12.8693
▁crisco	-12.8693
▁critic	-12.8693
▁crow	-12.8693
▁crummy	-12.8693
▁crying	-12.8693
▁culture	-12.8693
▁curcumin	-12.8693
▁curries	-12.8693
▁cutest	-12.8693
▁cycle	-12.8693
▁cyclone	-12.8693
▁dabba	-12.8693
▁damned	-12.8693
▁damp	-12.8693
▁darlings	-12.8693
▁das	-12.8693
▁deaths	-12.8693
▁decade	-12.8693
▁decay	-12.8693
▁decline	-12.8693
▁declining	-12.8693
▁decor	-12.8693
▁deeee	-12.8693
▁deeeee	-12.8693
▁deeeeeelicious	-12.8693
▁deeelish	-12.8693
▁deelicious	-12.8693
▁deen	-12.8693
▁definition	-12.8693
▁degrees	-12.8693
▁delayed	-12.8693
▁delicately	-12.8693
▁delious	-12.8693
▁desire	-12.8693
▁develop	-12.8693
▁devious	-12.8693
▁df	-12.8693
▁diappointed	-12.8693
▁dick	-12.8693
▁digestible	-12.8693
▁dimensions	-12.8693
▁dining	-12.8693
▁dinosaurs	-12.8693
▁dis	-12.8693
▁disclosed	-12.8693
▁discovering	-12.8693
▁discrepancy	-12.8693
▁discusting	-12.8693
▁disregard	-12.8693
▁dissappointing	-12.8693
▁dissappointment	-12.8693
▁distant	-12.8693
▁distributed	-12.8693
▁domatcha	-12.8693
▁dominant	-12.8693
▁doodles	-12.8693
▁doomhammer	-12.8693
▁doorstep	-12.8693
▁dorms	-12.8693
▁dorset	-12.8693
▁doubleshot	-12.8693
▁doubts	-12.8693
▁doughnut	-12.8693
▁dramatic	-12.8693
▁drastically	-12.8693
▁draw	-12.8693
▁dreamfield	-12.8693
▁dries	-12.8693
▁drizzle	-12.8693
▁drool	-12.8693
▁droppings	-12.8693
▁drugstore	-12.8693
▁duds	-12.8693
▁dummy	-12.8693
▁dunking	-12.8693
▁duo	-12.8693
▁duped	-12.8693
▁duper	-12.8693
▁earthmate	-12.8693
▁ecellent	-12.8693
▁ed	-12.8693
▁edema	-12.8693
▁educational	-12.8693
▁eel	-12.8693
▁effectiveness	-12.8693
▁egbert	-12.8693
▁egyptian	-12.8693
▁elements	-12.8693
▁eligible	-12.8693
▁elm	-12.8693
▁elmo	-12.8693
▁employees	-12.8693
▁endless	-12.8693
▁enery	-12.8693
▁enhancement	-12.8693
▁envelope	-12.8693
▁envelopes	-12.8693
▁envy	-12.8693
▁enzyme	-12.8693
▁esspresso	-12.8693
▁estate	-12.8693
▁et	-12.8693
▁euphoria	-12.8693
▁euro	-12.8693
▁evah	-12.8693
▁evco	-12.8693
▁eve	-12.8693
▁evenings	-12.8693
▁evidently	-12.8693
▁evolution	-12.8693
▁ewwwwww	-12.8693
▁exaggerating	-12.8693
▁excellently	-12.8693
▁exception	-12.8693
▁exelent	-12.8693
▁expiring	-12.8693
▁extend	-12.8693
▁extraordinaire	-12.8693
▁extras	-12.8693
▁ey	-12.8693
▁fa	-12.8693
▁fabuloso	-12.8693
▁fajita	-12.8693
▁falsely	-12.8693
▁farmers	-12.8693
▁fastachi	-12.8693
▁favorable	-12.8693
▁favortie	-12.8693
▁felidae	-12.8693
▁female	-12.8693
▁feral	-12.8693
▁fettuccini	-12.8693
▁fettucini	-12.8693
▁fibre	-12.8693
▁fibromyalgia	-12.8693
▁figgy	-12.8693
▁fingertips	-12.8693
▁finished	-12.8693
▁finland	-12.8693
▁fixin	-12.8693
▁flair	-12.8693
▁flakey	-12.8693
▁flapjacks	-12.8693
▁flaver	-12.8693
▁flavorable	-12.8693
▁flawless	-12.8693
▁fleur	-12.8693
▁flight	-12.8693
▁flips	-12.8693
▁flush	-12.8693
▁flushable	-12.8693
▁fogbuster	-12.8693
▁folk	-12.8693
▁followed	-12.8693
▁force	-12.8693
▁format	-12.8693
▁fortunes	-12.8693
▁fourth	-12.8693
▁fowler	-12.8693
▁frame	-12.8693
▁francais	-12.8693
▁frappes	-12.8693
▁frenzy	-12.8693
▁freshen	-12.8693
▁freshner	-12.8693
▁frichik	-12.8693
▁friggin	-12.8693
▁frills	-12.8693
▁fritos	-12.8693
▁fulfilled	-12.8693
▁furbabies	-12.8693
▁gadget	-12.8693
▁gagged	-12.8693
▁gah	-12.8693
▁galangal	-12.8693
▁galileo	-12.8693
▁gang	-12.8693
▁gastric	-12.8693
▁gastrointestinal	-12.8693
▁gelatine	-12.8693
▁gelato	-12.8693
▁genco	-12.8693
▁germinated	-12.8693
▁getter	-12.8693
▁gfcfsf	-12.8693
▁ghastly	-12.8693
▁gia	-12.8693
▁glenny	-12.8693
▁glucerna	-12.8693
▁glucotest	-12.8693
▁glug	-12.8693
▁gnat	-12.8693
▁gobstoppers	-12.8693
▁gochujang	-12.8693
▁gojis	-12.8693
▁golf	-12.8693
▁golightly	-12.8693
▁gon	-12.8693
▁google	-12.8693
▁goos	-12.8693
▁gooseberry	-12.8693
▁gorgonzola	-12.8693
▁gormet	-12.8693
▁gracie	-12.8693
▁gracious	-12.8693
▁graduation	-12.8693
▁granddaughters	-12.8693
▁grandmothers	-12.8693
▁grandparents	-12.8693
▁gratification	-12.8693
▁gravies	-12.8693
▁grazing	-12.8693
▁grea	-12.8693
▁greate	-12.8693
▁greentea	-12.8693
▁gret	-12.8693
▁greys	-12.8693
▁grissini	-12.8693
▁grossest	-12.8693
▁grrrrreat	-12.8693
▁grrrrrreat	-12.8693
▁guarantee	-12.8693
▁guinea	-12.8693
▁gulden	-12.8693
▁gumdrops	-12.8693
▁gunk	-12.8693
▁haiku	-12.8693
▁hain	-12.8693
▁hall	-12.8693
▁hamburgers	-12.8693
▁handles	-12.8693
▁hanging	-12.8693
▁hat	-12.8693
▁hatch	-12.8693
▁hazel	-12.8693
▁hazer	-12.8693
▁healed	-12.8693
▁hearted	-12.8693
▁herbamare	-12.8693
▁herbes	-12.8693
▁heroin	-12.8693
▁hesitant	-12.8693
▁hideous	-12.8693
▁hikes	-12.8693
▁hippos	-12.8693
▁hominy	-12.8693
▁honees	-12.8693
▁hong	-12.8693
▁hoosier	-12.8693
▁hops	-12.8693
▁horror	-12.8693
▁hors	-12.8693
▁hospital	-12.8693
▁hotsauce	-12.8693
▁hott	-12.8693
▁hounds	-12.8693
▁households	-12.8693
▁http	-12.8693
▁hugely	-12.8693
▁hulled	-12.8693
▁hulless	-12.8693
▁humble	-12.8693
▁hunting	-12.8693
▁hydrates	-12.8693
▁hyped	-12.8693
▁hypoglycemics	-12.8693
▁ichiban	-12.8693
▁ignorant	-12.8693
▁imperial	-12.8693
▁implies	-12.8693
▁impression	-12.8693
▁impressions	-12.8693
▁improper	-12.8693
▁inadequate	-12.8693
▁inappropriate	-12.8693
▁inclined	-12.8693
▁indispensible	-12.8693
▁indistinguishable	-12.8693
▁indonesian	-12.8693
▁indulge	-12.8693
▁inflammation	-12.8693
▁inflammatory	-12.8693
▁inflation	-12.8693
▁influenster	-12.8693
▁ingenious	-12.8693
▁inka	-12.8693
▁insomnia	-12.8693
▁inspired	-12.8693
▁instruction	-12.8693
▁inu	-12.8693
▁inventory	-12.8693
▁invisible	-12.8693
▁irritated	-12.8693
▁irritating	-12.8693
▁issued	-12.8693
▁italia	-12.8693
▁ja	-12.8693
▁jacked	-12.8693
▁jawbreakers	-12.8693
▁jazz	-12.8693
▁jerry	-12.8693
▁jo	-12.8693
▁joyous	-12.8693
▁joys	-12.8693
▁jules	-12.8693
▁june	-12.8693
▁jyoti	-12.8693
▁kal	-12.8693
▁kame	-12.8693
▁karen	-12.8693
▁kay	-12.8693
▁kicked	-12.8693
▁kidz	-12.8693
▁klein	-12.8693
▁knife	-12.8693
▁knight	-12.8693
▁kobe	-12.8693
▁kodiak	-12.8693
▁kopiko	-12.8693
▁korma	-12.8693
▁krackers	-12.8693
▁kukicha	-12.8693
▁kup	-12.8693
▁labelling	-12.8693
▁labrador	-12.8693
▁lammy	-12.8693
▁lansinoh	-12.8693
▁lap	-12.8693
▁largest	-12.8693
▁larvae	-12.8693
▁lathers	-12.8693
▁laughing	-12.8693
▁laughs	-12.8693
▁laurel	-12.8693
▁lavendar	-12.8693
▁lawn	-12.8693
▁layers	-12.8693
▁ldl	-12.8693
▁leafy	-12.8693
▁leash	-12.8693
▁lebanese	-12.8693
▁leeper	-12.8693
▁leftovers	-12.8693
▁legends	-12.8693
▁lemonheads	-12.8693
▁leone	-12.8693
▁letdown	-12.8693
▁lhasa	-12.8693
▁libre	-12.8693
▁licked	-12.8693
▁lifeboat	-12.8693
▁lignans	-12.8693
▁likeable	-12.8693
▁limits	-12.8693
▁limp	-12.8693
▁lindberg	-12.8693
▁lingers	-12.8693
▁linked	-12.8693
▁liquidy	-12.8693
▁littles	-12.8693
▁loacker	-12.8693
▁lodge	-12.8693
▁lolli	-12.8693
▁lolly	-12.8693
▁looove	-12.8693
▁lous	-12.8693
▁lowers	-12.8693
▁lowery	-12.8693
▁lump	-12.8693
▁lumps	-12.8693
▁lung	-12.8693
▁luwak	-12.8693
▁mabo	-12.8693
▁macaroon	-12.8693
▁madhouse	-12.8693
▁magically	-12.8693
▁mai	-12.8693
▁makhani	-12.8693
▁makin	-12.8693
▁malabar	-12.8693
▁mallow	-12.8693
▁malts	-12.8693
▁mamma	-12.8693
▁managed	-12.8693
▁manager	-12.8693
▁manischewitz	-12.8693
▁mantova	-12.8693
▁manual	-12.8693
▁mapleine	-12.8693
▁mapley	-12.8693
▁march	-12.8693
▁margaret	-12.8693
▁marinate	-12.8693
▁marriage	-12.8693
▁marshalls	-12.8693
▁marshmellow	-12.8693
▁marshmellows	-12.8693
▁matches	-12.8693
▁mates	-12.8693
▁matzos	-12.8693
▁maynards	-12.8693
▁mayonaise	-12.8693
▁mberry	-12.8693
▁mccanns	-12.8693
▁mcdonald	-12.8693
▁mcvitie	-12.8693
▁measures	-12.8693
▁medifast	-12.8693
▁medora	-12.8693
▁meetings	-12.8693
▁menadione	-12.8693
▁merckens	-12.8693
▁merguez	-12.8693
▁mex	-12.8693
▁meyenberg	-12.8693
▁miami	-12.8693
▁mickey	-12.8693
▁microwaved	-12.8693
▁middling	-12.8693
▁midwest	-12.8693
▁milano	-12.8693
▁miles	-12.8693
▁milkshake	-12.8693
▁minicongo	-12.8693
▁mistakes	-12.8693
▁mistro	-12.8693
▁misunderstood	-12.8693
▁mite	-12.8693
▁mixers	-12.8693
▁mono	-12.8693
▁montana	-12.8693
▁monthly	-12.8693
▁moos	-12.8693
▁mouthfeel	-12.8693
▁mouthwash	-12.8693
▁mtr	-12.8693
▁mulberry	-12.8693
▁mulling	-12.8693
▁murray	-12.8693
▁musical	-12.8693
▁mysterious	-12.8693
▁nah	-12.8693
▁nail	-12.8693
▁napkins	-12.8693
▁neck	-12.8693
▁nectresse	-12.8693
▁neo	-12.8693
▁neon	-12.8693
▁nest	-12.8693
▁nestea	-12.8693
▁newbies	-12.8693
▁newly	-12.8693
▁niche	-12.8693
▁nissin	-12.8693
▁nitrite	-12.8693
▁noir	-12.8693
▁noise	-12.8693
▁nordic	-12.8693
▁northwest	-12.8693
▁nourish	-12.8693
▁nov	-12.8693
▁nrg	-12.8693
▁nueske	-12.8693
▁nutter	-12.8693
▁object	-12.8693
▁obvious	-12.8693
▁ocha	-12.8693
▁octopus	-12.8693
▁od	-12.8693
▁odorless	-12.8693
▁offerings	-12.8693
▁offs	-12.8693
▁ohhhhh	-12.8693
▁omegas	-12.8693
▁omfg	-12.8693
▁ono	-12.8693
▁oomph	-12.8693
▁opposite	-12.8693
▁orbana	-12.8693
▁organized	-12.8693
▁orgeat	-12.8693
▁orginal	-12.8693
▁ortho	-12.8693
▁ot	-12.8693
▁oustanding	-12.8693
▁outdoors	-12.8693
▁outer	-12.8693
▁output	-12.8693
▁overdo	-12.8693
▁overhyped	-12.8693
▁overview	-12.8693
▁pail	-12.8693
▁painless	-12.8693
▁pairing	-12.8693
▁paks	-12.8693
▁palak	-12.8693
▁palates	-12.8693
▁palette	-12.8693
▁pam	-12.8693
▁papillon	-12.8693
▁parisian	-12.8693
▁parm	-12.8693
▁parma	-12.8693
▁passions	-12.8693
▁passover	-12.8693
▁pastilles	-12.8693
▁pastime	-12.8693
▁pataks	-12.8693
▁patches	-12.8693
▁patty	-12.8693
▁pau	-12.8693
▁pavilion	-12.8693
▁pcs	-12.8693
▁pdq	-12.8693
▁peeps	-12.8693
▁pellegrino	-12.8693
▁pennies	-12.8693
▁pennsylvania	-12.8693
▁pepperminty	-12.8693
▁pepto	-12.8693
▁perishable	-12.8693
▁pernigotti	-12.8693
▁perrins	-12.8693
▁peruvian	-12.8693
▁philippines	-12.8693
▁phony	-12.8693
▁pic	-12.8693
▁pica	-12.8693
▁picker	-12.8693
▁pickup	-12.8693
▁pietro	-12.8693
▁pile	-12.8693
▁pimento	-12.8693
▁pipe	-12.8693
▁pitbull	-12.8693
▁pity	-12.8693
▁pizzazz	-12.8693
▁pku	-12.8693
▁plaque	-12.8693
▁platter	-12.8693
▁pleasers	-12.8693
▁pleasingly	-12.8693
▁pleasurable	-12.8693
▁plunge	-12.8693
▁pointless	-12.8693
▁poisonous	-12.8693
▁police	-12.8693
▁pollo	-12.8693
▁pollux	-12.8693
▁pomeranian	-12.8693
▁pool	-12.8693
▁popcorns	-12.8693
▁porcinis	-12.8693
▁portioned	-12.8693
▁potatoe	-12.8693
▁potency	-12.8693
▁pouched	-12.8693
▁poupon	-12.8693
▁powerhouse	-12.8693
▁practices	-12.8693
▁prayer	-12.8693
▁prayers	-12.8693
▁premade	-12.8693
▁preserved	-12.8693
▁preventing	-12.8693
▁primarily	-12.8693
▁primula	-12.8693
▁processor	-12.8693
▁producto	-12.8693
▁proflowers	-12.8693
▁prohibitive	-12.8693
▁promising	-12.8693
▁promotion	-12.8693
▁pronounce	-12.8693
▁pronounced	-12.8693
▁prop	-12.8693
▁proportions	-12.8693
▁prosciutto	-12.8693
▁protect	-12.8693
▁protecting	-12.8693
▁prudhomme	-12.8693
▁puggle	-12.8693
▁pumpking	-12.8693
▁punctured	-12.8693
▁pur	-12.8693
▁purevia	-12.8693
▁purrs	-12.8693
▁puzzled	-12.8693
▁quarter	-12.8693
▁queasy	-12.8693
▁queso	-12.8693
▁quik	-12.8693
▁qulaity	-12.8693
▁raccoons	-12.8693
▁raise	-12.8693
▁raises	-12.8693
▁rarely	-12.8693
▁rat	-12.8693
▁razzpotle	-12.8693
▁react	-12.8693
▁realemon	-12.8693
▁rebranded	-12.8693
▁recalls	-12.8693
▁receiver	-12.8693
▁receiving	-12.8693
▁recieve	-12.8693
▁recyclable	-12.8693
▁recycled	-12.8693
▁recycling	-12.8693
▁redeeming	-12.8693
▁redmill	-12.8693
▁reds	-12.8693
▁reducing	-12.8693
▁reduction	-12.8693
▁reeks	-12.8693
▁refuses	-12.8693
▁regen	-12.8693
▁reggiano	-12.8693
▁reggie	-12.8693
▁regional	-12.8693
▁relative	-12.8693
▁relaxer	-12.8693
▁relived	-12.8693
▁remedies	-12.8693
▁reminded	-12.8693
▁reported	-12.8693
▁reputable	-12.8693
▁respect	-12.8693
▁restock	-12.8693
▁restuarant	-12.8693
▁retailers	-12.8693
▁returning	-12.8693
▁revision	-12.8693
▁rewarding	-12.8693
▁rewards	-12.8693
▁rexie	-12.8693
▁ribena	-12.8693
▁rides	-12.8693
▁riesling	-12.8693
▁rigatoni	-12.8693
▁ripened	-12.8693
▁ripping	-12.8693
▁risky	-12.8693
▁rivals	-12.8693
▁roaches	-12.8693
▁rocher	-12.8693
▁romaine	-12.8693
▁roni	-12.8693
▁rooibus	-12.8693
▁rosary	-12.8693
▁rotel	-12.8693
▁royalty	-12.8693
▁royce	-12.8693
▁rtd	-12.8693
▁rudy	-12.8693
▁rusks	-12.8693
▁russa	-12.8693
▁ruta	-12.8693
▁rx	-12.8693
▁sa	-12.8693
▁sabor	-12.8693
▁safeway	-12.8693
▁salada	-12.8693
▁sally	-12.8693
▁salmiak	-12.8693
▁sane	-12.8693
▁satan	-12.8693
▁saucy	-12.8693
▁sc	-12.8693
▁scales	-12.8693
▁scarlet	-12.8693
▁scd	-12.8693
▁scott	-12.8693
▁scraps	-12.8693
▁scrub	-12.8693
▁scrummy	-12.8693
▁seedy	-12.8693
▁seniors	-12.8693
▁separately	-12.8693
▁sept	-12.8693
▁september	-12.8693
▁settled	-12.8693
▁sevice	-12.8693
▁sez	-12.8693
▁shady	-12.8693
▁shallots	-12.8693
▁sharkbanana	-12.8693
▁sharon	-12.8693
▁shattering	-12.8693
▁shavings	-12.8693
▁shiitake	-12.8693
▁shimmer	-12.8693
▁shipments	-12.8693
▁shit	-12.8693
▁shoddy	-12.8693
▁shoes	-12.8693
▁shoppe	-12.8693
▁shrinking	-12.8693
▁si	-12.8693
▁sickening	-12.8693
▁sifting	-12.8693
▁silken	-12.8693
▁simplified	-12.8693
▁sips	-12.8693
▁siracha	-12.8693
▁sketchy	-12.8693
▁skewers	-12.8693
▁skillets	-12.8693
▁skim	-12.8693
▁smackin	-12.8693
▁smalls	-12.8693
▁smash	-12.8693
▁smokers	-12.8693
▁smoothe	-12.8693
▁smores	-12.8693
▁smucker	-12.8693
▁snackwell	-12.8693
▁snickerdoodles	-12.8693
▁snikiddy	-12.8693
▁sno	-12.8693
▁soapy	-12.8693
▁soil	-12.8693
▁sojo	-12.8693
▁soluble	-12.8693
▁solver	-12.8693
▁somehow	-12.8693
▁sooooooooooooo	-12.8693
▁soother	-12.8693
▁sorts	-12.8693
▁southerner	-12.8693
▁soybeans	-12.8693
▁soynuts	-12.8693
▁spaces	-12.8693
▁spaniel	-12.8693
▁spenda	-12.8693
▁spiciest	-12.8693
▁spikes	-12.8693
▁spill	-12.8693
▁spoonfuls	-12.8693
▁sprayed	-12.8693
▁spree	-12.8693
▁springs	-12.8693
▁sprinkled	-12.8693
▁squirt	-12.8693
▁stack	-12.8693
▁stadium	-12.8693
▁stakes	-12.8693
▁stalks	-12.8693
▁starve	-12.8693
▁statement	-12.8693
▁steady	-12.8693
▁steer	-12.8693
▁steroids	-12.8693
▁steviaclear	-12.8693
▁sticker	-12.8693
▁stored	-12.8693
▁storing	-12.8693
▁strainer	-12.8693
▁strikes	-12.8693
▁stripes	-12.8693
▁struck	-12.8693
▁stuffers	-12.8693
▁stuffs	-12.8693
▁styled	-12.8693
▁subscriber	-12.8693
▁substandard	-12.8693
▁suffer	-12.8693
▁suffering	-12.8693
▁sugarworks	-12.8693
▁superiour	-12.8693
▁supervision	-12.8693
▁supplemental	-12.8693
▁supplementing	-12.8693
▁supporting	-12.8693
▁surpassed	-12.8693
▁surprized	-12.8693
▁suzie	-12.8693
▁swears	-12.8693
▁sweeeet	-12.8693
▁sweetens	-12.8693
▁sweeties	-12.8693
▁sweety	-12.8693
▁sympathy	-12.8693
▁szechuan	-12.8693
▁tahitian	-12.8693
▁tainted	-12.8693
▁takeout	-12.8693
▁tale	-12.8693
▁tamari	-12.8693
▁tamer	-12.8693
▁tantalizing	-12.8693
▁tarrazu	-12.8693
▁tarter	-12.8693
▁tas	-12.8693
▁tastebud	-12.8693
▁tastee	-12.8693
▁tasteing	-12.8693
▁tax	-12.8693
▁teaspoon	-12.8693
▁tek	-12.8693
▁temporary	-12.8693
▁temps	-12.8693
▁tepid	-12.8693
▁teriffic	-12.8693
▁terro	-12.8693
▁terry	-12.8693
▁tests	-12.8693
▁tex	-12.8693
▁tha	-12.8693
▁thankyou	-12.8693
▁therefore	-12.8693
▁thirty	-12.8693
▁thompson	-12.8693
▁thrill	-12.8693
▁throwback	-12.8693
▁thumb	-12.8693
▁thunk	-12.8693
▁tide	-12.8693
▁tierra	-12.8693
▁tilda	-12.8693
▁tillamook	-12.8693
▁tinned	-12.8693
▁tiptree	-12.8693
▁tires	-12.8693
▁tm	-12.8693
▁tolerance	-12.8693
▁tolerated	-12.8693
▁tonno	-12.8693
▁tools	-12.8693
▁toothsome	-12.8693
▁torture	-12.8693
▁tourangelle	-12.8693
▁trace	-12.8693
▁tracking	-12.8693
▁tracks	-12.8693
▁transfat	-12.8693
▁trend	-12.8693
▁tricked	-12.8693
▁trigger	-12.8693
▁tripett	-12.8693
▁trivedi	-12.8693
▁tropics	-12.8693
▁truck	-12.8693
▁tummys	-12.8693
▁turducken	-12.8693
▁tweaked	-12.8693
▁twig	-12.8693
▁twiglets	-12.8693
▁twisty	-12.8693
▁u	-12.8693
▁uber	-12.8693
▁umeboshi	-12.8693
▁unbelieveable	-12.8693
▁uncooked	-12.8693
▁unfair	-12.8693
▁unimpressive	-12.8693
▁uninspiring	-12.8693
▁unpopped	-12.8693
▁unpredictable	-12.8693
▁unresponsive	-12.8693
▁unroasted	-12.8693
▁unstable	-12.8693
▁unwanted	-12.8693
▁upside	-12.8693
▁urine	-12.8693
▁vague	-12.8693
▁vaguely	-12.8693
▁valdosta	-12.8693
▁vastly	-12.8693
▁vegie	-12.8693
▁ver	-12.8693
▁vero	-12.8693
▁verrry	-12.8693
▁versions	-12.8693
▁veterinary	-12.8693
▁vets	-12.8693
▁vg	-12.8693
▁victorian	-12.8693
▁vigo	-12.8693
▁vin	-12.8693
▁vinacafe	-12.8693
▁vinta	-12.8693
▁violently	-12.8693
▁violets	-12.8693
▁visit	-12.8693
▁vitalicious	-12.8693
▁vivid	-12.8693
▁votes	-12.8693
▁waaaaay	-12.8693
▁waffers	-12.8693
▁waffies	-12.8693
▁wagging	-12.8693
▁wall	-12.8693
▁wallop	-12.8693
▁war	-12.8693
▁warmer	-12.8693
▁warmth	-12.8693
▁warranty	-12.8693
▁wear	-12.8693
▁weetabix	-12.8693
▁weigh	-12.8693
▁weimaraner	-12.8693
▁weirdest	-12.8693
▁weiss	-12.8693
▁wessex	-12.8693
▁whoever	-12.8693
▁whoop	-12.8693
▁whoopie	-12.8693
▁whose	-12.8693
▁wick	-12.8693
▁wildberry	-12.8693
▁wilderness	-12.8693
▁wiley	-12.8693
▁winery	-12.8693
▁winners	-12.8693
▁wipes	-12.8693
▁wls	-12.8693
▁wonderland	-12.8693
▁woofs	-12.8693
▁workers	-12.8693
▁worm	-12.8693
▁wrote	-12.8693
▁wt	-12.8693
▁xtra	-12.8693
▁xxx	-12.8693
▁xyloburst	-12.8693
▁yahoo	-12.8693
▁yer	-12.8693
▁yield	-12.8693
▁yorkiepoo	-12.8693
▁yummilicious	-12.8693
▁yummmmmmmm	-12.8693
▁yummmmmmmmm	-12.8693
▁yummmmmmmmmm	-12.8693
▁yummmmmmy	-12.8693
▁yummyness	-12.8693
▁yumy	-12.8693
▁yuumy	-12.8693
▁zeus	-12.8693
▁zoo	-12.8693
▁zowie	-12.8693
▁zz	-12.8693
▁aaamazing	-13.157
▁abbey	-13.157
▁abound	-13.157
▁absolutey	-13.157
▁absolutly	-13.157
▁absoutely	-13.157
▁abundance	-13.157
▁abysmal	-13.157
▁acacia	-13.157
▁accidents	-13.157
▁accurately	-13.157
▁acting	-13.157
▁acts	-13.157
▁adaptable	-13.157
▁addendum	-13.157
▁adjustable	-13.157
▁adkins	-13.157
▁adobo	-13.157
▁advertises	-13.157
▁aftermath	-13.157
▁agent	-13.157
▁ahem	-13.157
▁ahhhhhh	-13.157
▁ahhhhhhh	-13.157
▁airtight	-13.157
▁airwaves	-13.157
▁aji	-13.157
▁ak	-13.157
▁akc	-13.157
▁akita	-13.157
▁alaea	-13.157
▁alas	-13.157
▁alder	-13.157
▁algae	-13.157
▁alimentum	-13.157
▁allergenic	-13.157
▁allspice	-13.157
▁alpha	-13.157
▁altered	-13.157
▁amazinggggg	-13.157
▁amazingness	-13.157
▁americans	-13.157
▁ammonia	-13.157
▁amoretti	-13.157
▁andes	-13.157
▁angels	-13.157
▁annatto	-13.157
▁antidote	-13.157
▁antifreeze	-13.157
▁antioxidents	-13.157
▁anxiously	-13.157
▁appliance	-13.157
▁apply	-13.157
▁appreciates	-13.157
▁apso	-13.157
▁aqua	-13.157
▁ara	-13.157
▁arabic	-13.157
▁armour	-13.157
▁army	-13.157
▁aromas	-13.157
▁arroz	-13.157
▁artery	-13.157
▁asada	-13.157
▁aseptic	-13.157
▁asleep	-13.157
▁asst	-13.157
▁astounding	-13.157
▁astoundingly	-13.157
▁astronauts	-13.157
▁ateco	-13.157
▁athlete	-13.157
▁atlantic	-13.157
▁att	-13.157
▁attach	-13.157
▁attributes	-13.157
▁auguri	-13.157
▁august	-13.157
▁aussie	-13.157
▁austin	-13.157
▁authentically	-13.157
▁autism	-13.157
▁automatically	-13.157
▁avoided	-13.157
▁avp	-13.157
▁awaits	-13.157
▁awe	-13.157
▁awesomesauce	-13.157
▁awesomness	-13.157
▁awsom	-13.157
▁azar	-13.157
▁azing	-13.157
▁babys	-13.157
▁bakto	-13.157
▁balancing	-13.157
▁ballin	-13.157
▁bambo	-13.157
▁bands	-13.157
▁bandwagon	-13.157
▁bangers	-13.157
▁bangkok	-13.157
▁banned	-13.157
▁bargained	-13.157
▁bargin	-13.157
▁barking	-13.157
▁barks	-13.157
▁barrels	-13.157
▁barrys	-13.157
▁bassetts	-13.157
▁basting	-13.157
▁beachside	-13.157
▁beacon	-13.157
▁bearable	-13.157
▁bearnaise	-13.157
▁beaver	-13.157
▁beefaroni	-13.157
▁beloved	-13.157
▁bene	-13.157
▁benzoate	-13.157
▁bergamont	-13.157
▁berrys	-13.157
▁berserk	-13.157
▁bes	-13.157
▁beth	-13.157
▁beurre	-13.157
▁bf	-13.157
▁bilberry	-13.157
▁birth	-13.157
▁bismol	-13.157
▁bisulfite	-13.157
▁blackbox	-13.157
▁blanc	-13.157
▁blaze	-13.157
▁bleach	-13.157
▁blegh	-13.157
▁blissful	-13.157
▁bloating	-13.157
▁blocked	-13.157
▁blocks	-13.157
▁blox	-13.157
▁bodacious	-13.157
▁bonnet	-13.157
▁bonzai	-13.157
▁boon	-13.157
▁booze	-13.157
▁boozy	-13.157
▁boquete	-13.157
▁borderline	-13.157
▁boscoli	-13.157
▁bot	-13.157
▁botan	-13.157
▁boyds	-13.157
▁boysenberry	-13.157
▁bp	-13.157
▁braces	-13.157
▁bracing	-13.157
▁brag	-13.157
▁brains	-13.157
▁breadmaker	-13.157
▁breakfest	-13.157
▁breastfed	-13.157
▁breathies	-13.157
▁breezy	-13.157
▁bribe	-13.157
▁bride	-13.157
▁bridgford	-13.157
▁brief	-13.157
▁briefly	-13.157
▁brightens	-13.157
▁brilliance	-13.157
▁brisk	-13.157
▁brit	-13.157
▁britt	-13.157
▁btn	-13.157
▁buena	-13.157
▁buggy	-13.157
▁bulls	-13.157
▁buried	-13.157
▁burp	-13.157
▁buttercream	-13.157
▁butterfingers	-13.157
▁butterfly	-13.157
▁bypass	-13.157
▁cabernet	-13.157
▁cabinets	-13.157
▁cadburys	-13.157
▁cadillac	-13.157
▁cafeine	-13.157
▁cakesters	-13.157
▁calabria	-13.157
▁calamari	-13.157
▁calbee	-13.157
▁caliente	-13.157
▁calls	-13.157
▁camerons	-13.157
▁canceling	-13.157
▁canyon	-13.157
▁cappuchino	-13.157
▁capt	-13.157
▁capture	-13.157
▁carbo	-13.157
▁cardia	-13.157
▁carmelina	-13.157
▁carne	-13.157
▁carnivore	-13.157
▁carrs	-13.157
▁cart	-13.157
▁carte	-13.157
▁cash	-13.157
▁cassis	-13.157
▁cattle	-13.157
▁cattlemen	-13.157
▁cavities	-13.157
▁ceasar	-13.157
▁cellar	-13.157
▁cerelac	-13.157
▁chair	-13.157
▁challenged	-13.157
▁champion	-13.157
▁chantea	-13.157
▁chaos	-13.157
▁char	-13.157
▁charcoal	-13.157
▁chardonnay	-13.157
▁charles	-13.157
▁charly	-13.157
▁chasing	-13.157
▁chateau	-13.157
▁cheapened	-13.157
▁cheddars	-13.157
▁cheerio	-13.157
▁cheery	-13.157
▁cheesecloth	-13.157
▁cheesemaking	-13.157
▁cheeto	-13.157
▁cheezies	-13.157
▁chefs	-13.157
▁chemo	-13.157
▁cherrybrook	-13.157
▁cheryl	-13.157
▁chianti	-13.157
▁chic	-13.157
▁chichen	-13.157
▁chickens	-13.157
▁chickory	-13.157
▁chilie	-13.157
▁chilly	-13.157
▁chiplets	-13.157
▁chipmunks	-13.157
▁chlorhexidine	-13.157
▁chlorine	-13.157
▁chocalate	-13.157
▁chocoalte	-13.157
▁chocoate	-13.157
▁chocofudge	-13.157
▁chocolicious	-13.157
▁chocolote	-13.157
▁cholula	-13.157
▁chomping	-13.157
▁chomps	-13.157
▁choo	-13.157
▁chooses	-13.157
▁choy	-13.157
▁chreese	-13.157
▁chuckles	-13.157
▁cib	-13.157
▁citrusy	-13.157
▁civilization	-13.157
▁cj	-13.157
▁cl	-13.157
▁clarify	-13.157
▁cleaned	-13.157
▁climbing	-13.157
▁clipper	-13.157
▁clippings	-13.157
▁clogged	-13.157
▁closely	-13.157
▁cloth	-13.157
▁clouds	-13.157
▁cloudy	-13.157
▁clover	-13.157
▁clue	-13.157
▁cluster	-13.157
▁coals	-13.157
▁coarser	-13.157
▁cob	-13.157
▁cocker	-13.157
▁coffeemaker	-13.157
▁coffie	-13.157
▁cokes	-13.157
▁coleslaw	-13.157
▁colicky	-13.157
▁coma	-13.157
▁combinations	-13.157
▁communication	-13.157
▁communion	-13.157
▁comparatively	-13.157
▁compliments	-13.157
▁composition	-13.157
▁compromising	-13.157
▁concentrates	-13.157
▁coney	-13.157
▁confidence	-13.157
▁confident	-13.157
▁consideration	-13.157
▁consistenly	-13.157
▁contamined	-13.157
▁contessa	-13.157
▁continuing	-13.157
▁contract	-13.157
▁controversial	-13.157
▁convienient	-13.157
▁convincing	-13.157
▁cookes	-13.157
▁coolest	-13.157
▁corny	-13.157
▁correction	-13.157
▁costume	-13.157
▁coulda	-13.157
▁countries	-13.157
▁county	-13.157
▁cowboy	-13.157
▁crabcakes	-13.157
▁craisins	-13.157
▁crawfish	-13.157
▁creamed	-13.157
▁creations	-13.157
▁cries	-13.157
▁crips	-13.157
▁crispbreads	-13.157
▁crispness	-13.157
▁crossed	-13.157
▁crostini	-13.157
▁crouton	-13.157
▁crowded	-13.157
▁crud	-13.157
▁cruelty	-13.157
▁cruise	-13.157
▁crunchie	-13.157
▁cult	-13.157
▁cultured	-13.157
▁curiosity	-13.157
▁curiously	-13.157
▁curl	-13.157
▁currywurst	-13.157
▁cutie	-13.157
▁cuz	-13.157
▁cyclists	-13.157
▁dagoba	-13.157
▁daifuku	-13.157
▁dam	-13.157
▁dances	-13.157
▁danielle	-13.157
▁daniels	-13.157
▁dansk	-13.157
▁darling	-13.157
▁dassant	-13.157
▁dat	-13.157
▁data	-13.157
▁daytime	-13.157
▁dea	-13.157
▁dealing	-13.157
▁deb	-13.157
▁debacle	-13.157
▁debbie	-13.157
▁decadently	-13.157
▁decafs	-13.157
▁deceptively	-13.157
▁decided	-13.157
▁declined	-13.157
▁decorate	-13.157
▁deed	-13.157
▁deeeeee	-13.157
▁def	-13.157
▁defurr	-13.157
▁deglet	-13.157
▁delacre	-13.157
▁deleted	-13.157
▁deliciuos	-13.157
▁delicously	-13.157
▁delishious	-13.157
▁delisious	-13.157
▁deliveries	-13.157
▁demands	-13.157
▁denta	-13.157
▁deprived	-13.157
▁der	-13.157
▁describes	-13.157
▁designs	-13.157
▁detailed	-13.157
▁detangle	-13.157
▁detect	-13.157
▁detergent	-13.157
▁devonshire	-13.157
▁devours	-13.157
▁diabeti	-13.157
▁differant	-13.157
▁differences	-13.157
▁differs	-13.157
▁diffrent	-13.157
▁dijonnaise	-13.157
▁dilemma	-13.157
▁dills	-13.157
▁dimension	-13.157
▁dimensional	-13.157
▁dino	-13.157
▁directed	-13.157
▁disappears	-13.157
▁discolored	-13.157
▁disguised	-13.157
▁disney	-13.157
▁disposa	-13.157
▁dissapoints	-13.157
▁divided	-13.157
▁divinity	-13.157
▁doggone	-13.157
▁domingo	-13.157
▁donation	-13.157
▁doone	-13.157
▁dora	-13.157
▁dosage	-13.157
▁dosen	-13.157
▁dot	-13.157
▁doubtful	-13.157
▁douglas	-13.157
▁downfall	-13.157
▁downgraded	-13.157
▁downs	-13.157
▁downsized	-13.157
▁dreaming	-13.157
▁drowsiness	-13.157
▁drumsticks	-13.157
▁drunk	-13.157
▁drying	-13.157
▁duct	-13.157
▁dulse	-13.157
▁duplicates	-13.157
▁durkees	-13.157
▁dusted	-13.157
▁eagerly	-13.157
▁earnest	-13.157
▁eatten	-13.157
▁eb	-13.157
▁ecstatic	-13.157
▁education	-13.157
▁ee	-13.157
▁efagold	-13.157
▁effectively	-13.157
▁efforts	-13.157
▁efs	-13.157
▁ekobrew	-13.157
▁elders	-13.157
▁eliminated	-13.157
▁eliminates	-13.157
▁elixir	-13.157
▁email	-13.157
▁emailed	-13.157
▁emails	-13.157
▁emphasis	-13.157
▁empties	-13.157
▁ending	-13.157
▁engery	-13.157
▁enhance	-13.157
▁enought	-13.157
▁enriched	-13.157
▁enthused	-13.157
▁enthusiasm	-13.157
▁enthusiastically	-13.157
▁enthusiasts	-13.157
▁equally	-13.157
▁era	-13.157
▁es	-13.157
▁esque	-13.157
▁essentially	-13.157
▁eternal	-13.157
▁etouffee	-13.157
▁events	-13.157
▁evidence	-13.157
▁ewwww	-13.157
▁exceed	-13.157
▁excellen	-13.157
▁excessively	-13.157
▁excite	-13.157
▁excllent	-13.157
▁execellent	-13.157
▁existent	-13.157
▁exorbitant	-13.157
▁experiance	-13.157
▁experiences	-13.157
▁experimental	-13.157
▁experimentation	-13.157
▁experts	-13.157
▁expesive	-13.157
▁expierence	-13.157
▁explore	-13.157
▁export	-13.157
▁expressions	-13.157
▁exquisitely	-13.157
▁faced	-13.157
▁faces	-13.157
▁fairtrade	-13.157
▁fanastic	-13.157
▁farmed	-13.157
▁fascinating	-13.157
▁fastest	-13.157
▁fasting	-13.157
▁fatman	-13.157
▁fava	-13.157
▁favorate	-13.157
▁favours	-13.157
▁fazer	-13.157
▁fd	-13.157
▁feather	-13.157
▁fect	-13.157
▁fedex	-13.157
▁feedings	-13.157
▁feldkamp	-13.157
▁felix	-13.157
▁fiance	-13.157
▁fiasco	-13.157
▁fibergourmet	-13.157
▁fields	-13.157
▁fifty	-13.157
▁fighter	-13.157
▁filthy	-13.157
▁finals	-13.157
▁finnicky	-13.157
▁finnish	-13.157
▁fishes	-13.157
▁fishing	-13.157
▁fixins	-13.157
▁fizziness	-13.157
▁flame	-13.157
▁flamin	-13.157
▁flashes	-13.157
▁flatulence	-13.157
▁flavacol	-13.157
▁flavered	-13.157
▁flaws	-13.157
▁flights	-13.157
▁floating	-13.157
▁floats	-13.157
▁florist	-13.157
▁flow	-13.157
▁flows	-13.157
▁fluctuates	-13.157
▁fluctuations	-13.157
▁flytrap	-13.157
▁foaming	-13.157
▁focused	-13.157
▁fogchaser	-13.157
▁fold	-13.157
▁followers	-13.157
▁fontana	-13.157
▁foo	-13.157
▁foolproof	-13.157
▁fools	-13.157
▁forbidden	-13.157
▁forced	-13.157
▁formed	-13.157
▁forty	-13.157
▁foulest	-13.157
▁fraction	-13.157
▁fragments	-13.157
▁francesco	-13.157
▁francis	-13.157
▁frappacino	-13.157
▁fraudulent	-13.157
▁freedom	-13.157
▁freezing	-13.157
▁freight	-13.157
▁freindly	-13.157
▁fremont	-13.157
▁frenchs	-13.157
▁frenchy	-13.157
▁frequently	-13.157
▁freshens	-13.157
▁fria	-13.157
▁frickin	-13.157
▁frites	-13.157
▁fro	-13.157
▁froot	-13.157
▁frooties	-13.157
▁frothed	-13.157
▁fruition	-13.157
▁frustration	-13.157
▁frys	-13.157
▁fulvic	-13.157
▁fumi	-13.157
▁fungus	-13.157
▁fungusamongus	-13.157
▁funk	-13.157
▁furballs	-13.157
▁fusions	-13.157
▁gaba	-13.157
▁gail	-13.157
▁gained	-13.157
▁galaxy	-13.157
▁gallo	-13.157
▁gaps	-13.157
▁garbanzos	-13.157
▁garibaldi	-13.157
▁garvey	-13.157
▁gasm	-13.157
▁gate	-13.157
▁gebhardt	-13.157
▁geek	-13.157
▁gelatinous	-13.157
▁genesis	-13.157
▁genisoy	-13.157
▁geriatric	-13.157
▁giardiniera	-13.157
▁gifting	-13.157
▁gigantic	-13.157
▁gimmicky	-13.157
▁gingersnap	-13.157
▁girlie	-13.157
▁glop	-13.157
▁glossy	-13.157
▁glowing	-13.157
▁glutamate	-13.157
▁glutenfreeda	-13.157
▁glutten	-13.157
▁gmcr	-13.157
▁gnawhide	-13.157
▁goals	-13.157
▁goats	-13.157
▁golazo	-13.157
▁goldilocks	-13.157
▁goooooooood	-13.157
▁goop	-13.157
▁gopicnic	-13.157
▁goreng	-13.157
▁gouda	-13.157
▁goumet	-13.157
▁gourd	-13.157
▁graduates	-13.157
▁grainfree	-13.157
▁grapenuts	-13.157
▁greats	-13.157
▁gree	-13.157
▁greeen	-13.157
▁greener	-13.157
▁grinding	-13.157
▁gringo	-13.157
▁gristle	-13.157
▁grocers	-13.157
▁grotesque	-13.157
▁groups	-13.157
▁grower	-13.157
▁grownup	-13.157
▁grrreat	-13.157
▁guac	-13.157
▁guan	-13.157
▁guard	-13.157
▁gud	-13.157
▁guest	-13.157
▁guides	-13.157
▁guinness	-13.157
▁guru	-13.157
▁gustafs	-13.157
▁guts	-13.157
▁guylian	-13.157
▁habaneros	-13.157
▁habitant	-13.157
▁hades	-13.157
▁haired	-13.157
▁hamster	-13.157
▁handi	-13.157
▁handsome	-13.157
▁hansens	-13.157
▁hanuta	-13.157
▁hapi	-13.157
▁harbio	-13.157
▁hardest	-13.157
▁hardtack	-13.157
▁haribos	-13.157
▁harmless	-13.157
▁harvey	-13.157
▁hating	-13.157
▁havarti	-13.157
▁haves	-13.157
▁hazardous	-13.157
▁heady	-13.157
▁heal	-13.157
▁heals	-13.157
▁heather	-13.157
▁heathly	-13.157
▁heb	-13.157
▁heeler	-13.157
▁hefty	-13.157
▁helix	-13.157
▁hellman	-13.157
▁helpers	-13.157
▁hence	-13.157
▁herby	-13.157
▁hh	-13.157
▁hid	-13.157
▁hippo	-13.157
▁hirts	-13.157
▁hives	-13.157
▁hm	-13.157
▁hoax	-13.157
▁holic	-13.157
▁holland	-13.157
▁homesick	-13.157
▁hon	-13.157
▁honeysuckle	-13.157
▁honeytree	-13.157
▁hopelessly	-13.157
▁horton	-13.157
▁hortons	-13.157
▁hotcakes	-13.157
▁hotdogs	-13.157
▁hotttttt	-13.157
▁houseplant	-13.157
▁housewarming	-13.157
▁housewife	-13.157
▁hubba	-13.157
▁hubbard	-13.157
▁humane	-13.157
▁humbles	-13.157
▁humm	-13.157
▁hundreds	-13.157
▁hurrah	-13.157
▁huy	-13.157
▁hydrolyzed	-13.157
▁hypoglycemic	-13.157
▁ia	-13.157
▁icious	-13.157
▁icon	-13.157
▁idahoan	-13.157
▁identical	-13.157
▁idiot	-13.157
▁illness	-13.157
▁illusion	-13.157
▁imaginable	-13.157
▁immediate	-13.157
▁importantly	-13.157
▁imposter	-13.157
▁imposters	-13.157
▁improver	-13.157
▁improving	-13.157
▁impulse	-13.157
▁incentive	-13.157
▁inches	-13.157
▁indies	-13.157
▁indifferent	-13.157
▁individuals	-13.157
▁indo	-13.157
▁indomie	-13.157
▁indulgences	-13.157
▁ingedients	-13.157
▁ingred	-13.157
▁insecticide	-13.157
▁insert	-13.157
▁insides	-13.157
▁insipid	-13.157
▁insult	-13.157
▁insurance	-13.157
▁integrity	-13.157
▁interestingly	-13.157
▁intestinal	-13.157
▁intolerances	-13.157
▁intoxicating	-13.157
▁intriguing	-13.157
▁introduce	-13.157
▁invigorating	-13.157
▁irresponsible	-13.157
▁irritant	-13.157
▁irritate	-13.157
▁irritates	-13.157
▁israel	-13.157
▁jaffa	-13.157
▁jalape	-13.157
▁james	-13.157
▁jammie	-13.157
▁jamon	-13.157
▁jfg	-13.157
▁jive	-13.157
▁jj	-13.157
▁jobs	-13.157
▁join	-13.157
▁journey	-13.157
▁jovial	-13.157
▁juiced	-13.157
▁juicer	-13.157
▁juicing	-13.157
▁jumbone	-13.157
▁jummy	-13.157
▁jumping	-13.157
▁jumps	-13.157
▁junior	-13.157
▁junkfood	-13.157
▁jura	-13.157
▁kabobs	-13.157
▁kala	-13.157
▁kansas	-13.157
▁kar	-13.157
▁kashmiri	-13.157
▁kasugai	-13.157
▁katie	-13.157
▁kats	-13.157
▁kelapo	-13.157
▁ken	-13.157
▁kennel	-13.157
▁kitkat	-13.157
▁kmr	-13.157
▁knead	-13.157
▁knockoff	-13.157
▁knockout	-13.157
▁knocks	-13.157
▁koi	-13.157
▁kola	-13.157
▁kongs	-13.157
▁kringles	-13.157
▁krinkle	-13.157
▁krisps	-13.157
▁ks	-13.157
▁labelled	-13.157
▁labradoodle	-13.157
▁labradors	-13.157
▁laced	-13.157
▁lager	-13.157
▁lam	-13.157
▁las	-13.157
▁latin	-13.157
▁lawrys	-13.157
▁layer	-13.157
▁led	-13.157
▁lefse	-13.157
▁legend	-13.157
▁legs	-13.157
▁length	-13.157
▁leo	-13.157
▁lg	-13.157
▁libido	-13.157
▁lic	-13.157
▁lied	-13.157
▁lifeless	-13.157
▁lima	-13.157
▁limbaugh	-13.157
▁limburger	-13.157
▁limeade	-13.157
▁limes	-13.157
▁limon	-13.157
▁linden	-13.157
▁liner	-13.157
▁linketts	-13.157
▁lipil	-13.157
▁liqueurs	-13.157
▁liquids	-13.157
▁lists	-13.157
▁liters	-13.157
▁llike	-13.157
▁lobsters	-13.157
▁loco	-13.157
▁logs	-13.157
▁loin	-13.157
▁looooove	-13.157
▁lorna	-13.157
▁los	-13.157
▁lotr	-13.157
▁lotte	-13.157
▁lou	-13.157
▁loveit	-13.157
▁loven	-13.157
▁lox	-13.157
▁lucaffe	-13.157
▁lucini	-13.157
▁lunchables	-13.157
▁luvers	-13.157
▁lyles	-13.157
▁lynn	-13.157
▁lyon	-13.157
▁mackintosh	-13.157
▁macrobiotic	-13.157
▁madam	-13.157
▁mag	-13.157
▁maille	-13.157
▁maintains	-13.157
▁mak	-13.157
▁maki	-13.157
▁mangia	-13.157
▁manhattans	-13.157
▁mania	-13.157
▁manitoba	-13.157
▁manly	-13.157
▁mannheim	-13.157
▁marcona	-13.157
▁mareblu	-13.157
▁margaritaville	-13.157
▁marginally	-13.157
▁maria	-13.157
▁marionberry	-13.157
▁marrobones	-13.157
▁marshall	-13.157
▁martha	-13.157
▁masa	-13.157
▁mastic	-13.157
▁matzoh	-13.157
▁mbt	-13.157
▁mclib	-13.157
▁mcp	-13.157
▁measuring	-13.157
▁medallions	-13.157
▁medicating	-13.157
▁meditation	-13.157
▁medleys	-13.157
▁meiji	-13.157
▁melina	-13.157
▁melita	-13.157
▁menstrual	-13.157
▁mental	-13.157
▁menthol	-13.157
▁messes	-13.157
▁metabolism	-13.157
▁meusli	-13.157
▁mic	-13.157
▁midland	-13.157
▁mileage	-13.157
▁milkshakes	-13.157
▁milling	-13.157
▁millions	-13.157
▁miniatures	-13.157
▁mish	-13.157
▁mishandling	-13.157
▁misled	-13.157
▁mississippi	-13.157
▁mj	-13.157
▁mkt	-13.157
▁mmmmmmmmmmmmm	-13.157
▁mmmmmmmmmmmmmmmmmmmmmmmmmm	-13.157
▁moca	-13.157
▁modern	-13.157
▁modify	-13.157
▁molinari	-13.157
▁mollie	-13.157
▁monkeys	-13.157
▁moose	-13.157
▁mori	-13.157
▁mos	-13.157
▁mosquito	-13.157
▁mosquitoes	-13.157
▁mosquitos	-13.157
▁mouthwatering	-13.157
▁movements	-13.157
▁mrp	-13.157
▁mueslix	-13.157
▁mugs	-13.157
▁mule	-13.157
▁multivitamin	-13.157
▁municipal	-13.157
▁mustards	-13.157
▁myun	-13.157
▁na	-13.157
▁nacl	-13.157
▁nairn	-13.157
▁nalley	-13.157
▁namak	-13.157
▁nanas	-13.157
▁napa	-13.157
▁nastiness	-13.157
▁nativas	-13.157
▁naturel	-13.157
▁naysayers	-13.157
▁nb	-13.157
▁negatives	-13.157
▁nettle	-13.157
▁nexxus	-13.157
▁nicaraguan	-13.157
▁nickel	-13.157
▁niece	-13.157
▁niederegger	-13.157
▁nilla	-13.157
▁nipples	-13.157
▁nit	-13.157
▁nite	-13.157
▁norfolk	-13.157
▁normale	-13.157
▁norway	-13.157
▁noted	-13.157
▁novel	-13.157
▁nuclear	-13.157
▁nuke	-13.157
▁nursery	-13.157
▁nutrisentials	-13.157
▁nutrititious	-13.157
▁nutritous	-13.157
▁nuttier	-13.157
▁nv	-13.157
▁nw	-13.157
▁nyc	-13.157
▁oatmean	-13.157
▁objects	-13.157
▁occassion	-13.157
▁occupy	-13.157
▁octavia	-13.157
▁ode	-13.157
▁odell	-13.157
▁oeuvres	-13.157
▁offensive	-13.157
▁offset	-13.157
▁ohhhhhh	-13.157
▁ohsawa	-13.157
▁ointment	-13.157
▁oj	-13.157
▁oli	-13.157
▁olivella	-13.157
▁olivier	-13.157
▁olla	-13.157
▁omgoodness	-13.157
▁omit	-13.157
▁onto	-13.157
▁oo	-13.157
▁orac	-13.157
▁orchards	-13.157
▁org	-13.157
▁ortiz	-13.157
▁osem	-13.157
▁ottimo	-13.157
▁ous	-13.157
▁outcome	-13.157
▁outdone	-13.157
▁outlet	-13.157
▁outragious	-13.157
▁outs	-13.157
▁overated	-13.157
▁overkill	-13.157
▁overloaded	-13.157
▁overpower	-13.157
▁overprice	-13.157
▁overprocessed	-13.157
▁overwhelm	-13.157
▁ownership	-13.157
▁oxidants	-13.157
▁pac	-13.157
▁packageing	-13.157
▁painfully	-13.157
▁pakistan	-13.157
▁pals	-13.157
▁panama	-13.157
▁panang	-13.157
▁pancetta	-13.157
▁pancreatitis	-13.157
▁pans	-13.157
▁pao	-13.157
▁papad	-13.157
▁para	-13.157
▁parade	-13.157
▁parrot	-13.157
▁parthenon	-13.157
▁pastels	-13.157
▁pastrami	-13.157
▁paula	-13.157
▁pays	-13.157
▁peaberry	-13.157
▁peaceful	-13.157
▁pearled	-13.157
▁peasy	-13.157
▁pediatrician	-13.157
▁peels	-13.157
▁pegetables	-13.157
▁peices	-13.157
▁pemmican	-13.157
▁pen	-13.157
▁pepe	-13.157
▁peppy	-13.157
▁perciatelli	-13.157
▁perfected	-13.157
▁perform	-13.157
▁performing	-13.157
▁periods	-13.157
▁personalized	-13.157
▁pesticide	-13.157
▁peters	-13.157
▁petguard	-13.157
▁petit	-13.157
▁phenylalanine	-13.157
▁phone	-13.157
▁picard	-13.157
▁picking	-13.157
▁pickling	-13.157
▁pics	-13.157
▁pigeon	-13.157
▁pikes	-13.157
▁pilon	-13.157
▁pimentos	-13.157
▁pinenuts	-13.157
▁pinhead	-13.157
▁pinot	-13.157
▁pintos	-13.157
▁pioneer	-13.157
▁piquant	-13.157
▁pixie	-13.157
▁pizzaz	-13.157
▁plague	-13.157
▁plantain	-13.157
▁plated	-13.157
▁pleasently	-13.157
▁plochman	-13.157
▁plugs	-13.157
▁pluses	-13.157
▁pm	-13.157
▁pointy	-13.157
▁poland	-13.157
▁polished	-13.157
▁pollen	-13.157
▁polo	-13.157
▁pomace	-13.157
▁pomegranates	-13.157
▁pomegranite	-13.157
▁pomeranians	-13.157
▁pomi	-13.157
▁pond	-13.157
▁pooper	-13.157
▁poops	-13.157
▁poorest	-13.157
▁popover	-13.157
▁poppyseed	-13.157
▁popularity	-13.157
▁porcelain	-13.157
▁porky	-13.157
▁porterhouse	-13.157
▁possibilities	-13.157
▁potatos	-13.157
▁pouring	-13.157
▁powers	-13.157
▁pr	-13.157
▁preemies	-13.157
▁preground	-13.157
▁preparedness	-13.157
▁preschoolers	-13.157
▁presents	-13.157
▁prestige	-13.157
▁presto	-13.157
▁pretend	-13.157
▁preventative	-13.157
▁prevention	-13.157
▁processing	-13.157
▁proctor	-13.157
▁profits	-13.157
▁promote	-13.157
▁prostate	-13.157
▁prouduct	-13.157
▁proved	-13.157
▁psoriasis	-13.157
▁pudge	-13.157
▁puffins	-13.157
▁pumpkiny	-13.157
▁pun	-13.157
▁puppys	-13.157
▁pureed	-13.157
▁purist	-13.157
▁purists	-13.157
▁puttanesca	-13.157
▁qa	-13.157
▁qaulity	-13.157
▁qt	-13.157
▁quailty	-13.157
▁quinn	-13.157
▁raccoon	-13.157
▁race	-13.157
▁radical	-13.157
▁raincoast	-13.157
▁raisen	-13.157
▁ratios	-13.157
▁raven	-13.157
▁raves	-13.157
▁rays	-13.157
▁rc	-13.157
▁reached	-13.157
▁reads	-13.157
▁reccomended	-13.157
▁recomend	-13.157
▁recommeded	-13.157
▁reconstituted	-13.157
▁recording	-13.157
▁recovering	-13.157
▁redbarn	-13.157
▁redhot	-13.157
▁redi	-13.157
▁redskin	-13.157
▁reednikki	-13.157
▁reesesticks	-13.157
▁refeshing	-13.157
▁refillable	-13.157
▁reformulation	-13.157
▁refresh	-13.157
▁refreshed	-13.157
▁refreshes	-13.157
▁refresing	-13.157
▁regimen	-13.157
▁regrets	-13.157
▁regularity	-13.157
▁reheat	-13.157
▁reindeer	-13.157
▁related	-13.157
▁relaxed	-13.157
▁released	-13.157
▁reliever	-13.157
▁relieves	-13.157
▁remebered	-13.157
▁removing	-13.157
▁renamed	-13.157
▁reordered	-13.157
▁repair	-13.157
▁repeated	-13.157
▁representation	-13.157
▁requested	-13.157
▁requirements	-13.157
▁reservoir	-13.157
▁resource	-13.157
▁responded	-13.157
▁restless	-13.157
▁rethink	-13.157
▁retreat	-13.157
▁retrievers	-13.157
▁reverse	-13.157
▁ribeye	-13.157
▁rices	-13.157
▁ricotta	-13.157
▁rinaldi	-13.157
▁ringer	-13.157
▁rinses	-13.157
▁rinsing	-13.157
▁ripe	-13.157
▁rips	-13.157
▁rita	-13.157
▁rite	-13.157
▁roaster	-13.157
▁roastery	-13.157
▁robbed	-13.157
▁robusta	-13.157
▁roca	-13.157
▁rodelle	-13.157
▁rodeo	-13.157
▁romantic	-13.157
▁romulan	-13.157
▁ron	-13.157
▁ross	-13.157
▁roy	-13.157
▁royale	-13.157
▁rubbish	-13.157
▁rude	-13.157
▁runners	-13.157
▁rusk	-13.157
▁russel	-13.157
▁rustic	-13.157
▁sabroso	-13.157
▁sack	-13.157
▁sacrifice	-13.157
▁safely	-13.157
▁safron	-13.157
▁saigon	-13.157
▁salsitas	-13.157
▁saltiness	-13.157
▁samplers	-13.157
▁sangaria	-13.157
▁santo	-13.157
▁santos	-13.157
▁saturday	-13.157
▁sauerbraten	-13.157
▁saveurs	-13.157
▁sazon	-13.157
▁sbd	-13.157
▁scalloped	-13.157
▁scandal	-13.157
▁scandinavian	-13.157
▁scarf	-13.157
▁schnauzers	-13.157
▁sci	-13.157
▁scientific	-13.157
▁scoopable	-13.157
▁scooter	-13.157
▁scorned	-13.157
▁scrambled	-13.157
▁scream	-13.157
▁screaming	-13.157
▁scrumptous	-13.157
▁seabear	-13.157
▁sealing	-13.157
▁seasong	-13.157
▁seattles	-13.157
▁securely	-13.157
▁sehr	-13.157
▁serendipity	-13.157
▁serrano	-13.157
▁seville	-13.157
▁sewer	-13.157
▁shaken	-13.157
▁shaky	-13.157
▁sharkies	-13.157
▁shepard	-13.157
▁shilajit	-13.157
▁shiney	-13.157
▁shortening	-13.157
▁shortly	-13.157
▁showing	-13.157
▁showtime	-13.157
▁significant	-13.157
▁significantly	-13.157
▁signs	-13.157
▁similiar	-13.157
▁singed	-13.157
▁sink	-13.157
▁sippin	-13.157
▁sirena	-13.157
▁sis	-13.157
▁sissy	-13.157
▁situations	-13.157
▁sixlets	-13.157
▁sizzling	-13.157
▁sk	-13.157
▁ski	-13.157
▁skinner	-13.157
▁skyrocketed	-13.157
▁slam	-13.157
▁slave	-13.157
▁slaw	-13.157
▁sleepless	-13.157
▁sleeplessness	-13.157
▁sleeve	-13.157
▁slicer	-13.157
▁slick	-13.157
▁slimming	-13.157
▁slipped	-13.157
▁slush	-13.157
▁smack	-13.157
▁smacking	-13.157
▁smacks	-13.157
▁smartwater	-13.157
▁smashing	-13.157
▁smiley	-13.157
▁smint	-13.157
▁smithinsight	-13.157
▁smokes	-13.157
▁smokiness	-13.157
▁smoooth	-13.157
▁smooshed	-13.157
▁smoothly	-13.157
▁smorz	-13.157
▁snappish	-13.157
▁snapz	-13.157
▁snax	-13.157
▁snickerdoodle	-13.157
▁snider	-13.157
▁soaking	-13.157
▁sobe	-13.157
▁sofa	-13.157
▁softest	-13.157
▁softies	-13.157
▁sol	-13.157
▁solidly	-13.157
▁song	-13.157
▁sonic	-13.157
▁sooooooooo	-13.157
▁soothes	-13.157
▁sorbet	-13.157
▁sorbitol	-13.157
▁sorely	-13.157
▁soso	-13.157
▁spaetzle	-13.157
▁spangler	-13.157
▁sparking	-13.157
▁sparkles	-13.157
▁spatini	-13.157
▁speaks	-13.157
▁spearment	-13.157
▁spec	-13.157
▁specifically	-13.157
▁specified	-13.157
▁specs	-13.157
▁spending	-13.157
▁sphynx	-13.157
▁spilling	-13.157
▁spilt	-13.157
▁spite	-13.157
▁splinter	-13.157
▁splits	-13.157
▁spoils	-13.157
▁spooky	-13.157
▁spoons	-13.157
▁spotted	-13.157
▁sprightly	-13.157
▁squashed	-13.157
▁squeez	-13.157
▁squeezable	-13.157
▁squirts	-13.157
▁sr	-13.157
▁stability	-13.157
▁stacys	-13.157
▁stake	-13.157
▁stamina	-13.157
▁standout	-13.157
▁starvation	-13.157
▁stateside	-13.157
▁stating	-13.157
▁stats	-13.157
▁stayed	-13.157
▁steakhouse	-13.157
▁stealing	-13.157
▁steeping	-13.157
▁stephens	-13.157
▁stevias	-13.157
▁stilton	-13.157
▁stingers	-13.157
▁stingy	-13.157
▁stirring	-13.157
▁stoked	-13.157
▁storm	-13.157
▁stovetop	-13.157
▁strands	-13.157
▁stray	-13.157
▁stringy	-13.157
▁structure	-13.157
▁studying	-13.157
▁stufff	-13.157
▁subscribed	-13.157
▁sucking	-13.157
▁sudden	-13.157
▁suggests	-13.157
▁suit	-13.157
▁suites	-13.157
▁sumac	-13.157
▁sums	-13.157
▁sunblock	-13.157
▁sundew	-13.157
▁sunmaid	-13.157
▁sunridge	-13.157
▁superbly	-13.157
▁superhero	-13.157
▁suppliers	-13.157
▁suppliment	-13.157
▁supposedly	-13.157
▁suppressant	-13.157
▁surgar	-13.157
▁surprize	-13.157
▁surprizingly	-13.157
▁survey	-13.157
▁suspicious	-13.157
▁sustained	-13.157
▁swallowed	-13.157
▁sweaty	-13.157
▁sweeeeeet	-13.157
▁swill	-13.157
▁swimming	-13.157
▁swirls	-13.157
▁switcheroo	-13.157
▁synergy	-13.157
▁tagalong	-13.157
▁tai	-13.157
▁tales	-13.157
▁tame	-13.157
▁tams	-13.157
▁tangle	-13.157
▁tango	-13.157
▁tank	-13.157
▁taro	-13.157
▁tarragon	-13.157
▁tasker	-13.157
▁tastefully	-13.157
▁tastykakes	-13.157
▁taurine	-13.157
▁tavah	-13.157
▁taza	-13.157
▁tbsp	-13.157
▁tchibo	-13.157
▁teacher	-13.157
▁teacup	-13.157
▁teatime	-13.157
▁technodog	-13.157
▁teddie	-13.157
▁tedious	-13.157
▁tend	-13.157
▁tennessee	-13.157
▁tension	-13.157
▁terrable	-13.157
▁terror	-13.157
▁tes	-13.157
▁testimonial	-13.157
▁theses	-13.157
▁thickening	-13.157
▁thickens	-13.157
▁thieves	-13.157
▁threat	-13.157
▁thrives	-13.157
▁thw	-13.157
▁thye	-13.157
▁ti	-13.157
▁tickles	-13.157
▁tie	-13.157
▁timeless	-13.157
▁timesaver	-13.157
▁timey	-13.157
▁timid	-13.157
▁timmy	-13.157
▁tingle	-13.157
▁tings	-13.157
▁tisane	-13.157
▁toasting	-13.157
▁tomorrow	-13.157
▁tonkatsu	-13.157
▁topo	-13.157
▁toppers	-13.157
▁toppings	-13.157
▁torte	-13.157
▁tortellini	-13.157
▁tossed	-13.157
▁totonac	-13.157
▁towel	-13.157
▁trading	-13.157
▁trained	-13.157
▁transform	-13.157
▁translation	-13.157
▁trappist	-13.157
▁trays	-13.157
▁treaters	-13.157
▁tres	-13.157
▁triumph	-13.157
▁trix	-13.157
▁trolli	-13.157
▁tru	-13.157
▁trustworthy	-13.157
▁tsp	-13.157
▁turnaround	-13.157
▁turpentine	-13.157
▁tutto	-13.157
▁tx	-13.157
▁tyme	-13.157
▁uck	-13.157
▁uhh	-13.157
▁uhhh	-13.157
▁umami	-13.157
▁umph	-13.157
▁ums	-13.157
▁unanimous	-13.157
▁unbelieveably	-13.157
▁unbroken	-13.157
▁underweight	-13.157
▁unedible	-13.157
▁unethical	-13.157
▁unevenly	-13.157
▁unfriendly	-13.157
▁uninteresting	-13.157
▁unpleasantly	-13.157
▁unprofessional	-13.157
▁unuseable	-13.157
▁unwrap	-13.157
▁upsetting	-13.157
▁usefulness	-13.157
▁vacu	-13.157
▁valdez	-13.157
▁valuable	-13.157
▁vanila	-13.157
▁vanished	-13.157
▁various	-13.157
▁vegas	-13.157
▁vegi	-13.157
▁vendors	-13.157
▁veranda	-13.157
▁vernor	-13.157
▁verses	-13.157
▁vertical	-13.157
▁vic	-13.157
▁vice	-13.157
▁victory	-13.157
▁vinegarette	-13.157
▁vitakraft	-13.157
▁volcanic	-13.157
▁wacky	-13.157
▁waker	-13.157
▁wallenford	-13.157
▁wally	-13.157
▁warn	-13.157
▁warns	-13.157
▁warped	-13.157
▁wasting	-13.157
▁wayy	-13.157
▁wayyy	-13.157
▁wayyyy	-13.157
▁weakness	-13.157
▁weary	-13.157
▁wegman	-13.157
▁weighing	-13.157
▁welsh	-13.157
▁wendy	-13.157
▁westbrae	-13.157
▁wham	-13.157
▁wheaties	-13.157
▁whee	-13.157
▁whichever	-13.157
▁whippet	-13.157
▁whitefish	-13.157
▁wholegrain	-13.157
▁whom	-13.157
▁wi	-13.157
▁wickedly	-13.157
▁wifes	-13.157
▁willow	-13.157
▁wines	-13.157
▁wired	-13.157
▁wisconsinmade	-13.157
▁wisecrackers	-13.157
▁wishing	-13.157
▁wisskye	-13.157
▁woah	-13.157
▁woohoo	-13.157
▁workable	-13.157
▁woth	-13.157
▁wowie	-13.157
▁writers	-13.157
▁wrongly	-13.157
▁wtih	-13.157
▁xango	-13.157
▁xanthan	-13.157
▁xlear	-13.157
▁xyla	-13.157
▁yah	-13.157
▁yesssss	-13.157
▁yippy	-13.157
▁yolk	-13.157
▁yoplait	-13.157
▁yuckkk	-13.157
▁yummier	-13.157
▁yummmmmmmy	-13.157
▁yummmyyy	-13.157
▁yumo	-13.157
▁yunnan	-13.157
▁zensoy	-13.157
▁zhen	-13.157
▁ziploc	-13.157
▁ziplock	-13.157
▁zipper	-13.157
▁zone	-13.157
▁zoom	-13.157
▁zsweet	-13.157
▁zwieback	-13.157
▁aaaah	-13.5625
▁aaah	-13.5625
▁aah	-13.5625
▁abba	-13.5625
▁abfab	-13.5625
▁abit	-13.5625
▁aboard	-13.5625
▁abomination	-13.5625
▁aboslutely	-13.5625
▁abounds	-13.5625
▁abroad	-13.5625
▁absorbed	-13.5625
▁absoultely	-13.5625
▁ac	-13.5625
▁accents	-13.5625
▁accessible	-13.5625
▁accidental	-13.5625
▁accidently	-13.5625
▁ace	-13.5625
▁ach	-13.5625
▁achva	-13.5625
▁acre	-13.5625
▁acrid	-13.5625
▁activate	-13.5625
▁adams	-13.5625
▁adapter	-13.5625
▁addresses	-13.5625
▁addtion	-13.5625
▁adhd	-13.5625
▁adhesive	-13.5625
▁adicting	-13.5625
▁adjustment	-13.5625
▁adjustments	-13.5625
▁administration	-13.5625
▁ado	-13.5625
▁adolph	-13.5625
▁adolphs	-13.5625
▁adoreable	-13.5625
▁adventures	-13.5625
▁adverse	-13.5625
▁affair	-13.5625
▁agava	-13.5625
▁agreeable	-13.5625
▁ahmed	-13.5625
▁aholic	-13.5625
▁ailments	-13.5625
▁airborne	-13.5625
▁airbrush	-13.5625
▁airheads	-13.5625
▁airways	-13.5625
▁ajika	-13.5625
▁ajinomoto	-13.5625
▁ala	-13.5625
▁alaga	-13.5625
▁alchemy	-13.5625
▁alcoholy	-13.5625
▁alergy	-13.5625
▁alertness	-13.5625
▁ali	-13.5625
▁alice	-13.5625
▁alicious	-13.5625
▁alka	-13.5625
▁alkali	-13.5625
▁alkalinity	-13.5625
▁alkalizing	-13.5625
▁allayed	-13.5625
▁allbran	-13.5625
▁allegic	-13.5625
▁allow	-13.5625
▁alphabets	-13.5625
▁alpo	-13.5625
▁als	-13.5625
▁alter	-13.5625
▁alterantive	-13.5625
▁alteration	-13.5625
▁altitude	-13.5625
▁alvita	-13.5625
▁alway	-13.5625
▁alzheimer	-13.5625
▁amaretti	-13.5625
▁amaze	-13.5625
▁ambers	-13.5625
▁ambrosoli	-13.5625
▁amer	-13.5625
▁americas	-13.5625
▁amino	-13.5625
▁amla	-13.5625
▁ammonium	-13.5625
▁amsterdam	-13.5625
▁amt	-13.5625
▁amzaon	-13.5625
▁amzn	-13.5625
▁anal	-13.5625
▁analog	-13.5625
▁anasazi	-13.5625
▁anchovie	-13.5625
▁andrew	-13.5625
▁anecdote	-13.5625
▁anemic	-13.5625
▁angelo	-13.5625
▁annato	-13.5625
▁announcement	-13.5625
▁annoyingly	-13.5625
▁answering	-13.5625
▁answers	-13.5625
▁antiperspirant	-13.5625
▁anyones	-13.5625
▁anythign	-13.5625
▁aphids	-13.5625
▁app	-13.5625
▁appalling	-13.5625
▁appeals	-13.5625
▁appease	-13.5625
▁appetit	-13.5625
▁applejacks	-13.5625
▁applicator	-13.5625
▁applied	-13.5625
▁applies	-13.5625
▁appreciating	-13.5625
▁apprehensive	-13.5625
▁arab	-13.5625
▁aralia	-13.5625
▁aranciata	-13.5625
▁arare	-13.5625
▁argentina	-13.5625
▁argo	-13.5625
▁aritfical	-13.5625
▁artemis	-13.5625
▁arteries	-13.5625
▁artesian	-13.5625
▁arthritic	-13.5625
▁artisana	-13.5625
▁artist	-13.5625
▁artists	-13.5625
▁asi	-13.5625
▁asians	-13.5625
▁asking	-13.5625
▁aspic	-13.5625
▁aspie	-13.5625
▁assembled	-13.5625
▁asset	-13.5625
▁assistance	-13.5625
▁assort	-13.5625
▁assortments	-13.5625
▁athletic	-13.5625
▁atlanta	-13.5625
▁atop	-13.5625
▁attracted	-13.5625
▁attraction	-13.5625
▁audio	-13.5625
▁austria	-13.5625
▁austrian	-13.5625
▁aveda	-13.5625
▁awaited	-13.5625
▁awakening	-13.5625
▁awarded	-13.5625
▁aways	-13.5625
▁awefull	-13.5625
▁awesomes	-13.5625
▁awesomest	-13.5625
▁awry	-13.5625
▁awsomeness	-13.5625
▁awwesome	-13.5625
▁axe	-13.5625
▁azalea	-13.5625
▁azteca	-13.5625
▁ba	-13.5625
▁baaaad	-13.5625
▁babka	-13.5625
▁babycat	-13.5625
▁baci	-13.5625
▁background	-13.5625
▁backing	-13.5625
▁backordered	-13.5625
▁backpack	-13.5625
▁baconlicious	-13.5625
▁bacos	-13.5625
▁bah	-13.5625
▁baileys	-13.5625
▁baird	-13.5625
▁bald	-13.5625
▁ballpark	-13.5625
▁bamba	-13.5625
▁bancha	-13.5625
▁bandito	-13.5625
▁banging	-13.5625
▁banks	-13.5625
▁bannana	-13.5625
▁barb	-13.5625
▁barrista	-13.5625
▁barritts	-13.5625
▁bartender	-13.5625
▁baseball	-13.5625
▁basecamp	-13.5625
▁basement	-13.5625
▁baskin	-13.5625
▁baste	-13.5625
▁basted	-13.5625
▁bathe	-13.5625
▁baths	-13.5625
▁bawls	-13.5625
▁baxter	-13.5625
▁bbqs	-13.5625
▁beagles	-13.5625
▁beanilla	-13.5625
▁bearing	-13.5625
▁beaten	-13.5625
▁beatiful	-13.5625
▁beating	-13.5625
▁beatlejuice	-13.5625
▁beau	-13.5625
▁beds	-13.5625
▁beefeater	-13.5625
▁beefs	-13.5625
▁beekeeper	-13.5625
▁begged	-13.5625
▁begins	-13.5625
▁begrudgingly	-13.5625
▁beigel	-13.5625
▁beignet	-13.5625
▁bekir	-13.5625
▁bel	-13.5625
▁belize	-13.5625
▁bellini	-13.5625
▁bellino	-13.5625
▁bellyflops	-13.5625
▁bellyrubs	-13.5625
▁belong	-13.5625
▁bench	-13.5625
▁benissimo	-13.5625
▁bernard	-13.5625
▁bernese	-13.5625
▁bernie	-13.5625
▁berrylicious	-13.5625
▁bertolli	-13.5625
▁beta	-13.5625
▁betta	-13.5625
▁bezos	-13.5625
▁bha	-13.5625
▁bhel	-13.5625
▁bible	-13.5625
▁bicarbonate	-13.5625
▁bien	-13.5625
▁biermann	-13.5625
▁bigbert	-13.5625
▁biking	-13.5625
▁billion	-13.5625
▁binge	-13.5625
▁bingo	-13.5625
▁bionature	-13.5625
▁biotic	-13.5625
▁bischon	-13.5625
▁biscoti	-13.5625
▁biscottis	-13.5625
▁biter	-13.5625
▁bitsy	-13.5625
▁bitterly	-13.5625
▁bitz	-13.5625
▁bjs	-13.5625
▁bk	-13.5625
▁bkfst	-13.5625
▁blackcurrants	-13.5625
▁blackeye	-13.5625
▁blahs	-13.5625
▁blam	-13.5625
▁blargh	-13.5625
▁blecch	-13.5625
▁bleech	-13.5625
▁bleeech	-13.5625
▁bleeps	-13.5625
▁blenders	-13.5625
▁blenheim	-13.5625
▁blissfully	-13.5625
▁bloat	-13.5625
▁blob	-13.5625
▁blondies	-13.5625
▁blt	-13.5625
▁bm	-13.5625
▁bo	-13.5625
▁boarding	-13.5625
▁boardwalk	-13.5625
▁boasts	-13.5625
▁boat	-13.5625
▁bobby	-13.5625
▁bobo	-13.5625
▁bodybuilders	-13.5625
▁bodywash	-13.5625
▁boiling	-13.5625
▁boils	-13.5625
▁boldest	-13.5625
▁boldo	-13.5625
▁bolognese	-13.5625
▁bombilla	-13.5625
▁bonbons	-13.5625
▁bond	-13.5625
▁boney	-13.5625
▁bonez	-13.5625
▁bonies	-13.5625
▁bonnie	-13.5625
▁booberry	-13.5625
▁bookbinder	-13.5625
▁bookbinders	-13.5625
▁boosting	-13.5625
▁boosts	-13.5625
▁boots	-13.5625
▁borden	-13.5625
▁bots	-13.5625
▁bottarga	-13.5625
▁bottlecaps	-13.5625
▁bottling	-13.5625
▁bound	-13.5625
▁bout	-13.5625
▁bovine	-13.5625
▁bowels	-13.5625
▁boxers	-13.5625
▁boyz	-13.5625
▁brakfast	-13.5625
▁bramahputra	-13.5625
▁branch	-13.5625
▁branches	-13.5625
▁brandt	-13.5625
▁braswell	-13.5625
▁bratwurst	-13.5625
▁breadmachine	-13.5625
▁breakdown	-13.5625
▁breakfeast	-13.5625
▁breastfeed	-13.5625
▁breathsaver	-13.5625
▁breezes	-13.5625
▁brenda	-13.5625
▁breville	-13.5625
▁bri	-13.5625
▁bridal	-13.5625
▁brien	-13.5625
▁brightest	-13.5625
▁brightness	-13.5625
▁brilliantly	-13.5625
▁brita	-13.5625
▁brite	-13.5625
▁brix	-13.5625
▁bro	-13.5625
▁brocolli	-13.5625
▁brot	-13.5625
▁browning	-13.5625
▁bt	-13.5625
▁bubblemint	-13.5625
▁bubblicious	-13.5625
▁buckeye	-13.5625
▁buddies	-13.5625
▁buendia	-13.5625
▁bufala	-13.5625
▁buffy	-13.5625
▁buggers	-13.5625
▁builder	-13.5625
▁builders	-13.5625
▁builds	-13.5625
▁buisness	-13.5625
▁bulgaria	-13.5625
▁bulldogge	-13.5625
▁bullets	-13.5625
▁bullys	-13.5625
▁bumblebee	-13.5625
▁bump	-13.5625
▁bumped	-13.5625
▁buonissimo	-13.5625
▁burtons	-13.5625
▁buscuits	-13.5625
▁busting	-13.5625
▁butlers	-13.5625
▁buttermints	-13.5625
▁butterrum	-13.5625
▁buttons	-13.5625
▁buuut	-13.5625
▁buys	-13.5625
▁buzzy	-13.5625
▁byron	-13.5625
▁byzantine	-13.5625
▁cacoa	-13.5625
▁caffee	-13.5625
▁caffein	-13.5625
▁caffienated	-13.5625
▁caffinated	-13.5625
▁cairn	-13.5625
▁caked	-13.5625
▁cakemix	-13.5625
▁cali	-13.5625
▁calmed	-13.5625
▁calms	-13.5625
▁calrose	-13.5625
▁calzones	-13.5625
▁camel	-13.5625
▁camouflaged	-13.5625
▁cand	-13.5625
▁cannellini	-13.5625
▁cantalope	-13.5625
▁capacity	-13.5625
▁cape	-13.5625
▁capelin	-13.5625
▁capellini	-13.5625
▁caponata	-13.5625
▁cappachino	-13.5625
▁cappucccino	-13.5625
▁caramba	-13.5625
▁carame	-13.5625
▁carbing	-13.5625
▁carbona	-13.5625
▁carbons	-13.5625
▁cared	-13.5625
▁carefull	-13.5625
▁caries	-13.5625
▁carl	-13.5625
▁carli	-13.5625
▁carnaval	-13.5625
▁carp	-13.5625
▁carpeting	-13.5625
▁carpets	-13.5625
▁cartilage	-13.5625
▁cartoon	-13.5625
▁casa	-13.5625
▁casali	-13.5625
▁casina	-13.5625
▁cask	-13.5625
▁casseroles	-13.5625
▁cast	-13.5625
▁castello	-13.5625
▁catcher	-13.5625
▁catchers	-13.5625
▁catching	-13.5625
▁categorized	-13.5625
▁caterpillar	-13.5625
▁catfish	-13.5625
▁cattlemens	-13.5625
▁caucasian	-13.5625
▁cautionary	-13.5625
▁caveman	-13.5625
▁cavenders	-13.5625
▁celcius	-13.5625
▁celebrating	-13.5625
▁cellent	-13.5625
▁cello	-13.5625
▁cellophane	-13.5625
▁centerpiece	-13.5625
▁centipedes	-13.5625
▁certifiably	-13.5625
▁certs	-13.5625
▁chaff	-13.5625
▁chains	-13.5625
▁chakra	-13.5625
▁chamomiles	-13.5625
▁chana	-13.5625
▁chang	-13.5625
▁chao	-13.5625
▁chapati	-13.5625
▁chase	-13.5625
▁chcolate	-13.5625
▁cheats	-13.5625
▁checken	-13.5625
▁checkout	-13.5625
▁cheech	-13.5625
▁cheeky	-13.5625
▁cheeries	-13.5625
▁cheering	-13.5625
▁cheeseball	-13.5625
▁cheesier	-13.5625
▁cheesiest	-13.5625
▁chelsea	-13.5625
▁chem	-13.5625
▁chester	-13.5625
▁chewys	-13.5625
▁chiavetta	-13.5625
▁chickie	-13.5625
▁chickpea	-13.5625
▁chicks	-13.5625
▁chiken	-13.5625
▁chilhood	-13.5625
▁chintzy	-13.5625
▁chippoisseur	-13.5625
▁chloe	-13.5625
▁chlorophyll	-13.5625
▁chocaholic	-13.5625
▁chocloate	-13.5625
▁chocolaholic	-13.5625
▁chocolatemint	-13.5625
▁chocolatety	-13.5625
▁chocs	-13.5625
▁cholesteral	-13.5625
▁cholocate	-13.5625
▁chondroitin	-13.5625
▁chong	-13.5625
▁choosy	-13.5625
▁chose	-13.5625
▁christopher	-13.5625
▁chub	-13.5625
▁chunchy	-13.5625
▁church	-13.5625
▁ciao	-13.5625
▁cigarette	-13.5625
▁cigerettes	-13.5625
▁cigs	-13.5625
▁cima	-13.5625
▁cin	-13.5625
▁cinanmon	-13.5625
▁cinema	-13.5625
▁cinnamin	-13.5625
▁cinnamons	-13.5625
▁circumstances	-13.5625
▁citizen	-13.5625
▁citizens	-13.5625
▁claeys	-13.5625
▁clarified	-13.5625
▁clarity	-13.5625
▁clasico	-13.5625
▁classico	-13.5625
▁classique	-13.5625
▁claw	-13.5625
▁claws	-13.5625
▁cleanings	-13.5625
▁clearbrook	-13.5625
▁clearjel	-13.5625
▁clicker	-13.5625
▁clicking	-13.5625
▁clicktastic	-13.5625
▁client	-13.5625
▁clinic	-13.5625
▁clint	-13.5625
▁clods	-13.5625
▁clothing	-13.5625
▁clotted	-13.5625
▁cocconut	-13.5625
▁cocina	-13.5625
▁cocoanut	-13.5625
▁cocoas	-13.5625
▁cocount	-13.5625
▁codd	-13.5625
▁coffeei	-13.5625
▁coffeeless	-13.5625
▁coffeelicious	-13.5625
▁coffeelover	-13.5625
▁coffer	-13.5625
▁cognac	-13.5625
▁coladas	-13.5625
▁colder	-13.5625
▁cole	-13.5625
▁colgin	-13.5625
▁colitis	-13.5625
▁collars	-13.5625
▁collecting	-13.5625
▁colossal	-13.5625
▁colour	-13.5625
▁colours	-13.5625
▁comedy	-13.5625
▁comin	-13.5625
▁comme	-13.5625
▁commenting	-13.5625
▁commercials	-13.5625
▁como	-13.5625
▁compete	-13.5625
▁competetive	-13.5625
▁competiton	-13.5625
▁complainers	-13.5625
▁complementary	-13.5625
▁complements	-13.5625
▁completly	-13.5625
▁complicated	-13.5625
▁components	-13.5625
▁concoct	-13.5625
▁concord	-13.5625
▁condiments	-13.5625
▁confections	-13.5625
▁confession	-13.5625
▁confirm	-13.5625
▁confirmation	-13.5625
▁confirms	-13.5625
▁conflicted	-13.5625
▁confuses	-13.5625
▁congealed	-13.5625
▁conked	-13.5625
▁connective	-13.5625
▁conned	-13.5625
▁conoisseur	-13.5625
▁conquered	-13.5625
▁considerably	-13.5625
▁constipating	-13.5625
▁constructed	-13.5625
▁consul	-13.5625
▁consultant	-13.5625
▁containment	-13.5625
▁continued	-13.5625
▁continuous	-13.5625
▁contradiction	-13.5625
▁controlling	-13.5625
▁convent	-13.5625
▁cookbook	-13.5625
▁cooled	-13.5625
▁coooool	-13.5625
▁cope	-13.5625
▁copycat	-13.5625
▁corazona	-13.5625
▁cordial	-13.5625
▁corners	-13.5625
▁corns	-13.5625
▁cornstarch	-13.5625
▁corriander	-13.5625
▁cosmo	-13.5625
▁costcos	-13.5625
▁cots	-13.5625
▁countrywild	-13.5625
▁couples	-13.5625
▁coustomer	-13.5625
▁covert	-13.5625
▁coworkers	-13.5625
▁cows	-13.5625
▁cp	-13.5625
▁crackerjacks	-13.5625
▁crackin	-13.5625
▁cracking	-13.5625
▁cramp	-13.5625
▁cranapple	-13.5625
▁crasher	-13.5625
▁crawfords	-13.5625
▁crawlies	-13.5625
▁crayons	-13.5625
▁creackers	-13.5625
▁creat	-13.5625
▁creating	-13.5625
▁creator	-13.5625
▁creature	-13.5625
▁credit	-13.5625
▁cresteds	-13.5625
▁cri	-13.5625
▁cricket	-13.5625
▁criminal	-13.5625
▁criminally	-13.5625
▁crisper	-13.5625
▁crispiness	-13.5625
▁critics	-13.5625
▁critique	-13.5625
▁crockpot	-13.5625
▁crookers	-13.5625
▁croustades	-13.5625
▁crowns	-13.5625
▁crows	-13.5625
▁cruchy	-13.5625
▁cruel	-13.5625
▁cruet	-13.5625
▁crunchiest	-13.5625
▁crunchiness	-13.5625
▁crunching	-13.5625
▁cruz	-13.5625
▁crystalizes	-13.5625
▁cuba	-13.5625
▁cubicle	-13.5625
▁cucumbers	-13.5625
▁cuervo	-13.5625
▁cugino	-13.5625
▁cultural	-13.5625
▁cultures	-13.5625
▁cupa	-13.5625
▁curb	-13.5625
▁curds	-13.5625
▁curing	-13.5625
▁curse	-13.5625
▁cusine	-13.5625
▁customizable	-13.5625
▁customize	-13.5625
▁custumer	-13.5625
▁cyclist	-13.5625
▁cylinders	-13.5625
▁cylon	-13.5625
▁czar	-13.5625
▁daddys	-13.5625
▁dah	-13.5625
▁dai	-13.5625
▁dairyland	-13.5625
▁dakine	-13.5625
▁dales	-13.5625
▁dallas	-13.5625
▁dalmatian	-13.5625
▁dandyblend	-13.5625
▁danes	-13.5625
▁danesi	-13.5625
▁daniel	-13.5625
▁dank	-13.5625
▁darkness	-13.5625
▁dasuquin	-13.5625
▁dawg	-13.5625
▁dc	-13.5625
▁dd	-13.5625
▁decaffeination	-13.5625
▁decal	-13.5625
▁decalf	-13.5625
▁decieving	-13.5625
▁decrease	-13.5625
▁decreased	-13.5625
▁dedicated	-13.5625
▁deeeelish	-13.5625
▁default	-13.5625
▁defect	-13.5625
▁defend	-13.5625
▁defense	-13.5625
▁defies	-13.5625
▁defrost	-13.5625
▁degradable	-13.5625
▁dehydration	-13.5625
▁deja	-13.5625
▁delaware	-13.5625
▁delfa	-13.5625
▁delic	-13.5625
▁delicato	-13.5625
▁delice	-13.5625
▁delicios	-13.5625
▁deliciouso	-13.5625
▁delicius	-13.5625
▁delighful	-13.5625
▁delightfull	-13.5625
▁delivering	-13.5625
▁delux	-13.5625
▁denied	-13.5625
▁denmark	-13.5625
▁density	-13.5625
▁dentals	-13.5625
▁dentures	-13.5625
▁deodorizer	-13.5625
▁departure	-13.5625
▁depicted	-13.5625
▁deployments	-13.5625
▁depot	-13.5625
▁dept	-13.5625
▁dermatitis	-13.5625
▁dern	-13.5625
▁desapointed	-13.5625
▁descaling	-13.5625
▁descent	-13.5625
▁descript	-13.5625
▁descriptions	-13.5625
▁descripton	-13.5625
▁deserved	-13.5625
▁deserving	-13.5625
▁desi	-13.5625
▁desiccated	-13.5625
▁desperation	-13.5625
▁dessing	-13.5625
▁destroying	-13.5625
▁destruction	-13.5625
▁destructive	-13.5625
▁detangling	-13.5625
▁detectable	-13.5625
▁detoxing	-13.5625
▁detroit	-13.5625
▁development	-13.5625
▁deviled	-13.5625
▁dexter	-13.5625
▁dh	-13.5625
▁diabeetus	-13.5625
▁diabetisweet	-13.5625
▁diablo	-13.5625
▁diagnosed	-13.5625
▁diameter	-13.5625
▁diary	-13.5625
▁dickens	-13.5625
▁didn	-13.5625
▁didnot	-13.5625
▁diehard	-13.5625
▁diesel	-13.5625
▁differing	-13.5625
▁differnt	-13.5625
▁difficulties	-13.5625
▁digests	-13.5625
▁diggin	-13.5625
▁digital	-13.5625
▁digs	-13.5625
▁dilettante	-13.5625
▁dim	-13.5625
▁dime	-13.5625
▁diminish	-13.5625
▁ding	-13.5625
▁dippin	-13.5625
▁director	-13.5625
▁disappointments	-13.5625
▁disapppointed	-13.5625
▁discernable	-13.5625
▁discipline	-13.5625
▁disclosure	-13.5625
▁disco	-13.5625
▁discomfort	-13.5625
▁discontinuing	-13.5625
▁discouraged	-13.5625
▁discussion	-13.5625
▁disfigured	-13.5625
▁disgraceful	-13.5625
▁disgust	-13.5625
▁disk	-13.5625
▁disneyland	-13.5625
▁disolve	-13.5625
▁dispenses	-13.5625
▁displeasing	-13.5625
▁disposacup	-13.5625
▁disppointed	-13.5625
▁disservice	-13.5625
▁distance	-13.5625
▁distilled	-13.5625
▁distinctly	-13.5625
▁distributor	-13.5625
▁diversion	-13.5625
▁divina	-13.5625
▁dobie	-13.5625
▁dodgers	-13.5625
▁doghouse	-13.5625
▁dogsbar	-13.5625
▁dolcetto	-13.5625
▁dolmas	-13.5625
▁dome	-13.5625
▁donations	-13.5625
▁donchels	-13.5625
▁donckels	-13.5625
▁donna	-13.5625
▁doom	-13.5625
▁doors	-13.5625
▁dope	-13.5625
▁dougall	-13.5625
▁downer	-13.5625
▁downgrade	-13.5625
▁dozens	-13.5625
▁dragonfly	-13.5625
▁dragonfruit	-13.5625
▁drained	-13.5625
▁drama	-13.5625
▁dramatically	-13.5625
▁drastic	-13.5625
▁drawing	-13.5625
▁drawstring	-13.5625
▁dreambones	-13.5625
▁dreamed	-13.5625
▁dresssing	-13.5625
▁drier	-13.5625
▁dring	-13.5625
▁drinkin	-13.5625
▁drippy	-13.5625
▁drizzled	-13.5625
▁dromedary	-13.5625
▁dropper	-13.5625
▁dropping	-13.5625
▁drrrrrrrrrrrry	-13.5625
▁drunken	-13.5625
▁dryed	-13.5625
▁dubai	-13.5625
▁dubious	-13.5625
▁ducky	-13.5625
▁dukes	-13.5625
▁dumbest	-13.5625
▁dumplins	-13.5625
▁dunk	-13.5625
▁duplicate	-13.5625
▁duplo	-13.5625
▁dura	-13.5625
▁durability	-13.5625
▁durango	-13.5625
▁dusseldorf	-13.5625
▁dusting	-13.5625
▁dycee	-13.5625
▁dyeing	-13.5625
▁dynamic	-13.5625
▁ea	-13.5625
▁earthly	-13.5625
▁earthquake	-13.5625
▁eastman	-13.5625
▁eauction	-13.5625
▁ebay	-13.5625
▁eclectic	-13.5625
▁ecstasy	-13.5625
▁eda	-13.5625
▁edensoy	-13.5625
▁edges	-13.5625
▁edna	-13.5625
▁edward	-13.5625
▁eew	-13.5625
▁eez	-13.5625
▁efficacious	-13.5625
▁efficacy	-13.5625
▁egcg	-13.5625
▁eggless	-13.5625
▁eggnogg	-13.5625
▁eggo	-13.5625
▁eggy	-13.5625
▁ehhhh	-13.5625
▁elderflower	-13.5625
▁elegance	-13.5625
▁elephant	-13.5625
▁elevated	-13.5625
▁elevates	-13.5625
▁eleventh	-13.5625
▁elimination	-13.5625
▁eliminator	-13.5625
▁elite	-13.5625
▁elliott	-13.5625
▁elves	-13.5625
▁emotional	-13.5625
▁emperor	-13.5625
▁ems	-13.5625
▁emulsion	-13.5625
▁enchanted	-13.5625
▁enchantment	-13.5625
▁enclosed	-13.5625
▁endorse	-13.5625
▁endorsement	-13.5625
▁enemy	-13.5625
▁energized	-13.5625
▁energizes	-13.5625
▁enfacare	-13.5625
▁engineered	-13.5625
▁engineering	-13.5625
▁englishman	-13.5625
▁enlightened	-13.5625
▁enougn	-13.5625
▁entertain	-13.5625
▁entertains	-13.5625
▁enticing	-13.5625
▁entrees	-13.5625
▁enviro	-13.5625
▁envirokids	-13.5625
▁enviroment	-13.5625
▁envisioned	-13.5625
▁enzadent	-13.5625
▁epicurious	-13.5625
▁epigen	-13.5625
▁epsom	-13.5625
▁erotic	-13.5625
▁erroneous	-13.5625
▁essenza	-13.5625
▁essiac	-13.5625
▁ethically	-13.5625
▁ethiopia	-13.5625
▁eu	-13.5625
▁eucalyptus	-13.5625
▁europeans	-13.5625
▁event	-13.5625
▁eventually	-13.5625
▁everlast	-13.5625
▁everrr	-13.5625
▁evolved	-13.5625
▁ewwwwwwww	-13.5625
▁exaggerated	-13.5625
▁exceedingly	-13.5625
▁excelentes	-13.5625
▁excellet	-13.5625
▁excema	-13.5625
▁excuses	-13.5625
▁execllent	-13.5625
▁executed	-13.5625
▁exelente	-13.5625
▁exhale	-13.5625
▁existed	-13.5625
▁expects	-13.5625
▁expencive	-13.5625
▁expense	-13.5625
▁expensively	-13.5625
▁expereince	-13.5625
▁experiencing	-13.5625
▁experiments	-13.5625
▁expesnive	-13.5625
▁explanation	-13.5625
▁explode	-13.5625
▁exposure	-13.5625
▁exspensive	-13.5625
▁extemely	-13.5625
▁extent	-13.5625
▁extinct	-13.5625
▁extravagant	-13.5625
▁extrodinaire	-13.5625
▁eyeballs	-13.5625
▁eyebright	-13.5625
▁eyed	-13.5625
▁fabulously	-13.5625
▁facebook	-13.5625
▁factors	-13.5625
▁fades	-13.5625
▁failures	-13.5625
▁falcon	-13.5625
▁familar	-13.5625
▁fanatastic	-13.5625
▁farina	-13.5625
▁farmhouse	-13.5625
▁fasioned	-13.5625
▁fathers	-13.5625
▁fatigue	-13.5625
▁fatter	-13.5625
▁favoirte	-13.5625
▁favorit	-13.5625
▁favority	-13.5625
▁favour	-13.5625
▁faygo	-13.5625
▁fearn	-13.5625
▁fears	-13.5625
▁featured	-13.5625
▁feb	-13.5625
▁february	-13.5625
▁feh	-13.5625
▁feminine	-13.5625
▁ferals	-13.5625
▁ferret	-13.5625
▁festival	-13.5625
▁fiberone	-13.5625
▁fickle	-13.5625
▁fifties	-13.5625
▁filberts	-13.5625
▁fillet	-13.5625
▁films	-13.5625
▁finaly	-13.5625
▁fiona	-13.5625
▁fiore	-13.5625
▁fired	-13.5625
▁fitting	-13.5625
▁flames	-13.5625
▁flaming	-13.5625
▁flaovr	-13.5625
▁flapjack	-13.5625
▁flask	-13.5625
▁flavia	-13.5625
▁flavoed	-13.5625
▁flawlessly	-13.5625
▁fleas	-13.5625
▁flex	-13.5625
▁flexibility	-13.5625
▁flicks	-13.5625
▁flint	-13.5625
▁float	-13.5625
▁flood	-13.5625
▁floppy	-13.5625
▁flourless	-13.5625
▁flovor	-13.5625
▁flowing	-13.5625
▁fluctuation	-13.5625
▁fluids	-13.5625
▁fluorescent	-13.5625
▁fluoride	-13.5625
▁flutd	-13.5625
▁flynn	-13.5625
▁focaccia	-13.5625
▁following	-13.5625
▁followthrough	-13.5625
▁fomula	-13.5625
▁foojoy	-13.5625
▁foolish	-13.5625
▁foood	-13.5625
▁footprint	-13.5625
▁formaldehyde	-13.5625
▁fortified	-13.5625
▁fraiche	-13.5625
▁frankenstein	-13.5625
▁frankly	-13.5625
▁frapp	-13.5625
▁frapps	-13.5625
▁fraps	-13.5625
▁fray	-13.5625
▁freakishly	-13.5625
▁freedent	-13.5625
▁freezable	-13.5625
▁freezed	-13.5625
▁freezy	-13.5625
▁frenchies	-13.5625
▁freshpak	-13.5625
▁friday	-13.5625
▁fridays	-13.5625
▁friggen	-13.5625
▁frikies	-13.5625
▁frisbee	-13.5625
▁fritters	-13.5625
▁frizz	-13.5625
▁frizzy	-13.5625
▁froth	-13.5625
▁frown	-13.5625
▁fru	-13.5625
▁fruitabu	-13.5625
▁fruitful	-13.5625
▁fryer	-13.5625
▁ftw	-13.5625
▁fueling	-13.5625
▁fufu	-13.5625
▁fugi	-13.5625
▁fuit	-13.5625
▁fullfilling	-13.5625
▁funicello	-13.5625
▁furbaby	-13.5625
▁furious	-13.5625
▁fussiest	-13.5625
▁fussiness	-13.5625
▁gaga	-13.5625
▁gagging	-13.5625
▁gallbladder	-13.5625
▁gals	-13.5625
▁gaming	-13.5625
▁ganoderma	-13.5625
▁gansito	-13.5625
▁gardetto	-13.5625
▁garish	-13.5625
▁garlics	-13.5625
▁garret	-13.5625
▁gaseous	-13.5625
▁gasp	-13.5625
▁gathering	-13.5625
▁gayoland	-13.5625
▁ge	-13.5625
▁gelee	-13.5625
▁gemelli	-13.5625
▁gene	-13.5625
▁generations	-13.5625
▁gently	-13.5625
▁georgia	-13.5625
▁gerat	-13.5625
▁germinate	-13.5625
▁gewurztraminer	-13.5625
▁gfi	-13.5625
▁ghosts	-13.5625
▁giants	-13.5625
▁gibson	-13.5625
▁giddy	-13.5625
▁giggle	-13.5625
▁gimborn	-13.5625
▁gimmicks	-13.5625
▁giner	-13.5625
▁gingerly	-13.5625
▁giraffes	-13.5625
▁girmi	-13.5625
▁giveaway	-13.5625
▁gj	-13.5625
▁gjetost	-13.5625
▁glaceau	-13.5625
▁glacier	-13.5625
▁glazes	-13.5625
▁glenn	-13.5625
▁glistening	-13.5625
▁glitch	-13.5625
▁glob	-13.5625
▁gluey	-13.5625
▁glutamic	-13.5625
▁glute	-13.5625
▁glutin	-13.5625
▁glutne	-13.5625
▁glycol	-13.5625
▁gmc	-13.5625
▁gnaw	-13.5625
▁gogi	-13.5625
▁goin	-13.5625
▁goldendoodle	-13.5625
▁goldens	-13.5625
▁golfers	-13.5625
▁golly	-13.5625
▁golpher	-13.5625
▁goofed	-13.5625
▁gooooooood	-13.5625
▁goopy	-13.5625
▁goot	-13.5625
▁gordita	-13.5625
▁gordon	-13.5625
▁gotcha	-13.5625
▁goto	-13.5625
▁gouge	-13.5625
▁gouged	-13.5625
▁gourmand	-13.5625
▁gourment	-13.5625
▁gra	-13.5625
▁graber	-13.5625
▁gracias	-13.5625
▁grad	-13.5625
▁graded	-13.5625
▁gradually	-13.5625
▁graduate	-13.5625
▁graffiti	-13.5625
▁grandmas	-13.5625
▁granja	-13.5625
▁granolas	-13.5625
▁granoloa	-13.5625
▁grasses	-13.5625
▁grate	-13.5625
▁gravey	-13.5625
▁graveyard	-13.5625
▁gread	-13.5625
▁greeeeeat	-13.5625
▁greeenies	-13.5625
▁greenish	-13.5625
▁gremlin	-13.5625
▁greta	-13.5625
▁grief	-13.5625
▁grin	-13.5625
▁gro	-13.5625
▁groovy	-13.5625
▁grounded	-13.5625
▁grrr	-13.5625
▁grrrrrrreat	-13.5625
▁grumpy	-13.5625
▁guam	-13.5625
▁guatemalan	-13.5625
▁guidance	-13.5625
▁gullah	-13.5625
▁gulp	-13.5625
▁gus	-13.5625
▁gushers	-13.5625
▁gussie	-13.5625
▁gussies	-13.5625
▁gust	-13.5625
▁gustiamo	-13.5625
▁guten	-13.5625
▁guzzle	-13.5625
▁gyokuro	-13.5625
▁gyros	-13.5625
▁habenero	-13.5625
▁habitat	-13.5625
▁habits	-13.5625
▁haci	-13.5625
▁hack	-13.5625
▁haha	-13.5625
▁haircare	-13.5625
▁hairless	-13.5625
▁hairs	-13.5625
▁hal	-13.5625
▁halfway	-13.5625
▁hamlyn	-13.5625
▁handed	-13.5625
▁handfuls	-13.5625
▁handier	-13.5625
▁handouts	-13.5625
▁hang	-13.5625
▁hank	-13.5625
▁hannah	-13.5625
▁happend	-13.5625
▁happpy	-13.5625
▁happytots	-13.5625
▁hapy	-13.5625
▁harleys	-13.5625
▁harrison	-13.5625
▁hatcho	-13.5625
▁haul	-13.5625
▁hauling	-13.5625
▁havoc	-13.5625
▁hawaiin	-13.5625
▁hc	-13.5625
▁hdbiker	-13.5625
▁hdpe	-13.5625
▁healer	-13.5625
▁heallthy	-13.5625
▁healther	-13.5625
▁healthfood	-13.5625
[...]
