<unk>	0
<s>	0
</s>	0
▁eot	-1.81086
▁sot	-1.81086
▁great	-3.86948
▁the	-4.12486
▁a	-4.20382
▁good	-4.20871
▁not	-4.37343
▁for	-4.48266
▁and	-4.56863
▁best	-4.61756
▁it	-4.65834
▁love	-4.67209
▁is	-4.8831
▁i	-4.90659
▁my	-4.91929
▁but	-4.93171
▁this	-4.96308
▁taste	-4.96336
▁to	-5.02374
▁coffee	-5.05354
▁tea	-5.08821
▁product	-5.08873
▁of	-5.11262
▁delicious	-5.18883
▁very	-5.36993
▁dog	-5.40341
▁in	-5.45704
▁flavor	-5.49472
▁like	-5.5094
▁excellent	-5.5533
▁you	-5.66576
▁price	-5.69654
▁tasty	-5.7212
▁yummy	-5.75682
▁these	-5.76029
▁food	-5.78722
▁with	-5.82575
▁ever	-5.84004
▁favorite	-5.90995
▁too	-5.92237
▁so	-5.93788
▁stuff	-6.00138
▁are	-6.01949
▁on	-6.04961
▁have	-6.05563
▁treat	-6.06363
▁cat	-6.06918
▁better	-6.1306
▁snack	-6.14012
▁just	-6.14282
▁free	-6.16463
▁no	-6.17479
▁chocolate	-6.20558
▁what	-6.24894
▁than	-6.26744
▁do	-6.27562
▁healthy	-6.27562
▁awesome	-6.28767
▁them	-6.29987
▁nice	-6.30162
▁yum	-6.35168
▁sweet	-6.36844
▁perfect	-6.38167
▁quality	-6.38281
▁one	-6.39238
▁really	-6.3943
▁wonderful	-6.4032
▁cup	-6.40788
▁at	-6.4114
▁all	-6.4563
▁tasting	-6.49432
▁buy	-6.51064
▁bad	-6.51498
▁your	-6.56171
▁be	-6.56307
▁me	-6.58196
▁work	-6.59647
▁hot	-6.60738
▁sugar	-6.62664
▁from	-6.6281
▁mix	-6.64628
▁little	-6.6724
▁that	-6.67648
▁can	-6.68417
▁gluten	-6.68469
▁amazing	-6.68985
▁easy	-6.69141
▁bar	-6.72142
▁candy	-6.74139
▁if	-6.7601
▁more	-6.76233
▁will	-6.77691
▁wa	-6.79171
▁organic	-6.79573
▁make	-6.81023
▁they	-6.8208
▁much	-6.83208
▁value	-6.84772
▁sauce	-6.86177
▁doe	-6.90899
▁drink	-6.91806
▁way	-6.92197
▁ok	-6.93115
▁cereal	-6.93181
▁k	-6.94043
▁fantastic	-6.97151
▁get	-6.9722
▁green	-6.97978
▁or	-6.98464
▁pretty	-6.98603
▁amazon	-6.99653
▁out	-6.99935
▁an	-7.04483
▁only	-7.06271
▁oil	-7.06648
▁cooky	-7.09092
▁chip	-7.0948
▁low	-7.10416
▁up	-7.11361
▁fresh	-7.13682
▁water	-7.13763
▁real	-7.14087
▁go	-7.16557
▁gift	-7.18492
▁cannot	-7.18832
▁deal	-7.18832
▁bean	-7.19003
▁review	-7.19003
▁soup	-7.19003
▁time	-7.19517
▁find	-7.19603
▁salt	-7.19947
▁made	-7.22302
▁had	-7.22744
▁high	-7.22833
▁our	-7.23724
▁kid	-7.24533
▁strong	-7.25167
▁expensive	-7.25622
▁bag	-7.25713
▁hard	-7.26079
▁new	-7.26263
▁did	-7.26355
▁there	-7.26815
▁coconut	-7.28023
▁use	-7.28491
▁happy	-7.2953
▁rice	-7.2953
▁would	-7.30963
▁natural	-7.31156
▁eat	-7.31445
▁bread	-7.32027
▁well	-7.33399
▁worth	-7.34191
▁alternative	-7.3439
▁pasta	-7.34589
▁old	-7.34889
▁service	-7.36503
▁baby	-7.37629
▁disappointed	-7.37835
▁peanut	-7.38248
▁popcorn	-7.38248
▁wow	-7.38352
▁butter	-7.38559
▁am	-7.38663
▁cracker	-7.4034
▁by	-7.40764
▁vanilla	-7.43345
▁packaging	-7.43781
▁thing	-7.44881
▁expected	-7.45547
▁super	-7.46106
▁ha	-7.46893
▁milk	-7.47119
▁nut	-7.49988
▁smell	-7.50454
▁decaf	-7.50806
▁star	-7.51276
▁item	-7.51394
▁money	-7.51512
▁we	-7.51986
▁shipping	-7.52582
▁breakfast	-7.52702
▁big	-7.52821
▁loved	-7.53663
▁smooth	-7.53663
▁dark	-7.54269
▁quick	-7.54634
▁ingredient	-7.56108
▁convenient	-7.57479
▁bit	-7.5773
▁blend	-7.5773
▁pack	-7.5773
▁some	-7.58108
▁gum	-7.58235
▁need	-7.58235
▁again	-7.58361
▁absolutely	-7.59892
▁could	-7.60149
▁without	-7.60149
▁fast	-7.61708
▁honey	-7.63158
▁syrup	-7.63158
▁chicken	-7.64495
▁calorie	-7.65035
▁small	-7.6517
▁fruit	-7.65577
▁okay	-7.65986
▁energy	-7.66397
▁instant	-7.66397
▁other	-7.66534
▁chew	-7.67085
▁spicy	-7.675
▁light	-7.67639
▁box	-7.67778
▁found	-7.67917
▁horrible	-7.68196
▁cheese	-7.68897
▁store	-7.69179
▁even	-7.6932
▁far	-7.70171
▁lot	-7.70314
▁lover	-7.70314
▁terrible	-7.70314
▁right	-7.70456
▁cookie	-7.70742
▁black	-7.71461
▁noodle	-7.73502
▁ginger	-7.73945
▁spice	-7.74687
▁try	-7.75285
▁about	-7.75435
▁still	-7.76644
▁beware	-7.76796
▁poor	-7.77254
▁brand	-7.7833
▁say	-7.78795
▁when	-7.79418
▁dry	-7.79731
▁enough	-7.80675
▁chai	-7.80834
▁first	-7.80834
▁seasoning	-7.80834
▁day	-7.80992
▁now	-7.80992
▁diet	-7.8147
▁decent	-7.81629
▁size	-7.82431
▁finally	-7.83728
▁choice	-7.84219
▁whole	-7.84547
▁crunchy	-7.85207
▁nothing	-7.85871
▁oatmeal	-7.85871
▁never	-7.86708
▁protein	-7.86708
▁refreshing	-7.87214
▁bitter	-7.87892
▁roast	-7.88062
▁salty	-7.88403
▁cake	-7.89089
▁red	-7.8978
▁awful	-7.89954
▁fabulous	-7.90127
▁most	-7.90127
▁simply	-7.90127
▁flavored	-7.9065
▁variety	-7.9065
▁must	-7.91352
▁substitute	-7.91352
▁seed	-7.91705
▁bold	-7.92949
▁fun	-7.93128
▁juice	-7.93488
▁meal	-7.93488
▁got	-7.93668
▁long	-7.93668
▁used	-7.9421
▁stale	-7.94391
▁over	-7.9512
▁different	-7.95853
▁le	-7.96965
▁addictive	-7.97151
▁flavorful	-7.97338
▁texture	-7.98088
▁quite	-7.98277
▁order	-7.98466
▁rich	-7.98466
▁same	-7.98466
▁year	-7.99415
▁almond	-8.01537
▁granola	-8.01537
▁tasted	-8.01537
▁corn	-8.01927
▁tried	-8.02911
▁world	-8.02911
▁how	-8.03307
▁weak	-8.04104
▁yuck	-8.04104
▁fine	-8.04907
▁wrong	-8.05311
▁formula	-8.05513
▁pod	-8.05717
▁were	-8.05717
▁any	-8.06124
▁back	-8.06124
▁cinnamon	-8.06738
▁espresso	-8.06738
▁disappointing	-8.0777
▁why	-8.0777
▁market	-8.07978
▁white	-8.07978
▁olive	-8.08186
▁jerky	-8.08394
▁off	-8.08394
▁life	-8.08603
▁home	-8.08813
▁gf	-8.09023
▁another	-8.10291
▁after	-8.10504
▁cheaper	-8.10504
▁overpriced	-8.10504
▁powder	-8.10931
▁cherry	-8.11576
▁soda	-8.11576
▁fat	-8.11792
▁family	-8.12442
▁worst	-8.13096
▁o	-8.13315
▁wheat	-8.13315
▁pricey	-8.13535
▁health	-8.13755
▁every	-8.13975
▁who	-8.14418
▁keep	-8.14862
▁mint	-8.14862
▁cocoa	-8.15532
▁soft	-8.15532
▁customer	-8.15982
▁here	-8.16207
▁purchase	-8.16207
▁regular	-8.1666
▁almost	-8.16887
▁flour	-8.16887
▁where	-8.17114
▁outstanding	-8.1826
▁heaven	-8.18491
▁licorice	-8.18954
▁should	-8.19186
▁last	-8.2012
▁around	-8.20355
▁bottle	-8.20827
▁full	-8.20827
▁give	-8.20827
▁oh	-8.21064
▁want	-8.21064
▁down	-8.21777
▁kind	-8.22496
▁iced	-8.22978
▁morning	-8.22978
▁recommended	-8.2322
▁puppy	-8.23462
▁canned	-8.24193
▁picky	-8.24193
▁always	-8.24929
▁kitty	-8.25423
▁package	-8.25919
▁apple	-8.26418
▁many	-8.26418
▁carb	-8.27171
▁look	-8.27171
▁grain	-8.27423
▁pancake	-8.27423
▁original	-8.27676
▁beef	-8.27929
▁pleased	-8.27929
▁goodness	-8.28438
▁delivery	-8.28694
▁help	-8.2895
▁baking	-8.29206
▁lemon	-8.29206
▁available	-8.29464
▁idea	-8.29464
▁starbucks	-8.29464
▁know	-8.29722
▁dried	-8.29981
▁oz	-8.29981
▁sure	-8.29981
▁keurig	-8.3024
▁special	-8.3024
▁recipe	-8.305
▁rock	-8.30761
▁waste	-8.30761
▁think	-8.31284
▁pop	-8.31811
▁chili	-8.32605
▁option	-8.32872
▁yes	-8.32872
▁yet	-8.32872
▁date	-8.33139
▁hair	-8.33139
▁hit	-8.33139
▁something	-8.33139
▁surprisingly	-8.33139
▁please	-8.33407
▁cream	-8.33675
▁highly	-8.34485
▁problem	-8.34756
▁filling	-8.35301
▁china	-8.35849
▁mild	-8.36124
▁french	-8.37511
▁stick	-8.37511
▁fan	-8.37791
▁house	-8.37791
▁wish	-8.37791
▁s	-8.38353
▁bland	-8.38635
▁pepper	-8.38635
▁brown	-8.38918
▁exactly	-8.38918
▁potato	-8.39486
▁ice	-8.39771
▁sour	-8.39771
▁nutritious	-8.40632
▁sweetener	-8.40632
▁cheap	-8.42964
▁chewy	-8.42964
▁looking	-8.42964
▁pure	-8.42964
▁allergy	-8.4326
▁soy	-8.44151
▁eating	-8.4445
▁vegan	-8.4475
▁those	-8.45051
▁son	-8.45353
▁cost	-8.46263
▁two	-8.46263
▁bone	-8.46568
▁fiber	-8.46568
▁been	-8.46875
▁change	-8.46875
▁senseo	-8.4749
▁toy	-8.4749
▁dressing	-8.4842
▁company	-8.48732
▁orange	-8.49045
▁bought	-8.49359
▁aftertaste	-8.49674
▁take	-8.49674
▁non	-8.4999
▁people	-8.50625
▁pumpkin	-8.50625
▁add	-8.51264
▁misleading	-8.51264
▁mustard	-8.51585
▁extra	-8.51907
▁save	-8.51907
▁tuna	-8.51907
▁clean	-8.5223
▁n	-8.5223
▁raw	-8.5223
▁thought	-8.53206
▁blue	-8.53533
▁delish	-8.54191
▁gross	-8.54191
▁own	-8.54853
▁their	-8.5552
▁u	-8.5552
▁delight	-8.56191
▁tomato	-8.56528
▁top	-8.57206
▁pleasant	-8.57547
▁leaf	-8.58232
▁priced	-8.58232
▁salad	-8.58232
▁bear	-8.59268
▁berry	-8.59268
▁disgusting	-8.59268
▁liked	-8.59268
▁beautiful	-8.59616
▁crazy	-8.59616
▁nasty	-8.59616
▁simple	-8.59616
▁advertised	-8.60316
▁cooking	-8.60667
▁e	-8.60667
▁lovely	-8.60667
▁ounce	-8.60667
▁grey	-8.63524
▁broken	-8.63887
▁contains	-8.63887
▁terrific	-8.63887
▁creamy	-8.64252
▁pet	-8.64252
▁may	-8.64617
▁satisfying	-8.64617
▁average	-8.64984
▁arrived	-8.65352
▁true	-8.65352
▁though	-8.65722
▁brew	-8.66093
▁crunch	-8.66093
▁hand	-8.66466
▁m	-8.66466
▁actually	-8.6684
▁aroma	-8.6684
▁before	-8.6684
▁omg	-8.6684
▁artificial	-8.67215
▁ordered	-8.67215
▁pretzel	-8.67215
▁everything	-8.67591
▁oat	-8.68349
▁brownie	-8.6873
▁warning	-8.6873
▁gourmet	-8.69112
▁wanted	-8.69112
▁earl	-8.69882
▁t	-8.69882
▁thank	-8.69882
▁sodium	-8.70268
▁definitely	-8.70657
▁nutrition	-8.70657
▁classic	-8.71438
▁mom	-8.71438
▁versatile	-8.71438
▁addicted	-8.71831
▁bite	-8.71831
▁surprised	-8.71831
▁plant	-8.72225
▁month	-8.72622
▁peach	-8.72622
▁cold	-8.73418
▁name	-8.73418
▁hate	-8.73819
▁weight	-8.73819
▁changed	-8.74626
▁curry	-8.74626
▁received	-8.74626
▁waffle	-8.75031
▁caffeine	-8.75848
▁earth	-8.75848
▁superb	-8.76258
▁wine	-8.76671
▁half	-8.77085
▁then	-8.77085
▁unique	-8.77085
▁impressed	-8.77501
▁caramel	-8.77918
▁close	-8.77918
▁blueberry	-8.78337
▁stevia	-8.78337
▁experience	-8.78758
▁italian	-8.78758
▁meat	-8.78758
▁mountain	-8.78758
▁salmon	-8.78758
▁large	-8.79606
▁going	-8.80032
▁husband	-8.80032
▁jar	-8.80032
▁making	-8.80032
▁pizza	-8.80032
▁strawberry	-8.80032
▁ground	-8.80461
▁daughter	-8.80891
▁machine	-8.80891
▁tart	-8.80891
▁lunch	-8.81756
▁come	-8.82192
▁jelly	-8.82192
▁maple	-8.82192
▁away	-8.83069
▁hazelnut	-8.83069
▁homemade	-8.83069
▁training	-8.83069
▁everyone	-8.83511
▁tree	-8.83511
▁kick	-8.83954
▁replacement	-8.83954
▁delightful	-8.844
▁interesting	-8.844
▁staple	-8.844
▁dented	-8.84847
▁sea	-8.84847
▁seems	-8.84847
▁truffle	-8.84847
▁buying	-8.85297
▁surprise	-8.85297
▁feel	-8.85748
▁maybe	-8.85748
▁addition	-8.86202
▁description	-8.86657
▁enjoy	-8.86657
▁seller	-8.86657
▁cute	-8.87115
▁fish	-8.87115
▁heat	-8.87115
▁incredible	-8.87115
▁mixed	-8.87115
▁pill	-8.87575
▁satisfied	-8.87575
▁garlic	-8.88037
▁nom	-8.88037
▁read	-8.88501
▁winner	-8.88501
▁color	-8.88967
▁greatest	-8.88967
▁teeth	-8.89435
▁believe	-8.89906
▁truly	-8.89906
▁worked	-8.89906
▁beverage	-8.90854
▁healthier	-8.90854
▁kit	-8.90854
▁raisin	-8.90854
▁w	-8.90854
▁else	-8.91331
▁glad	-8.91331
▁meh	-8.91331
▁biscuit	-8.91811
▁pie	-8.91811
▁bacon	-8.92292
▁source	-8.92292
▁anything	-8.92777
▁crisp	-8.92777
▁medium	-8.92777
▁diabetic	-8.93263
▁addicting	-8.93752
▁piece	-8.93752
▁b	-8.94244
▁mini	-8.94244
▁packaged	-8.94244
▁raspberry	-8.94244
▁cook	-8.94738
▁greenies	-8.94738
▁mill	-8.94738
▁rip	-8.94738
▁gummy	-8.95733
▁stomach	-8.95733
▁plastic	-8.96738
▁mango	-8.97244
▁bargain	-8.97753
▁toddler	-8.97753
▁wild	-8.97753
▁added	-8.98264
▁banana	-8.98264
▁huge	-8.98264
▁miracle	-8.98264
▁bulk	-8.98779
▁kitchen	-8.98779
▁bbq	-8.99295
▁live	-8.99295
▁mocha	-8.99295
▁saver	-8.99295
▁buyer	-8.99815
▁crystal	-8.99815
▁plain	-8.99815
▁start	-8.99815
▁veggie	-8.99815
▁beat	-9.00337
▁recommend	-9.00337
▁gone	-9.00862
▁issue	-9.00862
▁latte	-9.00862
▁difference	-9.0192
▁gold	-9.0192
▁mmmm	-9.0192
▁mouth	-9.0192
▁plus	-9.0192
▁authentic	-9.02454
▁dessert	-9.02454
▁totally	-9.02454
▁care	-9.0299
▁egg	-9.0299
▁memory	-9.0299
▁stop	-9.0299
▁handy	-9.03529
▁extremely	-9.04071
▁picture	-9.04616
▁she	-9.04616
▁v	-9.04616
▁baked	-9.05164
▁crispy	-9.05164
▁mmm	-9.05164
▁flake	-9.05715
▁grocery	-9.05715
▁mac	-9.05715
▁message	-9.05715
▁wife	-9.05715
▁bob	-9.06269
▁disappointment	-9.06269
▁expiration	-9.06269
▁version	-9.06269
▁convenience	-9.07386
▁few	-9.07386
▁premium	-9.07386
▁sensitive	-9.07386
▁smaller	-9.07386
▁steak	-9.07386
▁peppermint	-9.07949
▁vinegar	-9.08516
▁watch	-9.08516
▁english	-9.09086
▁solid	-9.09086
▁friend	-9.09659
▁ramen	-9.09659
▁amount	-9.10815
▁lipton	-9.10815
▁side	-9.10815
▁vitamin	-9.10815
▁weird	-9.10815
▁control	-9.11398
▁eater	-9.11398
▁effective	-9.11398
▁second	-9.11398
▁three	-9.11398
▁vegetarian	-9.11398
▁dinner	-9.11985
▁cappuccino	-9.12575
▁christmas	-9.12575
▁dish	-9.12575
▁herbal	-9.12575
▁result	-9.12575
▁c	-9.13168
▁pb	-9.13765
▁sick	-9.13765
▁adult	-9.14366
▁shampoo	-9.14366
▁thin	-9.14366
▁cool	-9.1497
▁drinker	-9.1497
▁selection	-9.1497
▁chemical	-9.15578
▁per	-9.15578
▁splenda	-9.15578
▁thai	-9.15578
▁tummy	-9.15578
▁zero	-9.15578
▁melted	-9.16805
▁nature	-9.16805
▁pup	-9.16805
▁careful	-9.17424
▁lb	-9.17424
▁miss	-9.17424
▁others	-9.17424
▁style	-9.17424
▁tasteless	-9.17424
▁d	-9.18047
▁slightly	-9.18047
▁summer	-9.18047
▁beer	-9.18674
▁bran	-9.18674
▁childhood	-9.18674
▁gummi	-9.18674
▁described	-9.19305
▁longer	-9.19305
▁open	-9.19305
▁party	-9.19305
▁tiny	-9.19305
▁chewer	-9.1994
▁count	-9.1994
▁crack	-9.1994
▁pleasantly	-9.1994
▁remember	-9.1994
▁thanks	-9.1994
▁god	-9.20579
▁jam	-9.20579
▁job	-9.20579
▁needed	-9.20579
▁nutty	-9.20579
▁sardine	-9.20579
▁lime	-9.21222
▁pick	-9.21222
▁movie	-9.21869
▁paste	-9.21869
▁roasted	-9.21869
▁fair	-9.22521
▁instead	-9.22521
▁muffin	-9.22521
▁container	-9.23176
▁flower	-9.23176
▁fruity	-9.23176
▁g	-9.23176
▁mess	-9.23176
▁might	-9.23176
▁pay	-9.23836
▁damaged	-9.2517
▁false	-9.2517
▁pound	-9.2517
▁quaker	-9.2517
▁into	-9.25843
▁pocket	-9.25843
▁also	-9.26521
▁basket	-9.26521
▁cut	-9.26521
▁everyday	-9.26521
▁kona	-9.26521
▁absolute	-9.27204
▁anyone	-9.27204
▁base	-9.27204
▁heart	-9.27204
▁hour	-9.27204
▁liquid	-9.27204
▁local	-9.27204
▁newman	-9.27204
▁pantry	-9.27204
▁perfectly	-9.27891
▁roll	-9.27891
▁trap	-9.27891
▁acid	-9.28583
▁affordable	-9.28583
▁assortment	-9.28583
▁hint	-9.28583
▁extract	-9.2928
▁matcha	-9.2928
▁doggie	-9.29982
▁lollipop	-9.29982
▁salsa	-9.29982
▁crust	-9.30688
▁lasting	-9.30688
▁shake	-9.30688
▁usa	-9.30688
▁agave	-9.314
▁daily	-9.314
▁five	-9.314
▁maker	-9.314
▁put	-9.314
▁tough	-9.314
▁cal	-9.32117
▁paw	-9.32117
▁prefer	-9.32117
▁skin	-9.32117
▁advertising	-9.32839
▁approved	-9.32839
▁because	-9.32839
▁darn	-9.32839
▁grape	-9.32839
▁see	-9.32839
▁yeast	-9.33566
▁expired	-9.34299
▁heavenly	-9.34299
▁loose	-9.34299
▁messy	-9.34299
▁mmmmm	-9.34299
▁being	-9.35037
▁both	-9.35037
▁getting	-9.35037
▁vegetable	-9.35037
▁came	-9.3578
▁drinking	-9.3578
▁drop	-9.3578
▁mother	-9.3578
▁taco	-9.3578
▁y	-9.3578
▁cafe	-9.3653
▁dream	-9.3653
▁expect	-9.3653
▁guilt	-9.3653
▁let	-9.3653
▁packet	-9.3653
▁sampler	-9.3653
▁standard	-9.3653
▁batch	-9.37284
▁boost	-9.37284
▁friendly	-9.37284
▁gravy	-9.37284
▁marinade	-9.37284
▁short	-9.37284
▁single	-9.37284
▁subtle	-9.37284
▁switch	-9.37284
▁amazingly	-9.38811
▁graham	-9.38811
▁haribo	-9.39583
▁he	-9.39583
▁holiday	-9.39583
▁planet	-9.39583
▁purpose	-9.39583
▁strange	-9.39583
▁mediocre	-9.40361
▁odd	-9.40361
▁pork	-9.40361
▁reasonable	-9.40361
▁secret	-9.40361
▁com	-9.41146
▁finicky	-9.41146
▁golden	-9.41146
▁magic	-9.41146
▁belly	-9.41936
▁litter	-9.41936
▁stay	-9.41936
▁superior	-9.41936
▁bonsai	-9.42733
▁cashew	-9.42733
▁shipped	-9.42733
▁yumm	-9.42733
▁fit	-9.43536
▁missing	-9.43536
▁pamela	-9.43536
▁sticky	-9.43536
▁body	-9.44346
▁flavoring	-9.44346
▁lower	-9.44346
▁pictured	-9.44346
▁r	-9.44346
▁set	-9.44346
▁benefit	-9.45162
▁edible	-9.45162
▁fix	-9.45162
▁man	-9.45162
▁mostly	-9.45162
▁sent	-9.45162
▁child	-9.45985
▁office	-9.45985
▁once	-9.45985
▁timothy	-9.45985
▁twinings	-9.45985
▁word	-9.45985
▁yogurt	-9.45985
▁bowl	-9.46815
▁content	-9.46815
▁dairy	-9.46815
▁hoped	-9.46815
▁onion	-9.46815
▁tell	-9.46815
▁through	-9.46815
▁us	-9.46815
▁balance	-9.47652
▁mr	-9.47652
▁serving	-9.47652
▁starter	-9.47652
▁while	-9.47652
▁agree	-9.48496
▁enjoyable	-9.48496
▁grass	-9.48496
▁rub	-9.48496
▁type	-9.48496
▁clear	-9.49347
▁double	-9.49347
▁hemp	-9.49347
▁snap	-9.49347
▁stock	-9.49347
▁using	-9.49347
▁de	-9.50205
▁heavy	-9.50205
▁safe	-9.50205
▁bpa	-9.51071
▁dental	-9.51071
▁increase	-9.51071
▁jasmine	-9.51071
▁pea	-9.51071
▁touch	-9.51071
▁check	-9.51945
▁cranberry	-9.51945
▁herb	-9.51945
▁lavazza	-9.51945
▁nutritional	-9.51945
▁probably	-9.51945
▁robust	-9.51945
▁such	-9.51945
▁busy	-9.52826
▁case	-9.52826
▁minute	-9.52826
▁smoked	-9.52826
▁thick	-9.52826
▁cola	-9.53715
▁his	-9.53715
▁hooked	-9.53715
▁restaurant	-9.53715
▁tangy	-9.53715
▁ball	-9.54611
▁bay	-9.54611
▁coffe	-9.54611
▁fake	-9.54611
▁line	-9.54611
▁quantity	-9.54611
▁run	-9.54611
▁soothing	-9.54611
▁storage	-9.54611
▁broth	-9.55516
▁girl	-9.55516
▁kraft	-9.55516
▁label	-9.55516
▁least	-9.55516
▁travel	-9.55516
▁expectation	-9.5643
▁period	-9.5643
▁portion	-9.5643
▁quinoa	-9.5643
▁spaghetti	-9.5643
▁aid	-9.57351
▁boy	-9.57351
▁break	-9.57351
▁her	-9.57351
▁mushroom	-9.57351
▁rose	-9.57351
▁sooo	-9.57351
▁bubble	-9.58282
▁farm	-9.58282
▁gas	-9.58282
▁l	-9.58282
▁past	-9.58282
▁perfection	-9.58282
▁since	-9.58282
▁yeah	-9.58282
▁basic	-9.59221
▁jack	-9.59221
▁joe	-9.59221
▁seriously	-9.59221
▁sweetner	-9.59221
▁conditioner	-9.60168
▁creamer	-9.60168
▁exceptional	-9.60168
▁puff	-9.60168
▁shipment	-9.60168
▁tin	-9.60168
▁turkey	-9.60168
▁awsome	-9.61125
▁balanced	-9.61125
▁caution	-9.61125
▁dip	-9.61125
▁doggy	-9.61125
▁especially	-9.61125
▁fancy	-9.61125
▁junk	-9.61125
▁scent	-9.61125
▁ship	-9.61125
▁soooo	-9.61125
▁ate	-9.62091
▁bring	-9.62091
▁chef	-9.62091
▁eaten	-9.62091
▁elsewhere	-9.62091
▁hearty	-9.62091
▁helped	-9.62091
▁moist	-9.62091
▁online	-9.62091
▁shelf	-9.62091
▁subscribe	-9.62091
▁watery	-9.62091
▁anywhere	-9.63067
▁inexpensive	-9.63067
▁pleasure	-9.63067
▁quickly	-9.63067
▁sesame	-9.63067
▁supplement	-9.63067
▁call	-9.64052
▁except	-9.64052
▁grade	-9.64052
▁list	-9.64052
▁punch	-9.64052
▁tooth	-9.64052
▁wonder	-9.64052
▁anymore	-9.65047
▁chinese	-9.65047
▁eats	-9.65047
▁ordering	-9.65047
▁eh	-9.66052
▁gave	-9.66052
▁none	-9.66052
▁pecan	-9.66052
▁powdered	-9.66052
▁power	-9.66052
▁san	-9.66052
▁shop	-9.66052
▁brewer	-9.67068
▁cardboard	-9.67068
▁combination	-9.67068
▁easily	-9.67068
▁fig	-9.67068
▁flax	-9.67068
▁pot	-9.67068
▁somewhat	-9.67068
▁twist	-9.67068
▁yourself	-9.67068
▁addiction	-9.68093
▁delivered	-9.68093
▁effect	-9.68093
▁either	-9.68093
▁indian	-9.68093
▁kitten	-9.68093
▁nutiva	-9.68093
▁ready	-9.68093
▁smart	-9.68093
▁test	-9.68093
▁yuk	-9.68093
▁country	-9.6913
▁fall	-9.6913
▁german	-9.6913
▁irish	-9.6913
▁pricing	-9.6913
▁rather	-9.6913
▁rooibos	-9.6913
▁wholesome	-9.6913
▁worse	-9.6913
▁crumb	-9.70177
▁dr	-9.70177
▁easier	-9.70177
▁packed	-9.70177
▁sandwich	-9.70177
▁stash	-9.70177
▁sunflower	-9.70177
▁wake	-9.70177
▁wellness	-9.70177
▁american	-9.71235
▁avoid	-9.71235
▁breath	-9.71235
▁buck	-9.71235
▁comfort	-9.71235
▁mean	-9.71235
▁mmmmmm	-9.71235
▁oolong	-9.71235
▁opinion	-9.71235
▁rate	-9.71235
▁tip	-9.71235
▁trying	-9.71235
▁bodied	-9.72304
▁fudge	-9.72304
▁mate	-9.72304
▁night	-9.72304
▁place	-9.72304
▁bully	-9.73386
▁carbs	-9.73386
▁cheddar	-9.73386
▁enjoyed	-9.73386
▁fragrant	-9.73386
▁lab	-9.73386
▁overall	-9.73386
▁pouch	-9.73386
▁saved	-9.73386
▁scrumptious	-9.73386
▁spread	-9.73386
▁thumb	-9.73386
▁vet	-9.73386
▁cider	-9.74478
▁fuel	-9.74478
▁gummies	-9.74478
▁next	-9.74478
▁packing	-9.74478
▁rawhide	-9.74478
▁ridiculous	-9.74478
▁condition	-9.75583
▁feast	-9.75583
▁four	-9.75583
▁went	-9.75583
▁bigelow	-9.76701
▁burnt	-9.76701
▁cheesy	-9.76701
▁compared	-9.76701
▁microwave	-9.76701
▁part	-9.76701
▁pink	-9.76701
▁pistachio	-9.76701
▁pomegranate	-9.76701
▁scalp	-9.76701
▁season	-9.76701
▁allergic	-9.77831
▁craving	-9.77831
▁deceptive	-9.77831
▁funny	-9.77831
▁sorry	-9.77831
▁afternoon	-9.78974
▁each	-9.78974
▁lifesaver	-9.78974
▁loving	-9.78974
▁nectar	-9.78974
▁prepare	-9.78974
▁walnut	-9.78974
▁week	-9.78974
▁guy	-9.8013
▁la	-9.8013
▁purchased	-9.8013
▁root	-9.8013
▁seem	-9.8013
▁spot	-9.8013
▁stinky	-9.8013
▁aromatic	-9.81299
▁bug	-9.81299
▁concentrate	-9.81299
▁done	-9.81299
▁inconsistent	-9.81299
▁oreo	-9.81299
▁p	-9.81299
▁chewing	-9.82483
▁clock	-9.82483
▁creme	-9.82483
▁dangerous	-9.82483
▁happened	-9.82483
▁hope	-9.82483
▁tastey	-9.82483
▁toffee	-9.82483
▁total	-9.82483
▁twice	-9.82483
▁wait	-9.82483
▁warm	-9.82483
▁acquired	-9.8368
▁alright	-9.8368
▁complete	-9.8368
▁deliciously	-9.8368
▁expecting	-9.8368
▁feed	-9.8368
▁garden	-9.8368
▁greasy	-9.8368
▁hershey	-9.8368
▁kashi	-9.8368
▁kosher	-9.8368
▁multi	-9.8368
▁point	-9.8368
▁rating	-9.8368
▁said	-9.8368
▁sausage	-9.8368
▁shot	-9.8368
▁traditional	-9.8368
▁yogi	-9.8368
▁cuppa	-9.84892
▁deliciousness	-9.84892
▁glass	-9.84892
▁melt	-9.84892
▁serious	-9.84892
▁sold	-9.84892
▁unusual	-9.84892
▁useful	-9.84892
▁beyond	-9.86119
▁concept	-9.86119
▁end	-9.86119
▁favor	-9.86119
▁minty	-9.86119
▁oily	-9.86119
▁square	-9.86119
▁taffy	-9.86119
▁ultimate	-9.86119
▁valley	-9.86119
▁wafer	-9.86119
▁ketchup	-9.87362
▁lid	-9.87362
▁locally	-9.87362
▁margarita	-9.87362
▁pudding	-9.87362
▁reason	-9.87362
▁tortilla	-9.87362
▁anytime	-9.8862
▁difficult	-9.8862
▁illy	-9.8862
▁improvement	-9.8862
▁kidding	-9.8862
▁lemonade	-9.8862
▁odor	-9.8862
▁snacking	-9.8862
▁ugh	-9.8862
▁wonderfully	-9.8862
▁xylitol	-9.8862
▁yay	-9.8862
▁apricot	-9.89894
▁completely	-9.89894
▁delicate	-9.89894
▁eight	-9.89894
▁flavour	-9.89894
▁fructose	-9.89894
▁garbage	-9.89894
▁improved	-9.89894
▁intense	-9.89894
▁larger	-9.89894
▁rancid	-9.89894
▁reliable	-9.89894
▁rum	-9.89894
▁trail	-9.89894
▁balsamic	-9.91184
▁birthday	-9.91184
▁clam	-9.91184
▁crap	-9.91184
▁digestive	-9.91184
▁eye	-9.91184
▁fave	-9.91184
▁feeling	-9.91184
▁holy	-9.91184
▁pleasing	-9.91184
▁sparkling	-9.91184
▁stand	-9.91184
▁sweetness	-9.91184
▁altoids	-9.92491
▁consistency	-9.92491
▁dissapointed	-9.92491
▁fav	-9.92491
▁folgers	-9.92491
▁lacking	-9.92491
▁mellow	-9.92491
▁mum	-9.92491
▁overly	-9.92491
▁pickle	-9.92491
▁smoothy	-9.92491
▁spiced	-9.92491
▁spoiled	-9.92491
▁supply	-9.92491
▁yellow	-9.92491
▁yummm	-9.92491
▁essential	-9.93816
▁fairly	-9.93816
▁incredibly	-9.93816
▁info	-9.93816
▁mexican	-9.93816
▁moldy	-9.93816
▁return	-9.93816
▁theater	-9.93816
▁chocolatey	-9.95158
▁coco	-9.95158
▁covered	-9.95158
▁donut	-9.95158
▁forget	-9.95158
▁matter	-9.95158
▁blah	-9.96518
▁fry	-9.96518
▁grow	-9.96518
▁hype	-9.96518
▁knew	-9.96518
▁mine	-9.96518
▁nd	-9.96518
▁normal	-9.96518
▁older	-9.96518
▁sugary	-9.96518
▁virgin	-9.96518
▁additive	-9.97898
▁blood	-9.97898
▁bomb	-9.97898
▁catnip	-9.97898
▁feline	-9.97898
▁guess	-9.97898
▁lack	-9.97898
▁portable	-9.97898
▁slow	-9.97898
▁sushi	-9.97898
▁tazo	-9.97898
▁until	-9.97898
▁wet	-9.97898
▁diamond	-9.99296
▁door	-9.99296
▁freeze	-9.99296
▁indeed	-9.99296
▁nearly	-9.99296
▁royal	-9.99296
▁solution	-9.99296
▁sometimes	-9.99296
▁st	-9.99296
▁steel	-9.99296
▁addict	-10.0071
▁animal	-10.0071
▁filter	-10.0071
▁h	-10.0071
▁information	-10.0071
▁jet	-10.0071
▁penny	-10.0071
▁saving	-10.0071
▁tender	-10.0071
▁buffalo	-10.0215
▁delicous	-10.0215
▁design	-10.0215
▁grown	-10.0215
▁island	-10.0215
▁lt	-10.0215
▁maxwell	-10.0215
▁rest	-10.0215
▁savory	-10.0215
▁serve	-10.0215
▁sized	-10.0215
▁topping	-10.0215
▁torani	-10.0215
▁vendor	-10.0215
▁chowder	-10.0361
▁dirty	-10.0361
▁inside	-10.0361
▁jalapeno	-10.0361
▁king	-10.0361
▁lost	-10.0361
▁medicine	-10.0361
▁popchips	-10.0361
▁sale	-10.0361
▁sample	-10.0361
▁sweetened	-10.0361
▁typical	-10.0361
▁wasabi	-10.0361
▁winter	-10.0361
▁annie	-10.051
▁chipotle	-10.051
▁costco	-10.051
▁crushed	-10.051
▁decadent	-10.051
▁f	-10.051
▁form	-10.051
▁grandma	-10.051
▁lean	-10.051
▁outrageous	-10.051
▁ruined	-10.051
▁system	-10.051
▁walmart	-10.051
▁win	-10.051
▁working	-10.051
▁bake	-10.066
▁chamomile	-10.066
▁chunk	-10.066
▁die	-10.066
▁economical	-10.066
▁gmo	-10.066
▁japanese	-10.066
▁ripoff	-10.066
▁x	-10.066
▁bigger	-10.0813
▁bother	-10.0813
▁bud	-10.0813
▁carbonated	-10.0813
▁deep	-10.0813
▁equal	-10.0813
▁filled	-10.0813
▁lousy	-10.0813
▁mary	-10.0813
▁pre	-10.0813
▁sell	-10.0813
▁sleep	-10.0813
▁suck	-10.0813
▁tully	-10.0813
▁via	-10.0813
▁brewed	-10.0968
▁bull	-10.0968
▁called	-10.0968
▁combo	-10.0968
▁diarrhea	-10.0968
▁dieter	-10.0968
▁everlasting	-10.0968
▁fooled	-10.0968
▁hip	-10.0968
▁hubby	-10.0968
▁meow	-10.0968
▁possibly	-10.0968
▁preserve	-10.0968
▁seaweed	-10.0968
▁sucralose	-10.0968
▁supposed	-10.0968
▁tassimo	-10.0968
▁took	-10.0968
▁unpleasant	-10.0968
▁usual	-10.0968
▁yummmm	-10.0968
▁cheerio	-10.1125
▁francisco	-10.1125
▁java	-10.1125
▁manuka	-10.1125
▁paprika	-10.1125
▁pear	-10.1125
▁pine	-10.1125
▁ranch	-10.1125
▁relief	-10.1125
▁sun	-10.1125
▁acidic	-10.1285
▁aspartame	-10.1285
▁bottled	-10.1285
▁crumbly	-10.1285
▁dead	-10.1285
▁giving	-10.1285
▁goji	-10.1285
▁macadamia	-10.1285
▁mind	-10.1285
▁mushy	-10.1285
▁asian	-10.1448
▁between	-10.1448
▁chia	-10.1448
▁duck	-10.1448
▁helper	-10.1448
▁kibble	-10.1448
▁kill	-10.1448
▁lentil	-10.1448
▁mayo	-10.1448
▁owner	-10.1448
▁pinch	-10.1448
▁similar	-10.1448
▁slim	-10.1448
▁smokey	-10.1448
▁smoky	-10.1448
▁sprout	-10.1448
▁toast	-10.1448
▁which	-10.1448
▁acai	-10.1613
▁closest	-10.1613
▁contain	-10.1613
▁ear	-10.1613
▁freshness	-10.1613
▁gooey	-10.1613
▁grapefruit	-10.1613
▁instruction	-10.1613
▁level	-10.1613
▁licious	-10.1613
▁listed	-10.1613
▁loss	-10.1613
▁mistake	-10.1613
▁mole	-10.1613
▁pas	-10.1613
▁pleaser	-10.1613
▁relaxing	-10.1613
▁remembered	-10.1613
▁reviewer	-10.1613
▁someone	-10.1613
▁strip	-10.1613
▁bell	-10.1781
▁direction	-10.1781
▁durable	-10.1781
▁fashioned	-10.1781
▁human	-10.1781
▁naturally	-10.1781
▁stew	-10.1781
▁throat	-10.1781
▁tiger	-10.1781
▁tropical	-10.1781
▁british	-10.1952
▁choc	-10.1952
▁hated	-10.1952
▁head	-10.1952
▁joy	-10.1952
▁juicy	-10.1952
▁kettle	-10.1952
▁mama	-10.1952
▁miso	-10.1952
▁pineapple	-10.1952
▁present	-10.1952
▁shell	-10.1952
▁smelly	-10.1952
▁sound	-10.1952
▁sumatra	-10.1952
▁today	-10.1952
▁bang	-10.2126
▁carry	-10.2126
▁claim	-10.2126
▁cocktail	-10.2126
▁cough	-10.2126
▁flavorless	-10.2126
▁ham	-10.2126
▁healthful	-10.2126
▁ideal	-10.2126
▁impressive	-10.2126
▁italy	-10.2126
▁jolly	-10.2126
▁lamb	-10.2126
▁marzipan	-10.2126
▁mio	-10.2126
▁mold	-10.2126
▁note	-10.2126
▁pro	-10.2126
▁reminds	-10.2126
▁smoke	-10.2126
▁subscription	-10.2126
▁supermarket	-10.2126
▁tofu	-10.2126
▁vita	-10.2126
▁workout	-10.2126
▁bunny	-10.2303
▁coca	-10.2303
▁college	-10.2303
▁disc	-10.2303
▁fishy	-10.2303
▁fly	-10.2303
▁frozen	-10.2303
▁gel	-10.2303
▁hawaiian	-10.2303
▁incorrect	-10.2303
▁kcup	-10.2303
▁liver	-10.2303
▁lol	-10.2303
▁paper	-10.2303
▁pg	-10.2303
▁possible	-10.2303
▁powerful	-10.2303
▁questionable	-10.2303
▁sooooo	-10.2303
▁throw	-10.2303
▁unless	-10.2303
▁update	-10.2303
▁user	-10.2303
▁usually	-10.2303
▁biscotti	-10.2483
▁crema	-10.2483
▁divine	-10.2483
▁dollar	-10.2483
▁during	-10.2483
▁excellant	-10.2483
▁flat	-10.2483
▁forever	-10.2483
▁kcups	-10.2483
▁kool	-10.2483
▁pig	-10.2483
▁promised	-10.2483
▁six	-10.2483
▁thins	-10.2483
▁thrilled	-10.2483
▁watermelon	-10.2483
▁yorkie	-10.2483
▁age	-10.2667
▁ale	-10.2667
▁aware	-10.2667
▁bliss	-10.2667
▁compare	-10.2667
▁dad	-10.2667
▁finger	-10.2667
▁fire	-10.2667
▁gelatin	-10.2667
▁gritty	-10.2667
▁hibiscus	-10.2667
▁hoping	-10.2667
▁india	-10.2667
▁late	-10.2667
▁muesli	-10.2667
▁notch	-10.2667
▁pace	-10.2667
▁peppercorn	-10.2667
▁roland	-10.2667
▁sprinkle	-10.2667
▁stronger	-10.2667
▁threw	-10.2667
▁actual	-10.2854
▁already	-10.2854
▁barely	-10.2854
▁blast	-10.2854
▁celestial	-10.2854
▁charm	-10.2854
▁complaint	-10.2854
▁cow	-10.2854
▁cube	-10.2854
▁defective	-10.2854
▁filler	-10.2854
▁grew	-10.2854
▁grind	-10.2854
▁marshmallow	-10.2854
▁moth	-10.2854
▁nicely	-10.2854
▁overpowering	-10.2854
▁pug	-10.2854
▁reese	-10.2854
▁shape	-10.2854
▁spam	-10.2854
▁squeeze	-10.2854
▁tastiest	-10.2854
▁trip	-10.2854
▁um	-10.2854
▁unbelievably	-10.2854
▁ya	-10.2854
▁anchovy	-10.3044
▁brings	-10.3044
▁buddy	-10.3044
▁cet	-10.3044
▁doctor	-10.3044
▁emeril	-10.3044
▁flop	-10.3044
▁grit	-10.3044
▁grove	-10.3044
▁hamburger	-10.3044
▁however	-10.3044
▁inedible	-10.3044
▁lobster	-10.3044
▁major	-10.3044
▁newton	-10.3044
▁nutella	-10.3044
▁photo	-10.3044
▁planter	-10.3044
▁reasonably	-10.3044
▁round	-10.3044
▁saffron	-10.3044
▁sam	-10.3044
▁seal	-10.3044
▁shortbread	-10.3044
▁shrimp	-10.3044
▁spectacular	-10.3044
▁step	-10.3044
▁stopped	-10.3044
▁sweeter	-10.3044
▁trick	-10.3044
▁under	-10.3044
▁breed	-10.3238
▁broke	-10.3238
▁cacao	-10.3238
▁cause	-10.3238
▁class	-10.3238
▁club	-10.3238
▁coke	-10.3238
▁cornbread	-10.3238
▁drawer	-10.3238
▁european	-10.3238
▁hold	-10.3238
▁ick	-10.3238
▁kellogg	-10.3238
▁molasses	-10.3238
▁poorly	-10.3238
▁post	-10.3238
▁sad	-10.3238
▁school	-10.3238
▁slice	-10.3238
▁sport	-10.3238
▁trade	-10.3238
▁turkish	-10.3238
▁twin	-10.3238
▁unbelievable	-10.3238
▁yucky	-10.3238
▁able	-10.3436
▁above	-10.3436
▁campbell	-10.3436
▁coat	-10.3436
▁coming	-10.3436
▁condiment	-10.3436
▁dough	-10.3436
▁finest	-10.3436
▁fried	-10.3436
▁giant	-10.3436
▁hazard	-10.3436
▁key	-10.3436
▁malt	-10.3436
▁martini	-10.3436
▁prompt	-10.3436
▁prune	-10.3436
▁th	-10.3436
▁unhappy	-10.3436
▁wedding	-10.3436
▁america	-10.3638
▁based	-10.3638
▁blech	-10.3638
▁chihuahua	-10.3638
▁consistent	-10.3638
▁consistently	-10.3638
▁cure	-10.3638
▁dust	-10.3638
▁exotic	-10.3638
▁fussy	-10.3638
▁gingerbread	-10.3638
▁lite	-10.3638
▁meet	-10.3638
▁negative	-10.3638
▁re	-10.3638
▁smoothie	-10.3638
▁snob	-10.3638
▁soon	-10.3638
▁straight	-10.3638
▁air	-10.3844
▁anti	-10.3844
▁arrival	-10.3844
▁bitterness	-10.3844
▁celiac	-10.3844
▁citrus	-10.3844
▁couscous	-10.3844
▁decaffeinated	-10.3844
▁enhancer	-10.3844
▁jean	-10.3844
▁leave	-10.3844
▁limited	-10.3844
▁lucky	-10.3844
▁mighty	-10.3844
▁popular	-10.3844
▁pricy	-10.3844
▁rind	-10.3844
▁seafood	-10.3844
▁sealed	-10.3844
▁search	-10.3844
▁senior	-10.3844
▁show	-10.3844
▁ton	-10.3844
▁acceptable	-10.4055
▁blackberry	-10.4055
▁cheez	-10.4055
▁chunky	-10.4055
▁colombian	-10.4055
▁cooked	-10.4055
▁england	-10.4055
▁etc	-10.4055
▁helpful	-10.4055
▁household	-10.4055
▁lightly	-10.4055
▁link	-10.4055
▁match	-10.4055
▁nylabone	-10.4055
▁pain	-10.4055
▁prime	-10.4055
▁question	-10.4055
▁receive	-10.4055
▁rye	-10.4055
▁slight	-10.4055
▁spring	-10.4055
▁sucker	-10.4055
▁turn	-10.4055
▁unhealthy	-10.4055
▁upset	-10.4055
▁brilliant	-10.427
▁cap	-10.427
▁drinkable	-10.427
▁feeding	-10.427
▁gram	-10.427
▁guilty	-10.427
▁hairball	-10.427
▁itself	-10.427
▁lavender	-10.427
▁move	-10.427
▁nestle	-10.427
▁otherwise	-10.427
▁plenty	-10.427
▁pooch	-10.427
▁rabbit	-10.427
▁reaction	-10.427
▁rule	-10.427
▁space	-10.427
▁spray	-10.427
▁betty	-10.449
▁boring	-10.449
▁choking	-10.449
▁columbian	-10.449
▁comparison	-10.449
▁direct	-10.449
▁friskies	-10.449
▁frosting	-10.449
▁gloria	-10.449
▁highest	-10.449
▁jerk	-10.449
▁joke	-10.449
▁leak	-10.449
▁lose	-10.449
▁number	-10.449
▁numi	-10.449
▁palm	-10.449
▁perhaps	-10.449
▁pero	-10.449
▁plum	-10.449
▁scone	-10.449
▁strength	-10.449
▁title	-10.449
▁wash	-10.449
▁bait	-10.4715
▁baker	-10.4715
▁barley	-10.4715
▁bee	-10.4715
▁bloody	-10.4715
▁carousel	-10.4715
▁caviar	-10.4715
▁cupcake	-10.4715
▁da	-10.4715
▁dispenser	-10.4715
▁excited	-10.4715
▁folk	-10.4715
▁having	-10.4715
▁hide	-10.4715
▁included	-10.4715
▁kept	-10.4715
▁melitta	-10.4715
▁pastry	-10.4715
▁pearl	-10.4715
▁personal	-10.4715
▁ring	-10.4715
▁salted	-10.4715
▁seen	-10.4715
▁southern	-10.4715
▁tad	-10.4715
▁yummmmm	-10.4715
▁yummo	-10.4715
▁alot	-10.4944
▁bagel	-10.4944
▁breast	-10.4944
▁burger	-10.4944
▁cane	-10.4944
▁discontinued	-10.4944
▁favourite	-10.4944
▁fluffy	-10.4944
▁greek	-10.4944
▁healthiest	-10.4944
▁jello	-10.4944
▁kiwi	-10.4944
▁lady	-10.4944
▁left	-10.4944
▁lie	-10.4944
▁offer	-10.4944
▁pump	-10.4944
▁ridiculously	-10.4944
▁spearmint	-10.4944
▁stuffed	-10.4944
▁worthy	-10.4944
▁wrapped	-10.4944
▁belgian	-10.518
▁benecol	-10.518
▁buttery	-10.518
▁california	-10.518
▁calm	-10.518
▁capsule	-10.518
▁collection	-10.518
▁comment	-10.518
▁correct	-10.518
▁cotton	-10.518
▁davidson	-10.518
▁extreme	-10.518
▁fragrance	-10.518
▁funky	-10.518
▁hmmm	-10.518
▁impossible	-10.518
▁jim	-10.518
▁knorr	-10.518
▁multiple	-10.518
▁poop	-10.518
▁potent	-10.518
▁sort	-10.518
▁stir	-10.518
▁swiss	-10.518
▁texas	-10.518
▁watcher	-10.518
▁bakery	-10.5421
▁boxed	-10.5421
▁broccoli	-10.5421
▁burn	-10.5421
▁caused	-10.5421
▁coloring	-10.5421
▁dill	-10.5421
▁earthy	-10.5421
▁empty	-10.5421
▁flaxseed	-10.5421
▁fog	-10.5421
▁general	-10.5421
▁glycemic	-10.5421
▁hey	-10.5421
▁honest	-10.5421
▁izze	-10.5421
▁marmalade	-10.5421
▁myself	-10.5421
▁neat	-10.5421
▁puck	-10.5421
▁room	-10.5421
▁south	-10.5421
▁stink	-10.5421
▁tested	-10.5421
▁together	-10.5421
▁tonic	-10.5421
▁updated	-10.5421
▁weather	-10.5421
▁canine	-10.5668
▁caribou	-10.5668
▁carrot	-10.5668
▁click	-10.5668
▁damn	-10.5668
▁delivers	-10.5668
▁died	-10.5668
▁dipping	-10.5668
▁eden	-10.5668
▁entire	-10.5668
▁excelent	-10.5668
▁finish	-10.5668
▁gu	-10.5668
▁heinz	-10.5668
▁hell	-10.5668
▁higher	-10.5668
▁indulgence	-10.5668
▁lindt	-10.5668
▁loaded	-10.5668
▁merrick	-10.5668
▁nostalgia	-10.5668
▁road	-10.5668
▁toxic	-10.5668
▁ups	-10.5668
▁angel	-10.5921
▁apparently	-10.5921
▁caffeinated	-10.5921
▁confused	-10.5921
▁darjeeling	-10.5921
▁delicioso	-10.5921
▁dutch	-10.5921
▁enjoying	-10.5921
▁face	-10.5921
▁goat	-10.5921
▁gusto	-10.5921
▁him	-10.5921
▁j	-10.5921
▁leaking	-10.5921
▁naked	-10.5921
▁poodle	-10.5921
▁processed	-10.5921
▁rated	-10.5921
▁satisfaction	-10.5921
▁satisfies	-10.5921
▁several	-10.5921
▁sliced	-10.5921
▁smelling	-10.5921
▁train	-10.5921
▁trans	-10.5921
▁unsweetened	-10.5921
▁waiting	-10.5921
▁within	-10.5921
▁zevia	-10.5921
▁zico	-10.5921
▁adding	-10.6181
▁bright	-10.6181
▁coating	-10.6181
▁community	-10.6181
▁con	-10.6181
▁crab	-10.6181
▁crocker	-10.6181
▁crowd	-10.6181
▁dingo	-10.6181
▁frontier	-10.6181
▁halloween	-10.6181
▁holder	-10.6181
▁killer	-10.6181
▁macaroni	-10.6181
▁medicinal	-10.6181
▁men	-10.6181
▁omega	-10.6181
▁opened	-10.6181
▁parent	-10.6181
▁plump	-10.6181
▁postum	-10.6181
▁response	-10.6181
▁shame	-10.6181
▁shown	-10.6181
▁smokehouse	-10.6181
▁spanish	-10.6181
▁sub	-10.6181
▁superfood	-10.6181
▁tahini	-10.6181
▁teriyaki	-10.6181
▁trust	-10.6181
▁unfortunately	-10.6181
▁woof	-10.6181
▁young	-10.6181
▁among	-10.6447
▁ask	-10.6447
▁attention	-10.6447
▁barbecue	-10.6447
▁below	-10.6447
▁bird	-10.6447
▁certainly	-10.6447
▁chicory	-10.6447
▁co	-10.6447
▁costly	-10.6447
▁cracked	-10.6447
▁dye	-10.6447
▁easiest	-10.6447
▁everywhere	-10.6447
▁fact	-10.6447
▁frosted	-10.6447
▁guest	-10.6447
▁hardly	-10.6447
▁himalayan	-10.6447
▁hormel	-10.6447
▁joint	-10.6447
▁madagascar	-10.6447
▁main	-10.6447
▁mccann	-10.6447
▁nutrient	-10.6447
▁path	-10.6447
▁poison	-10.6447
▁presentation	-10.6447
▁purina	-10.6447
▁reduced	-10.6447
▁scoop	-10.6447
▁send	-10.6447
▁sf	-10.6447
▁skinny	-10.6447
▁success	-10.6447
▁tast	-10.6447
▁toasted	-10.6447
▁alert	-10.6721
▁allergen	-10.6721
▁assorted	-10.6721
▁bamboo	-10.6721
▁become	-10.6721
▁bouillon	-10.6721
▁brittle	-10.6721
▁business	-10.6721
▁cent	-10.6721
▁certified	-10.6721
▁clove	-10.6721
▁deceiving	-10.6721
▁dolce	-10.6721
▁due	-10.6721
▁evoo	-10.6721
▁expresso	-10.6721
▁fizzy	-10.6721
▁gem	-10.6721
▁gentle	-10.6721
▁ghost	-10.6721
▁glaze	-10.6721
▁grab	-10.6721
▁grainy	-10.6721
▁grows	-10.6721
▁hello	-10.6721
▁hidden	-10.6721
▁hydrogenated	-10.6721
▁indoor	-10.6721
▁known	-10.6721
▁labeling	-10.6721
▁later	-10.6721
▁marmite	-10.6721
▁middle	-10.6721
▁mmmmmmm	-10.6721
▁pad	-10.6721
▁passion	-10.6721
▁play	-10.6721
▁rare	-10.6721
▁recall	-10.6721
▁repeat	-10.6721
▁risotto	-10.6721
▁stain	-10.6721
▁ultra	-10.6721
▁unsalted	-10.6721
▁valentine	-10.6721
▁wolfgang	-10.6721
▁woman	-10.6721
▁alone	-10.7003
▁anyway	-10.7003
▁beauty	-10.7003
▁book	-10.7003
▁cajun	-10.7003
▁chex	-10.7003
▁delightfully	-10.7003
▁elegant	-10.7003
▁gevalia	-10.7003
▁growing	-10.7003
▁living	-10.7003
▁lo	-10.7003
▁master	-10.7003
▁mixer	-10.7003
▁ordinary	-10.7003
▁rescue	-10.7003
▁shirataki	-10.7003
▁split	-10.7003
▁stuck	-10.7003
▁student	-10.7003
▁table	-10.7003
▁target	-10.7003
▁tradition	-10.7003
▁vomit	-10.7003
▁alcohol	-10.7293
▁although	-10.7293
▁appetite	-10.7293
▁buckwheat	-10.7293
▁canin	-10.7293
▁caveat	-10.7293
▁delectable	-10.7293
▁dense	-10.7293
▁depends	-10.7293
▁effort	-10.7293
▁gumballs	-10.7293
▁hawaii	-10.7293
▁horse	-10.7293
▁hungry	-10.7293
▁important	-10.7293
▁infant	-10.7293
▁interested	-10.7293
▁kiss	-10.7293
▁lasted	-10.7293
▁malted	-10.7293
▁marvelous	-10.7293
▁mccormick	-10.7293
▁mi	-10.7293
▁near	-10.7293
▁rancher	-10.7293
▁rotten	-10.7293
▁runny	-10.7293
▁scratch	-10.7293
▁shopping	-10.7293
▁splendid	-10.7293
▁transaction	-10.7293
▁traveling	-10.7293
▁useless	-10.7293
▁yr	-10.7293
▁active	-10.7591
▁antioxidant	-10.7591
▁auto	-10.7591
▁bagged	-10.7591
▁bottom	-10.7591
▁brewing	-10.7591
▁caffe	-10.7591
▁camping	-10.7591
▁chance	-10.7591
▁charge	-10.7591
▁chaser	-10.7591
▁city	-10.7591
▁dandruff	-10.7591
▁death	-10.7591
▁dirt	-10.7591
▁disaster	-10.7591
▁dove	-10.7591
▁emergency	-10.7591
▁evening	-10.7591
▁freshest	-10.7591
▁goood	-10.7591
▁grill	-10.7591
▁grilled	-10.7591
▁hydration	-10.7591
▁individual	-10.7591
▁kahlua	-10.7591
▁kernel	-10.7591
▁korean	-10.7591
▁lish	-10.7591
▁mail	-10.7591
▁missed	-10.7591
▁often	-10.7591
▁pacific	-10.7591
▁positive	-10.7591
▁prepared	-10.7591
▁relatively	-10.7591
▁sip	-10.7591
▁surprising	-10.7591
▁tabasco	-10.7591
▁tastier	-10.7591
▁tool	-10.7591
▁tootsie	-10.7591
▁wrap	-10.7591
▁adequate	-10.7899
▁adorable	-10.7899
▁ago	-10.7899
▁ah	-10.7899
▁amy	-10.7899
▁answer	-10.7899
▁apart	-10.7899
▁applesauce	-10.7899
▁badly	-10.7899
▁basmati	-10.7899
▁brother	-10.7899
▁bunch	-10.7899
▁burst	-10.7899
▁calming	-10.7899
▁cone	-10.7899
▁custard	-10.7899
▁digestion	-10.7899
▁doing	-10.7899
▁fixed	-10.7899
▁floral	-10.7899
▁gatorade	-10.7899
▁ghee	-10.7899
▁goody	-10.7899
▁hfc	-10.7899
▁kong	-10.7899
▁law	-10.7899
▁mark	-10.7899
▁mojito	-10.7899
▁notice	-10.7899
▁pita	-10.7899
▁preservative	-10.7899
▁properly	-10.7899
▁rib	-10.7899
▁running	-10.7899
▁sensation	-10.7899
▁sharp	-10.7899
▁shepherd	-10.7899
▁silk	-10.7899
▁skip	-10.7899
▁smile	-10.7899
▁spicey	-10.7899
▁sprouted	-10.7899
▁sprouting	-10.7899
▁state	-10.7899
▁trident	-10.7899
▁trouble	-10.7899
▁vienna	-10.7899
▁west	-10.7899
▁worm	-10.7899
▁ad	-10.8217
▁alive	-10.8217
▁bisquick	-10.8217
▁caught	-10.8217
▁chocolaty	-10.8217
▁comparable	-10.8217
▁dehydrated	-10.8217
▁dent	-10.8217
▁desert	-10.8217
▁discovery	-10.8217
▁dissolve	-10.8217
▁emerald	-10.8217
▁exquisite	-10.8217
▁follow	-10.8217
▁game	-10.8217
▁gingery	-10.8217
▁godsend	-10.8217
▁goldfish	-10.8217
▁grinder	-10.8217
▁handle	-10.8217
▁hike	-10.8217
▁holistic	-10.8217
▁horrid	-10.8217
▁hummus	-10.8217
▁individually	-10.8217
▁inferior	-10.8217
▁insanely	-10.8217
▁jug	-10.8217
▁nor	-10.8217
▁orgain	-10.8217
▁paid	-10.8217
▁palate	-10.8217
▁par	-10.8217
▁peace	-10.8217
▁pez	-10.8217
▁puffed	-10.8217
▁rain	-10.8217
▁research	-10.8217
▁rush	-10.8217
▁scam	-10.8217
▁soooooo	-10.8217
▁sore	-10.8217
▁soul	-10.8217
▁supplier	-10.8217
▁supreme	-10.8217
▁talk	-10.8217
▁town	-10.8217
▁turned	-10.8217
▁vine	-10.8217
▁walker	-10.8217
▁watered	-10.8217
▁wing	-10.8217
▁african	-10.8544
▁arizona	-10.8544
▁bedtime	-10.8544
▁bulldog	-10.8544
▁bun	-10.8544
▁cancer	-10.8544
▁carefully	-10.8544
▁celiacs	-10.8544
▁cheapest	-10.8544
▁chestnut	-10.8544
▁cholesterol	-10.8544
▁cleaner	-10.8544
▁cleaning	-10.8544
▁clump	-10.8544
▁cluster	-10.8544
▁conscious	-10.8544
▁consumer	-10.8544
▁critter	-10.8544
▁disapointed	-10.8544
▁eacute	-10.8544
▁fortune	-10.8544
▁glutino	-10.8544
▁gorgeous	-10.8544
▁hotter	-10.8544
▁hygiene	-10.8544
▁jamaica	-10.8544
▁libby	-10.8544
▁listing	-10.8544
▁masala	-10.8544
▁mexico	-10.8544
▁michael	-10.8544
▁northern	-10.8544
▁nose	-10.8544
▁oral	-10.8544
▁peachy	-10.8544
▁person	-10.8544
▁pu	-10.8544
▁rave	-10.8544
▁reflux	-10.8544
▁remedy	-10.8544
▁ride	-10.8544
▁ripped	-10.8544
▁sadly	-10.8544
▁satisfy	-10.8544
▁shiny	-10.8544
▁sinfully	-10.8544
▁soap	-10.8544
▁soo	-10.8544
▁spit	-10.8544
▁stix	-10.8544
▁support	-10.8544
▁tablet	-10.8544
▁ten	-10.8544
▁terribly	-10.8544
▁umm	-10.8544
▁yorkshire	-10.8544
▁yummiest	-10.8544
▁zuke	-10.8544
▁ahmad	-10.8883
▁amazed	-10.8883
▁booster	-10.8883
▁buttermilk	-10.8883
▁carnation	-10.8883
▁chile	-10.8883
▁costa	-10.8883
▁course	-10.8883
▁cramp	-10.8883
▁hodgson	-10.8883
▁hooray	-10.8883
▁itchy	-10.8883
▁looked	-10.8883
▁luck	-10.8883
▁med	-10.8883
▁met	-10.8883
▁mineral	-10.8883
▁nespresso	-10.8883
▁news	-10.8883
▁nib	-10.8883
▁orleans	-10.8883
▁preferred	-10.8883
▁previous	-10.8883
▁recieved	-10.8883
▁reward	-10.8883
▁select	-10.8883
▁soggy	-10.8883
▁spelt	-10.8883
▁spoon	-10.8883
▁sturdy	-10.8883
▁thinking	-10.8883
▁tired	-10.8883
▁trader	-10.8883
▁walden	-10.8883
▁write	-10.8883
▁zing	-10.8883
▁automatic	-10.9234
▁bergamot	-10.9234
▁budget	-10.9234
▁burned	-10.9234
▁camper	-10.9234
▁canister	-10.9234
▁catch	-10.9234
▁celtic	-10.9234
▁cha	-10.9234
▁choco	-10.9234
▁concentrated	-10.9234
▁constipation	-10.9234
▁core	-10.9234
▁crave	-10.9234
▁dissapointing	-10.9234
▁excellence	-10.9234
▁fill	-10.9234
▁frank	-10.9234
▁fresher	-10.9234
▁gag	-10.9234
▁genuine	-10.9234
▁gerber	-10.9234
▁ghirardelli	-10.9234
▁goodbye	-10.9234
▁gopher	-10.9234
▁habit	-10.9234
▁harvest	-10.9234
▁ill	-10.9234
▁international	-10.9234
▁kirkland	-10.9234
▁lactose	-10.9234
▁lighter	-10.9234
▁luxury	-10.9234
▁monster	-10.9234
▁nantucket	-10.9234
▁nescafe	-10.9234
▁normally	-10.9234
▁num	-10.9234
▁oregon	-10.9234
▁pan	-10.9234
▁parmesan	-10.9234
▁popping	-10.9234
▁prince	-10.9234
▁refried	-10.9234
▁retro	-10.9234
▁rosemary	-10.9234
▁scottish	-10.9234
▁seasoned	-10.9234
▁snicker	-10.9234
▁taster	-10.9234
▁tim	-10.9234
▁un	-10.9234
▁unexpected	-10.9234
▁winning	-10.9234
▁accurate	-10.9598
▁along	-10.9598
▁ant	-10.9598
▁barry	-10.9598
▁bed	-10.9598
▁beneful	-10.9598
▁bill	-10.9598
▁bouquet	-10.9598
▁bye	-10.9598
▁carmel	-10.9598
▁chow	-10.9598
▁commercial	-10.9598
▁complex	-10.9598
▁describe	-10.9598
▁digest	-10.9598
▁dogswell	-10.9598
▁famous	-10.9598
▁fear	-10.9598
▁fence	-10.9598
▁firm	-10.9598
▁france	-10.9598
▁fruitcake	-10.9598
▁given	-10.9598
▁happiness	-10.9598
▁hi	-10.9598
▁honestly	-10.9598
▁husky	-10.9598
▁jell	-10.9598
▁jump	-10.9598
▁leather	-10.9598
▁liking	-10.9598
▁lil	-10.9598
▁minus	-10.9598
▁mm	-10.9598
▁mo	-10.9598
▁outside	-10.9598
▁ph	-10.9598
▁plan	-10.9598
▁pressure	-10.9598
▁purchasing	-10.9598
▁purple	-10.9598
▁recovery	-10.9598
▁relish	-10.9598
▁rope	-10.9598
▁rubber	-10.9598
▁selling	-10.9598
▁sleepy	-10.9598
▁switched	-10.9598
▁term	-10.9598
▁uncle	-10.9598
▁volume	-10.9598
▁welcome	-10.9598
▁wrapper	-10.9598
▁yummie	-10.9598
▁zesty	-10.9598
▁amish	-10.9975
▁approve	-10.9975
▁bleh	-10.9975
▁bourbon	-10.9975
▁brazil	-10.9975
▁brought	-10.9975
▁center	-10.9975
▁ceylon	-10.9975
▁counter	-10.9975
▁couple	-10.9975
▁ct	-10.9975
▁dang	-10.9975
▁danger	-10.9975
▁definite	-10.9975
▁deserves	-10.9975
▁doubled	-10.9975
▁douwe	-10.9975
▁drip	-10.9975
▁dumpling	-10.9975
▁early	-10.9975
▁easter	-10.9975
▁ehh	-10.9975
▁entertainment	-10.9975
▁erh	-10.9975
▁expires	-10.9975
▁fizz	-10.9975
▁fondant	-10.9975
▁fool	-10.9975
▁habanero	-10.9975
▁halvah	-10.9975
▁hextra	-10.9975
▁hunger	-10.9975
▁invention	-10.9975
▁jacob	-10.9975
▁lemony	-10.9975
▁literally	-10.9975
▁maid	-10.9975
▁marketing	-10.9975
▁mass	-10.9975
▁meant	-10.9975
▁mildly	-10.9975
▁millstone	-10.9975
▁mommy	-10.9975
▁mug	-10.9975
▁obsessed	-10.9975
▁oyster	-10.9975
▁passable	-10.9975
▁peppery	-10.9975
▁pho	-10.9975
▁pit	-10.9975
▁popper	-10.9975
▁produce	-10.9975
▁proof	-10.9975
▁rainforest	-10.9975
▁risk	-10.9975
▁salami	-10.9975
▁satisfactory	-10.9975
▁scout	-10.9975
▁sensational	-10.9975
▁shredded	-10.9975
▁stocking	-10.9975
▁suprisingly	-10.9975
▁swedish	-10.9975
▁terrier	-10.9975
▁trash	-10.9975
▁understand	-10.9975
▁unit	-10.9975
▁upon	-10.9975
▁utterly	-10.9975
▁vermont	-10.9975
▁vile	-10.9975
▁website	-10.9975
▁whoa	-10.9975
▁worry	-10.9975
▁yerba	-10.9975
▁aerogarden	-11.0368
▁al	-11.0368
▁approves	-11.0368
▁beach	-11.0368
▁boot	-11.0368
▁brooklyn	-11.0368
▁car	-11.0368
▁catfood	-11.0368
▁cheetos	-11.0368
▁chi	-11.0368
▁chocolately	-11.0368
▁chun	-11.0368
▁chutney	-11.0368
▁concern	-11.0368
▁creek	-11.0368
▁crispbread	-11.0368
▁decaff	-11.0368
▁despite	-11.0368
▁devil	-11.0368
▁egbert	-11.0368
▁el	-11.0368
▁electrolyte	-11.0368
▁ew	-11.0368
▁fab	-11.0368
▁fatty	-11.0368
▁filet	-11.0368
▁grilling	-11.0368
▁horseradish	-11.0368
▁image	-11.0368
▁intolerant	-11.0368
▁japan	-11.0368
▁keeper	-11.0368
▁keeping	-11.0368
▁lisa	-11.0368
▁loaf	-11.0368
▁lotion	-11.0368
▁luscious	-11.0368
▁mallomars	-11.0368
▁mashed	-11.0368
▁mega	-11.0368
▁mmmmmmmm	-11.0368
▁mona	-11.0368
▁monkey	-11.0368
▁munchies	-11.0368
▁mystery	-11.0368
▁nope	-11.0368
▁occasion	-11.0368
▁patient	-11.0368
▁protien	-11.0368
▁pulp	-11.0368
▁rainbow	-11.0368
▁reeses	-11.0368
▁rejoice	-11.0368
▁rid	-11.0368
▁sand	-11.0368
▁silky	-11.0368
▁skippy	-11.0368
▁straw	-11.0368
▁taking	-11.0368
▁teabags	-11.0368
▁third	-11.0368
▁treasure	-11.0368
▁truth	-11.0368
▁tub	-11.0368
▁ummm	-11.0368
▁veg	-11.0368
▁velveeta	-11.0368
▁warned	-11.0368
▁according	-11.0776
▁adore	-11.0776
▁appealing	-11.0776
▁artichoke	-11.0776
▁as	-11.0776
▁breadstick	-11.0776
▁breaker	-11.0776
▁buzz	-11.0776
▁cadbury	-11.0776
▁caff	-11.0776
▁canada	-11.0776
▁chalky	-11.0776
▁choose	-11.0776
▁consider	-11.0776
▁crumbled	-11.0776
▁deluxe	-11.0776
▁destroyed	-11.0776
▁detox	-11.0776
▁dislike	-11.0776
▁enjoys	-11.0776
▁exceeded	-11.0776
▁father	-11.0776
▁finishing	-11.0776
▁freezer	-11.0776
▁hcg	-11.0776
▁heartburn	-11.0776
▁ignore	-11.0776
▁inaccurate	-11.0776
▁kat	-11.0776
▁knock	-11.0776
▁kombucha	-11.0776
▁krispies	-11.0776
▁lasagna	-11.0776
▁listen	-11.0776
▁mayonnaise	-11.0776
▁munch	-11.0776
▁neither	-11.0776
▁nirvana	-11.0776
▁nummy	-11.0776
▁ole	-11.0776
▁paul	-11.0776
▁pest	-11.0776
▁poo	-11.0776
▁process	-11.0776
▁retail	-11.0776
▁seasonal	-11.0776
▁served	-11.0776
▁share	-11.0776
▁shih	-11.0776
▁shine	-11.0776
▁shock	-11.0776
▁sister	-11.0776
▁solved	-11.0776
▁speedy	-11.0776
▁spinach	-11.0776
▁spry	-11.0776
▁stable	-11.0776
▁stated	-11.0776
▁story	-11.0776
▁taylor	-11.0776
▁thailand	-11.0776
▁tic	-11.0776
▁topper	-11.0776
▁traverse	-11.0776
▁tray	-11.0776
▁twizzlers	-11.0776
▁udon	-11.0776
▁verona	-11.0776
▁whey	-11.0776
▁wise	-11.0776
▁worthless	-11.0776
▁anise	-11.1201
▁aweful	-11.1201
▁batter	-11.1201
▁beetlejuice	-11.1201
▁bet	-11.1201
▁board	-11.1201
▁boston	-11.1201
▁butterscotch	-11.1201
▁cabinet	-11.1201
▁consumption	-11.1201
▁convert	-11.1201
▁crown	-11.1201
▁cry	-11.1201
▁cuisine	-11.1201
▁detail	-11.1201
▁dew	-11.1201
▁dieting	-11.1201
▁drank	-11.1201
▁drug	-11.1201
▁entertaining	-11.1201
▁entirely	-11.1201
▁essence	-11.1201
▁evo	-11.1201
▁execution	-11.1201
▁failure	-11.1201
▁fell	-11.1201
▁finding	-11.1201
▁flaw	-11.1201
▁frog	-11.1201
▁further	-11.1201
▁ginseng	-11.1201
▁godiva	-11.1201
▁goo	-11.1201
▁heck	-11.1201
▁hmm	-11.1201
▁horribly	-11.1201
▁hottest	-11.1201
▁hum	-11.1201
▁hurt	-11.1201
▁imitation	-11.1201
▁insane	-11.1201
▁iron	-11.1201
▁jiffy	-11.1201
▁jumbo	-11.1201
▁larabar	-11.1201
▁magical	-11.1201
▁metallic	-11.1201
▁mixing	-11.1201
▁mush	-11.1201
▁necessary	-11.1201
▁nong	-11.1201
▁nori	-11.1201
▁outdated	-11.1201
▁panko	-11.1201
▁powdery	-11.1201
▁practical	-11.1201
▁puree	-11.1201
▁refreshingly	-11.1201
▁rolled	-11.1201
▁scented	-11.1201
▁searching	-11.1201
▁sense	-11.1201
▁snow	-11.1201
▁squirrel	-11.1201
▁started	-11.1201
▁talking	-11.1201
▁tapioca	-11.1201
▁thirst	-11.1201
▁timely	-11.1201
▁undrinkable	-11.1201
▁variation	-11.1201
▁yep	-11.1201
▁yummmy	-11.1201
▁zukes	-11.1201
▁aggressive	-11.1646
▁aloe	-11.1646
▁ambrosia	-11.1646
▁area	-11.1646
▁attractive	-11.1646
▁availability	-11.1646
▁basil	-11.1646
▁beginner	-11.1646
▁candied	-11.1646
▁colorful	-11.1646
▁confusing	-11.1646
▁created	-11.1646
▁culinary	-11.1646
▁definately	-11.1646
▁delighted	-11.1646
▁dietary	-11.1646
▁dissappointed	-11.1646
▁fennel	-11.1646
▁gallon	-11.1646
▁halo	-11.1646
▁harney	-11.1646
▁harsh	-11.1646
▁healing	-11.1646
▁hickory	-11.1646
▁ho	-11.1646
▁hurry	-11.1646
▁iams	-11.1646
▁icky	-11.1646
▁issimo	-11.1646
▁jamaican	-11.1646
▁laxative	-11.1646
▁lazy	-11.1646
▁lick	-11.1646
▁linda	-11.1646
▁lucy	-11.1646
▁nourishing	-11.1646
▁nutricious	-11.1646
▁patch	-11.1646
▁pedigree	-11.1646
▁perfume	-11.1646
▁pk	-11.1646
▁ravioli	-11.1646
▁recently	-11.1646
▁refill	-11.1646
▁refined	-11.1646
▁ruin	-11.1646
▁seemed	-11.1646
▁shim	-11.1646
▁shocked	-11.1646
▁similac	-11.1646
▁skeptical	-11.1646
▁snail	-11.1646
▁sooner	-11.1646
▁spend	-11.1646
▁sunbutter	-11.1646
▁sunshine	-11.1646
▁tang	-11.1646
▁teething	-11.1646
▁therapy	-11.1646
▁trio	-11.1646
▁tube	-11.1646
▁unlike	-11.1646
▁vinaigrette	-11.1646
▁vomiting	-11.1646
▁wasted	-11.1646
▁wtf	-11.1646
▁yea	-11.1646
▁zip	-11.1646
▁advertisement	-11.2111
▁arrowhead	-11.2111
▁arsenic	-11.2111
▁awesomeness	-11.2111
▁basically	-11.2111
▁believer	-11.2111
▁bisque	-11.2111
▁blow	-11.2111
▁booty	-11.2111
▁boxer	-11.2111
▁canidae	-11.2111
▁caper	-11.2111
▁citric	-11.2111
▁coarse	-11.2111
▁colada	-11.2111
▁concerned	-11.2111
▁correctly	-11.2111
▁cover	-11.2111
▁dangerously	-11.2111
▁delcious	-11.2111
▁dentist	-11.2111
▁disappoint	-11.2111
▁disposakups	-11.2111
▁doubt	-11.2111
▁dunkin	-11.2111
▁east	-11.2111
▁everytime	-11.2111
▁extraordinary	-11.2111
▁fail	-11.2111
▁faint	-11.2111
▁foot	-11.2111
▁functional	-11.2111
▁fur	-11.2111
▁germany	-11.2111
▁gi	-11.2111
▁gin	-11.2111
▁hassle	-11.2111
▁helping	-11.2111
▁herring	-11.2111
▁hole	-11.2111
▁hoo	-11.2111
▁insect	-11.2111
▁interest	-11.2111
▁internet	-11.2111
▁kefir	-11.2111
▁liquorice	-11.2111
▁loa	-11.2111
▁maine	-11.2111
▁mar	-11.2111
▁medley	-11.2111
▁mg	-11.2111
▁mid	-11.2111
▁mixture	-11.2111
▁moderation	-11.2111
▁modification	-11.2111
▁moisturizer	-11.2111
▁nostalgic	-11.2111
▁ovaltine	-11.2111
▁overrated	-11.2111
▁palatable	-11.2111
▁pepsi	-11.2111
▁pesto	-11.2111
▁petite	-11.2111
▁pickled	-11.2111
▁plate	-11.2111
▁press	-11.2111
▁professional	-11.2111
▁queen	-11.2111
▁rasberry	-11.2111
▁safety	-11.2111
▁santa	-11.2111
▁science	-11.2111
▁sencha	-11.2111
▁shower	-11.2111
▁smelled	-11.2111
▁soymilk	-11.2111
▁starbuck	-11.2111
▁stuffer	-11.2111
▁sufferer	-11.2111
▁sugarfree	-11.2111
▁suitable	-11.2111
▁sweetleaf	-11.2111
▁tail	-11.2111
▁tot	-11.2111
▁truvia	-11.2111
▁tzu	-11.2111
▁udi	-11.2111
▁uh	-11.2111
▁vodka	-11.2111
▁warehouse	-11.2111
▁waxy	-11.2111
▁whiskas	-11.2111
▁yo	-11.2111
▁yummers	-11.2111
▁appetizer	-11.2599
▁atomic	-11.2599
▁barbeque	-11.2599
▁bark	-11.2599
▁beet	-11.2599
▁butt	-11.2599
▁calcium	-11.2599
▁cameron	-11.2599
▁cheesecake	-11.2599
▁coast	-11.2599
▁coombs	-11.2599
▁current	-11.2599
▁dachshund	-11.2599
▁david	-11.2599
▁dreamfields	-11.2599
▁escargot	-11.2599
▁europe	-11.2599
▁everybody	-11.2599
▁factor	-11.2599
▁fed	-11.2599
▁flea	-11.2599
▁foul	-11.2599
▁fountain	-11.2599
▁fridge	-11.2599
▁generic	-11.2599
▁gfcf	-11.2599
▁ghiradelli	-11.2599
▁glucose	-11.2599
▁gnat	-11.2599
▁gooood	-11.2599
▁goooood	-11.2599
▁granulated	-11.2599
▁gumbo	-11.2599
▁hill	-11.2599
▁improve	-11.2599
▁ish	-11.2599
▁jerkey	-11.2599
▁jims	-11.2599
▁lame	-11.2599
▁learn	-11.2599
▁lowest	-11.2599
▁manhattan	-11.2599
▁mart	-11.2599
▁math	-11.2599
▁mcdougall	-11.2599
▁misrepresented	-11.2599
▁moon	-11.2599
▁muscle	-11.2599
▁nifty	-11.2599
▁nugget	-11.2599
▁ouch	-11.2599
▁oven	-11.2599
▁particularly	-11.2599
▁pectin	-11.2599
▁phenomenal	-11.2599
▁potential	-11.2599
▁pregnant	-11.2599
▁prep	-11.2599
▁produced	-11.2599
▁rd	-11.2599
▁relax	-11.2599
▁replace	-11.2599
▁required	-11.2599
▁residue	-11.2599
▁ritz	-11.2599
▁semi	-11.2599
▁site	-11.2599
▁smashed	-11.2599
▁softer	-11.2599
▁soldier	-11.2599
▁sourdough	-11.2599
▁spike	-11.2599
▁starch	-11.2599
▁station	-11.2599
▁sugarless	-11.2599
▁tangerine	-11.2599
▁thus	-11.2599
▁tug	-11.2599
▁victor	-11.2599
▁video	-11.2599
▁view	-11.2599
▁watching	-11.2599
▁whatever	-11.2599
▁yikes	-11.2599
▁yuban	-11.2599
▁acne	-11.3112
▁ahead	-11.3112
▁appears	-11.3112
▁assam	-11.3112
▁aunt	-11.3112
▁bam	-11.3112
▁beautifully	-11.3112
▁beneficial	-11.3112
▁bentley	-11.3112
▁blended	-11.3112
▁caesar	-11.3112
▁cardamom	-11.3112
▁carrying	-11.3112
▁cayenne	-11.3112
▁celery	-11.3112
▁champagne	-11.3112
▁chilli	-11.3112
▁cofee	-11.3112
▁colored	-11.3112
▁competition	-11.3112
▁crappy	-11.3112
▁crash	-11.3112
▁crunchies	-11.3112
▁damage	-11.3112
▁danish	-11.3112
▁decafe	-11.3112
▁dig	-11.3112
▁ended	-11.3112
▁enfamil	-11.3112
▁error	-11.3112
▁escape	-11.3112
▁exellent	-11.3112
▁failed	-11.3112
▁fever	-11.3112
▁fight	-11.3112
▁freakin	-11.3112
▁greenie	-11.3112
▁gumball	-11.3112
▁handling	-11.3112
▁heard	-11.3112
▁jolt	-11.3112
▁kipper	-11.3112
▁larabars	-11.3112
▁lived	-11.3112
▁loses	-11.3112
▁maca	-11.3112
▁manufacturer	-11.3112
▁mauna	-11.3112
▁minced	-11.3112
▁morsel	-11.3112
▁multigrain	-11.3112
▁nacho	-11.3112
▁offering	-11.3112
▁om	-11.3112
▁opening	-11.3112
▁paris	-11.3112
▁pate	-11.3112
▁policy	-11.3112
▁porridge	-11.3112
▁range	-11.3112
▁requires	-11.3112
▁saturated	-11.3112
▁sending	-11.3112
▁sensible	-11.3112
▁sickness	-11.3112
▁skittle	-11.3112
▁slimy	-11.3112
▁smoothest	-11.3112
▁somewhere	-11.3112
▁stress	-11.3112
▁stupid	-11.3112
▁teavana	-11.3112
▁tinkyada	-11.3112
▁tortuga	-11.3112
▁turmeric	-11.3112
▁uneven	-11.3112
▁walk	-11.3112
▁weruva	-11.3112
▁ww	-11.3112
▁zoe	-11.3112
▁ahoy	-11.3653
▁alfredo	-11.3653
▁baronet	-11.3653
▁begin	-11.3653
▁behind	-11.3653
▁block	-11.3653
▁bon	-11.3653
▁bonito	-11.3653
▁brick	-11.3653
▁bueno	-11.3653
▁buster	-11.3653
▁carob	-11.3653
▁chest	-11.3653
▁coated	-11.3653
▁comforting	-11.3653
▁compleats	-11.3653
▁creative	-11.3653
▁crock	-11.3653
▁crouton	-11.3653
▁cured	-11.3653
▁dandy	-11.3653
▁dash	-11.3653
▁del	-11.3653
▁desired	-11.3653
▁disease	-11.3653
▁distinctive	-11.3653
▁dogfood	-11.3653
▁dorm	-11.3653
▁dreadful	-11.3653
▁eclipse	-11.3653
▁edge	-11.3653
▁eggnog	-11.3653
▁enchilada	-11.3653
▁environment	-11.3653
▁excessive	-11.3653
▁fashion	-11.3653
▁fda	-11.3653
▁felt	-11.3653
▁fireball	-11.3653
▁flawed	-11.3653
▁flimsy	-11.3653
▁flossies	-11.3653
▁forward	-11.3653
▁fragile	-11.3653
▁fusion	-11.3653
▁glazed	-11.3653
▁gobble	-11.3653
▁gr	-11.3653
▁grand	-11.3653
▁grandson	-11.3653
▁gummis	-11.3653
▁gunpowder	-11.3653
▁hempseed	-11.3653
▁imagine	-11.3653
▁include	-11.3653
▁increased	-11.3653
▁intake	-11.3653
▁july	-11.3653
▁kicking	-11.3653
▁land	-11.3653
▁lemongrass	-11.3653
▁lingonberry	-11.3653
▁lip	-11.3653
▁maltese	-11.3653
▁mandarin	-11.3653
▁maruchan	-11.3653
▁marzano	-11.3653
▁max	-11.3653
▁meaty	-11.3653
▁min	-11.3653
▁mousse	-11.3653
▁named	-11.3653
▁nausea	-11.3653
▁navitas	-11.3653
▁necco	-11.3653
▁net	-11.3653
▁nip	-11.3653
▁overwhelming	-11.3653
▁partially	-11.3653
▁peter	-11.3653
▁pina	-11.3653
▁plea	-11.3653
▁potassium	-11.3653
▁practice	-11.3653
▁praline	-11.3653
▁preference	-11.3653
▁reading	-11.3653
▁reduce	-11.3653
▁retriever	-11.3653
▁river	-11.3653
▁robbery	-11.3653
▁rocky	-11.3653
▁russian	-11.3653
▁safer	-11.3653
▁seattle	-11.3653
▁shea	-11.3653
▁signature	-11.3653
▁sitting	-11.3653
▁sky	-11.3653
▁sleepytime	-11.3653
▁specialty	-11.3653
▁swallow	-11.3653
▁tastebud	-11.3653
▁tastic	-11.3653
▁temptation	-11.3653
▁tone	-11.3653
▁tricky	-11.3653
▁vary	-11.3653
▁violet	-11.3653
▁vitality	-11.3653
▁wheel	-11.3653
▁wood	-11.3653
▁zen	-11.3653
▁adores	-11.4224
▁aerator	-11.4224
▁albacore	-11.4224
▁approval	-11.4224
▁backpacking	-11.4224
▁bath	-11.4224
▁blender	-11.4224
▁bonus	-11.4224
▁boo	-11.4224
▁bravo	-11.4224
▁bummer	-11.4224
▁burton	-11.4224
▁cappucino	-11.4224
▁card	-11.4224
▁chilled	-11.4224
▁chopped	-11.4224
▁clearly	-11.4224
▁combined	-11.4224
▁connoisseur	-11.4224
▁cupboard	-11.4224
▁curl	-11.4224
▁currant	-11.4224
▁cytomax	-11.4224
▁decoration	-11.4224
▁deodorant	-11.4224
▁diabetes	-11.4224
▁diaper	-11.4224
▁disposable	-11.4224
▁dissatisfied	-11.4224
▁drive	-11.4224
▁dusty	-11.4224
▁en	-11.4224
▁environmentally	-11.4224
▁er	-11.4224
▁factory	-11.4224
▁final	-11.4224
▁fuss	-11.4224
▁gassy	-11.4224
▁guava	-11.4224
▁guiltless	-11.4224
▁headache	-11.4224
▁hmmmm	-11.4224
▁hull	-11.4224
▁imho	-11.4224
▁jaw	-11.4224
▁jitter	-11.4224
▁jordan	-11.4224
▁kidney	-11.4224
▁lead	-11.4224
▁leaked	-11.4224
▁lego	-11.4224
▁lickin	-11.4224
▁lift	-11.4224
▁maggi	-11.4224
▁mangosteen	-11.4224
▁marathon	-11.4224
▁midnight	-11.4224
▁moment	-11.4224
▁nabisco	-11.4224
▁outrageously	-11.4224
▁panda	-11.4224
▁paradise	-11.4224
▁passed	-11.4224
▁patty	-11.4224
▁peggy	-11.4224
▁pellet	-11.4224
▁polenta	-11.4224
▁popped	-11.4224
▁preparation	-11.4224
▁promise	-11.4224
▁proper	-11.4224
▁recipient	-11.4224
▁reorder	-11.4224
▁revolting	-11.4224
▁rise	-11.4224
▁saltine	-11.4224
▁scary	-11.4224
▁seven	-11.4224
▁shabby	-11.4224
▁sinful	-11.4224
▁sinus	-11.4224
▁soba	-11.4224
▁soybean	-11.4224
▁sriracha	-11.4224
▁stool	-11.4224
▁substantial	-11.4224
▁substitue	-11.4224
▁sue	-11.4224
▁suppose	-11.4224
▁tartar	-11.4224
▁tear	-11.4224
▁tongue	-11.4224
▁toss	-11.4224
▁van	-11.4224
▁velvet	-11.4224
▁venison	-11.4224
▁vote	-11.4224
▁watering	-11.4224
▁whiskey	-11.4224
▁wicked	-11.4224
▁wierd	-11.4224
▁wonderfull	-11.4224
▁yam	-11.4224
▁yumminess	-11.4224
▁afford	-11.4831
▁appreciated	-11.4831
▁bank	-11.4831
▁biggest	-11.4831
▁bio	-11.4831
▁bragg	-11.4831
▁brazilian	-11.4831
▁brulee	-11.4831
▁bulb	-11.4831
▁bumble	-11.4831
▁burning	-11.4831
▁caf	-11.4831
▁caffiene	-11.4831
▁caffine	-11.4831
▁canadian	-11.4831
▁carbers	-11.4831
▁carton	-11.4831
▁certain	-11.4831
▁cesar	-11.4831
▁changing	-11.4831
▁cincinnati	-11.4831
▁crepe	-11.4831
▁diced	-11.4831
▁discovered	-11.4831
▁distinct	-11.4831
▁doo	-11.4831
▁ease	-11.4831
▁evil	-11.4831
▁exciting	-11.4831
▁fanatic	-11.4831
▁faulty	-11.4831
▁foodie	-11.4831
▁forest	-11.4831
▁frappe	-11.4831
▁freaking	-11.4831
▁freshly	-11.4831
▁gobbled	-11.4831
▁golean	-11.4831
▁gouging	-11.4831
▁goya	-11.4831
▁hound	-11.4831
▁jarred	-11.4831
▁junkie	-11.4831
▁keebler	-11.4831
▁laffy	-11.4831
▁lake	-11.4831
▁liquor	-11.4831
▁london	-11.4831
▁lotta	-11.4831
▁lumpy	-11.4831
▁lundberg	-11.4831
▁luzianne	-11.4831
▁ma	-11.4831
▁maltodextrin	-11.4831
▁mask	-11.4831
▁matzo	-11.4831
▁meatball	-11.4831
▁medication	-11.4831
▁mon	-11.4831
▁necessity	-11.4831
▁nobody	-11.4831
▁noticed	-11.4831
▁nursing	-11.4831
▁paleo	-11.4831
▁particular	-11.4831
▁paying	-11.4831
▁peanutbutter	-11.4831
▁pom	-11.4831
▁poppy	-11.4831
▁practically	-11.4831
▁pringles	-11.4831
▁probiotic	-11.4831
▁program	-11.4831
▁pull	-11.4831
▁puroast	-11.4831
▁ray	-11.4831
▁recent	-11.4831
▁recommendation	-11.4831
▁reviewing	-11.4831
▁revolution	-11.4831
▁sawdust	-11.4831
▁shockingly	-11.4831
▁silver	-11.4831
▁sipping	-11.4831
▁sodastream	-11.4831
▁splash	-11.4831
▁stone	-11.4831
▁stuffing	-11.4831
▁sweetners	-11.4831
▁tasteful	-11.4831
▁team	-11.4831
▁teeccino	-11.4831
▁toaster	-11.4831
▁tract	-11.4831
▁uk	-11.4831
▁unacceptable	-11.4831
▁understatement	-11.4831
▁unsatisfied	-11.4831
▁urinary	-11.4831
▁wary	-11.4831
▁wasa	-11.4831
▁wilton	-11.4831
▁won	-11.4831
▁worthwhile	-11.4831
▁yorkies	-11.4831
▁yup	-11.4831
▁zinger	-11.4831
▁action	-11.5476
▁advertized	-11.5476
▁appletini	-11.5476
▁aromat	-11.5476
▁arthritis	-11.5476
▁artificially	-11.5476
▁autumn	-11.5476
▁awhile	-11.5476
▁bare	-11.5476
▁became	-11.5476
▁bella	-11.5476
▁boyfriend	-11.5476
▁brach	-11.5476
▁breaking	-11.5476
▁champion	-11.5476
▁chebe	-11.5476
▁chock	-11.5476
▁chocoholics	-11.5476
▁clif	-11.5476
▁clumping	-11.5476
▁compromise	-11.5476
▁condensed	-11.5476
▁considering	-11.5476
▁constant	-11.5476
▁continue	-11.5476
▁darker	-11.5476
▁dee	-11.5476
▁designed	-11.5476
▁disagree	-11.5476
▁disappointingly	-11.5476
▁disappoints	-11.5476
▁discount	-11.5476
▁drawback	-11.5476
▁ener	-11.5476
▁energizing	-11.5476
▁entree	-11.5476
▁ewww	-11.5476
▁expert	-11.5476
▁expire	-11.5476
▁flaky	-11.5476
▁flowering	-11.5476
▁forgot	-11.5476
▁fr	-11.5476
▁frying	-11.5476
▁galore	-11.5476
▁granddaughter	-11.5476
▁grandmother	-11.5476
▁gray	-11.5476
▁happier	-11.5476
▁happily	-11.5476
▁highway	-11.5476
▁huckleberry	-11.5476
▁imported	-11.5476
▁intolerance	-11.5476
▁introduction	-11.5476
▁jane	-11.5476
▁kenya	-11.5476
▁leaky	-11.5476
▁lifestyle	-11.5476
▁limit	-11.5476
▁loyal	-11.5476
▁maui	-11.5476
▁milder	-11.5476
▁moderate	-11.5476
▁moisture	-11.5476
▁mouse	-11.5476
▁necta	-11.5476
▁novelty	-11.5476
▁nutmeg	-11.5476
▁occasional	-11.5476
▁omaha	-11.5476
▁oops	-11.5476
▁orchid	-11.5476
▁orville	-11.5476
▁overseas	-11.5476
▁peel	-11.5476
▁pilaf	-11.5476
▁pirate	-11.5476
▁pocky	-11.5476
▁praise	-11.5476
▁production	-11.5476
▁profile	-11.5476
▁purse	-11.5476
▁q	-11.5476
▁ratio	-11.5476
▁recalled	-11.5476
▁refreshment	-11.5476
▁remove	-11.5476
▁ridder	-11.5476
▁rishi	-11.5476
▁saeco	-11.5476
▁salba	-11.5476
▁seltzer	-11.5476
▁sen	-11.5476
▁sensitivity	-11.5476
▁setting	-11.5476
▁shelled	-11.5476
▁skillet	-11.5476
▁slap	-11.5476
▁smoking	-11.5476
▁sojos	-11.5476
▁speed	-11.5476
▁syrupy	-11.5476
▁tap	-11.5476
▁thru	-11.5476
▁tvp	-11.5476
▁ugly	-11.5476
▁universe	-11.5476
▁usda	-11.5476
▁virginia	-11.5476
▁whipped	-11.5476
▁wonka	-11.5476
▁york	-11.5476
▁youth	-11.5476
▁yummmmmm	-11.5476
▁yummmmmy	-11.5476
▁z	-11.5476
▁against	-11.6166
▁aluminum	-11.6166
▁amber	-11.6166
▁anna	-11.6166
▁anticipated	-11.6166
▁arrives	-11.6166
▁art	-11.6166
▁asked	-11.6166
▁attack	-11.6166
▁awesomely	-11.6166
▁bai	-11.6166
▁baklava	-11.6166
▁balm	-11.6166
▁barney	-11.6166
▁batman	-11.6166
▁besides	-11.6166
▁bowel	-11.6166
▁brain	-11.6166
▁bubbly	-11.6166
▁button	-11.6166
▁challenge	-11.6166
▁chewies	-11.6166
▁clever	-11.6166
▁clumpy	-11.6166
▁cocaine	-11.6166
▁cooker	-11.6166
▁cumin	-11.6166
▁dave	-11.6166
▁decadence	-11.6166
▁deliver	-11.6166
▁dijon	-11.6166
▁dilmah	-11.6166
▁dioxide	-11.6166
▁directly	-11.6166
▁dragon	-11.6166
▁dull	-11.6166
▁eco	-11.6166
▁efficient	-11.6166
▁ex	-11.6166
▁exceptionally	-11.6166
▁experienced	-11.6166
▁farmer	-11.6166
▁fenugreek	-11.6166
▁fillet	-11.6166
▁fond	-11.6166
▁fully	-11.6166
▁fyi	-11.6166
▁garbanzo	-11.6166
▁genius	-11.6166
▁gnocchi	-11.6166
▁greater	-11.6166
▁hansen	-11.6166
▁happen	-11.6166
▁harrogate	-11.6166
▁hash	-11.6166
▁hater	-11.6166
▁hay	-11.6166
▁houtte	-11.6166
▁icing	-11.6166
▁iffy	-11.6166
▁includes	-11.6166
▁infection	-11.6166
▁infusion	-11.6166
▁intended	-11.6166
▁ireland	-11.6166
▁italiano	-11.6166
▁jimmy	-11.6166
▁juniper	-11.6166
▁kikkoman	-11.6166
▁killed	-11.6166
▁krusteaz	-11.6166
▁lapsang	-11.6166
▁larry	-11.6166
▁lifetime	-11.6166
▁likely	-11.6166
▁listened	-11.6166
▁louisiana	-11.6166
▁lychee	-11.6166
▁lyon	-11.6166
▁mad	-11.6166
▁melon	-11.6166
▁member	-11.6166
▁method	-11.6166
▁migraine	-11.6166
▁minimal	-11.6166
▁minor	-11.6166
▁moisturizing	-11.6166
▁namaste	-11.6166
▁origin	-11.6166
▁pamelas	-11.6166
▁papaya	-11.6166
▁pepperoni	-11.6166
▁poptarts	-11.6166
▁porcini	-11.6166
▁prefers	-11.6166
▁prevent	-11.6166
▁print	-11.6166
▁puke	-11.6166
▁quencher	-11.6166
▁quit	-11.6166
▁raised	-11.6166
▁reformulated	-11.6166
▁refused	-11.6166
▁regret	-11.6166
▁relaxation	-11.6166
▁report	-11.6166
▁returned	-11.6166
▁rica	-11.6166
▁rican	-11.6166
▁rinse	-11.6166
▁runt	-11.6166
▁russell	-11.6166
▁saw	-11.6166
▁schnauzer	-11.6166
▁scotch	-11.6166
▁severe	-11.6166
▁shipper	-11.6166
▁sign	-11.6166
▁slowly	-11.6166
▁sophisticated	-11.6166
▁southwest	-11.6166
▁spendy	-11.6166
▁spoil	-11.6166
▁stella	-11.6166
▁suprised	-11.6166
▁switching	-11.6166
▁teenager	-11.6166
▁textured	-11.6166
▁thanksgiving	-11.6166
▁thee	-11.6166
▁ting	-11.6166
▁told	-11.6166
▁torn	-11.6166
▁triple	-11.6166
▁tulsi	-11.6166
▁turtle	-11.6166
▁twining	-11.6166
▁ummmm	-11.6166
▁unsure	-11.6166
▁vino	-11.6166
▁whatsoever	-11.6166
▁wheatena	-11.6166
▁wolf	-11.6166
▁writing	-11.6166
▁yummies	-11.6166
▁yummyearth	-11.6166
▁ahhh	-11.6907
▁alike	-11.6907
▁amaretto	-11.6907
▁angry	-11.6907
▁antler	-11.6907
▁arrive	-11.6907
▁athlete	-11.6907
▁award	-11.6907
▁beaba	-11.6907
▁beg	-11.6907
▁bergin	-11.6907
▁biscoff	-11.6907
▁bisto	-11.6907
▁blending	-11.6907
▁blk	-11.6907
▁boba	-11.6907
▁boneless	-11.6907
▁bringing	-11.6907
▁caraway	-11.6907
▁casing	-11.6907
▁category	-11.6907
▁checkup	-11.6907
▁chick	-11.6907
▁chocoholic	-11.6907
▁cigar	-11.6907
▁clog	-11.6907
▁comparing	-11.6907
▁competitive	-11.6907
▁complement	-11.6907
▁crumbles	-11.6907
▁decorating	-11.6907
▁deelish	-11.6907
▁degree	-11.6907
▁deli	-11.6907
▁deserve	-11.6907
▁disposakup	-11.6907
▁duncan	-11.6907
▁economy	-11.6907
▁erin	-11.6907
▁erythritol	-11.6907
▁experiment	-11.6907
▁explosion	-11.6907
▁express	-11.6907
▁ezekiel	-11.6907
▁fails	-11.6907
▁falafel	-11.6907
▁fault	-11.6907
▁fettuccine	-11.6907
▁fi	-11.6907
▁figure	-11.6907
▁finely	-11.6907
▁florida	-11.6907
▁forming	-11.6907
▁future	-11.6907
▁gain	-11.6907
▁generous	-11.6907
▁gimmick	-11.6907
▁goodie	-11.6907
▁gout	-11.6907
▁grace	-11.6907
▁grease	-11.6907
▁greatness	-11.6907
▁greyhound	-11.6907
▁gsd	-11.6907
▁gustaf	-11.6907
▁halva	-11.6907
▁harbor	-11.6907
▁harder	-11.6907
▁hazlenut	-11.6907
▁horizon	-11.6907
▁immune	-11.6907
▁including	-11.6907
▁incomplete	-11.6907
▁innova	-11.6907
▁instinct	-11.6907
▁intact	-11.6907
▁jittery	-11.6907
▁john	-11.6907
▁judge	-11.6907
▁krave	-11.6907
▁lawry	-11.6907
▁leading	-11.6907
▁learning	-11.6907
▁lee	-11.6907
▁leg	-11.6907
▁licking	-11.6907
▁lily	-11.6907
▁loma	-11.6907
▁lowrey	-11.6907
▁marinara	-11.6907
▁marketed	-11.6907
▁measure	-11.6907
▁meatloaf	-11.6907
▁mentos	-11.6907
▁michigan	-11.6907
▁mile	-11.6907
▁millet	-11.6907
▁million	-11.6907
▁milo	-11.6907
▁mincemeat	-11.6907
▁mislabeled	-11.6907
▁mt	-11.6907
▁mudslide	-11.6907
▁nana	-11.6907
▁nathan	-11.6907
▁necessarily	-11.6907
▁newbie	-11.6907
▁ny	-11.6907
▁oberto	-11.6907
▁oddly	-11.6907
▁offered	-11.6907
▁oldie	-11.6907
▁orijen	-11.6907
▁page	-11.6907
▁picked	-11.6907
▁picnic	-11.6907
▁pkg	-11.6907
▁pm	-11.6907
▁pour	-11.6907
▁pumkin	-11.6907
▁purchaser	-11.6907
▁puzzle	-11.6907
▁restricted	-11.6907
▁rosehip	-11.6907
▁ruby	-11.6907
▁saf	-11.6907
▁sahale	-11.6907
▁sause	-11.6907
▁scare	-11.6907
▁self	-11.6907
▁shaped	-11.6907
▁shaved	-11.6907
▁sheet	-11.6907
▁shin	-11.6907
▁sloppy	-11.6907
▁smoker	-11.6907
▁snappy	-11.6907
▁snyder	-11.6907
▁solo	-11.6907
▁souper	-11.6907
▁stacy	-11.6907
▁standby	-11.6907
▁starting	-11.6907
▁steep	-11.6907
▁sticking	-11.6907
▁subsitute	-11.6907
▁suggestion	-11.6907
▁tacs	-11.6907
▁tetley	-11.6907
▁theatre	-11.6907
▁thicker	-11.6907
▁tiki	-11.6907
▁tiramisu	-11.6907
▁toothpick	-11.6907
▁tower	-11.6907
▁tweak	-11.6907
▁unbeatable	-11.6907
▁underwhelming	-11.6907
▁unfortunate	-11.6907
▁vege	-11.6907
▁vegemite	-11.6907
▁vending	-11.6907
▁waaaay	-11.6907
▁washed	-11.6907
▁wax	-11.6907
▁whip	-11.6907
▁wintergreen	-11.6907
▁worried	-11.6907
▁xmas	-11.6907
▁yummi	-11.6907
▁across	-11.7707
▁additional	-11.7707
▁adventure	-11.7707
▁afraid	-11.7707
▁alkaline	-11.7707
▁allsorts	-11.7707
▁appetizing	-11.7707
▁arnold	-11.7707
▁artisan	-11.7707
▁asparagus	-11.7707
▁atkins	-11.7707
▁au	-11.7707
▁bb	-11.7707
▁beagle	-11.7707
▁beefy	-11.7707
▁blind	-11.7707
▁border	-11.7707
▁boullion	-11.7707
▁breeze	-11.7707
▁bustelo	-11.7707
▁butler	-11.7707
▁calling	-11.7707
▁caloric	-11.7707
▁cancelled	-11.7707
▁carbonation	-11.7707
▁caribbean	-11.7707
▁causing	-11.7707
▁chain	-11.7707
▁cheer	-11.7707
▁choclate	-11.7707
▁chorizo	-11.7707
▁cigarette	-11.7707
▁cleanser	-11.7707
▁cofffee	-11.7707
▁common	-11.7707
▁compact	-11.7707
▁companion	-11.7707
▁complain	-11.7707
▁convience	-11.7707
▁coon	-11.7707
▁crystallized	-11.7707
▁cuban	-11.7707
▁curly	-11.7707
▁dance	-11.7707
▁dare	-11.7707
▁deadly	-11.7707
▁deer	-11.7707
▁demand	-11.7707
▁devour	-11.7707
▁dha	-11.7707
▁dinosaur	-11.7707
▁disapointing	-11.7707
▁disapointment	-11.7707
▁discontinue	-11.7707
▁dubble	-11.7707
▁dulce	-11.7707
▁edited	-11.7707
▁edition	-11.7707
▁ehhh	-11.7707
▁exact	-11.7707
▁excuse	-11.7707
▁exp	-11.7707
▁fare	-11.7707
▁feedback	-11.7707
▁fiji	-11.7707
▁flip	-11.7707
▁foil	-11.7707
▁formulation	-11.7707
▁frustrated	-11.7707
▁furry	-11.7707
▁gal	-11.7707
▁glucosamine	-11.7707
▁glue	-11.7707
▁gooooood	-11.7707
▁gooseberry	-11.7707
▁gosh	-11.7707
▁gotten	-11.7707
▁grandkids	-11.7707
▁grated	-11.7707
▁group	-11.7707
▁growth	-11.7707
▁gut	-11.7707
▁harry	-11.7707
▁illegal	-11.7707
▁imagined	-11.7707
▁immediately	-11.7707
▁irresistible	-11.7707
▁kaviar	-11.7707
▁kimchi	-11.7707
▁kinder	-11.7707
▁kups	-11.7707
▁lather	-11.7707
▁learned	-11.7707
▁leche	-11.7707
▁load	-11.7707
▁lolly	-11.7707
▁lord	-11.7707
▁madhava	-11.7707
▁manufacturing	-11.7707
▁meatless	-11.7707
▁memorable	-11.7707
▁microwavable	-11.7707
▁milka	-11.7707
▁mocktail	-11.7707
▁moderately	-11.7707
▁mood	-11.7707
▁mount	-11.7707
▁mtn	-11.7707
▁mud	-11.7707
▁neutral	-11.7707
▁noticeable	-11.7707
▁obviously	-11.7707
▁painful	-11.7707
▁petal	-11.7707
▁pinto	-11.7707
▁pitcher	-11.7707
▁poultry	-11.7707
▁premier	-11.7707
▁prize	-11.7707
▁project	-11.7707
▁pungent	-11.7707
▁putting	-11.7707
▁pyramid	-11.7707
▁rash	-11.7707
▁recommends	-11.7707
▁refrigerated	-11.7707
▁refund	-11.7707
▁remarkable	-11.7707
▁repellent	-11.7707
▁resealable	-11.7707
▁reserve	-11.7707
▁reviewed	-11.7707
▁roaster	-11.7707
▁rough	-11.7707
▁routine	-11.7707
▁saccharin	-11.7707
▁savor	-11.7707
▁score	-11.7707
▁sens	-11.7707
▁shortage	-11.7707
▁sickly	-11.7707
▁sirloin	-11.7707
▁sit	-11.7707
▁situation	-11.7707
▁smarties	-11.7707
▁smokin	-11.7707
▁smoother	-11.7707
▁snapea	-11.7707
▁soooooooo	-11.7707
▁spain	-11.7707
▁spoonful	-11.7707
▁squid	-11.7707
▁steal	-11.7707
▁stem	-11.7707
▁stok	-11.7707
▁stretch	-11.7707
▁strike	-11.7707
▁strongest	-11.7707
▁suit	-11.7707
▁summertime	-11.7707
▁survival	-11.7707
▁taken	-11.7707
▁tamale	-11.7707
▁themselves	-11.7707
▁thunder	-11.7707
▁till	-11.7707
▁tire	-11.7707
▁tom	-11.7707
▁treatment	-11.7707
▁tum	-11.7707
▁twinnings	-11.7707
▁unable	-11.7707
▁unnatural	-11.7707
▁versus	-11.7707
▁vinci	-11.7707
▁vinturi	-11.7707
▁waggin	-11.7707
▁wallet	-11.7707
▁warming	-11.7707
▁weed	-11.7707
▁wide	-11.7707
▁wished	-11.7707
▁woo	-11.7707
▁worthington	-11.7707
▁yummmmmmm	-11.7707
▁yummmmy	-11.7707
▁zingy	-11.7707
▁acidity	-11.8577
▁act	-11.8577
▁admit	-11.8577
▁aerogrow	-11.8577
▁aged	-11.8577
▁aka	-11.8577
▁albanese	-11.8577
▁alternate	-11.8577
▁americolor	-11.8577
▁ancient	-11.8577
▁appreciate	-11.8577
▁appropriate	-11.8577
▁artifical	-11.8577
▁awfully	-11.8577
▁baja	-11.8577
▁beetle	-11.8577
▁beginning	-11.8577
▁bengal	-11.8577
▁bittersweet	-11.8577
▁bizarre	-11.8577
▁bladder	-11.8577
▁blame	-11.8577
▁bloom	-11.8577
▁blossom	-11.8577
▁bow	-11.8577
▁boyardee	-11.8577
▁breathe	-11.8577
▁brush	-11.8577
▁busted	-11.8577
▁carnivore	-11.8577
▁casserole	-11.8577
▁celsius	-11.8577
▁chop	-11.8577
▁chummies	-11.8577
▁cleanse	-11.8577
▁compostable	-11.8577
▁confection	-11.8577
▁cooler	-11.8577
▁counting	-11.8577
▁create	-11.8577
▁cross	-11.8577
▁crumble	-11.8577
▁cucumber	-11.8577
▁currently	-11.8577
▁dane	-11.8577
▁darned	-11.8577
▁davinci	-11.8577
▁dear	-11.8577
▁decision	-11.8577
▁depending	-11.8577
▁desk	-11.8577
▁disappeared	-11.8577
▁disguise	-11.8577
▁dose	-11.8577
▁drain	-11.8577
▁dud	-11.8577
▁duty	-11.8577
▁dvd	-11.8577
▁elbow	-11.8577
▁elderly	-11.8577
▁electric	-11.8577
▁ella	-11.8577
▁emerils	-11.8577
▁emptor	-11.8577
▁ese	-11.8577
▁esp	-11.8577
▁essentia	-11.8577
▁expiry	-11.8577
▁ez	-11.8577
▁fantastically	-11.8577
▁farro	-11.8577
▁fart	-11.8577
▁fattening	-11.8577
▁faves	-11.8577
▁fe	-11.8577
▁field	-11.8577
▁flash	-11.8577
▁flatbread	-11.8577
▁flavoured	-11.8577
▁flu	-11.8577
▁fluid	-11.8577
▁former	-11.8577
▁frappuccino	-11.8577
▁function	-11.8577
▁fussie	-11.8577
▁galil	-11.8577
▁geat	-11.8577
▁gerd	-11.8577
▁girlfriend	-11.8577
▁glace	-11.8577
▁glorified	-11.8577
▁glorious	-11.8577
▁gmos	-11.8577
▁grateful	-11.8577
▁grocer	-11.8577
▁grownup	-11.8577
▁guacamole	-11.8577
▁gym	-11.8577
▁hagen	-11.8577
▁hangover	-11.8577
▁harmful	-11.8577
▁healty	-11.8577
▁heritage	-11.8577
▁hexane	-11.8577
▁hines	-11.8577
▁hp	-11.8577
▁hungarian	-11.8577
▁ibs	-11.8577
▁iexcl	-11.8577
▁impress	-11.8577
▁inch	-11.8577
▁ineffective	-11.8577
▁invented	-11.8577
▁jel	-11.8577
▁jeremiah	-11.8577
▁joes	-11.8577
▁kamut	-11.8577
▁kap	-11.8577
▁kim	-11.8577
▁kracker	-11.8577
▁labeled	-11.8577
▁latest	-11.8577
▁lay	-11.8577
▁lesson	-11.8577
▁liter	-11.8577
▁lotsa	-11.8577
▁macaroon	-11.8577
▁mackerel	-11.8577
▁magnesium	-11.8577
▁magnificent	-11.8577
▁manna	-11.8577
▁manufactured	-11.8577
▁marley	-11.8577
▁masterpiece	-11.8577
▁metromint	-11.8577
▁mignon	-11.8577
▁minimum	-11.8577
▁miraculous	-11.8577
▁mmmmmmmmmm	-11.8577
▁mochi	-11.8577
▁monin	-11.8577
▁moo	-11.8577
▁motion	-11.8577
▁muir	-11.8577
▁muy	-11.8577
▁neuro	-11.8577
▁north	-11.8577
▁novice	-11.8577
▁nowhere	-11.8577
▁nutritionally	-11.8577
▁ocean	-11.8577
▁olde	-11.8577
▁oriental	-11.8577
▁oro	-11.8577
▁outdoor	-11.8577
▁overload	-11.8577
▁palmer	-11.8577
▁panettone	-11.8577
▁pasty	-11.8577
▁penne	-11.8577
▁performance	-11.8577
▁persian	-11.8577
▁perspective	-11.8577
▁piggy	-11.8577
▁popcorners	-11.8577
▁powering	-11.8577
▁precious	-11.8577
▁pressed	-11.8577
▁promptly	-11.8577
▁provide	-11.8577
▁provides	-11.8577
▁pucker	-11.8577
▁pumpernickel	-11.8577
▁rack	-11.8577
▁ramyun	-11.8577
▁refuse	-11.8577
▁resist	-11.8577
▁resolved	-11.8577
▁retailer	-11.8577
▁rootbeer	-11.8577
▁runner	-11.8577
▁scale	-11.8577
▁screw	-11.8577
▁sharing	-11.8577
▁shedding	-11.8577
▁shopper	-11.8577
▁siamese	-11.8577
▁skimpy	-11.8577
▁skinless	-11.8577
▁snapple	-11.8577
▁sooooooo	-11.8577
▁souchong	-11.8577
▁soynut	-11.8577
▁spiral	-11.8577
▁sportea	-11.8577
▁spritzer	-11.8577
▁stack	-11.8577
▁stellar	-11.8577
▁stephen	-11.8577
▁strongly	-11.8577
▁substance	-11.8577
▁successful	-11.8577
▁sucked	-11.8577
▁sucrose	-11.8577
▁sugared	-11.8577
▁sunkist	-11.8577
▁suprise	-11.8577
▁survive	-11.8577
▁sweeten	-11.8577
▁sylvia	-11.8577
▁synthetic	-11.8577
▁tab	-11.8577
▁tabouli	-11.8577
▁tastless	-11.8577
▁tasy	-11.8577
▁tellicherry	-11.8577
▁testing	-11.8577
▁thinner	-11.8577
▁throwing	-11.8577
▁tight	-11.8577
▁timer	-11.8577
▁toasty	-11.8577
▁tremendous	-11.8577
▁tripe	-11.8577
▁trusted	-11.8577
▁twig	-11.8577
▁unexpectedly	-11.8577
▁unimpressed	-11.8577
▁upper	-11.8577
▁vibrant	-11.8577
▁viva	-11.8577
▁waaay	-11.8577
▁waist	-11.8577
▁wal	-11.8577
▁warmed	-11.8577
▁web	-11.8577
▁westie	-11.8577
▁wisconsin	-11.8577
▁yi	-11.8577
▁aa	-11.9531
▁absurd	-11.9531
▁accent	-11.9531
▁accident	-11.9531
▁addictively	-11.9531
▁agreed	-11.9531
▁alaska	-11.9531
▁appeal	-11.9531
▁appreciation	-11.9531
▁aquired	-11.9531
▁arctic	-11.9531
▁arrangement	-11.9531
▁aside	-11.9531
▁avid	-11.9531
▁avocado	-11.9531
▁awake	-11.9531
▁babycook	-11.9531
▁band	-11.9531
▁barn	-11.9531
▁basis	-11.9531
▁beggin	-11.9531
▁bichon	-11.9531
▁bogus	-11.9531
▁breading	-11.9531
▁breastmilk	-11.9531
▁brit	-11.9531
▁bummed	-11.9531
▁bursting	-11.9531
▁cafix	-11.9531
▁canola	-11.9531
▁cascadian	-11.9531
▁chalk	-11.9531
▁character	-11.9531
▁chewed	-11.9531
▁chill	-11.9531
▁chive	-11.9531
▁cleansing	-11.9531
▁closer	-11.9531
▁coconutty	-11.9531
▁coffeee	-11.9531
▁collie	-11.9531
▁colman	-11.9531
▁compatible	-11.9531
▁controlled	-11.9531
▁converted	-11.9531
▁corgi	-11.9531
▁crackle	-11.9531
▁dated	-11.9531
▁decade	-11.9531
▁decaffinated	-11.9531
▁decide	-11.9531
▁deeelicious	-11.9531
▁deliscious	-11.9531
▁dente	-11.9531
▁dentyne	-11.9531
▁dependable	-11.9531
▁depth	-11.9531
▁developed	-11.9531
▁device	-11.9531
▁devine	-11.9531
▁dipped	-11.9531
▁disliked	-11.9531
▁ditto	-11.9531
▁don	-11.9531
▁doritos	-11.9531
▁dot	-11.9531
▁downright	-11.9531
▁dude	-11.9531
▁dumb	-11.9531
▁durkee	-11.9531
▁eczema	-11.9531
▁eggplant	-11.9531
▁egrave	-11.9531
▁equivalent	-11.9531
▁est	-11.9531
▁eww	-11.9531
▁excelente	-11.9531
▁exploding	-11.9531
▁facial	-11.9531
▁faux	-11.9531
▁feature	-11.9531
▁fee	-11.9531
▁fewer	-11.9531
▁finn	-11.9531
▁fizzies	-11.9531
▁flexible	-11.9531
▁floor	-11.9531
▁flowery	-11.9531
▁flying	-11.9531
▁folger	-11.9531
▁fraud	-11.9531
▁frothy	-11.9531
▁fudgy	-11.9531
▁furikake	-11.9531
▁generally	-11.9531
▁glee	-11.9531
▁glitter	-11.9531
▁gogo	-11.9531
▁grapeseed	-11.9531
▁grassy	-11.9531
▁groat	-11.9531
▁happens	-11.9531
▁happybaby	-11.9531
▁harmony	-11.9531
▁homestyle	-11.9531
▁huh	-11.9531
▁hunt	-11.9531
▁hydrate	-11.9531
▁ii	-11.9531
▁import	-11.9531
▁improves	-11.9531
▁increasing	-11.9531
▁index	-11.9531
▁indigestion	-11.9531
▁innovative	-11.9531
▁israeli	-11.9531
▁itch	-11.9531
▁jazzed	-11.9531
▁jury	-11.9531
▁justin	-11.9531
▁kava	-11.9531
▁kiddos	-11.9531
▁knox	-11.9531
▁koolaid	-11.9531
▁labrada	-11.9531
▁lakewood	-11.9531
▁lard	-11.9531
▁lasagne	-11.9531
▁legged	-11.9531
▁linguine	-11.9531
▁lock	-11.9531
▁loop	-11.9531
▁losing	-11.9531
▁lowfat	-11.9531
▁luxurious	-11.9531
▁macchiato	-11.9531
▁madras	-11.9531
▁mainly	-11.9531
▁maintenance	-11.9531
▁maltitol	-11.9531
▁malty	-11.9531
▁marker	-11.9531
▁mash	-11.9531
▁maypo	-11.9531
▁melting	-11.9531
▁menu	-11.9531
▁merchandise	-11.9531
▁merchant	-11.9531
▁metal	-11.9531
▁meyer	-11.9531
▁momma	-11.9531
▁musty	-11.9531
▁nibble	-11.9531
▁nog	-11.9531
▁noisy	-11.9531
▁nu	-11.9531
▁nutricity	-11.9531
▁nylabones	-11.9531
▁oatcake	-11.9531
▁obsession	-11.9531
▁opener	-11.9531
▁orchard	-11.9531
▁oregano	-11.9531
▁overpowers	-11.9531
▁paneer	-11.9531
▁pass	-11.9531
▁payday	-11.9531
▁pc	-11.9531
▁pike	-11.9531
▁positively	-11.9531
▁postage	-11.9531
▁potter	-11.9531
▁pregnancy	-11.9531
▁producer	-11.9531
▁protection	-11.9531
▁provence	-11.9531
▁que	-11.9531
▁quintessential	-11.9531
▁random	-11.9531
▁reduces	-11.9531
▁relationship	-11.9531
▁reminiscent	-11.9531
▁replaces	-11.9531
▁reusable	-11.9531
▁revised	-11.9531
▁roasting	-11.9531
▁rockstar	-11.9531
▁rossa	-11.9531
▁schar	-11.9531
▁scratcher	-11.9531
▁serf	-11.9531
▁server	-11.9531
▁settle	-11.9531
▁shoe	-11.9531
▁sicilian	-11.9531
▁silly	-11.9531
▁sleeping	-11.9531
▁sneaky	-11.9531
▁sock	-11.9531
▁somebody	-11.9531
▁sorta	-11.9531
▁spagetti	-11.9531
▁sparkle	-11.9531
▁spent	-11.9531
▁splinter	-11.9531
▁starburst	-11.9531
▁stocked	-11.9531
▁strangely	-11.9531
▁stunning	-11.9531
▁stylish	-11.9531
▁subtly	-11.9531
▁sweat	-11.9531
▁swirl	-11.9531
▁ta	-11.9531
▁tac	-11.9531
▁tamarind	-11.9531
▁tangle	-11.9531
▁teen	-11.9531
▁teenie	-11.9531
▁temperature	-11.9531
▁tempting	-11.9531
▁tequila	-11.9531
▁thankful	-11.9531
▁thickness	-11.9531
▁thoroughly	-11.9531
▁tidy	-11.9531
▁tomatoe	-11.9531
▁tony	-11.9531
▁track	-11.9531
▁trial	-11.9531
▁troop	-11.9531
▁tv	-11.9531
▁twisted	-11.9531
▁underwhelmed	-11.9531
▁uniquely	-11.9531
▁unremarkable	-11.9531
▁unusable	-11.9531
▁vacation	-11.9531
▁variable	-11.9531
▁varies	-11.9531
▁verified	-11.9531
▁volumizing	-11.9531
▁waking	-11.9531
▁war	-11.9531
▁wasteful	-11.9531
▁wear	-11.9531
▁wee	-11.9531
▁wheatgrass	-11.9531
▁willing	-11.9531
▁wimpy	-11.9531
▁wondering	-11.9531
▁wu	-11.9531
▁zealand	-11.9531
▁zipfizz	-11.9531
▁abc	-12.0584
▁accessory	-12.0584
▁ache	-12.0584
▁acre	-12.0584
▁advice	-12.0584
▁affect	-12.0584
▁alaskan	-12.0584
▁alessi	-12.0584
▁alton	-12.0584
▁altura	-12.0584
▁anniversary	-12.0584
▁appear	-12.0584
▁ash	-12.0584
▁asia	-12.0584
▁australian	-12.0584
▁avoderm	-12.0584
▁baconnaise	-12.0584
▁badia	-12.0584
▁belgium	-12.0584
▁belt	-12.0584
▁berg	-12.0584
▁blessing	-12.0584
▁boil	-12.0584
▁bos	-12.0584
▁boysenberry	-12.0584
▁breeder	-12.0584
▁bridge	-12.0584
▁bros	-12.0584
▁ca	-12.0584
▁capital	-12.0584
▁carpet	-12.0584
▁cd	-12.0584
▁century	-12.0584
▁cheat	-12.0584
▁cheated	-12.0584
▁chewable	-12.0584
▁choke	-12.0584
▁chomp	-12.0584
▁claimed	-12.0584
▁clothes	-12.0584
▁cloud	-12.0584
▁cloying	-12.0584
▁colombia	-12.0584
▁columbia	-12.0584
▁confirmed	-12.0584
▁contest	-12.0584
▁continues	-12.0584
▁conveniently	-12.0584
▁copper	-12.0584
▁cornmeal	-12.0584
▁cr	-12.0584
▁creation	-12.0584
▁creole	-12.0584
▁critical	-12.0584
▁crumby	-12.0584
▁cutting	-12.0584
▁dab	-12.0584
▁daddy	-12.0584
▁deee	-12.0584
▁deeeelicious	-12.0584
▁demi	-12.0584
▁desperate	-12.0584
▁disappear	-12.0584
▁discover	-12.0584
▁display	-12.0584
▁dos	-12.0584
▁du	-12.0584
▁dummy	-12.0584
▁eagle	-12.0584
▁earlier	-12.0584
▁eatin	-12.0584
▁edit	-12.0584
▁energizer	-12.0584
▁enthusiast	-12.0584
▁erewhon	-12.0584
▁explosive	-12.0584
▁festive	-12.0584
▁feta	-12.0584
▁fiesta	-12.0584
▁filtered	-12.0584
▁flan	-12.0584
▁focus	-12.0584
▁foreign	-12.0584
▁freak	-12.0584
▁front	-12.0584
▁furniture	-12.0584
▁fusilli	-12.0584
▁glen	-12.0584
▁gm	-12.0584
▁grail	-12.0584
▁granny	-12.0584
▁haggis	-12.0584
▁hallelujah	-12.0584
▁handful	-12.0584
▁heartland	-12.0584
▁heathy	-12.0584
▁heavily	-12.0584
▁henry	-12.0584
▁hiking	-12.0584
▁hoisin	-12.0584
▁hollow	-12.0584
▁honeybush	-12.0584
▁hoof	-12.0584
▁horrendous	-12.0584
▁hostess	-12.0584
▁incorrectly	-12.0584
▁indulgent	-12.0584
▁infused	-12.0584
▁instantly	-12.0584
▁irresistable	-12.0584
▁ito	-12.0584
▁jade	-12.0584
▁ka	-12.0584
▁kale	-12.0584
▁kili	-12.0584
▁kix	-12.0584
▁kronung	-12.0584
▁laden	-12.0584
▁leftover	-12.0584
▁lindor	-12.0584
▁liqueur	-12.0584
▁lively	-12.0584
▁log	-12.0584
▁lunchboxes	-12.0584
▁lush	-12.0584
▁mainstream	-12.0584
▁male	-12.0584
▁manner	-12.0584
▁maya	-12.0584
▁mccoy	-12.0584
▁milky	-12.0584
▁minestrone	-12.0584
▁miniature	-12.0584
▁mmmmmmmmm	-12.0584
▁mocafe	-12.0584
▁model	-12.0584
▁mojo	-12.0584
▁moka	-12.0584
▁monitor	-12.0584
▁moroccan	-12.0584
▁mosquito	-12.0584
▁mound	-12.0584
▁multipurpose	-12.0584
▁neighbor	-12.0584
▁nightmare	-12.0584
▁nine	-12.0584
▁nougat	-12.0584
▁official	-12.0584
▁orbit	-12.0584
▁organix	-12.0584
▁organizer	-12.0584
▁orgran	-12.0584
▁orzo	-12.0584
▁overcooked	-12.0584
▁oxidant	-12.0584
▁pat	-12.0584
▁pebble	-12.0584
▁pen	-12.0584
▁peri	-12.0584
▁perky	-12.0584
▁po	-12.0584
▁primal	-12.0584
▁purr	-12.0584
▁ramune	-12.0584
▁rat	-12.0584
▁redbull	-12.0584
▁redenbacher	-12.0584
▁regularly	-12.0584
▁remind	-12.0584
▁removed	-12.0584
▁renal	-12.0584
▁replaced	-12.0584
▁republic	-12.0584
▁responsive	-12.0584
▁rising	-12.0584
▁ritter	-12.0584
▁rival	-12.0584
▁sage	-12.0584
▁sampling	-12.0584
▁savior	-12.0584
▁sex	-12.0584
▁shaker	-12.0584
▁shocking	-12.0584
▁shoulder	-12.0584
▁shoyu	-12.0584
▁siberian	-12.0584
▁sigh	-12.0584
▁snacker	-12.0584
▁soak	-12.0584
▁sounded	-12.0584
▁specie	-12.0584
▁spectrum	-12.0584
▁spiciness	-12.0584
▁spill	-12.0584
▁spirit	-12.0584
▁stage	-12.0584
▁standing	-12.0584
▁starving	-12.0584
▁steamed	-12.0584
▁stong	-12.0584
▁stout	-12.0584
▁stream	-12.0584
▁stride	-12.0584
▁stripe	-12.0584
▁sublime	-12.0584
▁suggested	-12.0584
▁sum	-12.0584
▁sunday	-12.0584
▁sustainable	-12.0584
▁swear	-12.0584
▁sweetening	-12.0584
▁symptom	-12.0584
▁tall	-12.0584
▁tam	-12.0584
▁tandoori	-12.0584
▁teabag	-12.0584
▁teff	-12.0584
▁temp	-12.0584
▁thickener	-12.0584
▁ticket	-12.0584
▁tobacco	-12.0584
▁tolerable	-12.0584
▁toothpaste	-12.0584
▁torrone	-12.0584
▁transit	-12.0584
▁triscuits	-12.0584
▁truely	-12.0584
▁tuscan	-12.0584
▁unappealing	-12.0584
▁unnecessary	-12.0584
▁usable	-12.0584
▁vera	-12.0584
▁vernors	-12.0584
▁vidalia	-12.0584
▁vintage	-12.0584
▁walkerswood	-12.0584
▁weaker	-12.0584
▁whisker	-12.0584
▁worker	-12.0584
▁writer	-12.0584
▁ziwipeak	-12.0584
▁zotz	-12.0584
▁advance	-12.1762
▁advised	-12.1762
▁aero	-12.1762
▁aficionado	-12.1762
▁ahh	-12.1762
▁ahhhh	-12.1762
▁aloha	-12.1762
▁angostura	-12.1762
▁anxiety	-12.1762
▁appearance	-12.1762
▁april	-12.1762
▁arf	-12.1762
▁arrowroot	-12.1762
▁asthma	-12.1762
▁astronaut	-12.1762
▁babe	-12.1762
▁bali	-12.1762
▁barista	-12.1762
▁becoming	-12.1762
▁begging	-12.1762
▁bestest	-12.1762
▁bitty	-12.1762
▁blackcurrant	-12.1762
▁blooming	-12.1762
▁blown	-12.1762
▁boiled	-12.1762
▁bole	-12.1762
▁bouncy	-12.1762
▁branston	-12.1762
▁brine	-12.1762
▁buffet	-12.1762
▁bush	-12.1762
▁bust	-12.1762
▁cadet	-12.1762
▁campfire	-12.1762
▁carbohydrate	-12.1762
▁carbon	-12.1762
▁cassia	-12.1762
▁cdm	-12.1762
▁certo	-12.1762
▁chang	-12.1762
▁charger	-12.1762
▁chickpea	-12.1762
▁chiclets	-12.1762
▁chime	-12.1762
▁chronic	-12.1762
▁cilantro	-12.1762
▁cinnamony	-12.1762
▁clay	-12.1762
▁code	-12.1762
▁coin	-12.1762
▁collector	-12.1762
▁compliment	-12.1762
▁conditioning	-12.1762
▁coo	-12.1762
▁corned	-12.1762
▁corner	-12.1762
▁cornflakes	-12.1762
▁cozy	-12.1762
▁crate	-12.1762
▁creates	-12.1762
▁crunchier	-12.1762
▁crunchmaster	-12.1762
▁curb	-12.1762
▁curd	-12.1762
▁cycling	-12.1762
▁dale	-12.1762
▁dalfour	-12.1762
▁deboles	-12.1762
▁demerara	-12.1762
▁dentastix	-12.1762
▁devoured	-12.1762
▁differ	-12.1762
▁diner	-12.1762
▁disgustingly	-12.1762
▁dishwasher	-12.1762
▁dishwater	-12.1762
▁dissapointment	-12.1762
▁doctoring	-12.1762
▁downhill	-12.1762
▁doxy	-12.1762
▁dozen	-12.1762
▁dreamy	-12.1762
▁dress	-12.1762
▁dublin	-12.1762
▁earthborn	-12.1762
▁elderberry	-12.1762
▁endurance	-12.1762
▁energetic	-12.1762
▁enjoyment	-12.1762
▁entertained	-12.1762
▁envelope	-12.1762
▁envirokidz	-12.1762
▁epic	-12.1762
▁ethiopian	-12.1762
▁eureka	-12.1762
▁evar	-12.1762
▁exclusive	-12.1762
▁exercise	-12.1762
▁exploded	-12.1762
▁fajitas	-12.1762
▁faster	-12.1762
▁favs	-12.1762
▁ferrero	-12.1762
▁ferret	-12.1762
▁fido	-12.1762
▁flavorfull	-12.1762
▁floss	-12.1762
▁fluff	-12.1762
▁fondarific	-12.1762
▁frequent	-12.1762
▁fromm	-12.1762
▁fruitables	-12.1762
▁fulfilling	-12.1762
▁gardening	-12.1762
▁genmai	-12.1762
▁genova	-12.1762
▁germ	-12.1762
▁germination	-12.1762
▁gran	-12.1762
▁grandpa	-12.1762
▁granule	-12.1762
▁greece	-12.1762
▁guar	-12.1762
▁guayaki	-12.1762
▁gun	-12.1762
▁gyro	-12.1762
▁halal	-12.1762
▁hardy	-12.1762
▁havahart	-12.1762
▁heath	-12.1762
▁hesitate	-12.1762
▁higgins	-12.1762
▁highland	-12.1762
▁honeycomb	-12.1762
▁horrific	-12.1762
▁hotdog	-12.1762
▁hr	-12.1762
▁hunk	-12.1762
▁ibd	-12.1762
▁impression	-12.1762
▁indestructible	-12.1762
▁infested	-12.1762
▁inner	-12.1762
▁intensely	-12.1762
▁jake	-12.1762
▁jellybeans	-12.1762
▁jif	-12.1762
▁johnny	-12.1762
▁joyva	-12.1762
▁junky	-12.1762
▁justify	-12.1762
▁kellogs	-12.1762
▁kernals	-12.1762
▁kickin	-12.1762
▁kingdom	-12.1762
▁koala	-12.1762
▁lace	-12.1762
▁lactation	-12.1762
▁lane	-12.1762
▁lanka	-12.1762
▁lava	-12.1762
▁lined	-12.1762
▁location	-12.1762
▁lorann	-12.1762
▁lovin	-12.1762
▁lump	-12.1762
▁luvs	-12.1762
▁lyle	-12.1762
▁maggot	-12.1762
▁magnet	-12.1762
▁mahogany	-12.1762
▁management	-12.1762
▁marble	-12.1762
▁mastiff	-12.1762
▁mat	-12.1762
▁mcvities	-12.1762
▁medjool	-12.1762
▁merlot	-12.1762
▁messed	-12.1762
▁milled	-12.1762
▁ml	-12.1762
▁mmmmmmmmmmm	-12.1762
▁modified	-12.1762
▁moisturizes	-12.1762
▁monde	-12.1762
▁mouthful	-12.1762
▁muddy	-12.1762
▁mutt	-12.1762
▁nastiest	-12.1762
▁nc	-12.1762
▁needing	-12.1762
▁nerd	-12.1762
▁nervous	-12.1762
▁ness	-12.1762
▁nicer	-12.1762
▁nonetheless	-12.1762
▁nonfat	-12.1762
▁oak	-12.1762
▁officially	-12.1762
▁ooh	-12.1762
▁organically	-12.1762
▁organo	-12.1762
▁oscar	-12.1762
▁ought	-12.1762
▁ours	-12.1762
▁pa	-12.1762
▁pair	-12.1762
▁pal	-12.1762
▁pappy	-12.1762
▁partner	-12.1762
▁pee	-12.1762
▁pepperidge	-12.1762
▁perk	-12.1762
▁pesticide	-12.1762
▁phenominal	-12.1762
▁plane	-12.1762
▁poisoning	-12.1762
▁polar	-12.1762
▁poppin	-12.1762
▁potentially	-12.1762
▁potion	-12.1762
▁prairie	-12.1762
▁prayer	-12.1762
▁prefect	-12.1762
▁prepackaged	-12.1762
▁prescription	-12.1762
▁prickly	-12.1762
▁primary	-12.1762
▁princess	-12.1762
▁progresso	-12.1762
▁property	-12.1762
▁proud	-12.1762
▁pulling	-12.1762
▁pulpy	-12.1762
▁purrfectly	-12.1762
▁quart	-12.1762
▁raise	-12.1762
▁realize	-12.1762
▁refresher	-12.1762
▁rehab	-12.1762
▁relieved	-12.1762
▁rendang	-12.1762
▁repellant	-12.1762
▁replacer	-12.1762
▁reservation	-12.1762
▁returnable	-12.1762
▁ribbon	-12.1762
▁rocket	-12.1762
▁rubbery	-12.1762
▁ryvita	-12.1762
▁sachet	-12.1762
▁sambazon	-12.1762
▁sanity	-12.1762
▁sans	-12.1762
▁satisified	-12.1762
▁sauerkraut	-12.1762
▁section	-12.1762
▁seemingly	-12.1762
▁seitan	-12.1762
▁semolina	-12.1762
▁separate	-12.1762
▁shorted	-12.1762
▁shred	-12.1762
▁skunk	-12.1762
▁slurp	-12.1762
▁snapper	-12.1762
▁sparingly	-12.1762
▁specific	-12.1762
▁spilled	-12.1762
▁splurge	-12.1762
▁sri	-12.1762
▁stevita	-12.1762
▁styrofoam	-12.1762
▁succulent	-12.1762
▁suckin	-12.1762
▁suisse	-12.1762
▁suited	-12.1762
▁suspect	-12.1762
▁swanson	-12.1762
▁sweetest	-12.1762
▁teddy	-12.1762
▁tendon	-12.1762
▁terra	-12.1762
▁texmati	-12.1762
▁thankfully	-12.1762
▁thinkthin	-12.1762
▁thriving	-12.1762
▁tier	-12.1762
▁til	-12.1762
▁toilet	-12.1762
▁tooo	-12.1762
▁tooooo	-12.1762
▁transition	-12.1762
▁tweaking	-12.1762
▁twinkie	-12.1762
▁twix	-12.1762
▁unappetizing	-12.1762
▁unavailable	-12.1762
▁unflavored	-12.1762
▁unknown	-12.1762
▁unpalatable	-12.1762
▁unreal	-12.1762
▁upgrade	-12.1762
▁utz	-12.1762
▁vacuum	-12.1762
▁vermicelli	-12.1762
▁verry	-12.1762
▁vinegary	-12.1762
▁virtually	-12.1762
▁watkins	-12.1762
▁weaver	-12.1762
▁whenever	-12.1762
▁whether	-12.1762
▁wowee	-12.1762
▁wuyi	-12.1762
▁yakisoba	-12.1762
▁yard	-12.1762
▁yesterday	-12.1762
▁yumyum	-12.1762
▁zest	-12.1762
▁accept	-12.3097
▁adulterated	-12.3097
▁advertise	-12.3097
▁aging	-12.3097
▁agrees	-12.3097
▁airline	-12.3097
▁alfalfa	-12.3097
▁alittle	-12.3097
▁allows	-12.3097
▁alphabet	-12.3097
▁altoid	-12.3097
▁amino	-12.3097
▁amore	-12.3097
▁ancho	-12.3097
▁anne	-12.3097
▁annoying	-12.3097
▁anonymous	-12.3097
▁approach	-12.3097
▁aptly	-12.3097
▁arriba	-12.3097
▁aspen	-12.3097
▁attempt	-12.3097
▁attract	-12.3097
▁aussie	-12.3097
▁babyfood	-12.3097
▁backup	-12.3097
▁bariani	-12.3097
▁barilla	-12.3097
▁barrel	-12.3097
▁bartender	-12.3097
▁beam	-12.3097
▁beast	-12.3097
▁becareful	-12.3097
▁begs	-12.3097
▁belief	-12.3097
▁bff	-12.3097
▁bht	-12.3097
▁bil	-12.3097
▁biodegradable	-12.3097
▁birch	-12.3097
▁bleck	-12.3097
▁blonde	-12.3097
▁bored	-12.3097
▁bowser	-12.3097
▁brainer	-12.3097
▁breastfeeding	-12.3097
▁britain	-12.3097
▁broadway	-12.3097
▁brookside	-12.3097
▁brussel	-12.3097
▁bucket	-12.3097
▁building	-12.3097
▁burke	-12.3097
▁callard	-12.3097
▁cals	-12.3097
▁cancel	-12.3097
▁candle	-12.3097
▁captain	-12.3097
▁carrageenan	-12.3097
▁casein	-12.3097
▁catsup	-12.3097
▁ch	-12.3097
▁charlie	-12.3097
▁charming	-12.3097
▁cheeseburger	-12.3097
▁cheeze	-12.3097
▁chik	-12.3097
▁cinn	-12.3097
▁cinnabon	-12.3097
▁circle	-12.3097
▁cleared	-12.3097
▁clementine	-12.3097
▁client	-12.3097
▁coach	-12.3097
▁cobbler	-12.3097
▁cod	-12.3097
▁coffeemate	-12.3097
▁colic	-12.3097
▁competitor	-12.3097
▁confession	-12.3097
▁consideration	-12.3097
▁considered	-12.3097
▁containing	-12.3097
▁contaminated	-12.3097
▁contender	-12.3097
▁conventional	-12.3097
▁conversation	-12.3097
▁convienent	-12.3097
▁convient	-12.3097
▁convinced	-12.3097
▁crabmeat	-12.3097
▁crawler	-12.3097
▁cricket	-12.3097
▁cutter	-12.3097
▁dal	-12.3097
▁dallmayr	-12.3097
▁dancing	-12.3097
▁dandelion	-12.3097
▁darling	-12.3097
▁dashi	-12.3097
▁dececco	-12.3097
▁deceived	-12.3097
▁decently	-12.3097
▁deeply	-12.3097
▁delicacy	-12.3097
▁delizioso	-12.3097
▁deployed	-12.3097
▁designer	-12.3097
▁destroy	-12.3097
▁di	-12.3097
▁digestable	-12.3097
▁digging	-12.3097
▁diluted	-12.3097
▁dimension	-12.3097
▁disappearing	-12.3097
▁disclaimer	-12.3097
▁dishonest	-12.3097
▁disk	-12.3097
▁dispensing	-12.3097
▁disposal	-12.3097
▁dissolving	-12.3097
▁ditch	-12.3097
▁doh	-12.3097
▁dropped	-12.3097
▁droste	-12.3097
▁dukan	-12.3097
▁duke	-12.3097
▁eastern	-12.3097
▁eboost	-12.3097
▁economic	-12.3097
▁elk	-12.3097
▁elusive	-12.3097
▁enhancing	-12.3097
▁enthusiastic	-12.3097
▁enzymatic	-12.3097
▁equipment	-12.3097
▁evenly	-12.3097
▁example	-12.3097
▁familiar	-12.3097
▁fantabulous	-12.3097
▁fantasic	-12.3097
▁fantastico	-12.3097
▁fermented	-12.3097
▁fertilizer	-12.3097
▁figured	-12.3097
▁film	-12.3097
▁finer	-12.3097
▁fitness	-12.3097
▁flavourful	-12.3097
▁flight	-12.3097
▁fo	-12.3097
▁formerly	-12.3097
▁frenchie	-12.3097
▁gamble	-12.3097
▁garam	-12.3097
▁gardenia	-12.3097
▁garlicky	-12.3097
▁glory	-12.3097
▁goodlife	-12.3097
▁goof	-12.3097
▁goooooood	-12.3097
▁grandchild	-12.3097
▁grossly	-12.3097
▁grreat	-12.3097
▁hammer	-12.3097
▁hanover	-12.3097
▁hartz	-12.3097
▁hear	-12.3097
▁hero	-12.3097
▁highlander	-12.3097
▁hing	-12.3097
▁hippo	-12.3097
▁history	-12.3097
▁hog	-12.3097
▁hotel	-12.3097
▁hugger	-12.3097
▁hunter	-12.3097
▁hurricane	-12.3097
▁hydrated	-12.3097
▁ignored	-12.3097
▁impact	-12.3097
▁indispensable	-12.3097
▁inducing	-12.3097
▁informed	-12.3097
▁infuser	-12.3097
▁initial	-12.3097
▁ink	-12.3097
▁inn	-12.3097
▁install	-12.3097
▁investment	-12.3097
▁irritation	-12.3097
▁itching	-12.3097
▁izzy	-12.3097
▁jac	-12.3097
▁jewel	-12.3097
▁joking	-12.3097
▁joseph	-12.3097
▁junket	-12.3097
▁jus	-12.3097
▁kaps	-12.3097
▁kellog	-12.3097
▁kenyan	-12.3097
▁kiddo	-12.3097
▁killing	-12.3097
▁kluski	-12.3097
▁knee	-12.3097
▁korea	-12.3097
▁kudos	-12.3097
▁kuerig	-12.3097
▁labor	-12.3097
▁labrador	-12.3097
▁lackluster	-12.3097
▁lara	-12.3097
▁layer	-12.3097
▁league	-12.3097
▁legal	-12.3097
▁legend	-12.3097
▁lesser	-12.3097
▁li	-12.3097
▁liar	-12.3097
▁lickety	-12.3097
▁lightweight	-12.3097
▁likey	-12.3097
▁lingering	-12.3097
▁loud	-12.3097
▁mae	-12.3097
▁maman	-12.3097
▁mammoth	-12.3097
▁marginal	-12.3097
▁marie	-12.3097
▁marshall	-12.3097
▁massive	-12.3097
▁material	-12.3097
▁mature	-12.3097
▁measurement	-12.3097
▁mediterranean	-12.3097
▁megafudge	-12.3097
▁mein	-12.3097
▁mention	-12.3097
▁mesquite	-12.3097
▁mikey	-12.3097
▁milkshake	-12.3097
▁misrepresentation	-12.3097
▁mist	-12.3097
▁molly	-12.3097
▁moore	-12.3097
▁morocco	-12.3097
▁morton	-12.3097
▁moscato	-12.3097
▁mystic	-12.3097
▁nescaf	-12.3097
▁newborn	-12.3097
▁newest	-12.3097
▁nonni	-12.3097
▁ntilde	-12.3097
▁nutrasweet	-12.3097
▁nutri	-12.3097
▁nuttzo	-12.3097
▁object	-12.3097
▁occupied	-12.3097
▁october	-12.3097
▁officepro	-12.3097
▁ohhh	-12.3097
▁oooh	-12.3097
▁oskri	-12.3097
▁overweight	-12.3097
▁pale	-12.3097
▁parchment	-12.3097
▁park	-12.3097
▁parker	-12.3097
▁particle	-12.3097
▁passionfruit	-12.3097
▁patience	-12.3097
▁peak	-12.3097
▁peanutty	-12.3097
▁peeled	-12.3097
▁peet	-12.3097
▁pekinese	-12.3097
▁pep	-12.3097
▁percent	-12.3097
▁perfecto	-12.3097
▁perfumed	-12.3097
▁perrier	-12.3097
▁personally	-12.3097
▁perugina	-12.3097
▁pete	-12.3097
▁petrodex	-12.3097
▁petroleum	-12.3097
▁phoenix	-12.3097
▁pic	-12.3097
▁pimento	-12.3097
▁pin	-12.3097
▁placed	-12.3097
▁plato	-12.3097
▁ploy	-12.3097
▁poke	-12.3097
▁polish	-12.3097
▁pomeranian	-12.3097
▁popchip	-12.3097
▁popsicle	-12.3097
▁potty	-12.3097
▁pounce	-12.3097
▁president	-12.3097
▁prevents	-12.3097
▁pricier	-12.3097
▁pride	-12.3097
▁prone	-12.3097
▁proven	-12.3097
▁provided	-12.3097
▁putrid	-12.3097
▁quest	-12.3097
▁raccoon	-12.3097
▁ranchero	-12.3097
▁raving	-12.3097
▁reach	-12.3097
▁record	-12.3097
▁refrigeration	-12.3097
▁reg	-12.3097
▁rejected	-12.3097
▁remains	-12.3097
▁request	-12.3097
▁reuse	-12.3097
▁riceselect	-12.3097
▁richer	-12.3097
▁richest	-12.3097
▁richly	-12.3097
▁rotisserie	-12.3097
▁rusk	-12.3097
▁ruth	-12.3097
▁saco	-12.3097
▁salame	-12.3097
▁sanka	-12.3097
▁scared	-12.3097
▁scarpetta	-12.3097
▁schedule	-12.3097
▁scotland	-12.3097
▁scottie	-12.3097
▁screen	-12.3097
▁screwed	-12.3097
▁seitenbacher	-12.3097
▁sexy	-12.3097
▁shark	-12.3097
▁showed	-12.3097
▁si	-12.3097
▁sight	-12.3097
▁sin	-12.3097
▁slime	-12.3097
▁slimey	-12.3097
▁sliver	-12.3097
▁sneak	-12.3097
▁sniff	-12.3097
▁snyders	-12.3097
▁sourced	-12.3097
▁spa	-12.3097
▁speak	-12.3097
▁spider	-12.3097
▁sponge	-12.3097
▁sprayer	-12.3097
▁sprite	-12.3097
▁squash	-12.3097
▁squirt	-12.3097
▁stake	-12.3097
▁steaming	-12.3097
▁steaz	-12.3097
▁stonewall	-12.3097
▁street	-12.3097
▁strictly	-12.3097
▁stroganoff	-12.3097
▁substitution	-12.3097
▁suger	-12.3097
▁sulfur	-12.3097
▁sunrise	-12.3097
▁superlative	-12.3097
▁supremo	-12.3097
▁surely	-12.3097
▁taiwan	-12.3097
▁tale	-12.3097
▁tao	-12.3097
▁tase	-12.3097
▁tastiness	-12.3097
▁tasts	-12.3097
▁teapot	-12.3097
▁teeny	-12.3097
▁teh	-12.3097
▁theory	-12.3097
▁tikka	-12.3097
▁toddy	-12.3097
▁unbearably	-12.3097
▁unclear	-12.3097
▁undecided	-12.3097
▁unfrosted	-12.3097
▁unite	-12.3097
▁unsafe	-12.3097
▁unsealed	-12.3097
▁veggiedent	-12.3097
▁vender	-12.3097
▁veri	-12.3097
▁village	-12.3097
▁virbac	-12.3097
▁vomited	-12.3097
▁wabash	-12.3097
▁wakeup	-12.3097
▁warms	-12.3097
▁warrior	-12.3097
▁washington	-12.3097
▁weber	-12.3097
▁wedderspoon	-12.3097
▁weekend	-12.3097
▁western	-12.3097
▁whisky	-12.3097
▁woeber	-12.3097
▁woody	-12.3097
▁written	-12.3097
▁xylosweet	-12.3097
▁yamamotoyama	-12.3097
▁yech	-12.3097
▁yoo	-12.3097
▁younger	-12.3097
▁yukky	-12.3097
▁yums	-12.3097
▁abby	-12.4639
▁absinthe	-12.4639
▁accepted	-12.4639
▁accompaniment	-12.4639
▁ack	-12.4639
▁activity	-12.4639
▁adagio	-12.4639
▁addictingly	-12.4639
▁advise	-12.4639
▁aesthetically	-12.4639
▁afghanistan	-12.4639
▁aide	-12.4639
▁ail	-12.4639
▁airy	-12.4639
▁albeit	-12.4639
▁alpen	-12.4639
▁amazin	-12.4639
▁answered	-12.4639
▁anthon	-12.4639
▁applewood	-12.4639
▁application	-12.4639
▁arabica	-12.4639
▁arcor	-12.4639
▁article	-12.4639
▁asks	-12.4639
▁autoship	-12.4639
▁avoiding	-12.4639
▁awfull	-12.4639
▁awkward	-12.4639
▁az	-12.4639
▁baba	-12.4639
▁bachelor	-12.4639
▁bacony	-12.4639
▁bailey	-12.4639
▁barbara	-12.4639
▁barf	-12.4639
▁becomes	-12.4639
▁beefeater	-12.4639
▁behalf	-12.4639
▁bellagio	-12.4639
▁bent	-12.4639
▁bertie	-12.4639
▁betcha	-12.4639
▁bike	-12.4639
▁bionaturae	-12.4639
▁biryani	-12.4639
▁bj	-12.4639
▁blackened	-12.4639
▁blessed	-12.4639
▁bleu	-12.4639
▁blu	-12.4639
▁bolder	-12.4639
▁bonanza	-12.4639
▁bonkers	-12.4639
▁bonne	-12.4639
▁bounty	-12.4639
▁braided	-12.4639
▁brezza	-12.4639
▁brian	-12.4639
▁bugle	-12.4639
▁build	-12.4639
▁bullet	-12.4639
▁bullion	-12.4639
▁bump	-12.4639
▁butterfinger	-12.4639
▁cabbage	-12.4639
▁camano	-12.4639
▁candybar	-12.4639
▁canning	-12.4639
▁cardamon	-12.4639
▁carried	-12.4639
▁cavender	-12.4639
▁cc	-12.4639
▁cecco	-12.4639
▁celebrate	-12.4639
▁challenging	-12.4639
▁charged	-12.4639
▁charlee	-12.4639
▁chee	-12.4639
▁cheezy	-12.4639
▁chemically	-12.4639
▁cheri	-12.4639
▁chewey	-12.4639
▁chicago	-12.4639
▁chilies	-12.4639
▁clark	-12.4639
▁closed	-12.4639
▁cloyingly	-12.4639
▁cocunut	-12.4639
▁collectable	-12.4639
▁colorado	-12.4639
▁complaining	-12.4639
▁component	-12.4639
▁compost	-12.4639
▁composting	-12.4639
▁concentration	-12.4639
▁concur	-12.4639
▁confusion	-12.4639
▁congestion	-12.4639
▁conscience	-12.4639
▁construction	-12.4639
▁contamination	-12.4639
▁cooling	-12.4639
▁cooper	-12.4639
▁corazonas	-12.4639
▁cordial	-12.4639
▁coriander	-12.4639
▁craft	-12.4639
▁creamiest	-12.4639
▁crispies	-12.4639
▁critic	-12.4639
▁crop	-12.4639
▁crow	-12.4639
▁crush	-12.4639
▁crusty	-12.4639
▁crystalized	-12.4639
▁culture	-12.4639
▁curious	-12.4639
▁custom	-12.4639
▁daisy	-12.4639
▁daybreak	-12.4639
▁deception	-12.4639
▁deeeeelicious	-12.4639
▁delallo	-12.4639
▁delite	-12.4639
▁differently	-12.4639
▁diggity	-12.4639
▁dilute	-12.4639
▁dinty	-12.4639
▁discriminating	-12.4639
▁disgusted	-12.4639
▁dispense	-12.4639
▁distraction	-12.4639
▁distribution	-12.4639
▁dole	-12.4639
▁domestic	-12.4639
▁domino	-12.4639
▁dop	-12.4639
▁downside	-12.4639
▁dripping	-12.4639
▁driver	-12.4639
▁dynamite	-12.4639
▁echinacea	-12.4639
▁edamame	-12.4639
▁ekojava	-12.4639
▁eliminate	-12.4639
▁email	-12.4639
▁emergen	-12.4639
▁endangered	-12.4639
▁engaging	-12.4639
▁enhanced	-12.4639
▁enhances	-12.4639
▁eukanuba	-12.4639
▁evaluation	-12.4639
▁evangers	-12.4639
▁ewwwww	-12.4639
▁excess	-12.4639
▁exist	-12.4639
▁exists	-12.4639
▁experimenting	-12.4639
▁explodes	-12.4639
▁facility	-12.4639
▁familia	-12.4639
▁fatal	-12.4639
▁favored	-12.4639
▁feeder	-12.4639
▁fern	-12.4639
▁ferrara	-12.4639
▁ff	-12.4639
▁ficus	-12.4639
▁fighting	-12.4639
▁fisher	-12.4639
▁fishies	-12.4639
▁fl	-12.4639
▁flapjack	-12.4639
▁flashback	-12.4639
▁flor	-12.4639
▁florentine	-12.4639
▁flow	-12.4639
▁foam	-12.4639
▁fong	-12.4639
▁fork	-12.4639
▁fox	-12.4639
▁fran	-12.4639
▁fred	-12.4639
▁freshener	-12.4639
▁frustrating	-12.4639
▁ful	-12.4639
▁fulfillment	-12.4639
▁funbites	-12.4639
▁funnel	-12.4639
▁ga	-12.4639
▁genmaicha	-12.4639
▁genuinely	-12.4639
▁george	-12.4639
▁gg	-12.4639
▁gingerale	-12.4639
▁glow	-12.4639
▁goddess	-12.4639
▁goulash	-12.4639
▁gras	-12.4639
▁grat	-12.4639
▁greatly	-12.4639
▁greed	-12.4639
▁greenbox	-12.4639
▁grogg	-12.4639
▁guaranteed	-12.4639
▁gummys	-12.4639
▁gypsy	-12.4639
▁hail	-12.4639
▁happybellies	-12.4639
▁hardcore	-12.4639
▁harissa	-12.4639
▁harm	-12.4639
▁hashbrowns	-12.4639
▁healthly	-12.4639
▁held	-12.4639
▁hellmann	-12.4639
▁hilarious	-12.4639
▁hollandaise	-12.4639
▁hometown	-12.4639
▁honeyville	-12.4639
▁hook	-12.4639
▁horror	-12.4639
▁hotness	-12.4639
▁hots	-12.4639
▁husk	-12.4639
▁icy	-12.4639
▁imposter	-12.4639
▁inconsistant	-12.4639
▁indicated	-12.4639
▁initially	-12.4639
▁insanity	-12.4639
▁insulin	-12.4639
▁interactive	-12.4639
▁intro	-12.4639
▁itty	-12.4639
▁jalepeno	-12.4639
▁jersey	-12.4639
▁jewish	-12.4639
▁jones	-12.4639
▁jr	-12.4639
▁justice	-12.4639
▁kalamata	-12.4639
▁kee	-12.4639
▁keen	-12.4639
▁kentucky	-12.4639
▁kookaburra	-12.4639
▁kopi	-12.4639
▁krazy	-12.4639
▁krispie	-12.4639
▁kroger	-12.4639
▁lacked	-12.4639
▁lakerol	-12.4639
▁lance	-12.4639
▁lately	-12.4639
▁laugh	-12.4639
▁lea	-12.4639
▁leakage	-12.4639
▁leaving	-12.4639
▁liv	-12.4639
▁lizano	-12.4639
▁lizzie	-12.4639
▁logic	-12.4639
▁longest	-12.4639
▁loooove	-12.4639
▁lowered	-12.4639
▁lunchbox	-12.4639
▁macarons	-12.4639
▁madness	-12.4639
▁maggie	-12.4639
▁magnifico	-12.4639
▁mariani	-12.4639
▁marketspice	-12.4639
▁massey	-12.4639
▁mc	-12.4639
▁mcdonalds	-12.4639
▁meeting	-12.4639
▁mejor	-12.4639
▁melba	-12.4639
▁melissa	-12.4639
▁meringue	-12.4639
▁mestemacher	-12.4639
▁mia	-12.4639
▁micro	-12.4639
▁mike	-12.4639
▁military	-12.4639
▁minority	-12.4639
▁mission	-12.4639
▁mistaken	-12.4639
▁mister	-12.4639
▁mite	-12.4639
▁mocktails	-12.4639
▁mojitos	-12.4639
▁moly	-12.4639
▁montreal	-12.4639
▁moss	-12.4639
▁mozzarella	-12.4639
▁munchy	-12.4639
▁mung	-12.4639
▁mus	-12.4639
▁myrtle	-12.4639
▁nada	-12.4639
▁nando	-12.4639
▁napkin	-12.4639
▁navy	-12.4639
▁nectasweet	-12.4639
▁needle	-12.4639
▁nellie	-12.4639
▁nephew	-12.4639
▁nesquik	-12.4639
▁nielsen	-12.4639
▁nitrite	-12.4639
▁noh	-12.4639
▁noticable	-12.4639
▁nt	-12.4639
▁nugo	-12.4639
▁octopus	-12.4639
▁oishii	-12.4639
▁oodles	-12.4639
▁opportunity	-12.4639
▁orgasmic	-12.4639
▁otc	-12.4639
▁outweigh	-12.4639
▁overbearing	-12.4639
▁overnight	-12.4639
▁overwhelmed	-12.4639
▁owned	-12.4639
▁oxymoron	-12.4639
▁paella	-12.4639
▁paint	-12.4639
▁pampered	-12.4639
▁paragon	-12.4639
▁parsley	-12.4639
▁partial	-12.4639
▁pasteurized	-12.4639
▁patak	-12.4639
▁pathetic	-12.4639
▁penguin	-12.4639
▁peru	-12.4639
▁pesky	-12.4639
▁petsmart	-12.4639
▁pf	-12.4639
▁philippine	-12.4639
▁picante	-12.4639
▁pickapeppa	-12.4639
▁pilling	-12.4639
▁pinnacle	-12.4639
▁pint	-12.4639
▁pipe	-12.4639
▁plentiful	-12.4639
▁port	-12.4639
▁presented	-12.4639
▁previously	-12.4639
▁private	-12.4639
▁problematic	-12.4639
▁prod	-12.4639
▁pub	-12.4639
▁puffy	-12.4639
▁pulled	-12.4639
▁pulse	-12.4639
▁pumping	-12.4639
▁purely	-12.4639
▁purified	-12.4639
▁purist	-12.4639
▁quadratini	-12.4639
▁qualita	-12.4639
▁quench	-12.4639
▁quenching	-12.4639
▁quot	-12.4639
▁ran	-12.4639
▁realized	-12.4639
▁realy	-12.4639
▁receipt	-12.4639
▁recomended	-12.4639
▁recycle	-12.4639
▁reed	-12.4639
▁regarding	-12.4639
▁region	-12.4639
▁relative	-12.4639
▁reliably	-12.4639
▁relieve	-12.4639
▁remarkably	-12.4639
▁reminder	-12.4639
▁remotely	-12.4639
▁require	-12.4639
▁respect	-12.4639
▁reunion	-12.4639
▁revv	-12.4639
▁riffic	-12.4639
▁rific	-12.4639
▁rio	-12.4639
▁roach	-12.4639
▁robert	-12.4639
▁romano	-12.4639
▁ruff	-12.4639
▁sacrificing	-12.4639
▁sake	-12.4639
▁sal	-12.4639
▁sammy	-12.4639
▁samoa	-12.4639
▁sandy	-12.4639
▁sangria	-12.4639
▁saying	-12.4639
▁scharffen	-12.4639
▁scorpion	-12.4639
▁scratching	-12.4639
▁seat	-12.4639
▁sediment	-12.4639
▁seeing	-12.4639
▁seek	-12.4639
▁seeking	-12.4639
▁seneca	-12.4639
▁senso	-12.4639
▁sensual	-12.4639
▁serviceable	-12.4639
▁sesmark	-12.4639
▁shade	-12.4639
▁sheer	-12.4639
▁sherry	-12.4639
▁shiba	-12.4639
▁shift	-12.4639
▁shocker	-12.4639
▁simplicity	-12.4639
▁skeptic	-12.4639
▁skyline	-12.4639
▁sludge	-12.4639
▁smack	-12.4639
▁smith	-12.4639
▁smoooooth	-12.4639
▁smooooth	-12.4639
▁snak	-12.4639
▁snuff	-12.4639
▁solves	-12.4639
▁soupy	-12.4639
▁soursop	-12.4639
▁southerner	-12.4639
▁sparkly	-12.4639
▁spec	-12.4639
▁spicing	-12.4639
▁spreadable	-12.4639
▁stalk	-12.4639
▁starchy	-12.4639
▁starkist	-12.4639
▁staying	-12.4639
▁stik	-12.4639
▁stole	-12.4639
▁stoned	-12.4639
▁stove	-12.4639
▁string	-12.4639
▁stupendous	-12.4639
▁subpar	-12.4639
▁suchard	-12.4639
▁sucre	-12.4639
▁suet	-12.4639
▁sulfites	-12.4639
▁superfine	-12.4639
▁supurb	-12.4639
▁surgery	-12.4639
▁syndrome	-12.4639
▁szeged	-12.4639
▁tapenade	-12.4639
▁te	-12.4639
▁tee	-12.4639
▁theme	-12.4639
▁thermometer	-12.4639
▁thomas	-12.4639
▁thousand	-12.4639
▁thread	-12.4639
▁thrown	-12.4639
▁thyme	-12.4639
▁tide	-12.4639
▁tinny	-12.4639
▁titanium	-12.4639
▁tobasco	-12.4639
▁toothbrush	-12.4639
▁trace	-12.4639
▁treacle	-12.4639
▁treated	-12.4639
▁triplet	-12.4639
▁tropic	-12.4639
▁tuff	-12.4639
▁tuffy	-12.4639
▁tupelo	-12.4639
▁tuscany	-12.4639
▁typhoo	-12.4639
▁underrated	-12.4639
▁understated	-12.4639
▁undertone	-12.4639
▁unreliable	-12.4639
▁unsatisfying	-12.4639
▁urge	-12.4639
▁usps	-12.4639
▁uti	-12.4639
▁utter	-12.4639
▁uuml	-12.4639
▁veal	-12.4639
▁venus	-12.4639
▁verde	-12.4639
▁versitile	-12.4639
▁veterinarian	-12.4639
▁vietnam	-12.4639
▁vietnamese	-12.4639
▁visible	-12.4639
▁vitacoco	-12.4639
▁voted	-12.4639
▁vue	-12.4639
▁wage	-12.4639
▁waistline	-12.4639
▁wakame	-12.4639
▁wall	-12.4639
▁wanting	-12.4639
▁wei	-12.4639
▁weightwatchers	-12.4639
▁welch	-12.4639
▁whew	-12.4639
▁whim	-12.4639
▁whoop	-12.4639
▁whopper	-12.4639
▁wii	-12.4639
▁willy	-12.4639
▁window	-12.4639
▁worcestershire	-12.4639
▁wowza	-12.4639
▁wysong	-12.4639
▁xylichew	-12.4639
▁yoghurt	-12.4639
▁yogourmet	-12.4639
▁yours	-12.4639
▁zatarain	-12.4639
▁zebra	-12.4639
▁zhena	-12.4639
▁zippy	-12.4639
▁zola	-12.4639
▁aaa	-12.6462
▁access	-12.6462
▁ackee	-12.6462
▁adjust	-12.6462
▁advantage	-12.6462
▁adventurous	-12.6462
▁africa	-12.6462
▁agar	-12.6462
▁agressive	-12.6462
▁ahhhhh	-12.6462
▁ala	-12.6462
▁alarm	-12.6462
▁alcoholic	-12.6462
▁alergies	-12.6462
▁amaranth	-12.6462
▁americana	-12.6462
▁americano	-12.6462
▁amora	-12.6462
▁amos	-12.6462
▁andy	-12.6462
▁ann	-12.6462
▁anybody	-12.6462
▁approx	-12.6462
▁arborio	-12.6462
▁arm	-12.6462
▁artery	-12.6462
▁ashamed	-12.6462
▁ashtray	-12.6462
▁aspertame	-12.6462
▁audience	-12.6462
▁aug	-12.6462
▁australia	-12.6462
▁avenue	-12.6462
▁ay	-12.6462
▁backyard	-12.6462
▁bakes	-12.6462
▁barfing	-12.6462
▁bariatric	-12.6462
▁barolo	-12.6462
▁bassett	-12.6462
▁bathroom	-12.6462
▁battery	-12.6462
▁battle	-12.6462
▁bazooka	-12.6462
▁beanitos	-12.6462
▁believed	-12.6462
▁belle	-12.6462
▁ben	-12.6462
▁berger	-12.6462
▁bewley	-12.6462
▁bialetti	-12.6462
▁biased	-12.6462
▁bigs	-12.6462
▁billy	-12.6462
▁bin	-12.6462
▁bing	-12.6462
▁biscuts	-12.6462
▁bison	-12.6462
▁bisphenol	-12.6462
▁biting	-12.6462
▁blackstrap	-12.6462
▁blair	-12.6462
▁blew	-12.6462
▁bloomed	-12.6462
▁blowing	-12.6462
▁bonita	-12.6462
▁bot	-12.6462
▁boylan	-12.6462
▁brandy	-12.6462
▁brat	-12.6462
▁breadcrumb	-12.6462
▁breakage	-12.6462
▁brighter	-12.6462
▁brisling	-12.6462
▁brm	-12.6462
▁brook	-12.6462
▁brushing	-12.6462
▁bubblegum	-12.6462
▁bulgur	-12.6462
▁bundle	-12.6462
▁burrito	-12.6462
▁buttered	-12.6462
▁butternut	-12.6462
▁camomile	-12.6462
▁candida	-12.6462
▁cannoli	-12.6462
▁caravan	-12.6462
▁carba	-12.6462
▁carcinogen	-12.6462
▁caring	-12.6462
▁carmels	-12.6462
▁carnival	-12.6462
▁carnivorous	-12.6462
▁carolina	-12.6462
▁castor	-12.6462
▁catalina	-12.6462
▁catit	-12.6462
▁cattleman	-12.6462
▁cavalier	-12.6462
▁celebration	-12.6462
▁ceral	-12.6462
▁cerial	-12.6462
▁cfl	-12.6462
▁changer	-12.6462
▁charity	-12.6462
▁cheaply	-12.6462
▁cheerful	-12.6462
▁chicklets	-12.6462
▁chipolte	-12.6462
▁chocolove	-12.6462
▁choked	-12.6462
▁chubby	-12.6462
▁chuck	-12.6462
▁cincy	-12.6462
▁circus	-12.6462
▁classy	-12.6462
▁cliff	-12.6462
▁clone	-12.6462
▁clorets	-12.6462
▁closet	-12.6462
▁cm	-12.6462
▁cock	-12.6462
▁cockroach	-12.6462
▁cocnut	-12.6462
▁cody	-12.6462
▁colony	-12.6462
▁combine	-12.6462
▁comfortable	-12.6462
▁commercially	-12.6462
▁comvita	-12.6462
▁consistant	-12.6462
▁consumed	-12.6462
▁contact	-12.6462
▁contained	-12.6462
▁convinient	-12.6462
▁cornnuts	-12.6462
▁corporate	-12.6462
▁corrected	-12.6462
▁cosmic	-12.6462
▁creepy	-12.6462
▁crf	-12.6462
▁crisis	-12.6462
▁cruncy	-12.6462
▁curbing	-12.6462
▁cyclist	-12.6462
▁cytosport	-12.6462
▁dan	-12.6462
▁daniel	-12.6462
▁dashed	-12.6462
▁deadman	-12.6462
▁dealer	-12.6462
▁dean	-12.6462
▁dec	-12.6462
▁december	-12.6462
▁decline	-12.6462
▁decorative	-12.6462
▁delecious	-12.6462
▁delectible	-12.6462
▁depend	-12.6462
▁depression	-12.6462
▁derived	-12.6462
▁desire	-12.6462
▁deterrent	-12.6462
▁dextrose	-12.6462
▁dice	-12.6462
▁diego	-12.6462
▁digesting	-12.6462
▁discerning	-12.6462
▁discounted	-12.6462
▁discription	-12.6462
▁displeased	-12.6462
▁distasteful	-12.6462
▁distress	-12.6462
▁diva	-12.6462
▁diverse	-12.6462
▁dixie	-12.6462
▁diy	-12.6462
▁dk	-12.6462
▁doa	-12.6462
▁doberman	-12.6462
▁doesn	-12.6462
▁donation	-12.6462
▁doughnut	-12.6462
▁doughy	-12.6462
▁doxie	-12.6462
▁dragonwell	-12.6462
▁duh	-12.6462
▁dump	-12.6462
▁duplicate	-12.6462
▁durian	-12.6462
▁dwarf	-12.6462
▁dying	-12.6462
▁dynasty	-12.6462
▁eatable	-12.6462
▁element	-12.6462
▁elvis	-12.6462
▁embarrassing	-12.6462
▁encountered	-12.6462
▁energize	-12.6462
▁enormous	-12.6462
▁ensure	-12.6462
▁entry	-12.6462
▁environmental	-12.6462
▁enzyme	-12.6462
▁estate	-12.6462
▁ethical	-12.6462
▁ethnic	-12.6462
▁evaporated	-12.6462
▁event	-12.6462
▁everday	-12.6462
▁exceeds	-12.6462
▁excellente	-12.6462
▁exception	-12.6462
▁excitement	-12.6462
▁exclusively	-12.6462
▁existence	-12.6462
▁explain	-12.6462
▁fad	-12.6462
▁faith	-12.6462
▁faithful	-12.6462
▁fallen	-12.6462
▁falling	-12.6462
▁fantasy	-12.6462
▁favour	-12.6462
▁fer	-12.6462
▁fiery	-12.6462
▁fifty	-12.6462
▁file	-12.6462
▁flaked	-12.6462
▁flame	-12.6462
▁flamingo	-12.6462
▁flav	-12.6462
▁float	-12.6462
▁flossie	-12.6462
▁fluctuation	-12.6462
▁foamy	-12.6462
▁foie	-12.6462
▁fondue	-12.6462
▁forgotten	-12.6462
▁forte	-12.6462
▁foundation	-12.6462
▁frantoia	-12.6462
▁frappucino	-12.6462
▁fresca	-12.6462
▁frito	-12.6462
▁frugal	-12.6462
▁fuji	-12.6462
▁fuzzy	-12.6462
▁gaining	-12.6462
▁gano	-12.6462
▁gardener	-12.6462
▁garnish	-12.6462
▁gasoline	-12.6462
▁genetically	-12.6462
▁gentlease	-12.6462
▁gfree	-12.6462
▁glutenfree	-12.6462
▁gooooooooood	-12.6462
▁gorilla	-12.6462
▁gp	-12.6462
▁graduate	-12.6462
▁graet	-12.6462
▁granular	-12.6462
▁gravel	-12.6462
▁greedy	-12.6462
▁grrrreat	-12.6462
▁guinea	-12.6462
▁gumdrop	-12.6462
▁gummie	-12.6462
▁hall	-12.6462
▁hat	-12.6462
▁havanese	-12.6462
▁heated	-12.6462
▁heather	-12.6462
▁heed	-12.6462
▁herr	-12.6462
▁hiding	-12.6462
▁hirt	-12.6462
▁hive	-12.6462
▁hmmmmmm	-12.6462
▁holding	-12.6462
▁holly	-12.6462
▁homegrown	-12.6462
▁homework	-12.6462
▁hoosier	-12.6462
▁hopeful	-12.6462
▁hopefully	-12.6462
▁horchata	-12.6462
▁host	-12.6462
▁hummm	-12.6462
▁hundred	-12.6462
▁hurray	-12.6462
▁hybrid	-12.6462
▁hydrating	-12.6462
▁hypoallergenic	-12.6462
▁icecream	-12.6462
▁icicle	-12.6462
▁id	-12.6462
▁identity	-12.6462
▁idiot	-12.6462
▁igourmet	-12.6462
▁ikea	-12.6462
▁illustrated	-12.6462
▁incense	-12.6462
▁inconvenient	-12.6462
▁indus	-12.6462
▁industry	-12.6462
▁inflated	-12.6462
▁ing	-12.6462
▁ingrediant	-12.6462
▁ingrediants	-12.6462
▁insufficient	-12.6462
▁introduced	-12.6462
▁inulin	-12.6462
▁involved	-12.6462
▁iranian	-12.6462
▁iraq	-12.6462
▁jambalaya	-12.6462
▁jan	-12.6462
▁jawbreaker	-12.6462
▁jeff	-12.6462
▁jocalat	-12.6462
▁jolokia	-12.6462
▁jubilee	-12.6462
▁judy	-12.6462
▁jumped	-12.6462
▁jungle	-12.6462
▁kaffir	-12.6462
▁kalua	-12.6462
▁kasha	-12.6462
▁kc	-12.6462
▁keenan	-12.6462
▁kelp	-12.6462
▁kringle	-12.6462
▁krispy	-12.6462
▁kum	-12.6462
▁larva	-12.6462
▁lecithin	-12.6462
▁legendary	-12.6462
▁legit	-12.6462
▁length	-12.6462
▁leonidas	-12.6462
▁lettuce	-12.6462
▁lifting	-12.6462
▁lightning	-12.6462
▁liner	-12.6462
▁linguini	-12.6462
▁lion	-12.6462
▁ll	-12.6462
▁lolipops	-12.6462
▁lollypops	-12.6462
▁longtime	-12.6462
▁loos	-12.6462
▁lotus	-12.6462
▁lucious	-12.6462
▁ly	-12.6462
▁lying	-12.6462
▁mainstay	-12.6462
▁maldon	-12.6462
▁mallo	-12.6462
▁manageable	-12.6462
▁marinated	-12.6462
▁mario	-12.6462
▁marked	-12.6462
▁marketplace	-12.6462
▁markup	-12.6462
▁marriage	-12.6462
▁martinson	-12.6462
▁massage	-12.6462
▁matching	-12.6462
▁maynard	-12.6462
▁mazing	-12.6462
▁mead	-12.6462
▁measured	-12.6462
▁medallion	-12.6462
▁medical	-12.6462
▁mentioned	-12.6462
▁merely	-12.6462
▁mfg	-12.6462
▁microwaveable	-12.6462
▁minded	-12.6462
▁miserable	-12.6462
▁mislead	-12.6462
▁misnomer	-12.6462
▁misty	-12.6462
▁molded	-12.6462
▁molto	-12.6462
▁moma	-12.6462
▁monte	-12.6462
▁moringa	-12.6462
▁moved	-12.6462
▁movement	-12.6462
▁moving	-12.6462
▁moxie	-12.6462
▁mui	-12.6462
▁mulberry	-12.6462
▁munchie	-12.6462
▁munching	-12.6462
▁music	-12.6462
▁mussel	-12.6462
▁naan	-12.6462
▁nail	-12.6462
▁nancy	-12.6462
▁nation	-12.6462
▁native	-12.6462
▁natura	-12.6462
▁naughty	-12.6462
▁ne	-12.6462
▁nearby	-12.6462
▁nesco	-12.6462
▁nest	-12.6462
▁nick	-12.6462
▁nido	-12.6462
▁nj	-12.6462
▁noms	-12.6462
▁nongshim	-12.6462
▁november	-12.6462
▁nutro	-12.6462
▁occasionally	-12.6462
▁oi	-12.6462
▁olio	-12.6462
▁omgosh	-12.6462
▁ooooh	-12.6462
▁ooops	-12.6462
▁opposite	-12.6462
▁optimal	-12.6462
▁orangina	-12.6462
▁ostrim	-12.6462
▁overwhelms	-12.6462
▁panni	-12.6462
▁pant	-12.6462
▁papillon	-12.6462
▁parrot	-12.6462
▁pastel	-12.6462
▁peculiar	-12.6462
▁pekoe	-12.6462
▁peppered	-12.6462
▁permanent	-12.6462
▁petco	-12.6462
▁philly	-12.6462
▁pickiest	-12.6462
▁pickwick	-12.6462
▁pico	-12.6462
▁pile	-12.6462
▁pillsbury	-12.6462
▁pitted	-12.6462
▁placebo	-12.6462
▁placing	-12.6462
▁playing	-12.6462
▁pleasent	-12.6462
▁plocky	-12.6462
▁popover	-12.6462
▁poptart	-12.6462
▁portability	-12.6462
▁poured	-12.6462
▁pow	-12.6462
▁powerbar	-12.6462
▁powered	-12.6462
▁preemie	-12.6462
▁preschooler	-12.6462
▁prima	-12.6462
▁primo	-12.6462
▁pristine	-12.6462
▁prodomo	-12.6462
▁promotes	-12.6462
▁propel	-12.6462
▁proportion	-12.6462
▁provider	-12.6462
▁pruduct	-12.6462
▁puerh	-12.6462
▁purest	-12.6462
▁purrfect	-12.6462
▁purrrfect	-12.6462
▁qc	-12.6462
▁quanity	-12.6462
▁quicker	-12.6462
▁quiet	-12.6462
▁ragu	-12.6462
▁rainy	-12.6462
▁raising	-12.6462
▁rapid	-12.6462
▁readily	-12.6462
▁realistic	-12.6462
▁reality	-12.6462
▁reccomend	-12.6462
▁reception	-12.6462
▁recipie	-12.6462
▁rediculous	-12.6462
▁ref	-12.6462
▁refrigerate	-12.6462
▁reject	-12.6462
▁reluctant	-12.6462
▁remembering	-12.6462
▁remover	-12.6462
▁repackaged	-12.6462
▁repel	-12.6462
▁replacing	-12.6462
▁represented	-12.6462
▁repulsive	-12.6462
▁reputation	-12.6462
▁requirement	-12.6462
▁resort	-12.6462
▁responsible	-12.6462
▁retired	-12.6462
▁rev	-12.6462
▁revelation	-12.6462
▁revisited	-12.6462
▁revitalizing	-12.6462
▁rhubarb	-12.6462
▁riceworks	-12.6462
▁richard	-12.6462
▁rigatoni	-12.6462
▁ro	-12.6462
▁rockin	-12.6462
▁roe	-12.6462
▁roof	-12.6462
▁rosso	-12.6462
▁rottweiler	-12.6462
▁roulette	-12.6462
▁rounded	-12.6462
▁roxy	-12.6462
▁ruining	-12.6462
▁sacrifice	-12.6462
▁safari	-12.6462
▁safest	-12.6462
▁salmonella	-12.6462
▁salon	-12.6462
▁sapporo	-12.6462
▁sassafras	-12.6462
▁sassy	-12.6462
▁sat	-12.6462
▁satay	-12.6462
▁scarf	-12.6462
▁scooby	-12.6462
▁scott	-12.6462
▁scrap	-12.6462
▁searched	-12.6462
▁sel	-12.6462
▁senna	-12.6462
▁separated	-12.6462
▁setup	-12.6462
▁severely	-12.6462
▁shall	-12.6462
▁shallot	-12.6462
▁shaving	-12.6462
▁shelter	-12.6462
▁sheltie	-12.6462
▁shiitake	-12.6462
▁shortcake	-12.6462
▁shortchanged	-12.6462
▁shortcut	-12.6462
▁shy	-12.6462
▁siljans	-12.6462
▁sir	-12.6462
▁skinner	-12.6462
▁slop	-12.6462
▁smints	-12.6462
▁smokies	-12.6462
▁smuckers	-12.6462
▁snackin	-12.6462
▁snake	-12.6462
▁sockeye	-12.6462
▁solver	-12.6462
▁soooooooooo	-12.6462
▁sooooooooooo	-12.6462
▁sophie	-12.6462
▁sorghum	-12.6462
▁soulistic	-12.6462
▁spare	-12.6462
▁speaking	-12.6462
▁spicier	-12.6462
▁spitz	-12.6462
▁spoken	-12.6462
▁spouse	-12.6462
▁spout	-12.6462
▁spree	-12.6462
▁sprouter	-12.6462
▁squeaky	-12.6462
▁squeezed	-12.6462
▁staff	-12.6462
▁stamped	-12.6462
▁status	-12.6462
▁steam	-12.6462
▁steve	-12.6462
▁stewart	-12.6462
▁stiff	-12.6462
▁stoneridge	-12.6462
▁stopping	-12.6462
▁stover	-12.6462
▁stressful	-12.6462
▁stroopwafels	-12.6462
▁stubb	-12.6462
▁study	-12.6462
▁subjective	-12.6462
▁sucanat	-12.6462
▁suddenly	-12.6462
▁suffers	-12.6462
▁suggest	-12.6462
▁sumatran	-12.6462
▁sunny	-12.6462
▁supper	-12.6462
▁survived	-12.6462
▁swap	-12.6462
▁sweetz	-12.6462
▁swheat	-12.6462
▁switzerland	-12.6462
▁symphony	-12.6462
▁tacky	-12.6462
▁tag	-12.6462
▁tahina	-12.6462
▁tamer	-12.6462
▁tandoor	-12.6462
▁tanka	-12.6462
▁tape	-12.6462
▁tasing	-12.6462
▁tatse	-12.6462
▁tb	-12.6462
▁techno	-12.6462
▁tel	-12.6462
▁tenderizer	-12.6462
▁terry	-12.6462
▁tetra	-12.6462
▁themed	-12.6462
▁thirsty	-12.6462
▁thoughtful	-12.6462
▁thrill	-12.6462
▁throughout	-12.6462
▁timing	-12.6462
▁tj	-12.6462
▁tlc	-12.6462
▁tolerate	-12.6462
▁toooo	-12.6462
▁toothless	-12.6462
▁towel	-12.6462
▁travelling	-12.6462
▁tri	-12.6462
▁trigger	-12.6462
▁tumeric	-12.6462
▁twang	-12.6462
▁twelve	-12.6462
▁twenty	-12.6462
▁twizzler	-12.6462
▁ultimately	-12.6462
▁ultramix	-12.6462
▁unfiltered	-12.6462
▁united	-12.6462
▁universal	-12.6462
▁unparalleled	-12.6462
▁unrefined	-12.6462
▁unsatisfactory	-12.6462
▁unsweet	-12.6462
▁unusually	-12.6462
▁upgraded	-12.6462
▁uplifting	-12.6462
▁upscale	-12.6462
▁usage	-12.6462
▁useable	-12.6462
▁va	-12.6462
▁valerian	-12.6462
▁varied	-12.6462
▁vega	-12.6462
▁vegeta	-12.6462
▁velvety	-12.6462
▁versatility	-12.6462
▁vial	-12.6462
▁virtuous	-12.6462
▁visit	-12.6462
▁vital	-12.6462
▁vizsla	-12.6462
▁void	-12.6462
▁wadi	-12.6462
▁waited	-12.6462
▁wale	-12.6462
▁warhead	-12.6462
▁wave	-12.6462
▁weapon	-12.6462
▁weighs	-12.6462
▁werther	-12.6462
▁wheaten	-12.6462
▁whippet	-12.6462
▁wholesale	-12.6462
▁wholly	-12.6462
▁wick	-12.6462
▁widely	-12.6462
▁wildly	-12.6462
▁williams	-12.6462
▁wilted	-12.6462
▁wind	-12.6462
▁windsor	-12.6462
▁wipe	-12.6462
▁wondeful	-12.6462
▁wrigley	-12.6462
▁wunderbar	-12.6462
▁wurly	-12.6462
▁www	-12.6462
▁yak	-12.6462
▁yankee	-12.6462
▁ye	-12.6462
▁yin	-12.6462
▁yoshida	-12.6462
▁yowza	-12.6462
▁yuch	-12.6462
▁ziggies	-12.6462
▁ziwi	-12.6462
▁zots	-12.6462
▁absolutley	-12.8693
▁absurdly	-12.8693
▁acana	-12.8693
▁acesulfame	-12.8693
▁aching	-12.8693
▁achiote	-12.8693
▁acquire	-12.8693
▁ade	-12.8693
▁adenium	-12.8693
▁adjustment	-12.8693
▁advanced	-12.8693
▁advertisment	-12.8693
▁agent	-12.8693
▁airplane	-12.8693
▁airport	-12.8693
▁ajvar	-12.8693
▁alba	-12.8693
▁alien	-12.8693
▁allen	-12.8693
▁allowed	-12.8693
▁almondy	-12.8693
▁alpine	-12.8693
▁alsosalt	-12.8693
▁ambiguous	-12.8693
▁amd	-12.8693
▁amongst	-12.8693
▁angelina	-12.8693
▁annies	-12.8693
▁annoyed	-12.8693
▁annual	-12.8693
▁apo	-12.8693
▁apocalypse	-12.8693
▁apparent	-12.8693
▁appassionato	-12.8693
▁ar	-12.8693
▁archway	-12.8693
▁arco	-12.8693
▁arepas	-12.8693
▁arguably	-12.8693
▁argue	-12.8693
▁aromatherapy	-12.8693
▁arsenal	-12.8693
▁arthur	-12.8693
▁artic	-12.8693
▁artist	-12.8693
▁asiago	-12.8693
▁aspect	-12.8693
▁astonishingly	-12.8693
▁astringent	-12.8693
▁atrocious	-12.8693
▁autistic	-12.8693
▁aw	-12.8693
▁awesom	-12.8693
▁ayurvedic	-12.8693
▁backcountry	-12.8693
▁bahlsen	-12.8693
▁baklawa	-12.8693
▁banged	-12.8693
▁barlean	-12.8693
▁basketeer	-12.8693
▁basset	-12.8693
▁bavarian	-12.8693
▁bd	-12.8693
▁bead	-12.8693
▁began	-12.8693
▁begone	-12.8693
▁behavior	-12.8693
▁believing	-12.8693
▁belongs	-12.8693
▁berbere	-12.8693
▁berres	-12.8693
▁bettlejuice	-12.8693
▁bibi	-12.8693
▁biobag	-12.8693
▁biobags	-12.8693
▁bisquits	-12.8693
▁bistro	-12.8693
▁blanched	-12.8693
▁blaze	-12.8693
▁bleached	-12.8693
▁bleah	-12.8693
▁bloated	-12.8693
▁bombay	-12.8693
▁booda	-12.8693
▁bookbinder	-12.8693
▁born	-12.8693
▁botts	-12.8693
▁boycott	-12.8693
▁boyer	-12.8693
▁brace	-12.8693
▁brachs	-12.8693
▁branch	-12.8693
▁breaded	-12.8693
▁breathing	-12.8693
▁brie	-12.8693
▁brisket	-12.8693
▁bru	-12.8693
▁bruschetta	-12.8693
▁brutal	-12.8693
▁bubba	-12.8693
▁budding	-12.8693
▁buen	-12.8693
▁builder	-12.8693
▁built	-12.8693
▁burner	-12.8693
▁burp	-12.8693
▁buzzworthy	-12.8693
▁cabin	-12.8693
▁cactus	-12.8693
▁camp	-12.8693
▁candycane	-12.8693
▁canfield	-12.8693
▁canterbury	-12.8693
▁capp	-12.8693
▁capresso	-12.8693
▁capture	-12.8693
▁capuccino	-12.8693
▁carber	-12.8693
▁carbquik	-12.8693
▁carr	-12.8693
▁casbah	-12.8693
▁casual	-12.8693
▁catcher	-12.8693
▁cauliflower	-12.8693
▁cautious	-12.8693
▁cbtl	-12.8693
▁cee	-12.8693
▁cement	-12.8693
▁cento	-12.8693
▁cf	-12.8693
▁chair	-12.8693
▁champ	-12.8693
▁charging	-12.8693
▁charleston	-12.8693
▁cheating	-12.8693
▁checked	-12.8693
▁chedder	-12.8693
▁chees	-12.8693
▁cheesoning	-12.8693
▁chemistry	-12.8693
▁chewie	-12.8693
▁chewier	-12.8693
▁chico	-12.8693
▁chipmunk	-12.8693
▁chipped	-12.8693
▁chloride	-12.8693
▁chocolat	-12.8693
▁chocula	-12.8693
▁chokecherry	-12.8693
▁cholestrol	-12.8693
▁chupa	-12.8693
▁chups	-12.8693
▁cinammon	-12.8693
▁cindy	-12.8693
▁citizen	-12.8693
▁civilized	-12.8693
▁clarification	-12.8693
▁claw	-12.8693
▁claxton	-12.8693
▁cleanest	-12.8693
▁cleanup	-12.8693
▁clearing	-12.8693
▁cocao	-12.8693
▁cockapoo	-12.8693
▁colavita	-12.8693
▁coleman	-12.8693
▁colon	-12.8693
▁colour	-12.8693
▁columela	-12.8693
▁communication	-12.8693
▁compressed	-12.8693
▁computer	-12.8693
▁conch	-12.8693
▁concious	-12.8693
▁concoction	-12.8693
▁consistancy	-12.8693
▁consistantly	-12.8693
▁constantly	-12.8693
▁constipated	-12.8693
▁consume	-12.8693
▁consuming	-12.8693
▁converting	-12.8693
▁cookin	-12.8693
▁copy	-12.8693
▁cornucopia	-12.8693
▁correction	-12.8693
▁cortas	-12.8693
▁counterfeit	-12.8693
▁countertop	-12.8693
▁coupon	-12.8693
▁cous	-12.8693
▁covenient	-12.8693
▁cracklin	-12.8693
▁crakers	-12.8693
▁cramping	-12.8693
▁creamier	-12.8693
▁creamsicle	-12.8693
▁creativity	-12.8693
▁crew	-12.8693
▁crisco	-12.8693
▁crummy	-12.8693
▁curcumin	-12.8693
▁cutest	-12.8693
▁cycle	-12.8693
▁cyclone	-12.8693
▁dabba	-12.8693
▁damned	-12.8693
▁damp	-12.8693
▁dealing	-12.8693
▁decay	-12.8693
▁declining	-12.8693
▁decor	-12.8693
▁deeee	-12.8693
▁deeeee	-12.8693
▁deeeeeelicious	-12.8693
▁deeelish	-12.8693
▁deelicious	-12.8693
▁deen	-12.8693
▁definition	-12.8693
▁delayed	-12.8693
▁delicately	-12.8693
▁delious	-12.8693
▁develop	-12.8693
▁devious	-12.8693
▁df	-12.8693
▁diappointed	-12.8693
▁dick	-12.8693
▁digestible	-12.8693
▁dining	-12.8693
▁dis	-12.8693
▁disclosed	-12.8693
▁discovering	-12.8693
▁discrepancy	-12.8693
▁discusting	-12.8693
▁disregard	-12.8693
▁dissappointing	-12.8693
▁dissappointment	-12.8693
▁distant	-12.8693
▁distributed	-12.8693
▁domatcha	-12.8693
▁dominant	-12.8693
▁doodle	-12.8693
▁doomhammer	-12.8693
▁doorstep	-12.8693
▁dorset	-12.8693
▁doubleshot	-12.8693
▁dramatic	-12.8693
▁drastically	-12.8693
▁draw	-12.8693
▁dreamfield	-12.8693
▁drizzle	-12.8693
▁drool	-12.8693
▁droppings	-12.8693
▁drugstore	-12.8693
▁dunking	-12.8693
▁duo	-12.8693
▁duped	-12.8693
▁duper	-12.8693
▁earthmate	-12.8693
▁ecellent	-12.8693
▁ed	-12.8693
▁edema	-12.8693
▁educational	-12.8693
▁eel	-12.8693
▁effectiveness	-12.8693
▁egyptian	-12.8693
▁elder	-12.8693
▁eligible	-12.8693
▁elixir	-12.8693
▁elm	-12.8693
▁elmo	-12.8693
▁employee	-12.8693
▁endless	-12.8693
▁enery	-12.8693
▁enhancement	-12.8693
▁envy	-12.8693
▁esspresso	-12.8693
▁et	-12.8693
▁euphoria	-12.8693
▁euro	-12.8693
▁evah	-12.8693
▁evco	-12.8693
▁eve	-12.8693
▁evidently	-12.8693
▁evolution	-12.8693
▁ewwwwww	-12.8693
▁exaggerating	-12.8693
▁excellently	-12.8693
▁exelent	-12.8693
▁expiring	-12.8693
▁extend	-12.8693
▁extraordinaire	-12.8693
▁ey	-12.8693
▁fa	-12.8693
▁fabuloso	-12.8693
▁fajita	-12.8693
▁falsely	-12.8693
▁fastachi	-12.8693
▁favorable	-12.8693
▁favortie	-12.8693
▁felidae	-12.8693
▁female	-12.8693
▁feral	-12.8693
▁fettuccini	-12.8693
▁fettucini	-12.8693
▁fibre	-12.8693
▁fibromyalgia	-12.8693
▁figgy	-12.8693
▁fingertip	-12.8693
▁finished	-12.8693
▁finland	-12.8693
▁fixin	-12.8693
▁flair	-12.8693
▁flakey	-12.8693
▁flaver	-12.8693
▁flavorable	-12.8693
▁flawless	-12.8693
▁fleur	-12.8693
▁flush	-12.8693
▁flushable	-12.8693
▁fogbuster	-12.8693
▁followed	-12.8693
▁force	-12.8693
▁format	-12.8693
▁fourth	-12.8693
▁fowler	-12.8693
▁frame	-12.8693
▁francais	-12.8693
▁frenzy	-12.8693
▁freshen	-12.8693
▁freshner	-12.8693
▁frichik	-12.8693
▁friday	-12.8693
▁friggin	-12.8693
▁frill	-12.8693
▁fritos	-12.8693
▁fulfilled	-12.8693
▁furbabies	-12.8693
▁gadget	-12.8693
▁gagged	-12.8693
▁gah	-12.8693
▁galangal	-12.8693
▁galileo	-12.8693
▁gang	-12.8693
▁gastric	-12.8693
▁gastrointestinal	-12.8693
▁gelatine	-12.8693
▁gelato	-12.8693
▁genco	-12.8693
▁germinated	-12.8693
▁getter	-12.8693
▁gfcfsf	-12.8693
▁ghastly	-12.8693
▁gia	-12.8693
▁glenny	-12.8693
▁glucerna	-12.8693
▁glucotest	-12.8693
▁glug	-12.8693
▁glutamate	-12.8693
▁goal	-12.8693
▁gobstoppers	-12.8693
▁gochujang	-12.8693
▁gojis	-12.8693
▁golf	-12.8693
▁golightly	-12.8693
▁gon	-12.8693
▁google	-12.8693
▁gorgonzola	-12.8693
▁gormet	-12.8693
▁gracie	-12.8693
▁gracious	-12.8693
▁graduation	-12.8693
▁grandparent	-12.8693
▁gratification	-12.8693
▁grazing	-12.8693
▁grea	-12.8693
▁greate	-12.8693
▁greentea	-12.8693
▁gret	-12.8693
▁gringo	-12.8693
▁grissini	-12.8693
▁grossest	-12.8693
▁grower	-12.8693
▁grrrrreat	-12.8693
▁grrrrrreat	-12.8693
▁guarantee	-12.8693
▁guide	-12.8693
▁gulden	-12.8693
▁gunk	-12.8693
▁haiku	-12.8693
▁hain	-12.8693
▁hamster	-12.8693
▁hanging	-12.8693
▁hatch	-12.8693
▁hazel	-12.8693
▁hazer	-12.8693
▁healed	-12.8693
▁hearted	-12.8693
▁herbamare	-12.8693
▁herbes	-12.8693
▁heroin	-12.8693
▁hesitant	-12.8693
▁hideous	-12.8693
▁hominy	-12.8693
▁honees	-12.8693
▁hong	-12.8693
▁hop	-12.8693
▁hors	-12.8693
▁hospital	-12.8693
▁hotsauce	-12.8693
▁hott	-12.8693
▁http	-12.8693
▁hugely	-12.8693
▁hulled	-12.8693
▁hulless	-12.8693
▁humble	-12.8693
▁hunting	-12.8693
▁hyped	-12.8693
▁hypoglycemics	-12.8693
▁ichiban	-12.8693
▁ignorant	-12.8693
▁imperial	-12.8693
▁implies	-12.8693
▁improper	-12.8693
▁inadequate	-12.8693
▁inappropriate	-12.8693
▁inclined	-12.8693
▁indie	-12.8693
▁indispensible	-12.8693
▁indistinguishable	-12.8693
▁indonesian	-12.8693
▁indulge	-12.8693
▁inflammation	-12.8693
▁inflammatory	-12.8693
▁inflation	-12.8693
▁influenster	-12.8693
▁ingenious	-12.8693
▁inka	-12.8693
▁insomnia	-12.8693
▁inspired	-12.8693
▁inu	-12.8693
▁inventory	-12.8693
▁invisible	-12.8693
▁irritated	-12.8693
▁irritating	-12.8693
▁issued	-12.8693
▁italia	-12.8693
▁ja	-12.8693
▁jacked	-12.8693
▁jazz	-12.8693
▁jerry	-12.8693
▁jive	-12.8693
▁jo	-12.8693
▁joyous	-12.8693
▁jules	-12.8693
▁june	-12.8693
▁junior	-12.8693
▁jyoti	-12.8693
▁kabob	-12.8693
▁kal	-12.8693
▁kame	-12.8693
▁karen	-12.8693
▁kay	-12.8693
▁kicked	-12.8693
▁kidz	-12.8693
▁klein	-12.8693
▁knife	-12.8693
▁knight	-12.8693
▁kobe	-12.8693
▁kodiak	-12.8693
▁kopiko	-12.8693
▁korma	-12.8693
▁krackers	-12.8693
▁kukicha	-12.8693
▁kup	-12.8693
▁labelling	-12.8693
▁lammy	-12.8693
▁lansinoh	-12.8693
▁lap	-12.8693
▁largest	-12.8693
▁laughing	-12.8693
▁laurel	-12.8693
▁lavendar	-12.8693
▁lawn	-12.8693
▁ldl	-12.8693
▁leafy	-12.8693
▁leash	-12.8693
▁lebanese	-12.8693
▁leeper	-12.8693
▁lemonheads	-12.8693
▁leone	-12.8693
▁letdown	-12.8693
▁lhasa	-12.8693
▁libre	-12.8693
▁licked	-12.8693
▁lifeboat	-12.8693
▁lignans	-12.8693
▁likeable	-12.8693
▁lima	-12.8693
▁limp	-12.8693
▁lindberg	-12.8693
▁linden	-12.8693
▁lingers	-12.8693
▁linked	-12.8693
▁liquidy	-12.8693
▁loacker	-12.8693
▁lodge	-12.8693
▁lolli	-12.8693
▁looove	-12.8693
▁lous	-12.8693
▁lowery	-12.8693
▁lung	-12.8693
▁luwak	-12.8693
▁mabo	-12.8693
▁madhouse	-12.8693
▁magically	-12.8693
▁mai	-12.8693
▁makhani	-12.8693
▁makin	-12.8693
▁malabar	-12.8693
▁mallow	-12.8693
▁mamma	-12.8693
▁managed	-12.8693
▁manager	-12.8693
▁manischewitz	-12.8693
▁mantova	-12.8693
▁manual	-12.8693
▁mapleine	-12.8693
▁mapley	-12.8693
▁march	-12.8693
▁margaret	-12.8693
▁marinate	-12.8693
▁marshmellow	-12.8693
▁marshmellows	-12.8693
▁maynards	-12.8693
▁mayonaise	-12.8693
▁mberry	-12.8693
▁mccanns	-12.8693
▁mcdonald	-12.8693
▁mcvitie	-12.8693
▁medifast	-12.8693
▁medora	-12.8693
▁menadione	-12.8693
▁menthol	-12.8693
▁merckens	-12.8693
▁merguez	-12.8693
▁mex	-12.8693
▁meyenberg	-12.8693
▁miami	-12.8693
▁mickey	-12.8693
▁microwaved	-12.8693
▁middling	-12.8693
▁midwest	-12.8693
▁milano	-12.8693
▁minicongo	-12.8693
▁mistro	-12.8693
▁misunderstood	-12.8693
▁mono	-12.8693
▁montana	-12.8693
▁monthly	-12.8693
▁mott	-12.8693
▁mouthfeel	-12.8693
▁mouthwash	-12.8693
▁mtr	-12.8693
▁mule	-12.8693
▁mulling	-12.8693
▁murray	-12.8693
▁musical	-12.8693
▁mysterious	-12.8693
▁nah	-12.8693
▁neck	-12.8693
▁nectresse	-12.8693
▁neo	-12.8693
▁neon	-12.8693
▁nestea	-12.8693
▁newly	-12.8693
▁niche	-12.8693
▁niece	-12.8693
▁nissin	-12.8693
▁noir	-12.8693
▁noise	-12.8693
▁nordic	-12.8693
▁northwest	-12.8693
▁nourish	-12.8693
▁nov	-12.8693
▁nrg	-12.8693
▁nueske	-12.8693
▁nursery	-12.8693
▁nutter	-12.8693
▁obvious	-12.8693
▁ocha	-12.8693
▁od	-12.8693
▁odorless	-12.8693
▁oeuvre	-12.8693
▁offs	-12.8693
▁ohhhhh	-12.8693
▁omfg	-12.8693
▁ono	-12.8693
▁oomph	-12.8693
▁orbana	-12.8693
▁organized	-12.8693
▁orgeat	-12.8693
▁orginal	-12.8693
▁ortho	-12.8693
▁ot	-12.8693
▁oustanding	-12.8693
▁outdoors	-12.8693
▁outer	-12.8693
▁outlet	-12.8693
▁output	-12.8693
▁overdo	-12.8693
▁overhyped	-12.8693
▁overview	-12.8693
▁pail	-12.8693
▁painless	-12.8693
▁pairing	-12.8693
▁paks	-12.8693
▁palak	-12.8693
▁palette	-12.8693
▁pam	-12.8693
▁parisian	-12.8693
▁parm	-12.8693
▁parma	-12.8693
▁passover	-12.8693
▁pastille	-12.8693
▁pastime	-12.8693
▁pataks	-12.8693
▁pau	-12.8693
▁pavilion	-12.8693
▁pdq	-12.8693
▁peep	-12.8693
▁pellegrino	-12.8693
▁pennsylvania	-12.8693
▁pepperminty	-12.8693
▁pepto	-12.8693
▁perishable	-12.8693
▁pernigotti	-12.8693
▁perrins	-12.8693
▁peruvian	-12.8693
▁phony	-12.8693
▁pica	-12.8693
▁picker	-12.8693
▁pickup	-12.8693
▁pietro	-12.8693
▁pitbull	-12.8693
▁pity	-12.8693
▁pizzazz	-12.8693
▁pku	-12.8693
▁plaque	-12.8693
▁platter	-12.8693
▁pleasingly	-12.8693
▁pleasurable	-12.8693
▁plug	-12.8693
▁plunge	-12.8693
▁pointless	-12.8693
▁poisonous	-12.8693
▁police	-12.8693
▁pollo	-12.8693
▁pollux	-12.8693
▁pool	-12.8693
▁porcinis	-12.8693
▁portioned	-12.8693
▁possibility	-12.8693
▁potatoe	-12.8693
▁potency	-12.8693
▁pouched	-12.8693
▁poupon	-12.8693
▁powerhouse	-12.8693
▁premade	-12.8693
▁preserved	-12.8693
▁preventing	-12.8693
▁primarily	-12.8693
▁primula	-12.8693
▁processor	-12.8693
▁producto	-12.8693
▁profit	-12.8693
▁proflowers	-12.8693
▁prohibitive	-12.8693
▁promising	-12.8693
▁promotion	-12.8693
▁pronounce	-12.8693
▁pronounced	-12.8693
▁prop	-12.8693
▁prosciutto	-12.8693
▁protect	-12.8693
▁protecting	-12.8693
▁prudhomme	-12.8693
▁puffin	-12.8693
▁puggle	-12.8693
▁pumpking	-12.8693
▁punctured	-12.8693
▁pur	-12.8693
▁purevia	-12.8693
▁puzzled	-12.8693
▁quarter	-12.8693
▁queasy	-12.8693
▁queso	-12.8693
▁quik	-12.8693
▁qulaity	-12.8693
▁rarely	-12.8693
▁raven	-12.8693
▁razzpotle	-12.8693
▁react	-12.8693
▁realemon	-12.8693
▁rebranded	-12.8693
▁receiver	-12.8693
▁receiving	-12.8693
▁recieve	-12.8693
▁recyclable	-12.8693
▁recycled	-12.8693
▁recycling	-12.8693
▁redeeming	-12.8693
▁redmill	-12.8693
▁redskin	-12.8693
▁reducing	-12.8693
▁reduction	-12.8693
▁reek	-12.8693
▁regen	-12.8693
▁reggiano	-12.8693
▁reggie	-12.8693
▁regional	-12.8693
▁relaxer	-12.8693
▁relived	-12.8693
▁reminded	-12.8693
▁reported	-12.8693
▁reputable	-12.8693
▁restock	-12.8693
▁restuarant	-12.8693
▁returning	-12.8693
▁revision	-12.8693
▁rewarding	-12.8693
▁rexie	-12.8693
▁ribena	-12.8693
▁riesling	-12.8693
▁ripened	-12.8693
▁ripping	-12.8693
▁risky	-12.8693
▁rocher	-12.8693
▁romaine	-12.8693
▁roni	-12.8693
▁rooibus	-12.8693
▁rosary	-12.8693
▁rotel	-12.8693
▁royalty	-12.8693
▁royce	-12.8693
▁rtd	-12.8693
▁rudy	-12.8693
▁russa	-12.8693
▁ruta	-12.8693
▁rx	-12.8693
▁sa	-12.8693
▁sabor	-12.8693
▁sack	-12.8693
▁safeway	-12.8693
▁salada	-12.8693
▁sally	-12.8693
▁salmiak	-12.8693
▁sane	-12.8693
▁satan	-12.8693
▁saucy	-12.8693
▁sc	-12.8693
▁scarlet	-12.8693
▁scd	-12.8693
▁scream	-12.8693
▁scrub	-12.8693
▁scrummy	-12.8693
▁seedy	-12.8693
▁separately	-12.8693
▁sept	-12.8693
▁september	-12.8693
▁settled	-12.8693
▁sevice	-12.8693
▁sez	-12.8693
▁shady	-12.8693
▁sharkbanana	-12.8693
▁sharon	-12.8693
▁shattering	-12.8693
▁shimmer	-12.8693
▁shirt	-12.8693
▁shit	-12.8693
▁shoddy	-12.8693
▁shoppe	-12.8693
▁shrinking	-12.8693
▁sickening	-12.8693
▁sifting	-12.8693
▁silken	-12.8693
▁simplified	-12.8693
▁sink	-12.8693
▁siracha	-12.8693
▁sissy	-12.8693
▁sketchy	-12.8693
▁skewer	-12.8693
▁skim	-12.8693
▁sleeve	-12.8693
▁smackin	-12.8693
▁smash	-12.8693
▁smoothe	-12.8693
▁smores	-12.8693
▁smucker	-12.8693
▁snackwell	-12.8693
▁snickerdoodles	-12.8693
▁snikiddy	-12.8693
▁sno	-12.8693
▁soapy	-12.8693
▁soil	-12.8693
▁sojo	-12.8693
▁soluble	-12.8693
▁somehow	-12.8693
▁sooooooooooooo	-12.8693
▁soother	-12.8693
▁soynuts	-12.8693
▁spaniel	-12.8693
▁spenda	-12.8693
▁spiciest	-12.8693
▁sprayed	-12.8693
▁sprinkled	-12.8693
▁stadium	-12.8693
▁starve	-12.8693
▁statement	-12.8693
▁steady	-12.8693
▁steer	-12.8693
▁steroid	-12.8693
▁steviaclear	-12.8693
▁sticker	-12.8693
▁stinger	-12.8693
▁stored	-12.8693
▁storing	-12.8693
▁strainer	-12.8693
▁struck	-12.8693
▁styled	-12.8693
▁subscriber	-12.8693
▁substandard	-12.8693
▁suffer	-12.8693
▁suffering	-12.8693
▁sugarworks	-12.8693
▁superiour	-12.8693
▁supervision	-12.8693
▁supplemental	-12.8693
▁supplementing	-12.8693
▁supporting	-12.8693
▁surpassed	-12.8693
▁surprized	-12.8693
▁suzie	-12.8693
▁swears	-12.8693
▁sweeeet	-12.8693
▁sweetens	-12.8693
▁sweetie	-12.8693
▁sweety	-12.8693
▁sympathy	-12.8693
▁szechuan	-12.8693
▁tagalong	-12.8693
▁tahitian	-12.8693
▁tai	-12.8693
▁tainted	-12.8693
▁takeout	-12.8693
▁tamari	-12.8693
▁tantalizing	-12.8693
▁tarrazu	-12.8693
▁tarter	-12.8693
▁tastee	-12.8693
▁tasteing	-12.8693
▁tater	-12.8693
▁tax	-12.8693
▁teacup	-12.8693
▁teaspoon	-12.8693
▁tek	-12.8693
▁temporary	-12.8693
▁tepid	-12.8693
▁teriffic	-12.8693
▁terro	-12.8693
▁tex	-12.8693
▁tha	-12.8693
▁thankyou	-12.8693
▁therefore	-12.8693
▁thief	-12.8693
▁thirty	-12.8693
▁thompson	-12.8693
▁threat	-12.8693
▁throwback	-12.8693
▁thunk	-12.8693
▁tickle	-12.8693
▁tie	-12.8693
▁tierra	-12.8693
▁tilda	-12.8693
▁tillamook	-12.8693
▁tingle	-12.8693
▁tinned	-12.8693
▁tiptree	-12.8693
▁tm	-12.8693
▁tolerance	-12.8693
▁tolerated	-12.8693
▁tonno	-12.8693
▁toothsome	-12.8693
▁torture	-12.8693
▁tourangelle	-12.8693
▁tracking	-12.8693
▁transfat	-12.8693
▁trend	-12.8693
▁tricked	-12.8693
▁tripett	-12.8693
▁trivedi	-12.8693
▁truck	-12.8693
▁turducken	-12.8693
▁tweaked	-12.8693
▁twiglets	-12.8693
▁twisty	-12.8693
▁tx	-12.8693
▁uber	-12.8693
▁umeboshi	-12.8693
▁unbelieveable	-12.8693
▁uncooked	-12.8693
▁unfair	-12.8693
▁unimpressive	-12.8693
▁uninspiring	-12.8693
▁unpopped	-12.8693
▁unpredictable	-12.8693
▁unresponsive	-12.8693
▁unroasted	-12.8693
▁unstable	-12.8693
▁unwanted	-12.8693
▁upside	-12.8693
▁urine	-12.8693
▁vague	-12.8693
▁vaguely	-12.8693
▁valdosta	-12.8693
▁vastly	-12.8693
▁vegie	-12.8693
▁ver	-12.8693
▁vero	-12.8693
▁verrry	-12.8693
▁veterinary	-12.8693
▁vg	-12.8693
▁victorian	-12.8693
▁vigo	-12.8693
▁vin	-12.8693
▁vinacafe	-12.8693
▁vinta	-12.8693
▁violently	-12.8693
▁vitalicious	-12.8693
▁vivid	-12.8693
▁waaaaay	-12.8693
▁waffers	-12.8693
▁waffies	-12.8693
▁wagging	-12.8693
▁wallop	-12.8693
▁warmer	-12.8693
▁warmth	-12.8693
▁warranty	-12.8693
▁weetabix	-12.8693
▁weigh	-12.8693
▁weimaraner	-12.8693
▁weirdest	-12.8693
▁wessex	-12.8693
▁whoever	-12.8693
▁whoopie	-12.8693
▁whose	-12.8693
▁wildberry	-12.8693
▁wilderness	-12.8693
▁wiley	-12.8693
▁winery	-12.8693
▁wls	-12.8693
▁wonderland	-12.8693
▁wrote	-12.8693
▁wt	-12.8693
▁xtra	-12.8693
▁xxx	-12.8693
▁xyloburst	-12.8693
▁yahoo	-12.8693
▁yer	-12.8693
▁yield	-12.8693
▁yorkiepoo	-12.8693
▁yummilicious	-12.8693
▁yummmmmmmm	-12.8693
▁yummmmmmmmm	-12.8693
▁yummmmmmmmmm	-12.8693
▁yummmmmmy	-12.8693
▁yummyness	-12.8693
▁yumy	-12.8693
▁yuumy	-12.8693
▁zeus	-12.8693
▁zoo	-12.8693
▁zowie	-12.8693
▁zz	-12.8693
▁aaamazing	-13.157
▁abbey	-13.157
▁abomination	-13.157
▁abound	-13.157
▁absolutey	-13.157
▁absolutly	-13.157
▁absoutely	-13.157
▁abundance	-13.157
▁abysmal	-13.157
▁ac	-13.157
▁acacia	-13.157
▁accurately	-13.157
▁acting	-13.157
▁adam	-13.157
▁adaptable	-13.157
▁addendum	-13.157
▁address	-13.157
▁adjustable	-13.157
▁adkins	-13.157
▁adobo	-13.157
▁advertises	-13.157
▁aftermath	-13.157
▁ahem	-13.157
▁ahhhhhh	-13.157
▁ahhhhhhh	-13.157
▁ailment	-13.157
▁airhead	-13.157
▁airtight	-13.157
▁airwave	-13.157
▁aji	-13.157
▁ak	-13.157
▁akc	-13.157
▁akita	-13.157
▁alaea	-13.157
▁alder	-13.157
▁algae	-13.157
▁alimentum	-13.157
▁allergenic	-13.157
▁allspice	-13.157
▁alpha	-13.157
▁alteration	-13.157
▁altered	-13.157
▁amazinggggg	-13.157
▁amazingness	-13.157
▁ammonia	-13.157
▁amoretti	-13.157
▁andes	-13.157
▁annatto	-13.157
▁antidote	-13.157
▁antifreeze	-13.157
▁antioxidents	-13.157
▁antiperspirant	-13.157
▁anxiously	-13.157
▁applejack	-13.157
▁appliance	-13.157
▁applicator	-13.157
▁apply	-13.157
▁appreciates	-13.157
▁apso	-13.157
▁aqua	-13.157
▁ara	-13.157
▁arabic	-13.157
▁armour	-13.157
▁army	-13.157
▁arroz	-13.157
▁asada	-13.157
▁aseptic	-13.157
▁asleep	-13.157
▁asst	-13.157
▁astounding	-13.157
▁astoundingly	-13.157
▁ateco	-13.157
▁atlantic	-13.157
▁att	-13.157
▁attach	-13.157
▁attribute	-13.157
▁auguri	-13.157
▁august	-13.157
▁austin	-13.157
▁authentically	-13.157
▁autism	-13.157
▁automatically	-13.157
▁avoided	-13.157
▁avp	-13.157
▁awaits	-13.157
▁awe	-13.157
▁awesomesauce	-13.157
▁awesomness	-13.157
▁awsom	-13.157
▁azar	-13.157
▁azing	-13.157
▁bakto	-13.157
▁balancing	-13.157
▁ballin	-13.157
▁bambo	-13.157
▁bandwagon	-13.157
▁banger	-13.157
▁bangkok	-13.157
▁banned	-13.157
▁bargained	-13.157
▁bargin	-13.157
▁barking	-13.157
▁barrys	-13.157
▁bassetts	-13.157
▁basting	-13.157
▁beachside	-13.157
▁beacon	-13.157
▁bearable	-13.157
▁bearnaise	-13.157
▁beaver	-13.157
▁beefaroni	-13.157
▁beekeeper	-13.157
▁beloved	-13.157
▁bene	-13.157
▁benzoate	-13.157
▁bergamont	-13.157
▁berserk	-13.157
▁beth	-13.157
▁beurre	-13.157
▁bf	-13.157
▁bilberry	-13.157
▁binge	-13.157
▁birth	-13.157
▁bismol	-13.157
▁bisulfite	-13.157
▁blackbox	-13.157
▁blanc	-13.157
▁bleach	-13.157
▁blegh	-13.157
▁blissful	-13.157
▁bloating	-13.157
▁blocked	-13.157
▁blox	-13.157
▁blt	-13.157
▁bobby	-13.157
▁bodacious	-13.157
▁bodybuilder	-13.157
▁bonnet	-13.157
▁bonzai	-13.157
▁boon	-13.157
▁booze	-13.157
▁boozy	-13.157
▁boquete	-13.157
▁borderline	-13.157
▁boscoli	-13.157
▁botan	-13.157
▁bound	-13.157
▁boyds	-13.157
▁bp	-13.157
▁bracing	-13.157
▁brag	-13.157
▁breadmaker	-13.157
▁breakfest	-13.157
▁breastfed	-13.157
▁breathies	-13.157
▁breezy	-13.157
▁bribe	-13.157
▁bride	-13.157
▁bridgford	-13.157
▁brief	-13.157
▁briefly	-13.157
▁brightens	-13.157
▁brilliance	-13.157
▁brisk	-13.157
▁britt	-13.157
▁browning	-13.157
▁btn	-13.157
▁buckeye	-13.157
▁buena	-13.157
▁buggy	-13.157
▁buried	-13.157
▁buttercream	-13.157
▁butterfingers	-13.157
▁butterfly	-13.157
▁bypass	-13.157
▁cabernet	-13.157
▁cadburys	-13.157
▁cadillac	-13.157
▁cafeine	-13.157
▁cakesters	-13.157
▁calabria	-13.157
▁calamari	-13.157
▁calbee	-13.157
▁caliente	-13.157
▁camerons	-13.157
▁canceling	-13.157
▁canyon	-13.157
▁cappuchino	-13.157
▁capt	-13.157
▁carbo	-13.157
▁cardia	-13.157
▁carmelina	-13.157
▁carne	-13.157
▁carrs	-13.157
▁cart	-13.157
▁carte	-13.157
▁cash	-13.157
▁cassis	-13.157
▁cattle	-13.157
▁caveman	-13.157
▁cavity	-13.157
▁ceasar	-13.157
▁cellar	-13.157
▁centerpiece	-13.157
▁centipede	-13.157
▁cerelac	-13.157
▁challenged	-13.157
▁chantea	-13.157
▁chaos	-13.157
▁char	-13.157
▁charcoal	-13.157
▁chardonnay	-13.157
▁charles	-13.157
▁charly	-13.157
▁chase	-13.157
▁chasing	-13.157
▁chateau	-13.157
▁cheapened	-13.157
▁cheery	-13.157
▁cheesecloth	-13.157
▁cheesemaking	-13.157
▁cheeto	-13.157
▁cheezies	-13.157
▁chemo	-13.157
▁cherrybrook	-13.157
▁cheryl	-13.157
▁chianti	-13.157
▁chic	-13.157
▁chichen	-13.157
▁chickory	-13.157
▁chilie	-13.157
▁chilly	-13.157
▁chiplets	-13.157
▁chlorhexidine	-13.157
▁chlorine	-13.157
▁chocalate	-13.157
▁chocoalte	-13.157
▁chocoate	-13.157
▁chocofudge	-13.157
▁chocolicious	-13.157
▁chocolote	-13.157
▁cholula	-13.157
▁chomping	-13.157
▁choo	-13.157
▁chooses	-13.157
▁choy	-13.157
▁chreese	-13.157
▁chuckle	-13.157
▁cib	-13.157
▁citrusy	-13.157
▁civilization	-13.157
▁cj	-13.157
▁cl	-13.157
▁clarify	-13.157
▁cleaned	-13.157
▁climbing	-13.157
▁clipper	-13.157
▁clipping	-13.157
▁clod	-13.157
▁clogged	-13.157
▁closely	-13.157
▁cloth	-13.157
▁cloudy	-13.157
▁clover	-13.157
▁clue	-13.157
▁coal	-13.157
▁coarser	-13.157
▁cob	-13.157
▁cocker	-13.157
▁coffeemaker	-13.157
▁coffie	-13.157
▁coleslaw	-13.157
▁colicky	-13.157
▁collar	-13.157
▁coma	-13.157
▁communion	-13.157
▁comparatively	-13.157
▁composition	-13.157
▁compromising	-13.157
▁coney	-13.157
▁confidence	-13.157
▁confident	-13.157
▁consistenly	-13.157
▁contamined	-13.157
▁contessa	-13.157
▁continuing	-13.157
▁contract	-13.157
▁controversial	-13.157
▁convienient	-13.157
▁convincing	-13.157
▁cooke	-13.157
▁coolest	-13.157
▁corny	-13.157
▁costume	-13.157
▁coulda	-13.157
▁county	-13.157
▁cowboy	-13.157
▁crabcakes	-13.157
▁craisins	-13.157
▁crawfish	-13.157
▁crawford	-13.157
▁crayon	-13.157
▁creamed	-13.157
▁creature	-13.157
▁crips	-13.157
▁crispbreads	-13.157
▁crispness	-13.157
▁crossed	-13.157
▁crostini	-13.157
▁crowded	-13.157
▁crud	-13.157
▁cruelty	-13.157
▁cruise	-13.157
▁crunchie	-13.157
▁cult	-13.157
▁cultured	-13.157
▁curiosity	-13.157
▁curiously	-13.157
▁currywurst	-13.157
▁cutie	-13.157
▁cuz	-13.157
▁dagoba	-13.157
▁daifuku	-13.157
▁dam	-13.157
▁danielle	-13.157
▁dansk	-13.157
▁dassant	-13.157
▁dat	-13.157
▁data	-13.157
▁daytime	-13.157
▁dc	-13.157
▁dea	-13.157
▁deb	-13.157
▁debacle	-13.157
▁debbie	-13.157
▁decadently	-13.157
▁deceptively	-13.157
▁decided	-13.157
▁declined	-13.157
▁decorate	-13.157
▁decrease	-13.157
▁deed	-13.157
▁deeeeee	-13.157
▁def	-13.157
▁defect	-13.157
▁defurr	-13.157
▁deglet	-13.157
▁delacre	-13.157
▁deleted	-13.157
▁deliciuos	-13.157
▁delicously	-13.157
▁delishious	-13.157
▁delisious	-13.157
▁denta	-13.157
▁denture	-13.157
▁deprived	-13.157
▁der	-13.157
▁describes	-13.157
▁detailed	-13.157
▁detangle	-13.157
▁detect	-13.157
▁detergent	-13.157
▁devonshire	-13.157
▁devours	-13.157
▁diabeti	-13.157
▁differant	-13.157
▁differs	-13.157
▁difficulty	-13.157
▁diffrent	-13.157
▁dijonnaise	-13.157
▁dilemma	-13.157
▁dimensional	-13.157
▁dino	-13.157
▁directed	-13.157
▁director	-13.157
▁disappears	-13.157
▁discolored	-13.157
▁disguised	-13.157
▁disney	-13.157
▁disposa	-13.157
▁dissapoints	-13.157
▁divided	-13.157
▁divinity	-13.157
▁dodger	-13.157
▁doggone	-13.157
▁domingo	-13.157
▁doone	-13.157
▁dora	-13.157
▁dosage	-13.157
▁dosen	-13.157
▁doubtful	-13.157
▁douglas	-13.157
▁downfall	-13.157
▁downgraded	-13.157
▁downsized	-13.157
▁dreaming	-13.157
▁drowsiness	-13.157
▁drumstick	-13.157
▁drunk	-13.157
▁drying	-13.157
▁ducky	-13.157
▁duct	-13.157
▁dulse	-13.157
▁durkees	-13.157
▁dusted	-13.157
▁eagerly	-13.157
▁earnest	-13.157
▁eatten	-13.157
▁eb	-13.157
▁ecstatic	-13.157
▁education	-13.157
▁ee	-13.157
▁efagold	-13.157
▁effectively	-13.157
▁efs	-13.157
▁ekobrew	-13.157
▁eliminated	-13.157
▁eliminates	-13.157
▁emailed	-13.157
▁emperor	-13.157
▁emphasis	-13.157
▁ending	-13.157
▁engery	-13.157
▁enhance	-13.157
▁enought	-13.157
▁enriched	-13.157
▁enthused	-13.157
▁enthusiasm	-13.157
▁enthusiastically	-13.157
▁equally	-13.157
▁era	-13.157
▁esque	-13.157
▁essentially	-13.157
▁eternal	-13.157
▁etouffee	-13.157
▁evidence	-13.157
▁ewwww	-13.157
▁exceed	-13.157
▁excellen	-13.157
▁excessively	-13.157
▁excite	-13.157
▁excllent	-13.157
▁execellent	-13.157
▁existent	-13.157
▁exorbitant	-13.157
▁experiance	-13.157
▁experimental	-13.157
▁experimentation	-13.157
▁expesive	-13.157
▁expierence	-13.157
▁explore	-13.157
▁export	-13.157
▁expression	-13.157
▁exquisitely	-13.157
▁faced	-13.157
▁fade	-13.157
▁fairtrade	-13.157
▁fanastic	-13.157
▁farmed	-13.157
▁fascinating	-13.157
▁fastest	-13.157
▁fasting	-13.157
▁fatman	-13.157
▁fava	-13.157
▁favorate	-13.157
▁fazer	-13.157
▁fd	-13.157
▁feather	-13.157
▁fect	-13.157
▁fedex	-13.157
▁feldkamp	-13.157
▁felix	-13.157
▁fiance	-13.157
▁fiasco	-13.157
▁fibergourmet	-13.157
▁fighter	-13.157
▁filbert	-13.157
▁filthy	-13.157
▁finnicky	-13.157
▁finnish	-13.157
▁fishing	-13.157
▁fixins	-13.157
▁fizziness	-13.157
▁flamin	-13.157
▁flatulence	-13.157
▁flavacol	-13.157
▁flavered	-13.157
▁flick	-13.157
▁floating	-13.157
▁florist	-13.157
▁fluctuates	-13.157
▁flytrap	-13.157
▁foaming	-13.157
▁focused	-13.157
▁fogchaser	-13.157
▁fold	-13.157
▁follower	-13.157
▁fontana	-13.157
▁foo	-13.157
▁foolproof	-13.157
▁forbidden	-13.157
▁forced	-13.157
▁formed	-13.157
▁forty	-13.157
▁foulest	-13.157
▁fraction	-13.157
▁fragment	-13.157
▁francesco	-13.157
▁francis	-13.157
▁frappacino	-13.157
▁fraudulent	-13.157
▁freedom	-13.157
▁freezing	-13.157
▁freight	-13.157
▁freindly	-13.157
▁fremont	-13.157
▁frenchy	-13.157
▁frequently	-13.157
▁freshens	-13.157
▁fria	-13.157
▁frickin	-13.157
▁frites	-13.157
▁fro	-13.157
▁froot	-13.157
▁frooties	-13.157
▁frothed	-13.157
▁fruition	-13.157
▁frustration	-13.157
▁fulvic	-13.157
▁fumi	-13.157
▁fungus	-13.157
▁fungusamongus	-13.157
▁funk	-13.157
▁furballs	-13.157
▁gaba	-13.157
▁gail	-13.157
▁gained	-13.157
▁galaxy	-13.157
▁gallo	-13.157
▁gap	-13.157
▁garibaldi	-13.157
▁garvey	-13.157
▁gasm	-13.157
▁gate	-13.157
▁gebhardt	-13.157
▁geek	-13.157
▁gelatinous	-13.157
▁generation	-13.157
▁genesis	-13.157
▁genisoy	-13.157
▁geriatric	-13.157
▁giardiniera	-13.157
▁gifting	-13.157
▁gigantic	-13.157
▁gimmicky	-13.157
▁gingersnap	-13.157
▁giraffe	-13.157
▁girlie	-13.157
▁giveaway	-13.157
▁glob	-13.157
▁glop	-13.157
▁glossy	-13.157
▁glowing	-13.157
▁glutenfreeda	-13.157
▁glutten	-13.157
▁gmcr	-13.157
▁gnawhide	-13.157
▁golazo	-13.157
▁goldilocks	-13.157
▁golfer	-13.157
▁goooooooood	-13.157
▁goop	-13.157
▁gopicnic	-13.157
▁goreng	-13.157
▁gouda	-13.157
▁goumet	-13.157
▁gourd	-13.157
▁grainfree	-13.157
▁grapenuts	-13.157
▁gree	-13.157
▁greeen	-13.157
▁greener	-13.157
▁grinding	-13.157
▁gristle	-13.157
▁grotesque	-13.157
▁grrreat	-13.157
▁guac	-13.157
▁guan	-13.157
▁guard	-13.157
▁gud	-13.157
▁guinness	-13.157
▁guru	-13.157
▁gustafs	-13.157
▁guylian	-13.157
▁habaneros	-13.157
▁habitant	-13.157
▁hades	-13.157
▁haired	-13.157
▁handi	-13.157
▁handsome	-13.157
▁hansens	-13.157
▁hanuta	-13.157
▁hapi	-13.157
▁harbio	-13.157
▁hardest	-13.157
▁hardtack	-13.157
▁haribos	-13.157
▁harmless	-13.157
▁harvey	-13.157
▁hating	-13.157
▁havarti	-13.157
▁hazardous	-13.157
▁heady	-13.157
▁heal	-13.157
▁heals	-13.157
▁heathly	-13.157
▁heb	-13.157
▁hedgehog	-13.157
▁heeler	-13.157
▁hefty	-13.157
▁helix	-13.157
▁hellman	-13.157
▁hence	-13.157
▁herby	-13.157
▁hh	-13.157
▁hid	-13.157
▁hirts	-13.157
▁hm	-13.157
▁hoax	-13.157
▁holic	-13.157
▁holland	-13.157
▁homesick	-13.157
▁hon	-13.157
▁honeysuckle	-13.157
▁honeytree	-13.157
▁hopelessly	-13.157
▁horton	-13.157
▁hortons	-13.157
▁hotcake	-13.157
▁hotttttt	-13.157
▁houseplant	-13.157
▁housewarming	-13.157
▁housewife	-13.157
▁hubba	-13.157
▁hubbard	-13.157
▁humane	-13.157
▁humbles	-13.157
▁humm	-13.157
▁hurrah	-13.157
▁huy	-13.157
▁hydrolyzed	-13.157
▁hypoglycemic	-13.157
▁ia	-13.157
▁ic	-13.157
▁icious	-13.157
▁icon	-13.157
▁idahoan	-13.157
▁identical	-13.157
▁illness	-13.157
▁illusion	-13.157
▁imaginable	-13.157
▁immediate	-13.157
▁importantly	-13.157
▁improver	-13.157
▁improving	-13.157
▁impulse	-13.157
▁inca	-13.157
▁incentive	-13.157
▁indifferent	-13.157
▁indo	-13.157
▁indomie	-13.157
▁ingedients	-13.157
▁ingred	-13.157
▁innovation	-13.157
▁insecticide	-13.157
▁insert	-13.157
▁insipid	-13.157
▁insult	-13.157
▁insurance	-13.157
▁integrity	-13.157
▁interestingly	-13.157
▁intestinal	-13.157
▁intoxicating	-13.157
▁intriguing	-13.157
▁introduce	-13.157
▁invigorating	-13.157
▁irresponsible	-13.157
▁irritant	-13.157
▁irritate	-13.157
▁irritates	-13.157
▁israel	-13.157
▁jacket	-13.157
▁jaffa	-13.157
▁jalape	-13.157
▁james	-13.157
▁jammie	-13.157
▁jamon	-13.157
▁jenny	-13.157
▁jfg	-13.157
▁jj	-13.157
▁join	-13.157
▁journey	-13.157
▁jovial	-13.157
▁juiced	-13.157
▁juicer	-13.157
▁juicing	-13.157
▁jumbone	-13.157
▁jummy	-13.157
▁jumping	-13.157
▁junkfood	-13.157
▁jura	-13.157
▁kala	-13.157
▁kansa	-13.157
▁kar	-13.157
▁kashmiri	-13.157
▁kasugai	-13.157
▁katie	-13.157
▁kelapo	-13.157
▁ken	-13.157
▁kennel	-13.157
▁kern	-13.157
▁kiddy	-13.157
▁kitkat	-13.157
▁kmr	-13.157
▁knead	-13.157
▁knockoff	-13.157
▁knockout	-13.157
▁koi	-13.157
▁kola	-13.157
▁kongs	-13.157
▁kringles	-13.157
▁krinkle	-13.157
▁krisps	-13.157
▁labelled	-13.157
▁labradoodle	-13.157
▁laced	-13.157
▁lager	-13.157
▁lam	-13.157
▁landfill	-13.157
▁latin	-13.157
▁lawrys	-13.157
▁led	-13.157
▁lefse	-13.157
▁leo	-13.157
▁letter	-13.157
▁lg	-13.157
▁libido	-13.157
▁lic	-13.157
▁lied	-13.157
▁lifeless	-13.157
▁lightbulb	-13.157
▁limbaugh	-13.157
▁limburger	-13.157
▁limeade	-13.157
▁limon	-13.157
▁lining	-13.157
▁linketts	-13.157
▁lipil	-13.157
▁llike	-13.157
▁loco	-13.157
▁loin	-13.157
▁looooove	-13.157
▁lorna	-13.157
▁los	-13.157
▁lotr	-13.157
▁lotte	-13.157
▁lou	-13.157
▁loveit	-13.157
▁loven	-13.157
▁lox	-13.157
▁lozenge	-13.157
▁lucaffe	-13.157
▁lucini	-13.157
▁lunchables	-13.157
▁luvers	-13.157
▁lyles	-13.157
▁lynn	-13.157
▁mackintosh	-13.157
▁macrobiotic	-13.157
▁madam	-13.157
▁mag	-13.157
▁maille	-13.157
▁maintains	-13.157
▁mak	-13.157
▁maki	-13.157
▁malamute	-13.157
▁mangia	-13.157
▁mania	-13.157
▁maniac	-13.157
▁manitoba	-13.157
▁manly	-13.157
▁mannheim	-13.157
▁marcona	-13.157
▁mareblu	-13.157
▁margaritaville	-13.157
▁marginally	-13.157
▁maria	-13.157
▁marionberry	-13.157
▁marrobones	-13.157
▁martha	-13.157
▁martin	-13.157
▁masa	-13.157
▁mastic	-13.157
▁matzoh	-13.157
▁mbt	-13.157
▁mclib	-13.157
▁mcp	-13.157
▁meaning	-13.157
▁measuring	-13.157
▁medicating	-13.157
▁meditation	-13.157
▁meiji	-13.157
▁melina	-13.157
▁melita	-13.157
▁meltdown	-13.157
▁menstrual	-13.157
▁mental	-13.157
▁merit	-13.157
▁metabolism	-13.157
▁meusli	-13.157
▁mic	-13.157
▁midland	-13.157
▁mileage	-13.157
▁miller	-13.157
▁milling	-13.157
▁mish	-13.157
▁mishandling	-13.157
▁misled	-13.157
▁mississippi	-13.157
▁mj	-13.157
▁mkt	-13.157
▁mmmmmmmmmmmmm	-13.157
▁mmmmmmmmmmmmmmmmmmmmmmmmmm	-13.157
▁moca	-13.157
▁modern	-13.157
▁modify	-13.157
▁molar	-13.157
▁molinari	-13.157
▁mollie	-13.157
▁monk	-13.157
▁moose	-13.157
▁mori	-13.157
▁mortar	-13.157
▁mouthwatering	-13.157
▁mrp	-13.157
▁mueslix	-13.157
▁multivitamin	-13.157
▁muncher	-13.157
▁municipal	-13.157
▁myun	-13.157
▁na	-13.157
▁nacl	-13.157
▁nairn	-13.157
▁nalley	-13.157
▁namak	-13.157
▁nanas	-13.157
▁napa	-13.157
▁nastiness	-13.157
▁nativas	-13.157
▁naturel	-13.157
▁naysayer	-13.157
▁nb	-13.157
▁nettle	-13.157
▁nexxus	-13.157
▁nicaraguan	-13.157
▁nickel	-13.157
▁niederegger	-13.157
▁nilla	-13.157
▁nipple	-13.157
▁nit	-13.157
▁nite	-13.157
▁norfolk	-13.157
▁normale	-13.157
▁norway	-13.157
▁noted	-13.157
▁novel	-13.157
▁nuclear	-13.157
▁nuke	-13.157
▁nutrisentials	-13.157
▁nutrititious	-13.157
▁nutritous	-13.157
▁nuttier	-13.157
▁nv	-13.157
▁nw	-13.157
▁nyc	-13.157
▁oatmean	-13.157
▁occassion	-13.157
▁occupy	-13.157
▁octavia	-13.157
▁ode	-13.157
▁odell	-13.157
▁offensive	-13.157
▁offset	-13.157
▁ohhhhhh	-13.157
▁ohsawa	-13.157
▁ointment	-13.157
▁oj	-13.157
▁oli	-13.157
▁olivella	-13.157
▁olivier	-13.157
▁olla	-13.157
▁omgoodness	-13.157
▁omit	-13.157
▁omnivore	-13.157
▁onto	-13.157
▁oo	-13.157
▁orac	-13.157
▁org	-13.157
▁organization	-13.157
▁ortiz	-13.157
▁osem	-13.157
▁ottimo	-13.157
▁ous	-13.157
▁outcome	-13.157
▁outdone	-13.157
▁outragious	-13.157
▁overated	-13.157
▁overkill	-13.157
▁overloaded	-13.157
▁overpower	-13.157
▁overprice	-13.157
▁overprocessed	-13.157
▁overtone	-13.157
▁overwhelm	-13.157
▁ownership	-13.157
▁pac	-13.157
▁pacifier	-13.157
▁packageing	-13.157
▁painfully	-13.157
▁pakistan	-13.157
▁panama	-13.157
▁panang	-13.157
▁pancetta	-13.157
▁pancreatitis	-13.157
▁pao	-13.157
▁papad	-13.157
▁para	-13.157
▁parade	-13.157
▁parthenon	-13.157
▁pastrami	-13.157
▁patio	-13.157
▁paula	-13.157
▁peaberry	-13.157
▁peaceful	-13.157
▁pearled	-13.157
▁peasy	-13.157
▁pediatrician	-13.157
▁pegetables	-13.157
▁peices	-13.157
▁pemmican	-13.157
▁pepe	-13.157
▁peppy	-13.157
▁percentage	-13.157
▁perciatelli	-13.157
▁percolator	-13.157
▁perfected	-13.157
▁perform	-13.157
▁performing	-13.157
▁personalized	-13.157
▁petguard	-13.157
▁petit	-13.157
▁phenylalanine	-13.157
▁phone	-13.157
▁picard	-13.157
▁picking	-13.157
▁pickling	-13.157
▁pigeon	-13.157
▁pillow	-13.157
▁pilon	-13.157
▁pinenuts	-13.157
▁pinhead	-13.157
▁pinot	-13.157
▁pinwheel	-13.157
▁pioneer	-13.157
▁piquant	-13.157
▁pixie	-13.157
▁pizzaz	-13.157
▁plague	-13.157
▁plantain	-13.157
▁plated	-13.157
▁pleasently	-13.157
▁plochman	-13.157
▁pointy	-13.157
▁poland	-13.157
▁polished	-13.157
▁pollen	-13.157
▁polo	-13.157
▁pomace	-13.157
▁pomegranite	-13.157
▁pomi	-13.157
▁pond	-13.157
▁pooper	-13.157
▁poorest	-13.157
▁poppyseed	-13.157
▁popularity	-13.157
▁porcelain	-13.157
▁porky	-13.157
▁porterhouse	-13.157
▁pouring	-13.157
▁pr	-13.157
▁preground	-13.157
▁preparedness	-13.157
▁prestige	-13.157
▁presto	-13.157
▁pretend	-13.157
▁preventative	-13.157
▁prevention	-13.157
▁priority	-13.157
▁processing	-13.157
▁proctor	-13.157
▁promote	-13.157
▁prostate	-13.157
▁prouduct	-13.157
▁proved	-13.157
▁psoriasis	-13.157
▁pudge	-13.157
▁pumpkiny	-13.157
▁pun	-13.157
▁pureed	-13.157
▁puttanesca	-13.157
▁qa	-13.157
▁qaulity	-13.157
▁qt	-13.157
▁quail	-13.157
▁quailty	-13.157
▁quake	-13.157
▁quinn	-13.157
▁quote	-13.157
▁race	-13.157
▁radical	-13.157
▁radish	-13.157
▁raf	-13.157
▁raincoast	-13.157
▁raisen	-13.157
▁razzle	-13.157
▁rc	-13.157
▁reached	-13.157
▁reccomended	-13.157
▁recomend	-13.157
▁recommeded	-13.157
▁reconstituted	-13.157
▁recording	-13.157
▁recovering	-13.157
▁redbarn	-13.157
▁redhot	-13.157
▁redi	-13.157
▁redneck	-13.157
▁reednikki	-13.157
▁reesesticks	-13.157
▁refeshing	-13.157
▁refillable	-13.157
▁reformulation	-13.157
▁refresh	-13.157
▁refreshed	-13.157
▁refreshes	-13.157
▁refresing	-13.157
▁regimen	-13.157
▁regularity	-13.157
▁reheat	-13.157
▁reindeer	-13.157
▁related	-13.157
▁relaxed	-13.157
▁released	-13.157
▁reliever	-13.157
▁remebered	-13.157
▁remote	-13.157
▁removing	-13.157
▁renamed	-13.157
▁reordered	-13.157
▁repair	-13.157
▁repeated	-13.157
▁representation	-13.157
▁requested	-13.157
▁reservoir	-13.157
▁resource	-13.157
▁responded	-13.157
▁responsibility	-13.157
▁restless	-13.157
▁rethink	-13.157
▁retreat	-13.157
▁reverse	-13.157
▁ribeye	-13.157
▁ricotta	-13.157
▁rinaldi	-13.157
▁ringer	-13.157
▁rinsing	-13.157
▁ripe	-13.157
▁rita	-13.157
▁rite	-13.157
▁roar	-13.157
▁roastery	-13.157
▁robbed	-13.157
▁robusta	-13.157
▁roca	-13.157
▁rod	-13.157
▁rodelle	-13.157
▁rodeo	-13.157
▁romance	-13.157
▁romantic	-13.157
▁romulan	-13.157
▁ron	-13.157
▁ross	-13.157
▁roy	-13.157
▁royale	-13.157
▁rubbish	-13.157
▁rude	-13.157
▁russel	-13.157
▁rustic	-13.157
▁sabroso	-13.157
▁safely	-13.157
▁safron	-13.157
▁saigon	-13.157
▁salsitas	-13.157
▁saltiness	-13.157
▁sangaria	-13.157
▁santo	-13.157
▁santos	-13.157
▁saturday	-13.157
▁sauerbraten	-13.157
▁saveurs	-13.157
▁sazon	-13.157
▁sbd	-13.157
▁scalloped	-13.157
▁scandal	-13.157
▁scandinavian	-13.157
▁sci	-13.157
▁scientific	-13.157
▁scoopable	-13.157
▁scooter	-13.157
▁scorned	-13.157
▁scrambled	-13.157
▁screaming	-13.157
▁scrumptous	-13.157
▁seabear	-13.157
▁sealing	-13.157
▁seasong	-13.157
▁securely	-13.157
▁sehr	-13.157
▁serendipity	-13.157
▁serrano	-13.157
▁seville	-13.157
▁sewer	-13.157
▁shadow	-13.157
▁shaken	-13.157
▁shaky	-13.157
▁sharkies	-13.157
▁shepard	-13.157
▁shilajit	-13.157
▁shiney	-13.157
▁shoot	-13.157
▁shortening	-13.157
▁shortly	-13.157
▁showing	-13.157
▁showtime	-13.157
▁significant	-13.157
▁significantly	-13.157
▁similiar	-13.157
▁singed	-13.157
▁sippin	-13.157
▁sirena	-13.157
▁sixlets	-13.157
▁sixty	-13.157
▁sizzling	-13.157
▁sk	-13.157
▁ski	-13.157
▁skyrocketed	-13.157
▁slam	-13.157
▁slave	-13.157
▁slaw	-13.157
▁sleepless	-13.157
▁sleeplessness	-13.157
▁slicer	-13.157
▁slick	-13.157
▁slimming	-13.157
▁slipped	-13.157
▁slush	-13.157
▁smacking	-13.157
▁smartwater	-13.157
▁smashing	-13.157
▁smiley	-13.157
▁smint	-13.157
▁smithinsight	-13.157
▁smokiness	-13.157
▁smoooth	-13.157
▁smooshed	-13.157
▁smoothly	-13.157
▁smorz	-13.157
▁snappish	-13.157
▁snapz	-13.157
▁snax	-13.157
▁snickerdoodle	-13.157
▁snider	-13.157
▁snout	-13.157
▁soaking	-13.157
▁sobe	-13.157
▁sofa	-13.157
▁softest	-13.157
▁softy	-13.157
▁sol	-13.157
▁solidly	-13.157
▁solvent	-13.157
▁song	-13.157
▁sonic	-13.157
▁sooooooooo	-13.157
▁soothes	-13.157
▁sorbet	-13.157
▁sorbitol	-13.157
▁sorely	-13.157
▁soso	-13.157
▁spaetzle	-13.157
▁spangler	-13.157
▁sparking	-13.157
▁spatini	-13.157
▁speaks	-13.157
▁spear	-13.157
▁spearment	-13.157
▁specifically	-13.157
▁specified	-13.157
▁speck	-13.157
▁spending	-13.157
▁sphynx	-13.157
▁spilling	-13.157
▁spilt	-13.157
▁spite	-13.157
▁spooky	-13.157
▁spotted	-13.157
▁sprightly	-13.157
▁spud	-13.157
▁squashed	-13.157
▁squeaker	-13.157
▁squeez	-13.157
▁squeezable	-13.157
▁sr	-13.157
▁stability	-13.157
▁stacys	-13.157
▁stamen	-13.157
▁standout	-13.157
▁starvation	-13.157
▁stateside	-13.157
▁stating	-13.157
▁stats	-13.157
▁stayed	-13.157
▁steakhouse	-13.157
▁stealing	-13.157
▁steeping	-13.157
▁stilton	-13.157
▁sting	-13.157
▁stingy	-13.157
▁stirring	-13.157
▁stoked	-13.157
▁storm	-13.157
▁stovetop	-13.157
▁strand	-13.157
▁stray	-13.157
▁stringy	-13.157
▁stroke	-13.157
▁structure	-13.157
▁studying	-13.157
▁stufff	-13.157
▁subject	-13.157
▁subscribed	-13.157
▁sucking	-13.157
▁sudden	-13.157
▁suggests	-13.157
▁suite	-13.157
▁sumac	-13.157
▁sunblock	-13.157
▁sundae	-13.157
▁sundew	-13.157
▁sunmaid	-13.157
▁sunridge	-13.157
▁superbly	-13.157
▁superhero	-13.157
▁suppliment	-13.157
▁supposedly	-13.157
▁suppressant	-13.157
▁surface	-13.157
▁surgar	-13.157
▁surprize	-13.157
▁surprizingly	-13.157
▁survey	-13.157
▁suspicious	-13.157
▁sustained	-13.157
▁swallowed	-13.157
▁sweaty	-13.157
▁sweeeeeet	-13.157
▁swill	-13.157
▁swimming	-13.157
▁swing	-13.157
▁switcheroo	-13.157
▁swizzle	-13.157
▁synergy	-13.157
▁taker	-13.157
▁tame	-13.157
▁tango	-13.157
▁tank	-13.157
▁taro	-13.157
▁tarragon	-13.157
▁tasker	-13.157
▁tastefully	-13.157
▁tastykakes	-13.157
▁tate	-13.157
▁taurine	-13.157
▁tavah	-13.157
▁taza	-13.157
▁tbsp	-13.157
▁tchibo	-13.157
▁teacher	-13.157
▁teatime	-13.157
▁technodog	-13.157
▁teddie	-13.157
▁tedious	-13.157
▁tend	-13.157
▁tenderloin	-13.157
▁tennessee	-13.157
▁tension	-13.157
▁terrable	-13.157
▁terror	-13.157
▁tester	-13.157
▁testimonial	-13.157
▁texan	-13.157
▁thesis	-13.157
▁thickening	-13.157
▁thickens	-13.157
▁thrives	-13.157
▁thw	-13.157
▁thye	-13.157
▁ti	-13.157
▁timeless	-13.157
▁timesaver	-13.157
▁timey	-13.157
▁timid	-13.157
▁timmy	-13.157
▁tisane	-13.157
▁toasting	-13.157
▁tomorrow	-13.157
▁tonkatsu	-13.157
▁topo	-13.157
▁torte	-13.157
▁tortellini	-13.157
▁tossed	-13.157
▁totonac	-13.157
▁tradeoff	-13.157
▁trading	-13.157
▁trained	-13.157
▁transform	-13.157
▁translation	-13.157
▁trappist	-13.157
▁treater	-13.157
▁tres	-13.157
▁triumph	-13.157
▁trix	-13.157
▁trolli	-13.157
▁tru	-13.157
▁trustworthy	-13.157
▁tsp	-13.157
▁turnaround	-13.157
▁turpentine	-13.157
▁tutto	-13.157
▁tyme	-13.157
▁uck	-13.157
▁uhh	-13.157
▁uhhh	-13.157
▁ulcer	-13.157
▁umami	-13.157
▁umph	-13.157
▁ums	-13.157
▁unanimous	-13.157
▁unbelieveably	-13.157
▁unbroken	-13.157
▁underweight	-13.157
▁unedible	-13.157
▁unethical	-13.157
▁unevenly	-13.157
▁unfriendly	-13.157
▁uninteresting	-13.157
▁unpleasantly	-13.157
▁unprofessional	-13.157
▁unuseable	-13.157
▁unwrap	-13.157
▁upsetting	-13.157
▁usefulness	-13.157
▁vacu	-13.157
▁valdez	-13.157
▁valuable	-13.157
▁vanila	-13.157
▁vanished	-13.157
▁variant	-13.157
▁various	-13.157
▁vegi	-13.157
▁veranda	-13.157
▁vernor	-13.157
▁verse	-13.157
▁vertical	-13.157
▁vic	-13.157
▁vice	-13.157
▁victory	-13.157
▁vinegarette	-13.157
▁vision	-13.157
▁vitakraft	-13.157
▁volcanic	-13.157
▁wacky	-13.157
▁waker	-13.157
▁wallenford	-13.157
▁wally	-13.157
▁warn	-13.157
▁warns	-13.157
▁warped	-13.157
▁washing	-13.157
▁wasting	-13.157
▁wayy	-13.157
▁wayyy	-13.157
▁wayyyy	-13.157
▁weakness	-13.157
▁weary	-13.157
▁wedge	-13.157
▁wegman	-13.157
▁weighing	-13.157
▁welsh	-13.157
▁wendy	-13.157
▁westbrae	-13.157
▁wham	-13.157
▁wheaties	-13.157
▁whee	-13.157
▁whichever	-13.157
▁whitefish	-13.157
▁wholegrain	-13.157
▁whom	-13.157
▁wi	-13.157
▁wickedly	-13.157
▁willow	-13.157
▁wimp	-13.157
▁wired	-13.157
▁wisconsinmade	-13.157
▁wisecrackers	-13.157
▁wishing	-13.157
▁wisskye	-13.157
▁woah	-13.157
▁woohoo	-13.157
▁workable	-13.157
▁woth	-13.157
▁wowie	-13.157
▁wrongly	-13.157
▁wtih	-13.157
▁wyler	-13.157
▁xango	-13.157
▁xanthan	-13.157
▁xlear	-13.157
▁xyla	-13.157
▁yah	-13.157
▁yippy	-13.157
▁yolk	-13.157
▁yoplait	-13.157
▁yuckkk	-13.157
▁yummier	-13.157
▁yummmmmmmy	-13.157
▁yummmyyy	-13.157
▁yumo	-13.157
▁yunnan	-13.157
▁zensoy	-13.157
▁zhen	-13.157
▁ziploc	-13.157
▁ziplock	-13.157
▁zipper	-13.157
▁zone	-13.157
▁zoom	-13.157
▁zsweet	-13.157
▁zwieback	-13.157
▁aaaah	-13.5625
▁aaah	-13.5625
▁aah	-13.5625
▁abba	-13.5625
▁abfab	-13.5625
▁abit	-13.5625
▁aboard	-13.5625
▁aboslutely	-13.5625
▁abounds	-13.5625
▁abroad	-13.5625
▁absorbed	-13.5625
▁absoultely	-13.5625
▁accessible	-13.5625
▁accidental	-13.5625
▁accidently	-13.5625
▁ace	-13.5625
▁ach	-13.5625
▁achva	-13.5625
▁acrid	-13.5625
▁activate	-13.5625
▁adaptation	-13.5625
▁adapter	-13.5625
▁addtion	-13.5625
▁adhd	-13.5625
▁adhesive	-13.5625
▁adicting	-13.5625
▁administration	-13.5625
▁ado	-13.5625
▁adolph	-13.5625
▁adolphs	-13.5625
▁adoreable	-13.5625
▁adverse	-13.5625
▁affair	-13.5625
▁agava	-13.5625
▁agreeable	-13.5625
▁agua	-13.5625
▁ahmed	-13.5625
▁aholic	-13.5625
▁airborne	-13.5625
▁airbrush	-13.5625
▁airway	-13.5625
▁ajika	-13.5625
▁ajinomoto	-13.5625
▁alaga	-13.5625
▁album	-13.5625
▁alchemy	-13.5625
▁alcoholy	-13.5625
▁alergy	-13.5625
▁alertness	-13.5625
▁ali	-13.5625
▁alice	-13.5625
▁alicious	-13.5625
▁alka	-13.5625
▁alkali	-13.5625
▁alkalinity	-13.5625
▁alkalizing	-13.5625
▁allayed	-13.5625
▁allbran	-13.5625
▁allegic	-13.5625
▁allow	-13.5625
▁alpo	-13.5625
▁alter	-13.5625
▁alterantive	-13.5625
▁altitude	-13.5625
▁alvita	-13.5625
▁alway	-13.5625
▁alzheimer	-13.5625
▁amaretti	-13.5625
▁amaze	-13.5625
▁ambrosoli	-13.5625
▁amer	-13.5625
▁amla	-13.5625
▁ammonium	-13.5625
▁amsterdam	-13.5625
▁amt	-13.5625
▁amzaon	-13.5625
▁amzn	-13.5625
▁anal	-13.5625
▁analog	-13.5625
▁anasazi	-13.5625
▁anchovie	-13.5625
▁anderson	-13.5625
▁andrew	-13.5625
▁anecdote	-13.5625
▁anemic	-13.5625
▁angelo	-13.5625
▁annato	-13.5625
▁announcement	-13.5625
▁annoyingly	-13.5625
▁answering	-13.5625
▁anyones	-13.5625
▁anythign	-13.5625
▁apartment	-13.5625
▁aphid	-13.5625
▁app	-13.5625
▁appalling	-13.5625
▁appease	-13.5625
▁appetit	-13.5625
▁applied	-13.5625
▁applies	-13.5625
▁appreciating	-13.5625
▁apprehensive	-13.5625
▁arab	-13.5625
▁aralia	-13.5625
▁aranciata	-13.5625
▁arare	-13.5625
▁argentina	-13.5625
▁argentine	-13.5625
▁argo	-13.5625
▁aritfical	-13.5625
▁artemis	-13.5625
▁artesian	-13.5625
▁arthritic	-13.5625
▁artisana	-13.5625
▁asi	-13.5625
▁asking	-13.5625
▁aspic	-13.5625
▁aspie	-13.5625
▁assembled	-13.5625
▁asset	-13.5625
▁assistance	-13.5625
▁assort	-13.5625
▁asthmatic	-13.5625
▁athletic	-13.5625
▁atlanta	-13.5625
▁atop	-13.5625
▁attracted	-13.5625
▁attraction	-13.5625
▁audio	-13.5625
▁austria	-13.5625
▁austrian	-13.5625
▁aveda	-13.5625
▁awaited	-13.5625
▁awakening	-13.5625
▁awarded	-13.5625
▁aways	-13.5625
▁awefull	-13.5625
▁awesomes	-13.5625
▁awesomest	-13.5625
▁awry	-13.5625
▁awsomeness	-13.5625
▁awwesome	-13.5625
▁axe	-13.5625
▁azalea	-13.5625
▁azteca	-13.5625
▁ba	-13.5625
▁baaaad	-13.5625
▁babka	-13.5625
▁babycat	-13.5625
▁baci	-13.5625
▁background	-13.5625
▁backing	-13.5625
▁backordered	-13.5625
▁backpack	-13.5625
▁baconlicious	-13.5625
▁bacos	-13.5625
▁baguette	-13.5625
▁bah	-13.5625
▁baird	-13.5625
▁bald	-13.5625
▁ballpark	-13.5625
▁bamba	-13.5625
▁bancha	-13.5625
▁bandit	-13.5625
▁bandito	-13.5625
▁banging	-13.5625
▁bannana	-13.5625
▁barb	-13.5625
▁barrista	-13.5625
▁barritts	-13.5625
▁baseball	-13.5625
▁basecamp	-13.5625
▁basement	-13.5625
▁baskin	-13.5625
▁baste	-13.5625
▁basted	-13.5625
▁bathe	-13.5625
▁bawls	-13.5625
▁baxter	-13.5625
▁bbqs	-13.5625
▁beanilla	-13.5625
▁bearing	-13.5625
▁beaten	-13.5625
▁beatiful	-13.5625
▁beating	-13.5625
▁beatlejuice	-13.5625
▁beau	-13.5625
▁begged	-13.5625
▁begrudgingly	-13.5625
▁beigel	-13.5625
▁beignet	-13.5625
▁bekir	-13.5625
▁bel	-13.5625
▁belch	-13.5625
▁belize	-13.5625
▁bellini	-13.5625
▁bellino	-13.5625
▁bellyflops	-13.5625
▁bellyrubs	-13.5625
▁belong	-13.5625
▁bench	-13.5625
▁benissimo	-13.5625
▁bernard	-13.5625
▁bernese	-13.5625
▁bernie	-13.5625
▁berrylicious	-13.5625
▁bertolli	-13.5625
▁beta	-13.5625
▁betta	-13.5625
▁bezos	-13.5625
▁bha	-13.5625
▁bhel	-13.5625
▁bible	-13.5625
▁bicarbonate	-13.5625
▁bien	-13.5625
▁biermann	-13.5625
▁bigbert	-13.5625
▁biking	-13.5625
▁billion	-13.5625
▁bingo	-13.5625
▁bionature	-13.5625
▁biotic	-13.5625
▁bischon	-13.5625
▁biscoti	-13.5625
▁biscottis	-13.5625
▁biter	-13.5625
▁bitsy	-13.5625
▁bitterly	-13.5625
▁bitz	-13.5625
▁bjs	-13.5625
▁bk	-13.5625
▁bkfst	-13.5625
▁blackcurrants	-13.5625
▁blackeye	-13.5625
▁blam	-13.5625
▁blargh	-13.5625
▁blecch	-13.5625
▁bleech	-13.5625
▁bleeech	-13.5625
▁bleep	-13.5625
▁blenheim	-13.5625
▁blissfully	-13.5625
▁bloat	-13.5625
▁blob	-13.5625
▁blondies	-13.5625
▁bluebird	-13.5625
▁bm	-13.5625
▁bo	-13.5625
▁boarding	-13.5625
▁boardwalk	-13.5625
▁boast	-13.5625
▁boat	-13.5625
▁bobo	-13.5625
▁bodywash	-13.5625
▁boiling	-13.5625
▁boldest	-13.5625
▁boldo	-13.5625
▁bolognese	-13.5625
▁bombilla	-13.5625
▁bonbon	-13.5625
▁bond	-13.5625
▁boney	-13.5625
▁bonez	-13.5625
▁bonies	-13.5625
▁bonnie	-13.5625
▁booberry	-13.5625
▁boosting	-13.5625
▁borden	-13.5625
▁bottarga	-13.5625
▁bottlecap	-13.5625
▁bottling	-13.5625
▁boulder	-13.5625
▁bout	-13.5625
▁bovine	-13.5625
▁boyz	-13.5625
▁brakfast	-13.5625
▁bramahputra	-13.5625
▁brandt	-13.5625
▁braswell	-13.5625
▁bratwurst	-13.5625
▁breadmachine	-13.5625
▁breakdown	-13.5625
▁breakfeast	-13.5625
▁breastfeed	-13.5625
▁breathsaver	-13.5625
▁brenda	-13.5625
▁breville	-13.5625
▁bri	-13.5625
▁bridal	-13.5625
▁brien	-13.5625
▁brightest	-13.5625
▁brightness	-13.5625
▁brilliantly	-13.5625
▁brita	-13.5625
▁brite	-13.5625
▁brix	-13.5625
▁bro	-13.5625
▁brocolli	-13.5625
▁brot	-13.5625
▁bt	-13.5625
▁bubblemint	-13.5625
▁bubblicious	-13.5625
▁buendia	-13.5625
▁bufala	-13.5625
▁buff	-13.5625
▁buffy	-13.5625
▁bugger	-13.5625
▁buisness	-13.5625
▁bulgaria	-13.5625
▁bulldogge	-13.5625
▁bumblebee	-13.5625
▁bumped	-13.5625
▁buonissimo	-13.5625
▁buscuits	-13.5625
▁busting	-13.5625
▁buttermints	-13.5625
▁butterrum	-13.5625
▁buuut	-13.5625
▁buzzy	-13.5625
▁byproduct	-13.5625
▁byron	-13.5625
▁byzantine	-13.5625
▁cab	-13.5625
▁cacoa	-13.5625
▁caffee	-13.5625
▁caffein	-13.5625
▁caffienated	-13.5625
▁caffinated	-13.5625
▁cage	-13.5625
▁cairn	-13.5625
▁caked	-13.5625
▁cakemix	-13.5625
▁calculation	-13.5625
▁cali	-13.5625
▁calmed	-13.5625
▁calrose	-13.5625
▁calzones	-13.5625
▁camel	-13.5625
▁camouflaged	-13.5625
▁cand	-13.5625
▁cannellini	-13.5625
▁cantalope	-13.5625
▁capacity	-13.5625
▁cape	-13.5625
▁capelin	-13.5625
▁capellini	-13.5625
▁caponata	-13.5625
▁cappachino	-13.5625
▁cappucccino	-13.5625
▁caramba	-13.5625
▁carame	-13.5625
▁carbing	-13.5625
▁carbona	-13.5625
▁cared	-13.5625
▁carefull	-13.5625
▁caries	-13.5625
▁carl	-13.5625
▁carli	-13.5625
▁carnaval	-13.5625
▁carp	-13.5625
▁carpeting	-13.5625
▁cartilage	-13.5625
▁cartoon	-13.5625
▁cartridge	-13.5625
▁casa	-13.5625
▁casali	-13.5625
▁casina	-13.5625
▁cask	-13.5625
▁cast	-13.5625
▁castello	-13.5625
▁catching	-13.5625
▁categorized	-13.5625
▁caterpillar	-13.5625
▁catfish	-13.5625
▁caucasian	-13.5625
▁cautionary	-13.5625
▁cavenders	-13.5625
▁cayman	-13.5625
▁celcius	-13.5625
▁celebrating	-13.5625
▁cellent	-13.5625
▁cello	-13.5625
▁cellophane	-13.5625
▁cert	-13.5625
▁certifiably	-13.5625
▁chaff	-13.5625
▁chakra	-13.5625
▁chana	-13.5625
▁channel	-13.5625
▁chao	-13.5625
▁chapati	-13.5625
▁chart	-13.5625
▁chcolate	-13.5625
▁cheater	-13.5625
▁checken	-13.5625
▁checkout	-13.5625
▁cheech	-13.5625
▁cheeky	-13.5625
▁cheeries	-13.5625
▁cheering	-13.5625
▁cheeseball	-13.5625
▁cheesier	-13.5625
▁cheesiest	-13.5625
▁chelsea	-13.5625
▁chem	-13.5625
▁chester	-13.5625
▁chewys	-13.5625
▁chiavetta	-13.5625
▁chickie	-13.5625
▁chiken	-13.5625
▁chilhood	-13.5625
▁chimp	-13.5625
▁chintzy	-13.5625
▁chippoisseur	-13.5625
▁chloe	-13.5625
▁chlorophyll	-13.5625
▁chocaholic	-13.5625
▁chocloate	-13.5625
▁chocolaholic	-13.5625
▁chocolatemint	-13.5625
▁chocolatety	-13.5625
▁cholesteral	-13.5625
▁cholocate	-13.5625
▁chondroitin	-13.5625
▁chong	-13.5625
▁choosy	-13.5625
▁chose	-13.5625
▁christopher	-13.5625
▁chub	-13.5625
▁chunchy	-13.5625
▁church	-13.5625
▁ciao	-13.5625
▁cichlid	-13.5625
▁cigerettes	-13.5625
▁cigs	-13.5625
▁cima	-13.5625
▁cin	-13.5625
▁cinanmon	-13.5625
▁cinema	-13.5625
▁cinnamin	-13.5625
▁circumstance	-13.5625
▁claeys	-13.5625
▁clarified	-13.5625
▁clarity	-13.5625
▁clasico	-13.5625
▁classico	-13.5625
▁classique	-13.5625
▁clearbrook	-13.5625
▁clearjel	-13.5625
▁clicker	-13.5625
▁clicking	-13.5625
▁clicktastic	-13.5625
▁climber	-13.5625
▁clinic	-13.5625
▁clint	-13.5625
▁clothing	-13.5625
▁clotted	-13.5625
▁clown	-13.5625
▁cocconut	-13.5625
▁cocina	-13.5625
▁cocoanut	-13.5625
▁cocount	-13.5625
▁codd	-13.5625
▁coffeecake	-13.5625
▁coffeei	-13.5625
▁coffeeless	-13.5625
▁coffeelicious	-13.5625
▁coffeelover	-13.5625
▁coffer	-13.5625
▁cognac	-13.5625
▁coladas	-13.5625
▁colder	-13.5625
▁cole	-13.5625
▁colgin	-13.5625
▁colitis	-13.5625
▁collecting	-13.5625
▁colossal	-13.5625
▁comedy	-13.5625
▁comestible	-13.5625
▁comin	-13.5625
▁command	-13.5625
▁comme	-13.5625
▁commenting	-13.5625
▁como	-13.5625
▁compete	-13.5625
▁competetive	-13.5625
▁competiton	-13.5625
▁complainer	-13.5625
▁complementary	-13.5625
▁completly	-13.5625
▁complicated	-13.5625
▁concoct	-13.5625
▁concord	-13.5625
▁confirm	-13.5625
▁confirmation	-13.5625
▁confirms	-13.5625
▁conflicted	-13.5625
▁confuses	-13.5625
▁congealed	-13.5625
▁conked	-13.5625
▁connective	-13.5625
▁conned	-13.5625
▁conoisseur	-13.5625
▁conquered	-13.5625
▁considerably	-13.5625
▁constipating	-13.5625
▁constructed	-13.5625
▁consul	-13.5625
▁consultant	-13.5625
▁containment	-13.5625
▁continued	-13.5625
▁continuous	-13.5625
▁contradiction	-13.5625
▁controlling	-13.5625
▁convent	-13.5625
▁cookbook	-13.5625
▁cookout	-13.5625
▁cooled	-13.5625
▁coooool	-13.5625
▁cop	-13.5625
▁cope	-13.5625
▁copycat	-13.5625
▁corazona	-13.5625
▁cork	-13.5625
▁cornstarch	-13.5625
▁corriander	-13.5625
▁cosmetic	-13.5625
▁cosmo	-13.5625
▁costcos	-13.5625
▁cot	-13.5625
▁countrywild	-13.5625
▁coustomer	-13.5625
▁covert	-13.5625
▁coworkers	-13.5625
▁cp	-13.5625
▁crackerjack	-13.5625
▁crackin	-13.5625
▁cracking	-13.5625
▁cranapple	-13.5625
▁crasher	-13.5625
▁crawlies	-13.5625
▁creackers	-13.5625
▁creat	-13.5625
▁creating	-13.5625
▁creator	-13.5625
▁credit	-13.5625
▁cresteds	-13.5625
▁cri	-13.5625
▁criminal	-13.5625
▁criminally	-13.5625
▁crisper	-13.5625
▁crispiness	-13.5625
▁critique	-13.5625
▁crockpot	-13.5625
▁crookers	-13.5625
▁croustades	-13.5625
▁cruchy	-13.5625
▁cruel	-13.5625
▁cruet	-13.5625
▁crunchiest	-13.5625
▁crunchiness	-13.5625
▁crunching	-13.5625
▁cruz	-13.5625
▁crystalizes	-13.5625
▁cuba	-13.5625
▁cubicle	-13.5625
▁cuervo	-13.5625
▁cugino	-13.5625
▁cultural	-13.5625
▁cupa	-13.5625
▁cupper	-13.5625
▁curing	-13.5625
▁curse	-13.5625
▁curve	-13.5625
▁cusine	-13.5625
▁customizable	-13.5625
▁customize	-13.5625
▁custumer	-13.5625
▁cylinder	-13.5625
▁cylon	-13.5625
▁czar	-13.5625
▁dah	-13.5625
▁dai	-13.5625
▁dairyland	-13.5625
▁dakine	-13.5625
▁dallas	-13.5625
▁dalmatian	-13.5625
▁dandyblend	-13.5625
▁danesi	-13.5625
▁dank	-13.5625
▁darkness	-13.5625
▁dasuquin	-13.5625
▁dawg	-13.5625
▁daycare	-13.5625
▁dd	-13.5625
▁decaffeination	-13.5625
▁decal	-13.5625
▁decalf	-13.5625
▁decieving	-13.5625
▁decorator	-13.5625
▁decreased	-13.5625
▁dedicated	-13.5625
▁deeeelish	-13.5625
▁default	-13.5625
▁defend	-13.5625
▁defense	-13.5625
▁deficiency	-13.5625
▁defies	-13.5625
▁defrost	-13.5625
▁degradable	-13.5625
▁dehydration	-13.5625
▁deja	-13.5625
▁delaware	-13.5625
▁delfa	-13.5625
▁delic	-13.5625
▁delicato	-13.5625
▁delice	-13.5625
▁delicios	-13.5625
▁deliciouso	-13.5625
▁delicius	-13.5625
▁delighful	-13.5625
▁delightfull	-13.5625
▁delivering	-13.5625
▁delux	-13.5625
▁denied	-13.5625
▁denmark	-13.5625
▁density	-13.5625
▁deodorizer	-13.5625
▁departure	-13.5625
▁depicted	-13.5625
▁deployment	-13.5625
▁depot	-13.5625
▁dept	-13.5625
▁dermatitis	-13.5625
▁dermatologist	-13.5625
▁dern	-13.5625
▁desapointed	-13.5625
▁descaling	-13.5625
▁descent	-13.5625
▁descript	-13.5625
▁descripton	-13.5625
▁deserved	-13.5625
▁deserving	-13.5625
▁desi	-13.5625
▁desiccated	-13.5625
▁desperation	-13.5625
▁dessing	-13.5625
▁destroying	-13.5625
▁destruction	-13.5625
▁destructive	-13.5625
▁detangling	-13.5625
▁detectable	-13.5625
▁detoxing	-13.5625
▁detroit	-13.5625
▁development	-13.5625
▁deviled	-13.5625
▁dexter	-13.5625
▁dh	-13.5625
▁diabeetus	-13.5625
▁diabetisweet	-13.5625
▁diablo	-13.5625
▁diagnosed	-13.5625
▁diameter	-13.5625
▁diary	-13.5625
▁dickens	-13.5625
▁didn	-13.5625
▁didnot	-13.5625
▁diehard	-13.5625
▁diesel	-13.5625
▁differing	-13.5625
▁differnt	-13.5625
▁diggin	-13.5625
▁digital	-13.5625
▁dilettante	-13.5625
▁dim	-13.5625
▁dime	-13.5625
▁diminish	-13.5625
▁ding	-13.5625
▁dippin	-13.5625
▁disapppointed	-13.5625
▁discernable	-13.5625
▁discipline	-13.5625
▁disclosure	-13.5625
▁disco	-13.5625
▁discomfort	-13.5625
▁discontinuing	-13.5625
▁discouraged	-13.5625
▁discussion	-13.5625
▁disfigured	-13.5625
▁disgraceful	-13.5625
▁disgust	-13.5625
▁disneyland	-13.5625
▁disolve	-13.5625
▁dispenses	-13.5625
▁displeasing	-13.5625
▁disposacup	-13.5625
▁disppointed	-13.5625
▁disservice	-13.5625
▁distance	-13.5625
▁distilled	-13.5625
▁distiller	-13.5625
▁distinctly	-13.5625
▁distributor	-13.5625
▁diversion	-13.5625
▁divina	-13.5625
▁dobie	-13.5625
▁doc	-13.5625
▁doghouse	-13.5625
▁dogsbar	-13.5625
▁dolcetto	-13.5625
▁dolmas	-13.5625
▁dome	-13.5625
▁donchels	-13.5625
▁donckels	-13.5625
▁donkey	-13.5625
▁donna	-13.5625
▁doom	-13.5625
▁dope	-13.5625
▁dougall	-13.5625
▁downer	-13.5625
▁downgrade	-13.5625
▁dragonfly	-13.5625
▁dragonfruit	-13.5625
▁drained	-13.5625
▁drake	-13.5625
▁drama	-13.5625
▁dramatically	-13.5625
▁drastic	-13.5625
▁drawing	-13.5625
▁drawstring	-13.5625
▁dreambones	-13.5625
▁dreamed	-13.5625
▁dresssing	-13.5625
▁drier	-13.5625
▁dring	-13.5625
▁drinkin	-13.5625
▁drippy	-13.5625
▁drizzled	-13.5625
▁dromedary	-13.5625
▁dropper	-13.5625
▁dropping	-13.5625
▁drrrrrrrrrrrry	-13.5625
▁drum	-13.5625
▁drunken	-13.5625
▁dryed	-13.5625
▁dubai	-13.5625
▁dubious	-13.5625
▁dumbest	-13.5625
▁dumplins	-13.5625
▁dunk	-13.5625
▁duplo	-13.5625
▁dura	-13.5625
▁durability	-13.5625
▁durango	-13.5625
▁dusseldorf	-13.5625
▁dusting	-13.5625
▁dweller	-13.5625
▁dycee	-13.5625
▁dyeing	-13.5625
▁dynamic	-13.5625
▁ea	-13.5625
▁earthly	-13.5625
▁earthquake	-13.5625
▁eastman	-13.5625
▁eauction	-13.5625
▁ebay	-13.5625
▁eclectic	-13.5625
▁ecstasy	-13.5625
▁eda	-13.5625
▁edensoy	-13.5625
▁edna	-13.5625
▁edward	-13.5625
▁eew	-13.5625
▁eez	-13.5625
▁efficacious	-13.5625
▁efficacy	-13.5625
▁egcg	-13.5625
▁eggless	-13.5625
▁eggnogg	-13.5625
▁eggo	-13.5625
▁eggy	-13.5625
▁ehhhh	-13.5625
▁elderflower	-13.5625
▁elegance	-13.5625
▁elephant	-13.5625
▁elevated	-13.5625
▁elevates	-13.5625
▁eleventh	-13.5625
▁elf	-13.5625
▁elimination	-13.5625
▁eliminator	-13.5625
▁elite	-13.5625
▁elliott	-13.5625
▁em	-13.5625
▁emotional	-13.5625
▁emulsifier	-13.5625
▁emulsion	-13.5625
▁enchanted	-13.5625
▁enchantment	-13.5625
▁enclosed	-13.5625
▁endorse	-13.5625
▁endorsement	-13.5625
▁enemy	-13.5625
▁energized	-13.5625
▁energizes	-13.5625
▁enfacare	-13.5625
▁engine	-13.5625
▁engineered	-13.5625
▁engineering	-13.5625
▁englishman	-13.5625
▁enlightened	-13.5625
▁enougn	-13.5625
▁enrichment	-13.5625
▁entertain	-13.5625
▁entertains	-13.5625
▁enticing	-13.5625
▁enviro	-13.5625
▁envirokids	-13.5625
▁enviroment	-13.5625
▁envisioned	-13.5625
▁enzadent	-13.5625
▁epicurious	-13.5625
▁epigen	-13.5625
▁epsom	-13.5625
▁eraser	-13.5625
▁erotic	-13.5625
▁erroneous	-13.5625
▁essenza	-13.5625
▁essiac	-13.5625
▁ethically	-13.5625
▁ethiopia	-13.5625
▁eu	-13.5625
▁eucalyptus	-13.5625
▁eventually	-13.5625
▁everlast	-13.5625
▁everrr	-13.5625
▁evolved	-13.5625
▁ewwwwwwww	-13.5625
▁exaggerated	-13.5625
▁exceedingly	-13.5625
▁excelentes	-13.5625
▁excellet	-13.5625
▁excema	-13.5625
▁execllent	-13.5625
▁executed	-13.5625
▁exelente	-13.5625
▁exhale	-13.5625
▁existed	-13.5625
▁expects	-13.5625
▁expencive	-13.5625
▁expense	-13.5625
▁expensively	-13.5625
▁expereince	-13.5625
▁experiencing	-13.5625
▁expesnive	-13.5625
▁explanation	-13.5625
▁explode	-13.5625
▁exposure	-13.5625
▁exspensive	-13.5625
▁extemely	-13.5625
▁extent	-13.5625
▁extinct	-13.5625
▁extravagant	-13.5625
▁extrodinaire	-13.5625
▁eyeball	-13.5625
▁eyebright	-13.5625
▁eyed	-13.5625
▁fabulously	-13.5625
▁facebook	-13.5625
▁falcon	-13.5625
▁familar	-13.5625
▁fanatastic	-13.5625
▁fancier	-13.5625
▁farina	-13.5625
▁farmhouse	-13.5625
▁fasioned	-13.5625
▁fatigue	-13.5625
▁fatter	-13.5625
▁favoirte	-13.5625
▁favorit	-13.5625
▁favority	-13.5625
▁faygo	-13.5625
▁fearn	-13.5625
▁featured	-13.5625
▁feb	-13.5625
▁february	-13.5625
▁feh	-13.5625
▁fellow	-13.5625
▁feminine	-13.5625
▁ferals	-13.5625
▁festival	-13.5625
▁fiberone	-13.5625
▁fickle	-13.5625
▁finaly	-13.5625
▁fiona	-13.5625
▁fiore	-13.5625
▁fired	-13.5625
▁fitting	-13.5625
▁flaming	-13.5625
▁flaovr	-13.5625
▁flask	-13.5625
▁flavia	-13.5625
▁flavoed	-13.5625
▁flawlessly	-13.5625
▁fleck	-13.5625
▁flex	-13.5625
▁flexibility	-13.5625
▁flint	-13.5625
▁flood	-13.5625
▁floppy	-13.5625
▁flourless	-13.5625
▁flovor	-13.5625
▁flowing	-13.5625
▁fluorescent	-13.5625
▁fluoride	-13.5625
▁flutd	-13.5625
▁flynn	-13.5625
▁focaccia	-13.5625
▁following	-13.5625
▁followthrough	-13.5625
▁fomula	-13.5625
▁foojoy	-13.5625
▁foolish	-13.5625
▁foood	-13.5625
▁football	-13.5625
▁footprint	-13.5625
▁formaldehyde	-13.5625
▁fortified	-13.5625
▁fraiche	-13.5625
▁framboise	-13.5625
▁frankenstein	-13.5625
▁frankly	-13.5625
▁frapp	-13.5625
▁frapps	-13.5625
▁fraps	-13.5625
▁fray	-13.5625
▁freakishly	-13.5625
▁freedent	-13.5625
▁freezable	-13.5625
▁freezed	-13.5625
▁freezy	-13.5625
▁frenchies	-13.5625
▁freshpak	-13.5625
▁friggen	-13.5625
▁frikies	-13.5625
▁frisbee	-13.5625
▁fritter	-13.5625
▁frizz	-13.5625
▁frizzy	-13.5625
▁froth	-13.5625
▁frown	-13.5625
▁fru	-13.5625
▁fruitabu	-13.5625
▁fruitful	-13.5625
▁fryer	-13.5625
▁ftw	-13.5625
▁fueling	-13.5625
▁fufu	-13.5625
▁fugi	-13.5625
▁fuit	-13.5625
▁fullfilling	-13.5625
▁fund	-13.5625
▁funicello	-13.5625
▁furbaby	-13.5625
▁furious	-13.5625
▁fussiest	-13.5625
▁fussiness	-13.5625
▁gaga	-13.5625
▁gagging	-13.5625
▁gallbladder	-13.5625
▁gaming	-13.5625
▁ganoderma	-13.5625
▁gansito	-13.5625
▁gardetto	-13.5625
▁garish	-13.5625
▁garret	-13.5625
▁gary	-13.5625
▁gaseous	-13.5625
▁gasp	-13.5625
▁gather	-13.5625
▁gathering	-13.5625
▁gayoland	-13.5625
▁ge	-13.5625
▁gelee	-13.5625
▁gemelli	-13.5625
▁gene	-13.5625
▁gently	-13.5625
▁georgia	-13.5625
▁gerat	-13.5625
▁gerbil	-13.5625
▁germinate	-13.5625
▁gewurztraminer	-13.5625
▁gfi	-13.5625
▁giblet	-13.5625
▁gibson	-13.5625
▁giddy	-13.5625
▁giggle	-13.5625
▁gimborn	-13.5625
▁giner	-13.5625
▁gingerly	-13.5625
▁girmi	-13.5625
▁gj	-13.5625
▁gjetost	-13.5625
▁glaceau	-13.5625
▁glacier	-13.5625
▁glenn	-13.5625
▁glistening	-13.5625
▁glitch	-13.5625
▁gluey	-13.5625
▁glutamic	-13.5625
▁glute	-13.5625
▁glutin	-13.5625
▁glutne	-13.5625
▁glycol	-13.5625
▁gmc	-13.5625
▁gnaw	-13.5625
▁gogi	-13.5625
▁goin	-13.5625
▁goldendoodle	-13.5625
▁goldens	-13.5625
▁golly	-13.5625
▁golpher	-13.5625
▁goofed	-13.5625
▁gooooooood	-13.5625
▁goopy	-13.5625
▁goot	-13.5625
▁gordita	-13.5625
▁gordon	-13.5625
▁gotcha	-13.5625
▁goto	-13.5625
▁gouge	-13.5625
▁gouged	-13.5625
▁gourmand	-13.5625
▁gourment	-13.5625
▁gra	-13.5625
▁graber	-13.5625
▁gracias	-13.5625
▁grad	-13.5625
▁graded	-13.5625
▁gradually	-13.5625
▁graffiti	-13.5625
▁gramma	-13.5625
▁grandfather	-13.5625
▁granja	-13.5625
▁granoloa	-13.5625
▁grate	-13.5625
▁gravey	-13.5625
▁graveyard	-13.5625
▁gread	-13.5625
▁greeeeeat	-13.5625
▁greeenies	-13.5625
▁greenish	-13.5625
▁gremlin	-13.5625
▁greta	-13.5625
▁grief	-13.5625
▁grin	-13.5625
▁grizzly	-13.5625
▁gro	-13.5625
▁groom	-13.5625
▁groovy	-13.5625
▁grounded	-13.5625
▁grrr	-13.5625
▁grrrrrrreat	-13.5625
▁grumpy	-13.5625
▁guam	-13.5625
▁guatemalan	-13.5625
▁guidance	-13.5625
▁gullah	-13.5625
▁gulp	-13.5625
▁gusher	-13.5625
▁gussie	-13.5625
▁gussies	-13.5625
▁gust	-13.5625
▁gustiamo	-13.5625
▁guten	-13.5625
▁guzzle	-13.5625
▁gyokuro	-13.5625
▁habenero	-13.5625
▁habitat	-13.5625
▁haci	-13.5625
▁hack	-13.5625
▁haha	-13.5625
▁haircare	-13.5625
▁hairless	-13.5625
▁hal	-13.5625
▁halfway	-13.5625
▁hamlyn	-13.5625
▁han	-13.5625
▁handed	-13.5625
▁handier	-13.5625
▁handout	-13.5625
▁hang	-13.5625
▁hank	-13.5625
▁hannah	-13.5625
▁happend	-13.5625
▁happpy	-13.5625
▁happytots	-13.5625
▁hapy	-13.5625
▁harleys	-13.5625
▁harrison	-13.5625
▁hatcho	-13.5625
▁haul	-13.5625
▁hauling	-13.5625
▁havoc	-13.5625
▁hawaiin	-13.5625
▁hc	-13.5625
▁hdbiker	-13.5625
▁hdpe	-13.5625
▁healer	-13.5625
▁heallthy	-13.5625
▁healther	-13.5625
▁healthfood	-13.5625
▁healthiness	-13.5625
▁healthwise	-13.5625
▁heartiest	-13.5625
▁heartily	-13.5625
▁heathier	-13.5625
▁heating	-13.5625
▁hectic	-13.5625
▁heh	-13.5625
▁heidi	-13.5625
▁helen	-13.5625
▁hella	-13.5625
▁helthy	-13.5625
▁hem	-13.5625
▁hempseeds	-13.5625
▁herdez	-13.5625
▁herman	-13.5625
▁hernia	-13.5625
▁herpes	-13.5625
▁hers	-13.5625
▁hersey	-13.5625
▁hesitation	-13.5625
▁heven	-13.5625
▁hhhmmm	-13.5625
▁hiccup	-13.5625
▁highlight	-13.5625
▁higly	-13.5625
▁hiker	-13.5625
▁hippy	-13.5625
▁historic	-13.5625
▁hiziki	-13.5625
▁hmn	-13.5625
▁hob	-13.5625
▁hobby	-13.5625
▁hock	-13.5625
▁hockey	-13.5625
▁hojicha	-13.5625
▁holla	-13.5625
▁holmes	-13.5625
▁homeade	-13.5625
▁homerun	-13.5625
▁honduras	-13.5625
▁honesty	-13.5625
▁honeycup	-13.5625
▁honk	-13.5625
▁honor	-13.5625
▁honored	-13.5625
▁hood	-13.5625
▁hoodia	-13.5625
▁hoody	-13.5625
▁hoop	-13.5625
▁hoot	-13.5625
▁hopping	-13.5625
▁horehound	-13.5625
▁horlicks	-13.5625
▁hormone	-13.5625
▁horrifying	-13.5625
▁horseeradish	-13.5625
▁horsetail	-13.5625
▁horsey	-13.5625
▁hose	-13.5625
▁hotsauces	-13.5625
▁howard	-13.5625
▁huey	-13.5625
▁huli	-13.5625
▁humid	-13.5625
▁hummmm	-13.5625
▁hummos	-13.5625
▁hydroginated	-13.5625
▁hydrolized	-13.5625
▁hyper	-13.5625
▁hypertension	-13.5625
▁hypoglycemia	-13.5625
▁iacute	-13.5625
▁iam	-13.5625
▁ian	-13.5625
▁ib	-13.5625
▁iberico	-13.5625
▁icee	-13.5625
▁ichi	-13.5625
▁identify	-13.5625
▁ie	-13.5625
▁ig	-13.5625
▁ignores	-13.5625
▁ik	-13.5625
▁ike	-13.5625
▁illi	-13.5625
▁imagination	-13.5625
▁imitate	-13.5625
▁immunity	-13.5625
▁implication	-13.5625
▁implore	-13.5625
▁importfoodcom	-13.5625
▁impostor	-13.5625
▁improperly	-13.5625
▁imulsion	-13.5625
▁inactive	-13.5625
▁incan	-13.5625
▁incomparable	-13.5625
▁inconsistency	-13.5625
▁inconsistently	-13.5625
▁inconsitent	-13.5625
▁increible	-13.5625
▁indefinitely	-13.5625
▁independent	-13.5625
▁indescribable	-13.5625
▁indescribably	-13.5625
▁indication	-13.5625
▁indigo	-13.5625
▁induce	-13.5625
▁induced	-13.5625
▁indulging	-13.5625
▁inexplicably	-13.5625
▁informative	-13.5625
▁inglehoffer	-13.5625
▁ingridents	-13.5625
▁inhaled	-13.5625
▁innocent	-13.5625
▁innovo	-13.5625
▁insant	-13.5625
▁insist	-13.5625
▁insomniac	-13.5625
▁insta	-13.5625
▁intelligentsia	-13.5625
▁intensity	-13.5625
▁intensive	-13.5625
▁intenso	-13.5625
▁interfere	-13.5625
▁interior	-13.5625
▁interpretation	-13.5625
▁intersting	-13.5625
▁introduces	-13.5625
▁iodine	-13.5625
▁iperespresso	-13.5625
▁iphone	-13.5625
▁iq	-13.5625
▁irie	-13.5625
▁irn	-13.5625
▁irradiated	-13.5625
▁irregularity	-13.5625
▁irritable	-13.5625
▁isabella	-13.5625
▁islay	-13.5625
▁isle	-13.5625
▁ist	-13.5625
▁itious	-13.5625
▁itsy	-13.5625
▁ivory	-13.5625
▁ivy	-13.5625
▁iz	-13.5625
▁jablum	-13.5625
▁jacklinks	-13.5625
▁jackpot	-13.5625
▁jagar	-13.5625
▁jaipur	-13.5625
▁jalfrezi	-13.5625
▁jammy	-13.5625
▁janes	-13.5625
▁janet	-13.5625
▁jasmin	-13.5625
▁jax	-13.5625
▁jay	-13.5625
▁jbertsiesfavs	-13.5625
▁jemima	-13.5625
▁jen	-13.5625
▁jerked	-13.5625
▁jesus	-13.5625
▁jiff	-13.5625
▁joel	-13.5625
▁johnson	-13.5625
▁jols	-13.5625
▁jose	-13.5625
▁joymuns	-13.5625
▁jpaul	-13.5625
▁juan	-13.5625
▁juicey	-13.5625
▁julie	-13.5625
▁julius	-13.5625
▁jumper	-13.5625
▁justified	-13.5625
▁jut	-13.5625
▁kadoya	-13.5625
▁karma	-13.5625
▁kasilof	-13.5625
▁kate	-13.5625
▁katipu	-13.5625
▁katy	-13.5625
▁kavli	-13.5625
▁kecap	-13.5625
▁keemun	-13.5625
▁kelly	-13.5625
▁keto	-13.5625
▁kewpie	-13.5625
▁kg	-13.5625
▁kicker	-13.5625
▁kickn	-13.5625
▁kiddie	-13.5625
▁kielbasa	-13.5625
▁kiki	-13.5625
▁kimbo	-13.5625
▁kindling	-13.5625
▁kindness	-13.5625
▁kinnikinnick	-13.5625
▁kipling	-13.5625
▁kittehs	-13.5625
▁knick	-13.5625
▁knocked	-13.5625
▁knott	-13.5625
▁knowing	-13.5625
▁knudsen	-13.5625
▁ko	-13.5625
▁kokos	-13.5625
▁koma	-13.5625
▁konriko	-13.5625
▁kookoo	-13.5625
▁korintje	-13.5625
▁korn	-13.5625
▁krafty	-13.5625
▁kramer	-13.5625
▁kraut	-13.5625
▁krauter	-13.5625
▁kravings	-13.5625
▁krinkles	-13.5625
▁krinos	-13.5625
▁krunchers	-13.5625
▁krupuk	-13.5625
▁kuan	-13.5625
▁kugel	-13.5625
▁kwan	-13.5625
▁kwong	-13.5625
▁kyoto	-13.5625
▁labled	-13.5625
▁ladybug	-13.5625
▁lait	-13.5625
▁lamp	-13.5625
▁language	-13.5625
▁lapsong	-13.5625
▁laser	-13.5625
▁latke	-13.5625
▁laughable	-13.5625
▁laxatone	-13.5625
▁layover	-13.5625
▁leader	-13.5625
▁leap	-13.5625
▁lebkuchen	-13.5625
▁lecker	-13.5625
▁ledhere	-13.5625
▁leek	-13.5625
▁leepers	-13.5625
▁legacy	-13.5625
▁leggo	-13.5625
▁legitimate	-13.5625
▁legume	-13.5625
▁lemonaise	-13.5625
▁lemonhead	-13.5625
▁leonard	-13.5625
▁lethal	-13.5625
▁lethargic	-13.5625
▁lexi	-13.5625
▁licieux	-13.5625
▁lickins	-13.5625
▁licorage	-13.5625
▁liege	-13.5625
▁lieu	-13.5625
▁lifestages	-13.5625
▁lifewater	-13.5625
▁lighten	-13.5625
▁lightening	-13.5625
▁lightest	-13.5625
▁lighting	-13.5625
▁likable	-13.5625
▁lilly	-13.5625
▁limey	-13.5625
▁limitation	-13.5625
▁lineup	-13.5625
▁lingham	-13.5625
▁liven	-13.5625
▁lizzies	-13.5625
▁localy	-13.5625
▁locate	-13.5625
▁locker	-13.5625
▁lola	-13.5625
▁longevity	-13.5625
▁lookin	-13.5625
▁looney	-13.5625
▁looong	-13.5625
▁loooooves	-13.5625
▁looseleaf	-13.5625
▁lopez	-13.5625
▁lorenzo	-13.5625
▁loser	-13.5625
▁lottery	-13.5625
▁louis	-13.5625
▁louse	-13.5625
▁lov	-13.5625
▁lovable	-13.5625
▁loveeee	-13.5625
▁loveeeeee	-13.5625
▁lowering	-13.5625
▁lowreys	-13.5625
▁lu	-13.5625
▁luau	-13.5625
▁lube	-13.5625
▁luc	-13.5625
▁luckily	-13.5625
▁lucuma	-13.5625
▁luke	-13.5625
▁lukewarm	-13.5625
▁lunchable	-13.5625
▁lunchtime	-13.5625
▁lungo	-13.5625
▁lupini	-13.5625
▁luster	-13.5625
▁lv	-13.5625
▁lysander	-13.5625
▁maccha	-13.5625
▁macchiatos	-13.5625
▁macha	-13.5625
▁mackeral	-13.5625
▁macmate	-13.5625
▁macro	-13.5625
▁macy	-13.5625
▁maddie	-13.5625
▁madeleine	-13.5625
▁maeda	-13.5625
▁mafia	-13.5625
▁magnificient	-13.5625
▁magnifique	-13.5625
▁mah	-13.5625
▁mahal	-13.5625
▁mahatma	-13.5625
▁mailing	-13.5625
▁mainland	-13.5625
▁majorly	-13.5625
▁makara	-13.5625
▁makeup	-13.5625
▁malcolm	-13.5625
▁malfunction	-13.5625
▁malitol	-13.5625
▁mall	-13.5625
▁malta	-13.5625
▁mamade	-13.5625
▁manage	-13.5625
▁mandatory	-13.5625
▁mangolicious	-13.5625
▁manicotti	-13.5625
▁manufacture	-13.5625
▁maranatha	-13.5625
▁marge	-13.5625
▁margie	-13.5625
▁margin	-13.5625
▁marilyn	-13.5625
▁marinading	-13.5625
▁marital	-13.5625
▁marjoram	-13.5625
▁marking	-13.5625
▁marmelade	-13.5625
▁marrobone	-13.5625
▁marrons	-13.5625
▁maryinminnesota	-13.5625
▁maryland	-13.5625
▁marylin	-13.5625
▁maseca	-13.5625
▁masked	-13.5625
▁mason	-13.5625
▁masquerading	-13.5625
▁mastered	-13.5625
▁matar	-13.5625
▁matouks	-13.5625
▁matt	-13.5625
▁matzah	-13.5625
▁maureen	-13.5625
▁maven	-13.5625
▁maximum	-13.5625
▁maxwellhouse	-13.5625
▁mayan	-13.5625
▁mccament	-13.5625
▁mcd	-13.5625
▁mcvittie	-13.5625
▁md	-13.5625
▁mealtime	-13.5625
▁mealy	-13.5625
▁mechanism	-13.5625
▁medaglia	-13.5625
▁medal	-13.5625
▁medela	-13.5625
▁medi	-13.5625
▁medicinals	-13.5625
▁mediocrity	-13.5625
▁mee	-13.5625
▁mel	-13.5625
▁melange	-13.5625
▁melinda	-13.5625
▁melty	-13.5625
▁mem	-13.5625
▁membership	-13.5625
▁mend	-13.5625
▁menthe	-13.5625
▁mercado	-13.5625
▁mercury	-13.5625
▁mercy	-13.5625
▁merken	-13.5625
▁merlin	-13.5625
▁merricks	-13.5625
▁merry	-13.5625
▁mesa	-13.5625
▁mesh	-13.5625
▁messing	-13.5625
▁metabisulfite	-13.5625
▁mexene	-13.5625
▁miam	-13.5625
▁midday	-13.5625
▁mieli	-13.5625
▁migon	-13.5625
▁mildew	-13.5625
▁millie	-13.5625
▁mindful	-13.5625
▁minichews	-13.5625
▁misadvertised	-13.5625
▁misconception	-13.5625
▁misinformation	-13.5625
▁mislabelled	-13.5625
▁misnamed	-13.5625
▁misplaced	-13.5625
▁misprint	-13.5625
▁missb	-13.5625
▁misslabeled	-13.5625
▁mk	-13.5625
▁mmmmmgood	-13.5625
▁mmmmmmmeeeeeeeeeeooooooooooowwwwwww	-13.5625
▁mmmmmmmmmmmm	-13.5625
▁mmmmmmmmmmmmmmmmm	-13.5625
▁mmmmmmmmmmmmmmmmmmmmmmmm	-13.5625
▁mn	-13.5625
▁mobility	-13.5625
▁mochalicious	-13.5625
▁moctail	-13.5625
▁modest	-13.5625
▁molecular	-13.5625
▁molecule	-13.5625
▁moley	-13.5625
▁molten	-13.5625
▁mongolian	-13.5625
▁monopoly	-13.5625
▁monosodium	-13.5625
▁monsanto	-13.5625
▁moonshine	-13.5625
▁mor	-13.5625
▁morel	-13.5625
▁morkie	-13.5625
▁moron	-13.5625
▁morsals	-13.5625
▁moscow	-13.5625
▁motivated	-13.5625
▁motor	-13.5625
▁motto	-13.5625
▁mounted	-13.5625
▁moutain	-13.5625
▁moutarde	-13.5625
▁mover	-13.5625
▁movin	-13.5625
▁mrsa	-13.5625
▁mucho	-13.5625
▁multies	-13.5625
▁multipack	-13.5625
▁mummy	-13.5625
▁mundane	-13.5625
▁murder	-13.5625
▁murphy	-13.5625
▁muscatel	-13.5625
▁muscovado	-13.5625
▁museli	-13.5625
▁musky	-13.5625
▁mussini	-13.5625
▁mustache	-13.5625
▁muster	-13.5625
▁mutant	-13.5625
▁mutton	-13.5625
▁mw	-13.5625
▁mylar	-13.5625
▁naga	-13.5625
▁nan	-13.5625
▁nanna	-13.5625
▁napolean	-13.5625
▁napoleon	-13.5625
▁narnia	-13.5625
▁narrow	-13.5625
▁nat	-13.5625
▁national	-13.5625
▁natrual	-13.5625
▁natual	-13.5625
▁naturefresh	-13.5625
▁neater	-13.5625
▁nebraska	-13.5625
▁necter	-13.5625
▁nell	-13.5625
▁neocate	-13.5625
▁nero	-13.5625
▁nesquick	-13.5625
▁network	-13.5625
▁nevella	-13.5625
▁newer	-13.5625
▁newfie	-13.5625
▁ng	-13.5625
▁nibbling	-13.5625
▁nicest	-13.5625
▁nicotine	-13.5625
▁nigel	-13.5625
▁nighmare	-13.5625
▁nightly	-13.5625
▁nile	-13.5625
▁nishiki	-13.5625
▁nob	-13.5625
▁nobel	-13.5625
▁noire	-13.5625
▁nola	-13.5625
▁nome	-13.5625
▁nonalcoholic	-13.5625
▁noni	-13.5625
▁nonna	-13.5625
▁nonsense	-13.5625
▁nonshim	-13.5625
▁noodels	-13.5625
▁noon	-13.5625
▁noor	-13.5625
▁norm	-13.5625
▁northeast	-13.5625
▁norwegian	-13.5625
▁nosh	-13.5625
▁notable	-13.5625
▁noteworthy	-13.5625
▁nother	-13.5625
▁nothin	-13.5625
▁noticably	-13.5625
▁noticing	-13.5625
▁notification	-13.5625
▁noting	-13.5625
▁nourishment	-13.5625
▁nowadays	-13.5625
▁nozzle	-13.5625
▁nsa	-13.5625
▁nuf	-13.5625
▁nuff	-13.5625
▁nummm	-13.5625
▁nums	-13.5625
▁nunaturals	-13.5625
▁nustevia	-13.5625
▁nutbar	-13.5625
▁nutra	-13.5625
▁nutramigen	-13.5625
▁nutrigrain	-13.5625
▁nutrional	-13.5625
▁nutrious	-13.5625
▁nutrish	-13.5625
▁nutrisystem	-13.5625
▁nutrium	-13.5625
▁nutriva	-13.5625
▁nuttiness	-13.5625
▁nutz	-13.5625
▁nylon	-13.5625
▁oacute	-13.5625
▁oatbran	-13.5625
▁oatmel	-13.5625
▁oaty	-13.5625
▁obligate	-13.5625
▁obnoxious	-13.5625
▁obscene	-13.5625
▁obscenely	-13.5625
▁occassional	-13.5625
▁occupies	-13.5625
▁occur	-13.5625
▁octane	-13.5625
▁oder	-13.5625
▁offended	-13.5625
▁offline	-13.5625
▁og	-13.5625
▁oganic	-13.5625
▁ohgave	-13.5625
▁ohh	-13.5625
▁ohhhh	-13.5625
▁ohmigod	-13.5625
▁oiive	-13.5625
▁oilive	-13.5625
▁oklahoma	-13.5625
▁okonomiyaki	-13.5625
▁okra	-13.5625
▁olewo	-13.5625
▁oliver	-13.5625
▁omgsogood	-13.5625
▁omigosh	-13.5625
▁omission	-13.5625
▁omnomnomnomnomnom	-13.5625
▁ooey	-13.5625
▁oom	-13.5625
▁ooo	-13.5625
▁ooolong	-13.5625
▁oothu	-13.5625
▁op	-13.5625
▁oprah	-13.5625
▁optimum	-13.5625
▁optional	-13.5625
▁oragnic	-13.5625
▁orangemint	-13.5625
▁orderd	-13.5625
▁orgainic	-13.5625
▁organice	-13.5625
▁organiic	-13.5625
▁organizational	-13.5625
▁organize	-13.5625
▁orgasm	-13.5625
▁orgasmically	-13.5625
▁origianl	-13.5625
▁originally	-13.5625
▁originate	-13.5625
▁origional	-13.5625
▁ornament	-13.5625
▁orphan	-13.5625
▁osmanthus	-13.5625
▁otis	-13.5625
▁outback	-13.5625
▁outdid	-13.5625
▁outing	-13.5625
▁outstandingly	-13.5625
▁outta	-13.5625
▁outthere	-13.5625
▁ouzo	-13.5625
▁ovaeasy	-13.5625
▁overal	-13.5625
▁overbake	-13.5625
▁overcharged	-13.5625
▁overdone	-13.5625
▁overdose	-13.5625
▁overpaid	-13.5625
▁overpowered	-13.5625
▁overrpriced	-13.5625
▁overstate	-13.5625
▁overstatement	-13.5625
▁overwhelmingly	-13.5625
▁ovum	-13.5625
▁owl	-13.5625
▁ox	-13.5625
▁oxygen	-13.5625
▁oy	-13.5625
▁ozbo	-13.5625
▁ozs	-13.5625
▁packagining	-13.5625
▁packer	-13.5625
▁padfilter	-13.5625
▁pagoda	-13.5625
▁paired	-13.5625
▁palacios	-13.5625
▁paleocleanse	-13.5625
▁palet	-13.5625
▁panacea	-13.5625
▁pang	-13.5625
▁panned	-13.5625
▁pantene	-13.5625
▁panther	-13.5625
▁panzanella	-13.5625
▁papagalos	-13.5625
▁papua	-13.5625
▁parachute	-13.5625
▁parfait	-13.5625
▁parmalat	-13.5625
▁partnership	-13.5625
▁passage	-13.5625
▁pastey	-13.5625
▁pato	-13.5625
▁patrick	-13.5625
▁pause	-13.5625
▁pavoni	-13.5625
▁pawnee	-13.5625
▁payed	-13.5625
▁pba	-13.5625
▁pbj	-13.5625
▁peacock	-13.5625
▁peanuty	-13.5625
▁peanutz	-13.5625
▁peat	-13.5625
▁peaty	-13.5625
▁pedialyte	-13.5625
▁peeling	-13.5625
▁peerless	-13.5625
▁peets	-13.5625
▁peeved	-13.5625
▁peg	-13.5625
▁pei	-13.5625
▁pending	-13.5625
▁penrose	-13.5625
▁penta	-13.5625
▁peony	-13.5625
▁pepermint	-13.5625
▁pepitas	-13.5625
▁pepppermint	-13.5625
▁pepsin	-13.5625
▁perceptible	-13.5625
▁perennial	-13.5625
▁perfomance	-13.5625
▁performed	-13.5625
▁performs	-13.5625
▁perfumy	-13.5625
▁permanently	-13.5625
▁peroid	-13.5625
▁petag	-13.5625
▁petey	-13.5625
▁petrified	-13.5625
▁petrochemical	-13.5625
▁pgpr	-13.5625
▁pharmaceutical	-13.5625
▁pharmacy	-13.5625
▁phase	-13.5625
▁phat	-13.5625
▁philmont	-13.5625
▁philodendron	-13.5625
▁photograph	-13.5625
▁physical	-13.5625
▁pi	-13.5625
▁piccalilli	-13.5625
▁pickey	-13.5625
▁pierogi	-13.5625
▁piggie	-13.5625
▁pilao	-13.5625
▁pilot	-13.5625
▁pinata	-13.5625
▁pinole	-13.5625
▁pinupgirl	-13.5625
▁piri	-13.5625
▁pirouline	-13.5625
▁pissed	-13.5625
▁pizzelles	-13.5625
▁pj	-13.5625
▁plagued	-13.5625
▁plank	-13.5625
▁plantars	-13.5625
▁plantation	-13.5625
▁platinum	-13.5625
▁playdoh	-13.5625
▁player	-13.5625
▁pledge	-13.5625
▁pls	-13.5625
▁poa	-13.5625
▁poblano	-13.5625
▁pocketbook	-13.5625
▁poetry	-13.5625
▁pog	-13.5625
▁poisoned	-13.5625
▁pole	-13.5625
▁poly	-13.5625
▁polynesian	-13.5625
▁pomagranate	-13.5625
▁pomegrante	-13.5625
▁pony	-13.5625
▁poochie	-13.5625
▁pooh	-13.5625
▁poopcorn	-13.5625
▁poorer	-13.5625
▁popocorn	-13.5625
▁por	-13.5625
▁porduct	-13.5625
▁pore	-13.5625
▁porkrinds	-13.5625
▁porkyland	-13.5625
▁portfolio	-13.5625
▁portland	-13.5625
▁possum	-13.5625
▁postal	-13.5625
▁posted	-13.5625
▁postive	-13.5625
▁potpourri	-13.5625
▁powerfull	-13.5625
▁prawn	-13.5625
▁precise	-13.5625
▁predatory	-13.5625
▁predicted	-13.5625
▁preferable	-13.5625
▁premuim	-13.5625
▁prepara	-13.5625
▁preparing	-13.5625
▁prepper	-13.5625
▁preschool	-13.5625
▁prescribed	-13.5625
▁preservres	-13.5625
▁pretz	-13.5625
▁pretzles	-13.5625
▁prewashed	-13.5625
▁prezels	-13.5625
▁priduct	-13.5625
▁prik	-13.5625
▁primavera	-13.5625
▁printed	-13.5625
▁prioduct	-13.5625
▁prior	-13.5625
▁pritikin	-13.5625
▁proactive	-13.5625
▁probar	-13.5625
▁probe	-13.5625
▁proce	-13.5625
▁procedure	-13.5625
▁procuct	-13.5625
▁prodcut	-13.5625
▁prodict	-13.5625
▁producct	-13.5625
▁produt	-13.5625
▁proflower	-13.5625
▁prominent	-13.5625
▁promo	-13.5625
▁propylene	-13.5625
▁prosobee	-13.5625
▁protects	-13.5625
▁proudly	-13.5625
▁proust	-13.5625
▁prove	-13.5625
▁provision	-13.5625
▁provolone	-13.5625
▁prowl	-13.5625
▁pruning	-13.5625
▁pt	-13.5625
▁publix	-13.5625
▁puchase	-13.5625
▁puddle	-13.5625
▁puerto	-13.5625
▁puffiness	-13.5625
▁pukka	-13.5625
▁pulparindo	-13.5625
▁punishment	-13.5625
▁puny	-13.5625
▁pupstar	-13.5625
▁pura	-13.5625
▁purcahse	-13.5625
▁purebites	-13.5625
▁purifying	-13.5625
▁purrrrr	-13.5625
▁pussy	-13.5625
▁pyramind	-13.5625
▁quali	-13.5625
▁qualify	-13.5625
▁qualit	-13.5625
▁quark	-13.5625
▁qucik	-13.5625
▁quenches	-13.5625
▁questioning	-13.5625
▁quiche	-13.5625
▁quickest	-13.5625
▁quickie	-13.5625
▁quicky	-13.5625
▁quiona	-13.5625
▁quisp	-13.5625
▁quitting	-13.5625
▁ra	-13.5625
▁rabit	-13.5625
▁racer	-13.5625
▁rachel	-13.5625
▁radiation	-13.5625
▁radius	-13.5625
▁ragdoll	-13.5625
▁ragin	-13.5625
▁raichlen	-13.5625
▁raison	-13.5625
▁raisons	-13.5625
▁rama	-13.5625
▁raman	-13.5625
▁rancilio	-13.5625
▁ranger	-13.5625
▁rap	-13.5625
▁rapidly	-13.5625
▁rasin	-13.5625
▁rasins	-13.5625
▁raters	-13.5625
▁ration	-13.5625
▁rattle	-13.5625
▁raya	-13.5625
▁rb	-13.5625
▁rea	-13.5625
▁reader	-13.5625
▁reat	-13.5625
▁rec	-13.5625
▁receipe	-13.5625
▁receipes	-13.5625
▁recepie	-13.5625
▁recevied	-13.5625
▁recognition	-13.5625
▁recognizable	-13.5625
▁redhead	-13.5625
▁rediculously	-13.5625
▁reducer	-13.5625
▁redwood	-13.5625
▁ree	-13.5625
▁refilling	-13.5625
▁reflection	-13.5625
▁reformed	-13.5625
▁reforming	-13.5625
▁refrigerator	-13.5625
▁refunded	-13.5625
▁regard	-13.5625
▁regardless	-13.5625
▁regatta	-13.5625
▁reggies	-13.5625
▁regulate	-13.5625
▁reheated	-13.5625
▁rehydrated	-13.5625
▁rehydrating	-13.5625
▁reilly	-13.5625
▁reincarnated	-13.5625
▁rejuvenated	-13.5625
▁rejuvenating	-13.5625
▁relaxes	-13.5625
▁reliability	-13.5625
▁relieving	-13.5625
▁religious	-13.5625
▁rely	-13.5625
▁remain	-13.5625
▁remeber	-13.5625
▁rename	-13.5625
▁renewing	-13.5625
▁rent	-13.5625
▁reordering	-13.5625
▁rep	-13.5625
▁repels	-13.5625
▁replenish	-13.5625
▁replenishment	-13.5625
▁reply	-13.5625
▁repurchase	-13.5625
▁rescued	-13.5625
▁rescuer	-13.5625
▁researching	-13.5625
▁resounding	-13.5625
▁respite	-13.5625
▁restful	-13.5625
▁restored	-13.5625
▁restrained	-13.5625
▁restriction	-13.5625
▁resturant	-13.5625
▁retirement	-13.5625
▁retreiver	-13.5625
▁retrivers	-13.5625
▁revamped	-13.5625
▁reveiw	-13.5625
▁reveiwer	-13.5625
▁revers	-13.5625
▁reversed	-13.5625
▁revived	-13.5625
▁rhythm	-13.5625
▁ribbit	-13.5625
▁ricemilk	-13.5625
▁richness	-13.5625
▁rico	-13.5625
▁ricochet	-13.5625
▁ridden	-13.5625
▁ridge	-13.5625
▁rihanna	-13.5625
▁riley	-13.5625
▁rillettes	-13.5625
▁riot	-13.5625
▁riserva	-13.5625
▁ritual	-13.5625
▁rj	-13.5625
▁rme	-13.5625
▁roadhouse	-13.5625
▁roastaroma	-13.5625
▁roasty	-13.5625
▁rocketed	-13.5625
▁rockstars	-13.5625
▁roger	-13.5625
▁rojo	-13.5625
▁roller	-13.5625
▁rolling	-13.5625
▁rom	-13.5625
▁roman	-13.5625
▁roobois	-13.5625
▁rook	-13.5625
▁rooster	-13.5625
▁roquefort	-13.5625
▁roscato	-13.5625
▁rosey	-13.5625
▁rosie	-13.5625
▁rosy	-13.5625
▁rot	-13.5625
▁rotation	-13.5625
▁rotelle	-13.5625
▁rotini	-13.5625
▁rottie	-13.5625
▁route	-13.5625
▁roux	-13.5625
▁rover	-13.5625
▁row	-13.5625
▁rubbing	-13.5625
▁rust	-13.5625
▁rustichella	-13.5625
▁rwanda	-13.5625
▁saccarine	-13.5625
▁saccharine	-13.5625
▁sacramento	-13.5625
▁sadaf	-13.5625
▁sadie	-13.5625
▁safcol	-13.5625
▁safflower	-13.5625
▁sago	-13.5625
▁saladitos	-13.5625
▁salat	-13.5625
▁salata	-13.5625
▁saliva	-13.5625
▁salso	-13.5625
▁saltier	-13.5625
▁saltiest	-13.5625
▁salting	-13.5625
▁salubrious	-13.5625
▁salute	-13.5625
▁samantha	-13.5625
▁sambal	-13.5625
▁samosa	-13.5625
▁samyang	-13.5625
▁sanbitter	-13.5625
▁sandies	-13.5625
▁sanding	-13.5625
▁sang	-13.5625
▁santander	-13.5625
▁sarge	-13.5625
▁sasha	-13.5625
▁sathers	-13.5625
▁satiating	-13.5625
▁satisfyingly	-13.5625
▁satisifed	-13.5625
▁satsfied	-13.5625
▁satsuki	-13.5625
▁saut	-13.5625
▁saviour	-13.5625
▁savoring	-13.5625
▁savu	-13.5625
▁sayin	-13.5625
▁sazerac	-13.5625
▁sbux	-13.5625
▁scattered	-13.5625
▁sceptical	-13.5625
▁scheduled	-13.5625
▁schoko	-13.5625
▁schweppes	-13.5625
▁scientist	-13.5625
▁scooping	-13.5625
▁scored	-13.5625
▁scot	-13.5625
▁scoville	-13.5625
▁scrumdelicious	-13.5625
▁scrumdiddlyumptious	-13.5625
▁scrumpdidlicious	-13.5625
▁scrumptilicious	-13.5625
▁scrumptiously	-13.5625
▁scrumptiousness	-13.5625
▁scruptious	-13.5625
▁seam	-13.5625
▁searcher	-13.5625
▁searing	-13.5625
▁seashell	-13.5625
▁seasnax	-13.5625
▁secretly	-13.5625
▁secure	-13.5625
▁security	-13.5625
▁seedless	-13.5625
▁seelect	-13.5625
▁segment	-13.5625
▁seizure	-13.5625
▁selenium	-13.5625
▁semisweet	-13.5625
▁sends	-13.5625
▁senf	-13.5625
▁separation	-13.5625
▁serendipi	-13.5625
▁serenity	-13.5625
▁sergeant	-13.5625
▁series	-13.5625
▁servicable	-13.5625
▁sesakiss	-13.5625
▁session	-13.5625
▁severly	-13.5625
▁sezme	-13.5625
▁sfb	-13.5625
▁sh	-13.5625
▁shameful	-13.5625
▁shangri	-13.5625
▁shank	-13.5625
▁shareable	-13.5625
▁shared	-13.5625
▁sharper	-13.5625
▁shattered	-13.5625
▁sheen	-13.5625
▁sheffa	-13.5625
▁sheila	-13.5625
▁sherman	-13.5625
▁shhh	-13.5625
▁shhhh	-13.5625
▁shhhhh	-13.5625
▁shi	-13.5625
▁shihpoo	-13.5625
▁shiloh	-13.5625
▁shiping	-13.5625
▁shippment	-13.5625
▁shiraz	-13.5625
▁shiritaki	-13.5625
▁shiro	-13.5625
▁shitake	-13.5625
▁shitzu	-13.5625
▁shizzle	-13.5625
▁shore	-13.5625
▁shorter	-13.5625
▁shoulda	-13.5625
▁shredder	-13.5625
▁shrub	-13.5625
▁shrunk	-13.5625
▁shtuff	-13.5625
▁shui	-13.5625
▁sichuan	-13.5625
▁sicily	-13.5625
▁signed	-13.5625
▁silence	-13.5625
▁silica	-13.5625
▁silicon	-13.5625
▁siljan	-13.5625
▁simplifying	-13.5625
▁sing	-13.5625
▁singaporean	-13.5625
▁singer	-13.5625
▁singha	-13.5625
▁singing	-13.5625
▁sings	-13.5625
▁sixteen	-13.5625
▁sixth	-13.5625
▁sizing	-13.5625
▁skiing	-13.5625
▁skill	-13.5625
▁skincare	-13.5625
▁skipper	-13.5625
▁skull	-13.5625
▁sleek	-13.5625
▁sleeper	-13.5625
▁sleigh	-13.5625
▁slide	-13.5625
▁slighty	-13.5625
▁slimfast	-13.5625
▁slimjim	-13.5625
▁slip	-13.5625
▁slipper	-13.5625
▁slippery	-13.5625
▁slivered	-13.5625
▁slobber	-13.5625
▁slower	-13.5625
▁slug	-13.5625
▁slump	-13.5625
▁slushie	-13.5625
▁slushy	-13.5625
▁sm	-13.5625
▁smal	-13.5625
[...]
