<unk>	0
<s>	0
</s>	0
▁eot	-1.81414
▁sot	-1.81414
▁great	-3.85096
▁the	-4.13178
▁good	-4.20871
▁not	-4.3676
▁a	-4.42873
▁for	-4.47734
▁and	-4.59421
▁best	-4.63891
▁it	-4.70693
▁my	-4.83171
▁love	-4.86132
▁but	-4.89701
▁is	-4.90569
▁i	-4.92153
▁coffee	-4.93797
▁this	-4.95543
▁to	-5.04678
▁tea	-5.09622
▁of	-5.12753
▁product	-5.14423
▁delicious	-5.24875
▁taste	-5.26712
▁very	-5.36992
▁in	-5.48017
▁like	-5.56352
▁excellent	-5.5812
▁flavor	-5.5812
▁dog	-5.63981
▁these	-5.64491
▁you	-5.67987
▁food	-5.689
▁tasty	-5.72398
▁price	-5.74315
▁yummy	-5.75451
▁with	-5.82723
▁ever	-5.86842
▁as	-5.873
▁too	-5.89811
▁favorite	-5.94042
▁so	-5.94239
▁are	-5.96026
▁stuff	-6.04382
▁on	-6.05257
▁have	-6.0793
▁loves	-6.0861
▁better	-6.12432
▁snack	-6.135
▁just	-6.16529
▁free	-6.17518
▁healthy	-6.18767
▁no	-6.23138
▁awesome	-6.23665
▁do	-6.23665
▁what	-6.24461
▁dogs	-6.25263
▁tastes	-6.25667
▁them	-6.25937
▁chocolate	-6.31637
▁than	-6.3178
▁nice	-6.33078
▁perfect	-6.37986
▁wonderful	-6.39213
▁one	-6.39367
▁cat	-6.39522
▁sweet	-6.40299
▁yum	-6.40299
▁at	-6.40768
▁really	-6.42827
▁quality	-6.43953
▁all	-6.46244
▁bad	-6.4641
▁tasting	-6.48589
▁treat	-6.50644
▁your	-6.52214
▁buy	-6.55974
▁from	-6.60835
▁hot	-6.60835
▁little	-6.61604
▁cup	-6.62185
▁me	-6.62185
▁sugar	-6.62965
▁be	-6.63161
▁that	-6.63357
▁treats	-6.63357
▁k	-6.64742
▁gluten	-6.7027
▁amazing	-6.73045
▁cats	-6.73697
▁if	-6.74352
▁will	-6.75455
▁more	-6.77697
▁easy	-6.7838
▁they	-6.80689
▁cookies	-6.83293
▁way	-6.83533
▁much	-6.83774
▁was	-6.84015
▁chips	-6.86213
▁mix	-6.8846
▁green	-6.90759
▁organic	-6.92585
▁out	-6.92585
▁fantastic	-6.93112
▁amazon	-6.93643
▁candy	-6.95251
▁value	-6.96066
▁can	-7.00239
▁cereal	-7.01381
▁or	-7.01381
▁does	-7.01669
▁ok	-7.02247
▁pretty	-7.06088
▁up	-7.0639
▁water	-7.06692
▁salt	-7.06996
▁sauce	-7.073
▁an	-7.09147
▁get	-7.09458
▁only	-7.09458
▁works	-7.09458
▁drink	-7.10083
▁low	-7.10712
▁did	-7.13268
▁oil	-7.13268
▁strong	-7.14243
▁our	-7.15891
▁made	-7.18584
▁fresh	-7.19959
▁go	-7.19959
▁happy	-7.20654
▁real	-7.20654
▁had	-7.21704
▁there	-7.21704
▁cannot	-7.2384
▁high	-7.2384
▁new	-7.242
▁baby	-7.25655
▁coconut	-7.27131
▁eat	-7.27131
▁deal	-7.28629
▁expensive	-7.28629
▁time	-7.28629
▁popcorn	-7.30919
▁has	-7.32084
▁use	-7.32475
▁worth	-7.33263
▁wow	-7.33659
▁cups	-7.34056
▁would	-7.34456
▁natural	-7.36476
▁bars	-7.36885
▁find	-7.36885
▁bar	-7.37708
▁breakfast	-7.37708
▁am	-7.38122
▁old	-7.38122
▁decaf	-7.38955
▁gift	-7.38955
▁hard	-7.38955
▁disappointed	-7.39796
▁super	-7.39796
▁well	-7.39796
▁blend	-7.41498
▁by	-7.41928
▁review	-7.41928
▁makes	-7.43667
▁soup	-7.43667
▁butter	-7.46785
▁we	-7.47239
▁vanilla	-7.47695
▁bold	-7.48612
▁service	-7.49074
▁alternative	-7.49538
▁rice	-7.49538
▁loved	-7.50004
▁convenient	-7.50472
▁big	-7.51416
▁dark	-7.51891
▁kids	-7.52368
▁smooth	-7.5333
▁cookie	-7.53814
▁packaging	-7.53814
▁bread	-7.5479
▁fast	-7.55281
▁expected	-7.55775
▁some	-7.55775
▁about	-7.5677
▁shipping	-7.57775
▁absolutely	-7.61374
▁chicken	-7.61374
▁quick	-7.61374
▁jerky	-7.62427
▁money	-7.62427
▁enough	-7.64027
▁honey	-7.64027
▁pasta	-7.64027
▁again	-7.64566
▁syrup	-7.64566
▁terrible	-7.64566
▁energy	-7.65653
▁beans	-7.66201
▁peanut	-7.66752
▁small	-7.66752
▁right	-7.67863
▁without	-7.68987
▁dry	-7.69553
▁protein	-7.69553
▁milk	-7.70123
▁even	-7.70696
▁far	-7.70696
▁horrible	-7.70696
▁make	-7.70696
▁could	-7.72435
▁flavored	-7.72435
▁other	-7.73022
▁pack	-7.73022
▁item	-7.73612
▁try	-7.73612
▁bitter	-7.74205
▁instant	-7.75403
▁crunchy	-7.76007
▁oatmeal	-7.76615
▁bit	-7.77227
▁okay	-7.77227
▁ingredients	-7.77842
▁roast	-7.77842
▁most	-7.79711
▁thing	-7.79711
▁found	-7.80342
▁gum	-7.80342
▁beware	-7.80977
▁spicy	-7.80977
▁black	-7.81616
▁decent	-7.81616
▁still	-7.81616
▁salty	-7.82906
▁nothing	-7.83558
▁first	-7.84214
▁light	-7.84214
▁formula	-7.84874
▁long	-7.85538
▁choice	-7.86207
▁finally	-7.86207
▁work	-7.86207
▁ginger	-7.8688
▁now	-7.8688
▁when	-7.8688
▁chai	-7.87558
▁simply	-7.87558
▁its	-7.88928
▁back	-7.8962
▁diet	-7.8962
▁fabulous	-7.8962
▁fruit	-7.90317
▁crackers	-7.91726
▁poor	-7.91726
▁how	-7.92438
▁less	-7.92438
▁box	-7.93154
▁over	-7.93154
▁variety	-7.93154
▁cheese	-7.93876
▁quite	-7.93876
▁refreshing	-7.93876
▁stars	-7.93876
▁substitute	-7.93876
▁after	-7.94604
▁got	-7.94604
▁were	-7.94604
▁wrong	-7.94604
▁day	-7.95336
▁order	-7.95336
▁size	-7.95336
▁weak	-7.95336
▁addictive	-7.96074
▁red	-7.96074
▁bag	-7.96818
▁cocoa	-7.96818
▁awful	-7.97567
▁rich	-7.97567
▁disappointing	-7.98322
▁juice	-7.98322
▁brand	-7.99082
▁overpriced	-7.99082
▁fat	-7.99848
▁flavors	-7.99848
▁every	-8.01399
▁must	-8.01399
▁nuts	-8.01399
▁starbucks	-8.01399
▁used	-8.01399
▁beef	-8.02183
▁flavorful	-8.02183
▁bags	-8.02974
▁never	-8.02974
▁fine	-8.0377
▁health	-8.0377
▁tried	-8.04574
▁cheaper	-8.062
▁same	-8.062
▁fun	-8.07023
▁smells	-8.07023
▁whole	-8.07023
▁different	-8.07853
▁who	-8.07853
▁espresso	-8.08689
▁kind	-8.08689
▁meal	-8.08689
▁off	-8.08689
▁stale	-8.08689
▁should	-8.09533
▁why	-8.09533
▁puppy	-8.10384
▁spice	-8.10384
▁yuck	-8.10384
▁any	-8.11243
▁powder	-8.11243
▁home	-8.12109
▁need	-8.12109
▁texture	-8.12982
▁world	-8.12982
▁here	-8.13863
▁outstanding	-8.13863
▁pricey	-8.13863
▁mild	-8.14752
▁almost	-8.15649
▁always	-8.16554
▁picky	-8.16554
▁regular	-8.16554
▁likes	-8.17467
▁full	-8.18389
▁pleased	-8.18389
▁white	-8.18389
▁around	-8.19319
▁down	-8.19319
▁snacks	-8.19319
▁tasted	-8.19319
▁iced	-8.20258
▁store	-8.20258
▁greenies	-8.21206
▁life	-8.21206
▁where	-8.21206
▁worst	-8.21206
▁another	-8.22163
▁keurig	-8.22163
▁soft	-8.22163
▁purchase	-8.23129
▁smell	-8.23129
▁canned	-8.24104
▁cans	-8.24104
▁heaven	-8.24104
▁market	-8.24104
▁o	-8.24104
▁recommended	-8.24104
▁family	-8.2509
▁french	-8.2509
▁house	-8.2509
▁oz	-8.2509
▁please	-8.2509
▁seasoning	-8.2509
▁calories	-8.26085
▁corn	-8.26085
▁granola	-8.26085
▁last	-8.26085
▁oh	-8.2709
▁s	-8.2709
▁carb	-8.28105
▁chip	-8.28105
▁lemon	-8.28105
▁many	-8.28105
▁special	-8.28105
▁chews	-8.29131
▁nut	-8.29131
▁want	-8.29131
▁cinnamon	-8.30167
▁noodles	-8.30167
▁sure	-8.30167
▁crunch	-8.31214
▁give	-8.31214
▁know	-8.31214
▁potato	-8.31214
▁think	-8.31214
▁wish	-8.31214
▁available	-8.32272
▁been	-8.32272
▁crazy	-8.32272
▁filling	-8.32272
▁gf	-8.32272
▁lovers	-8.32272
▁orange	-8.32272
▁something	-8.32272
▁company	-8.34423
▁extra	-8.34423
▁licorice	-8.34423
▁training	-8.34423
▁goodness	-8.35516
▁morning	-8.35516
▁original	-8.36621
▁package	-8.36621
▁dried	-8.37738
▁option	-8.37738
▁pop	-8.37738
▁surprisingly	-8.37738
▁cheap	-8.38868
▁chew	-8.38868
▁delivery	-8.38868
▁exactly	-8.38868
▁lover	-8.38868
▁toy	-8.38868
▁apple	-8.40011
▁china	-8.40011
▁customer	-8.40011
▁grey	-8.40011
▁son	-8.40011
▁waste	-8.40011
▁highly	-8.41167
▁idea	-8.41167
▁pods	-8.41167
▁those	-8.41167
▁cake	-8.42337
▁kitty	-8.42337
▁say	-8.42337
▁sour	-8.42337
▁bland	-8.4352
▁cream	-8.4352
▁wheat	-8.4352
▁earl	-8.44718
▁hit	-8.44718
▁looking	-8.44718
▁lot	-8.44718
▁fiber	-8.4593
▁flour	-8.4593
▁mountain	-8.4593
▁received	-8.4593
▁sweetener	-8.4593
▁things	-8.4593
▁yes	-8.4593
▁yet	-8.4593
▁liked	-8.47157
▁nasty	-8.47157
▁own	-8.47157
▁save	-8.47157
▁says	-8.47157
▁tuna	-8.47157
▁brown	-8.48399
▁needs	-8.48399
▁senseo	-8.48399
▁hair	-8.49657
▁olive	-8.49657
▁people	-8.49657
▁pure	-8.49657
▁soda	-8.49657
▁vegan	-8.49657
▁aftertaste	-8.50931
▁eating	-8.50931
▁non	-8.50931
▁products	-8.50931
▁seeds	-8.50931
▁almonds	-8.52221
▁baking	-8.52221
▁change	-8.52221
▁chili	-8.52221
▁soy	-8.52221
▁their	-8.52221
▁bought	-8.53528
▁chewy	-8.53528
▁fan	-8.53528
▁lovely	-8.53528
▁maple	-8.53528
▁pleasant	-8.53528
▁star	-8.53528
▁changed	-8.54853
▁misleading	-8.54853
▁pumpkin	-8.54853
▁weight	-8.54853
▁aroma	-8.56195
▁grain	-8.56195
▁gross	-8.56195
▁cherry	-8.57556
▁may	-8.57556
▁pretzels	-8.58935
▁terrific	-8.58935
▁two	-8.58935
▁average	-8.60334
▁broken	-8.60334
▁cooking	-8.60334
▁delish	-8.60334
▁going	-8.60334
▁recipe	-8.60334
▁bottle	-8.61752
▁buying	-8.61752
▁calorie	-8.61752
▁definitely	-8.61752
▁nutritious	-8.61752
▁thought	-8.61752
▁contains	-8.63191
▁disgusting	-8.63191
▁warning	-8.63191
▁artificial	-8.64651
▁beautiful	-8.64651
▁blue	-8.64651
▁date	-8.64651
▁earth	-8.64651
▁teas	-8.64651
▁actually	-8.66132
▁arrived	-8.66132
▁salmon	-8.66132
▁thank	-8.66132
▁wanted	-8.66132
▁advertised	-8.67636
▁almond	-8.67636
▁clean	-8.67636
▁reviews	-8.67636
▁sticks	-8.67636
▁creamy	-8.69163
▁lots	-8.69163
▁m	-8.69163
▁n	-8.69163
▁foods	-8.70713
▁ice	-8.70713
▁italian	-8.70713
▁t	-8.70713
▁though	-8.70713
▁top	-8.70713
▁addicted	-8.72288
▁dressing	-8.72288
▁everything	-8.72288
▁ordered	-8.72288
▁read	-8.72288
▁years	-8.72288
▁cold	-8.73888
▁extremely	-8.73888
▁medium	-8.73888
▁mint	-8.73888
▁pepper	-8.73888
▁priced	-8.73888
▁satisfied	-8.73888
▁seller	-8.73888
▁sodium	-8.73888
▁stevia	-8.73888
▁versatile	-8.73888
▁cracker	-8.75514
▁delight	-8.75514
▁e	-8.75514
▁enjoy	-8.75514
▁impressed	-8.75514
▁incredible	-8.75514
▁keep	-8.75514
▁nutrition	-8.75514
▁raw	-8.75514
▁satisfying	-8.75514
▁away	-8.77167
▁baked	-8.77167
▁before	-8.77167
▁goes	-8.77167
▁hazelnut	-8.77167
▁interesting	-8.77167
▁making	-8.77167
▁pill	-8.77167
▁true	-8.77167
▁us	-8.77167
▁bean	-8.78848
▁brew	-8.78848
▁caffeine	-8.78848
▁heat	-8.78848
▁seems	-8.78848
▁looks	-8.80557
▁name	-8.80557
▁pie	-8.80557
▁sick	-8.80557
▁wine	-8.80557
▁daughter	-8.82297
▁dented	-8.82297
▁favorites	-8.82297
▁maybe	-8.82297
▁ounce	-8.82297
▁replacement	-8.82297
▁teeth	-8.82297
▁add	-8.84067
▁allergies	-8.84067
▁gourmet	-8.84067
▁mouth	-8.84067
▁premium	-8.84067
▁problem	-8.84067
▁simple	-8.84067
▁superb	-8.84067
▁addicting	-8.85868
▁bbq	-8.85868
▁classic	-8.85868
▁fish	-8.85868
▁half	-8.85868
▁herbal	-8.85868
▁live	-8.85868
▁rip	-8.85868
▁she	-8.85868
▁solid	-8.85868
▁surprised	-8.85868
▁cost	-8.87703
▁greatest	-8.87703
▁hate	-8.87703
▁ingredient	-8.87703
▁large	-8.87703
▁look	-8.87703
▁memories	-8.87703
▁mixed	-8.87703
▁raspberry	-8.87703
▁recommend	-8.87703
▁description	-8.89573
▁kid	-8.89573
▁meat	-8.89573
▁others	-8.89573
▁pet	-8.89573
▁winner	-8.89573
▁else	-8.91477
▁help	-8.91477
▁keeps	-8.91477
▁mini	-8.91477
▁omg	-8.91477
▁plus	-8.91477
▁side	-8.91477
▁version	-8.91477
▁added	-8.93419
▁beverage	-8.93419
▁glad	-8.93419
▁kit	-8.93419
▁source	-8.93419
▁unique	-8.93419
▁bite	-8.95399
▁english	-8.95399
▁everyone	-8.95399
▁feel	-8.95399
▁husband	-8.95399
▁pb	-8.95399
▁rocks	-8.95399
▁smaller	-8.95399
▁strawberry	-8.95399
▁style	-8.95399
▁take	-8.95399
▁tree	-8.95399
▁year	-8.95399
▁blueberry	-8.9742
▁fruity	-8.9742
▁kick	-8.9742
▁mom	-8.9742
▁mustard	-8.9742
▁nom	-8.9742
▁plastic	-8.9742
▁prefer	-8.9742
▁stash	-8.9742
▁vinegar	-8.9742
▁absolute	-8.99482
▁addition	-8.99482
▁curry	-8.99482
▁effective	-8.99482
▁experience	-8.99482
▁hands	-8.99482
▁homemade	-8.99482
▁message	-8.99482
▁ones	-8.99482
▁rock	-8.99482
▁salad	-8.99482
▁staple	-8.99482
▁bacon	-9.01587
▁believe	-9.01587
▁childhood	-9.01587
▁close	-9.01587
▁healthier	-9.01587
▁helps	-9.01587
▁jar	-9.01587
▁peach	-9.01587
▁pizza	-9.01587
▁then	-9.01587
▁totally	-9.01587
▁truly	-9.01587
▁watch	-9.01587
▁care	-9.03738
▁cherries	-9.03738
▁garlic	-9.03738
▁peanuts	-9.03738
▁plain	-9.03738
▁toddler	-9.03738
▁wellness	-9.03738
▁anything	-9.05935
▁bulk	-9.05935
▁color	-9.05935
▁crack	-9.05935
▁crispy	-9.05935
▁gets	-9.05935
▁meh	-9.05935
▁mmmm	-9.05935
▁saver	-9.05935
▁tiny	-9.05935
▁worked	-9.05935
▁bargain	-9.08183
▁caramel	-9.08183
▁delightful	-9.08183
▁dental	-9.08183
▁expiration	-9.08183
▁instead	-9.08183
▁pay	-9.08183
▁sea	-9.08183
▁slightly	-9.08183
▁stores	-9.08183
▁surprise	-9.08183
▁weird	-9.08183
▁wild	-9.08183
▁c	-9.10482
▁cappuccino	-9.10482
▁cute	-9.10482
▁five	-9.10482
▁friend	-9.10482
▁into	-9.10482
▁lime	-9.10482
▁longer	-9.10482
▁magic	-9.10482
▁mmm	-9.10482
▁paws	-9.10482
▁sensitive	-9.10482
▁skin	-9.10482
▁b	-9.12835
▁both	-9.12835
▁cook	-9.12835
▁getting	-9.12835
▁handy	-9.12835
▁mill	-9.12835
▁mocha	-9.12835
▁packaged	-9.12835
▁pockets	-9.12835
▁pod	-9.12835
▁coffees	-9.15244
▁come	-9.15244
▁convenience	-9.15244
▁dinner	-9.15244
▁disappointment	-9.15244
▁drinking	-9.15244
▁eater	-9.15244
▁few	-9.15244
▁grocery	-9.15244
▁huge	-9.15244
▁job	-9.15244
▁local	-9.15244
▁pancake	-9.15244
▁problems	-9.15244
▁roasted	-9.15244
▁splenda	-9.15244
▁start	-9.15244
▁touch	-9.15244
▁vegetarian	-9.15244
▁wife	-9.15244
▁affordable	-9.17714
▁also	-9.17714
▁banana	-9.17714
▁bob	-9.17714
▁control	-9.17714
▁count	-9.17714
▁finicky	-9.17714
▁pancakes	-9.17714
▁picture	-9.17714
▁strange	-9.17714
▁bones	-9.20246
▁bran	-9.20246
▁cal	-9.20246
▁call	-9.20246
▁candies	-9.20246
▁cut	-9.20246
▁d	-9.20246
▁days	-9.20246
▁described	-9.20246
▁drinks	-9.20246
▁extract	-9.20246
▁gold	-9.20246
▁gone	-9.20246
▁hint	-9.20246
▁miracle	-9.20246
▁mostly	-9.20246
▁newman	-9.20246
▁oats	-9.20246
▁ramen	-9.20246
▁seed	-9.20246
▁stop	-9.20246
▁subscribe	-9.20246
▁three	-9.20246
▁y	-9.20246
▁assortment	-9.22843
▁authentic	-9.22843
▁cider	-9.22843
▁doggie	-9.22843
▁fix	-9.22843
▁kona	-9.22843
▁movie	-9.22843
▁party	-9.22843
▁second	-9.22843
▁w	-9.22843
▁acid	-9.2551
▁bears	-9.2551
▁beer	-9.2551
▁biscuits	-9.2551
▁boxes	-9.2551
▁cafe	-9.2551
▁chocolates	-9.2551
▁cola	-9.2551
▁crisp	-9.2551
▁damaged	-9.2551
▁ground	-9.2551
▁guilt	-9.2551
▁issues	-9.2551
▁jelly	-9.2551
▁leaf	-9.2551
▁let	-9.2551
▁lipton	-9.2551
▁melted	-9.2551
▁might	-9.2551
▁needed	-9.2551
▁per	-9.2551
▁pieces	-9.2551
▁plant	-9.2551
▁prices	-9.2551
▁results	-9.2551
▁thin	-9.2551
▁through	-9.2551
▁truffle	-9.2551
▁fair	-9.2825
▁friendly	-9.2825
▁g	-9.2825
▁he	-9.2825
▁latte	-9.2825
▁mango	-9.2825
▁matcha	-9.2825
▁mess	-9.2825
▁month	-9.2825
▁nutritional	-9.2825
▁tart	-9.2825
▁zero	-9.2825
▁buyer	-9.31067
▁difference	-9.31067
▁everyday	-9.31067
▁expired	-9.31067
▁god	-9.31067
▁gummy	-9.31067
▁jam	-9.31067
▁lasting	-9.31067
▁lunch	-9.31067
▁machine	-9.31067
▁noodle	-9.31067
▁see	-9.31067
▁shipped	-9.31067
▁superior	-9.31067
▁thanks	-9.31067
▁usa	-9.31067
▁yumm	-9.31067
▁amount	-9.33966
▁approved	-9.33966
▁babies	-9.33966
▁boost	-9.33966
▁christmas	-9.33966
▁dessert	-9.33966
▁flavoring	-9.33966
▁leaves	-9.33966
▁liquid	-9.33966
▁mac	-9.33966
▁mints	-9.33966
▁packs	-9.33966
▁popchips	-9.33966
▁pork	-9.33966
▁r	-9.33966
▁salsa	-9.33966
▁stomach	-9.33966
▁summer	-9.33966
▁while	-9.33966
▁wholesome	-9.33966
▁amazingly	-9.36951
▁ate	-9.36951
▁batch	-9.36951
▁being	-9.36951
▁brands	-9.36951
▁brownies	-9.36951
▁came	-9.36951
▁cool	-9.36951
▁enjoyable	-9.36951
▁lavazza	-9.36951
▁nature	-9.36951
▁paste	-9.36951
▁pick	-9.36951
▁short	-9.36951
▁stick	-9.36951
▁subtle	-9.36951
▁tough	-9.36951
▁tummy	-9.36951
▁anytime	-9.40028
▁berry	-9.40028
▁breath	-9.40028
▁container	-9.40028
▁crust	-9.40028
▁eaten	-9.40028
▁edible	-9.40028
▁especially	-9.40028
▁graham	-9.40028
▁grape	-9.40028
▁heart	-9.40028
▁list	-9.40028
▁robust	-9.40028
▁seriously	-9.40028
▁vegetable	-9.40028
▁body	-9.43203
▁bone	-9.43203
▁caribou	-9.43203
▁clear	-9.43203
▁expect	-9.43203
▁gave	-9.43203
▁gummi	-9.43203
▁her	-9.43203
▁jack	-9.43203
▁maker	-9.43203
▁messy	-9.43203
▁miss	-9.43203
▁nutty	-9.43203
▁pleasantly	-9.43203
▁standard	-9.43203
▁sticky	-9.43203
▁adults	-9.46482
▁aid	-9.46482
▁anywhere	-9.46482
▁bay	-9.46482
▁broth	-9.46482
▁bully	-9.46482
▁comes	-9.46482
▁diamond	-9.46482
▁gives	-9.46482
▁grade	-9.46482
▁heavenly	-9.46482
▁helped	-9.46482
▁hemp	-9.46482
▁hoped	-9.46482
▁kitchen	-9.46482
▁mother	-9.46482
▁powdered	-9.46482
▁puffs	-9.46482
▁remember	-9.46482
▁shampoo	-9.46482
▁starter	-9.46482
▁thai	-9.46482
▁twinings	-9.46482
▁waffle	-9.46482
▁careful	-9.49872
▁com	-9.49872
▁daily	-9.49872
▁de	-9.49872
▁drinker	-9.49872
▁each	-9.49872
▁elsewhere	-9.49872
▁exceptional	-9.49872
▁grass	-9.49872
▁gravy	-9.49872
▁hearty	-9.49872
▁hour	-9.49872
▁l	-9.49872
▁liver	-9.49872
▁lollipops	-9.49872
▁lt	-9.49872
▁mediocre	-9.49872
▁mmmmmm	-9.49872
▁moist	-9.49872
▁months	-9.49872
▁potatoes	-9.49872
▁power	-9.49872
▁probably	-9.49872
▁put	-9.49872
▁raisin	-9.49872
▁sardines	-9.49872
▁slim	-9.49872
▁sooo	-9.49872
▁steak	-9.49872
▁stock	-9.49872
▁supplement	-9.49872
▁timothy	-9.49872
▁toffee	-9.49872
▁wake	-9.49872
▁yourself	-9.49872
▁agree	-9.53381
▁because	-9.53381
▁berries	-9.53381
▁bodied	-9.53381
▁chinese	-9.53381
▁completely	-9.53381
▁crystal	-9.53381
▁dairy	-9.53381
▁darn	-9.53381
▁delicous	-9.53381
▁fake	-9.53381
▁fooled	-9.53381
▁heavy	-9.53381
▁hips	-9.53381
▁his	-9.53381
▁hooked	-9.53381
▁lower	-9.53381
▁missing	-9.53381
▁office	-9.53381
▁once	-9.53381
▁peppermint	-9.53381
▁perfectly	-9.53381
▁quaker	-9.53381
▁scent	-9.53381
▁soooo	-9.53381
▁tasteless	-9.53381
▁tell	-9.53381
▁thick	-9.53381
▁tomato	-9.53381
▁veggie	-9.53381
▁vet	-9.53381
▁word	-9.53381
▁yeast	-9.53381
▁addiction	-9.57018
▁allergic	-9.57018
▁busy	-9.57018
▁cardboard	-9.57018
▁check	-9.57018
▁combination	-9.57018
▁dish	-9.57018
▁dissapointed	-9.57018
▁done	-9.57018
▁dream	-9.57018
▁except	-9.57018
▁fuel	-9.57018
▁increase	-9.57018
▁lb	-9.57018
▁none	-9.57018
▁nutiva	-9.57018
▁open	-9.57018
▁pantry	-9.57018
▁purpose	-9.57018
▁rub	-9.57018
▁safe	-9.57018
▁sampler	-9.57018
▁single	-9.57018
▁such	-9.57018
▁switch	-9.57018
▁tomatoes	-9.57018
▁uses	-9.57018
▁advertising	-9.60792
▁balanced	-9.60792
▁base	-9.60792
▁beat	-9.60792
▁bigelow	-9.60792
▁cakes	-9.60792
▁calm	-9.60792
▁coffe	-9.60792
▁crumbs	-9.60792
▁dangerous	-9.60792
▁double	-9.60792
▁either	-9.60792
▁expecting	-9.60792
▁fit	-9.60792
▁four	-9.60792
▁gas	-9.60792
▁golden	-9.60792
▁h	-9.60792
▁joe	-9.60792
▁loose	-9.60792
▁meals	-9.60792
▁past	-9.60792
▁pound	-9.60792
▁quickly	-9.60792
▁raisins	-9.60792
▁reasonable	-9.60792
▁saved	-9.60792
▁seem	-9.60792
▁selection	-9.60792
▁shop	-9.60792
▁since	-9.60792
▁sized	-9.60792
▁sold	-9.60792
▁spoiled	-9.60792
▁taco	-9.60792
▁tooth	-9.60792
▁traditional	-9.60792
▁veggies	-9.60792
▁wait	-9.60792
▁yogurt	-9.60792
▁allergy	-9.64714
▁balance	-9.64714
▁bpa	-9.64714
▁bring	-9.64714
▁catnip	-9.64714
▁cheddar	-9.64714
▁false	-9.64714
▁flakes	-9.64714
▁flowers	-9.64714
▁grove	-9.64714
▁jalapeno	-9.64714
▁japanese	-9.64714
▁lab	-9.64714
▁man	-9.64714
▁marinade	-9.64714
▁mmmmm	-9.64714
▁night	-9.64714
▁opinion	-9.64714
▁period	-9.64714
▁pink	-9.64714
▁pricing	-9.64714
▁said	-9.64714
▁sent	-9.64714
▁sleep	-9.64714
▁somewhat	-9.64714
▁soothing	-9.64714
▁spaghetti	-9.64714
▁spiced	-9.64714
▁spices	-9.64714
▁takes	-9.64714
▁tully	-9.64714
▁twice	-9.64714
▁unusual	-9.64714
▁vitamin	-9.64714
▁yummm	-9.64714
▁anyone	-9.68796
▁blood	-9.68796
▁chemical	-9.68796
▁content	-9.68796
▁everlasting	-9.68796
▁feeling	-9.68796
▁gummies	-9.68796
▁line	-9.68796
▁moldy	-9.68796
▁next	-9.68796
▁ordering	-9.68796
▁pleasure	-9.68796
▁pomegranate	-9.68796
▁pup	-9.68796
▁rancid	-9.68796
▁rating	-9.68796
▁run	-9.68796
▁san	-9.68796
▁scrumptious	-9.68796
▁secret	-9.68796
▁sorry	-9.68796
▁tangy	-9.68796
▁theater	-9.68796
▁tortilla	-9.68796
▁total	-9.68796
▁using	-9.68796
▁vs	-9.68796
▁adult	-9.73052
▁avoid	-9.73052
▁bottled	-9.73052
▁bottles	-9.73052
▁boy	-9.73052
▁break	-9.73052
▁bull	-9.73052
▁called	-9.73052
▁case	-9.73052
▁chef	-9.73052
▁child	-9.73052
▁choc	-9.73052
▁creme	-9.73052
▁diabetic	-9.73052
▁eats	-9.73052
▁eight	-9.73052
▁expectations	-9.73052
▁fave	-9.73052
▁happened	-9.73052
▁holy	-9.73052
▁indian	-9.73052
▁info	-9.73052
▁kitties	-9.73052
▁litter	-9.73052
▁mellow	-9.73052
▁muffins	-9.73052
▁online	-9.73052
▁planet	-9.73052
▁sesame	-9.73052
▁shipment	-9.73052
▁spread	-9.73052
▁stay	-9.73052
▁travel	-9.73052
▁trying	-9.73052
▁waffles	-9.73052
▁yogi	-9.73052
▁acquired	-9.77497
▁aromatic	-9.77497
▁ball	-9.77497
▁brewers	-9.77497
▁burnt	-9.77497
▁caution	-9.77497
▁conditioner	-9.77497
▁contain	-9.77497
▁costco	-9.77497
▁delicate	-9.77497
▁design	-9.77497
▁eh	-9.77497
▁emeril	-9.77497
▁fall	-9.77497
▁gloria	-9.77497
▁haribo	-9.77497
▁inconsistent	-9.77497
▁irish	-9.77497
▁jasmine	-9.77497
▁kashi	-9.77497
▁kettle	-9.77497
▁label	-9.77497
▁larger	-9.77497
▁maxwell	-9.77497
▁penny	-9.77497
▁perfection	-9.77497
▁pops	-9.77497
▁portable	-9.77497
▁quantity	-9.77497
▁serious	-9.77497
▁spot	-9.77497
▁stinky	-9.77497
▁subscription	-9.77497
▁sucralose	-9.77497
▁sunflower	-9.77497
▁test	-9.77497
▁type	-9.77497
▁until	-9.77497
▁useful	-9.77497
▁warm	-9.77497
▁yeah	-9.77497
▁yuk	-9.77497
▁awsome	-9.8215
▁basic	-9.8215
▁belly	-9.8215
▁benefits	-9.8215
▁carbonated	-9.8215
▁chewers	-9.8215
▁clock	-9.8215
▁coco	-9.8215
▁compared	-9.8215
▁country	-9.8215
▁deliciously	-9.8215
▁doggy	-9.8215
▁dr	-9.8215
▁enjoyed	-9.8215
▁garbage	-9.8215
▁garden	-9.8215
▁greasy	-9.8215
▁guilty	-9.8215
▁holiday	-9.8215
▁inexpensive	-9.8215
▁kitten	-9.8215
▁knew	-9.8215
▁kosher	-9.8215
▁la	-9.8215
▁least	-9.8215
▁microwave	-9.8215
▁minty	-9.8215
▁mixes	-9.8215
▁odd	-9.8215
▁olives	-9.8215
▁packed	-9.8215
▁pamela	-9.8215
▁peas	-9.8215
▁plants	-9.8215
▁pot	-9.8215
▁puck	-9.8215
▁purchased	-9.8215
▁ripoff	-9.8215
▁smart	-9.8215
▁square	-9.8215
▁storage	-9.8215
▁sushi	-9.8215
▁sweetened	-9.8215
▁taffy	-9.8215
▁tender	-9.8215
▁virgin	-9.8215
▁went	-9.8215
▁xylitol	-9.8215
▁zico	-9.8215
▁american	-9.87029
▁bits	-9.87029
▁bomb	-9.87029
▁carbs	-9.87029
▁chamomile	-9.87029
▁cranberry	-9.87029
▁deceptive	-9.87029
▁delivered	-9.87029
▁easier	-9.87029
▁easily	-9.87029
▁eaters	-9.87029
▁economical	-9.87029
▁eggs	-9.87029
▁feed	-9.87029
▁fragrant	-9.87029
▁funny	-9.87029
▁girl	-9.87029
▁incredibly	-9.87029
▁items	-9.87029
▁jet	-9.87029
▁kcup	-9.87029
▁lean	-9.87029
▁locally	-9.87029
▁matter	-9.87029
▁mexican	-9.87029
▁part	-9.87029
▁pretzel	-9.87029
▁rate	-9.87029
▁rawhide	-9.87029
▁reminds	-9.87029
▁rooibos	-9.87029
▁serve	-9.87029
▁smoked	-9.87029
▁sometimes	-9.87029
▁sugary	-9.87029
▁tarts	-9.87029
▁thumbs	-9.87029
▁turkey	-9.87029
▁wasabi	-9.87029
▁x	-9.87029
▁zuke	-9.87029
▁agave	-9.92158
▁alright	-9.92158
▁balsamic	-9.92158
▁biscotti	-9.92158
▁bonsai	-9.92158
▁bother	-9.92158
▁bugs	-9.92158
▁crisps	-9.92158
▁diarrhea	-9.92158
▁duck	-9.92158
▁during	-9.92158
▁egg	-9.92158
▁folgers	-9.92158
▁grow	-9.92158
▁information	-9.92158
▁kcups	-9.92158
▁king	-9.92158
▁kraft	-9.92158
▁lifesaver	-9.92158
▁lousy	-9.92158
▁minutes	-9.92158
▁mold	-9.92158
▁overall	-9.92158
▁packing	-9.92158
▁pecan	-9.92158
▁prepare	-9.92158
▁pudding	-9.92158
▁ready	-9.92158
▁shake	-9.92158
▁shelf	-9.92158
▁ship	-9.92158
▁similar	-9.92158
▁six	-9.92158
▁steel	-9.92158
▁tiger	-9.92158
▁tin	-9.92158
▁topping	-9.92158
▁unpleasant	-9.92158
▁wonderfully	-9.92158
▁working	-9.92158
▁yay	-9.92158
▁afternoon	-9.97565
▁anymore	-9.97565
▁apples	-9.97565
▁basket	-9.97565
▁bear	-9.97565
▁birthday	-9.97565
▁brewed	-9.97565
▁caviar	-9.97565
▁cheesy	-9.97565
▁chewing	-9.97565
▁collection	-9.97565
▁crap	-9.97565
▁crumbly	-9.97565
▁dad	-9.97565
▁decadent	-9.97565
▁diabetics	-9.97565
▁fancy	-9.97565
▁farms	-9.97565
▁flavorless	-9.97565
▁forget	-9.97565
▁francisco	-9.97565
▁fudge	-9.97565
▁giving	-9.97565
▁glass	-9.97565
▁guess	-9.97565
▁improvement	-9.97565
▁issue	-9.97565
▁jars	-9.97565
▁jim	-9.97565
▁junk	-9.97565
▁kool	-9.97565
▁loss	-9.97565
▁lost	-9.97565
▁mate	-9.97565
▁nearly	-9.97565
▁nectar	-9.97565
▁odor	-9.97565
▁older	-9.97565
▁oolong	-9.97565
▁oreo	-9.97565
▁packets	-9.97565
▁pets	-9.97565
▁place	-9.97565
▁poorly	-9.97565
▁portion	-9.97565
▁possibly	-9.97565
▁puppies	-9.97565
▁re	-9.97565
▁restaurant	-9.97565
▁roll	-9.97565
▁rose	-9.97565
▁royal	-9.97565
▁rum	-9.97565
▁scalp	-9.97565
▁seasonings	-9.97565
▁shells	-9.97565
▁slow	-9.97565
▁snaps	-9.97565
▁solved	-9.97565
▁supposed	-9.97565
▁sweetner	-9.97565
▁throw	-9.97565
▁toast	-9.97565
▁ugh	-9.97565
▁watery	-9.97565
▁wet	-9.97565
▁winter	-9.97565
▁yellow	-9.97565
▁balls	-10.0328
▁beetlejuice	-10.0328
▁bell	-10.0328
▁beyond	-10.0328
▁blah	-10.0328
▁buddy	-10.0328
▁buffalo	-10.0328
▁chance	-10.0328
▁children	-10.0328
▁coke	-10.0328
▁college	-10.0328
▁concentrate	-10.0328
▁cough	-10.0328
▁die	-10.0328
▁effect	-10.0328
▁fairly	-10.0328
▁fans	-10.0328
▁feeding	-10.0328
▁fussy	-10.0328
▁goji	-10.0328
▁india	-10.0328
▁inside	-10.0328
▁lacking	-10.0328
▁licious	-10.0328
▁lish	-10.0328
▁miso	-10.0328
▁move	-10.0328
▁mrs	-10.0328
▁multi	-10.0328
▁oat	-10.0328
▁oily	-10.0328
▁opened	-10.0328
▁point	-10.0328
▁punch	-10.0328
▁rather	-10.0328
▁rest	-10.0328
▁sad	-10.0328
▁sauces	-10.0328
▁sons	-10.0328
▁sumatra	-10.0328
▁sweetness	-10.0328
▁tastey	-10.0328
▁usual	-10.0328
▁valley	-10.0328
▁vendor	-10.0328
▁above	-10.0934
▁bigger	-10.0934
▁broke	-10.0934
▁buttery	-10.0934
▁bye	-10.0934
▁class	-10.0934
▁colombian	-10.0934
▁comfort	-10.0934
▁coming	-10.0934
▁craving	-10.0934
▁cuppa	-10.0934
▁dates	-10.0934
▁decaffeinated	-10.0934
▁diets	-10.0934
▁difficult	-10.0934
▁dip	-10.0934
▁drop	-10.0934
▁end	-10.0934
▁essential	-10.0934
▁feline	-10.0934
▁flat	-10.0934
▁flax	-10.0934
▁freeze	-10.0934
▁grains	-10.0934
▁hazard	-10.0934
▁healthful	-10.0934
▁human	-10.0934
▁hype	-10.0934
▁instructions	-10.0934
▁jean	-10.0934
▁kidding	-10.0934
▁leave	-10.0934
▁limited	-10.0934
▁marzipan	-10.0934
▁medicine	-10.0934
▁mind	-10.0934
▁mushrooms	-10.0934
▁nd	-10.0934
▁p	-10.0934
▁packages	-10.0934
▁pain	-10.0934
▁pictured	-10.0934
▁pleasing	-10.0934
▁pro	-10.0934
▁reason	-10.0934
▁relaxing	-10.0934
▁research	-10.0934
▁ridiculous	-10.0934
▁seconds	-10.0934
▁slight	-10.0934
▁snap	-10.0934
▁solution	-10.0934
▁squeeze	-10.0934
▁st	-10.0934
▁step	-10.0934
▁stew	-10.0934
▁strips	-10.0934
▁sweeteners	-10.0934
▁th	-10.0934
▁torani	-10.0934
▁trail	-10.0934
▁tropical	-10.0934
▁truffles	-10.0934
▁ultimate	-10.0934
▁vitamins	-10.0934
▁win	-10.0934
▁wolfgang	-10.0934
▁workout	-10.0934
▁ya	-10.0934
▁yummmmm	-10.0934
▁acidic	-10.158
▁alert	-10.158
▁altoids	-10.158
▁bagged	-10.158
▁based	-10.158
▁blueberries	-10.158
▁brownie	-10.158
▁canidae	-10.158
▁coat	-10.158
▁complete	-10.158
▁covered	-10.158
▁creamer	-10.158
▁crema	-10.158
▁crushed	-10.158
▁deep	-10.158
▁dishes	-10.158
▁doctor	-10.158
▁door	-10.158
▁drinkers	-10.158
▁durable	-10.158
▁excellant	-10.158
▁filter	-10.158
▁fishy	-10.158
▁freshness	-10.158
▁friends	-10.158
▁fructose	-10.158
▁glutino	-10.158
▁greens	-10.158
▁grown	-10.158
▁hand	-10.158
▁holder	-10.158
▁hoping	-10.158
▁however	-10.158
▁hubby	-10.158
▁indeed	-10.158
▁jolly	-10.158
▁joy	-10.158
▁ketchup	-10.158
▁lavender	-10.158
▁lives	-10.158
▁melt	-10.158
▁mio	-10.158
▁mistake	-10.158
▁naturals	-10.158
▁onion	-10.158
▁options	-10.158
▁organics	-10.158
▁overpowering	-10.158
▁pouches	-10.158
▁pre	-10.158
▁quinoa	-10.158
▁reliable	-10.158
▁root	-10.158
▁sale	-10.158
▁sam	-10.158
▁satisfaction	-10.158
▁school	-10.158
▁set	-10.158
▁shot	-10.158
▁smokey	-10.158
▁snacking	-10.158
▁spectacular	-10.158
▁tad	-10.158
▁times	-10.158
▁twist	-10.158
▁typical	-10.158
▁update	-10.158
▁usually	-10.158
▁wafers	-10.158
▁within	-10.158
▁yummmm	-10.158
▁able	-10.227
▁acai	-10.227
▁addict	-10.227
▁animal	-10.227
▁beats	-10.227
▁betty	-10.227
▁bites	-10.227
▁bubble	-10.227
▁cet	-10.227
▁cheerios	-10.227
▁club	-10.227
▁coca	-10.227
▁consistency	-10.227
▁consistent	-10.227
▁consistently	-10.227
▁dieters	-10.227
▁divine	-10.227
▁donut	-10.227
▁fav	-10.227
▁feast	-10.227
▁finest	-10.227
▁flavour	-10.227
▁gel	-10.227
▁gmo	-10.227
▁gods	-10.227
▁grounds	-10.227
▁hardly	-10.227
▁hates	-10.227
▁herb	-10.227
▁hits	-10.227
▁hours	-10.227
▁hydrogenated	-10.227
▁impressive	-10.227
▁improved	-10.227
▁intense	-10.227
▁lightly	-10.227
▁lose	-10.227
▁mayo	-10.227
▁men	-10.227
▁movies	-10.227
▁negative	-10.227
▁note	-10.227
▁paper	-10.227
▁pass	-10.227
▁peppers	-10.227
▁piece	-10.227
▁pig	-10.227
▁pineapple	-10.227
▁post	-10.227
▁promised	-10.227
▁pups	-10.227
▁search	-10.227
▁shakes	-10.227
▁smoothies	-10.227
▁sooooo	-10.227
▁sparkling	-10.227
▁spearmint	-10.227
▁stand	-10.227
▁supply	-10.227
▁teriyaki	-10.227
▁threw	-10.227
▁thrilled	-10.227
▁tips	-10.227
▁toddlers	-10.227
▁took	-10.227
▁tool	-10.227
▁v	-10.227
▁via	-10.227
▁yorkie	-10.227
▁yummo	-10.227
▁ale	-10.3011
▁asian	-10.3011
▁barely	-10.3011
▁become	-10.3011
▁bed	-10.3011
▁belgian	-10.3011
▁bliss	-10.3011
▁bowl	-10.3011
▁brilliant	-10.3011
▁brittle	-10.3011
▁buds	-10.3011
▁celestial	-10.3011
▁chewer	-10.3011
▁chia	-10.3011
▁chocolatey	-10.3011
▁choking	-10.3011
▁claims	-10.3011
▁click	-10.3011
▁closest	-10.3011
▁core	-10.3011
▁couscous	-10.3011
▁cramps	-10.3011
▁cupcakes	-10.3011
▁defective	-10.3011
▁deliciousness	-10.3011
▁england	-10.3011
▁f	-10.3011
▁favor	-10.3011
▁feels	-10.3011
▁fog	-10.3011
▁form	-10.3011
▁fried	-10.3011
▁fries	-10.3011
▁game	-10.3011
▁guys	-10.3011
▁ham	-10.3011
▁having	-10.3011
▁helpful	-10.3011
▁hershey	-10.3011
▁hibiscus	-10.3011
▁himalayan	-10.3011
▁hope	-10.3011
▁interested	-10.3011
▁island	-10.3011
▁juicy	-10.3011
▁kibble	-10.3011
▁kittens	-10.3011
▁later	-10.3011
▁link	-10.3011
▁loving	-10.3011
▁lucky	-10.3011
▁margarita	-10.3011
▁match	-10.3011
▁mccann	-10.3011
▁meow	-10.3011
▁muffin	-10.3011
▁mushy	-10.3011
▁normal	-10.3011
▁overly	-10.3011
▁peachy	-10.3011
▁pg	-10.3011
▁pine	-10.3011
▁pounds	-10.3011
▁powerful	-10.3011
▁relief	-10.3011
▁remembered	-10.3011
▁ridiculously	-10.3011
▁rinds	-10.3011
▁rolls	-10.3011
▁room	-10.3011
▁round	-10.3011
▁ruined	-10.3011
▁saffron	-10.3011
▁sandwich	-10.3011
▁seal	-10.3011
▁serving	-10.3011
▁shape	-10.3011
▁shortbread	-10.3011
▁snob	-10.3011
▁sucks	-10.3011
▁sun	-10.3011
▁supreme	-10.3011
▁talk	-10.3011
▁toxic	-10.3011
▁trade	-10.3011
▁trap	-10.3011
▁um	-10.3011
▁user	-10.3011
▁which	-10.3011
▁actual	-10.3811
▁adds	-10.3811
▁america	-10.3811
▁annie	-10.3811
▁attention	-10.3811
▁bagel	-10.3811
▁bake	-10.3811
▁barley	-10.3811
▁between	-10.3811
▁boring	-10.3811
▁brings	-10.3811
▁buck	-10.3811
▁cashew	-10.3811
▁cashews	-10.3811
▁ceylon	-10.3811
▁chunks	-10.3811
▁colors	-10.3811
▁columbian	-10.3811
▁community	-10.3811
▁condition	-10.3811
▁consumer	-10.3811
▁containers	-10.3811
▁costs	-10.3811
▁crab	-10.3811
▁crowd	-10.3811
▁culinary	-10.3811
▁customers	-10.3811
▁darjeeling	-10.3811
▁dead	-10.3811
▁dogswell	-10.3811
▁drops	-10.3811
▁easiest	-10.3811
▁effects	-10.3811
▁entertaining	-10.3811
▁fig	-10.3811
▁figs	-10.3811
▁fizzy	-10.3811
▁fragrance	-10.3811
▁gerber	-10.3811
▁grows	-10.3811
▁guests	-10.3811
▁guy	-10.3811
▁habit	-10.3811
▁higher	-10.3811
▁highest	-10.3811
▁ideal	-10.3811
▁ill	-10.3811
▁illy	-10.3811
▁important	-10.3811
▁incorrect	-10.3811
▁inedible	-10.3811
▁lacks	-10.3811
▁larabars	-10.3811
▁late	-10.3811
▁lemonade	-10.3811
▁lifesavers	-10.3811
▁links	-10.3811
▁manuka	-10.3811
▁middle	-10.3811
▁myself	-10.3811
▁nose	-10.3811
▁orgain	-10.3811
▁outrageous	-10.3811
▁pace	-10.3811
▁paprika	-10.3811
▁perhaps	-10.3811
▁pills	-10.3811
▁pinch	-10.3811
▁possible	-10.3811
▁presentation	-10.3811
▁pricy	-10.3811
▁prunes	-10.3811
▁pug	-10.3811
▁recall	-10.3811
▁receive	-10.3811
▁runny	-10.3811
▁rye	-10.3811
▁salads	-10.3811
▁savings	-10.3811
▁sf	-10.3811
▁ships	-10.3811
▁sliced	-10.3811
▁smelling	-10.3811
▁stronger	-10.3811
▁sub	-10.3811
▁tassimo	-10.3811
▁tazo	-10.3811
▁thins	-10.3811
▁throat	-10.3811
▁today	-10.3811
▁ultra	-10.3811
▁unbelievably	-10.3811
▁unfortunately	-10.3811
▁unhealthy	-10.3811
▁upset	-10.3811
▁vita	-10.3811
▁walnuts	-10.3811
▁wash	-10.3811
▁watermelon	-10.3811
▁weeks	-10.3811
▁whiskas	-10.3811
▁wonder	-10.3811
▁young	-10.3811
▁air	-10.4681
▁basil	-10.4681
▁biscuit	-10.4681
▁bitterness	-10.4681
▁blends	-10.4681
▁bright	-10.4681
▁business	-10.4681
▁chaser	-10.4681
▁chipotle	-10.4681
▁chunk	-10.4681
▁chunky	-10.4681
▁co	-10.4681
▁coloring	-10.4681
▁concept	-10.4681
▁conscious	-10.4681
▁cooked	-10.4681
▁cravings	-10.4681
▁crocker	-10.4681
▁delectable	-10.4681
▁delightfully	-10.4681
▁dingo	-10.4681
▁disapointed	-10.4681
▁doggies	-10.4681
▁dollar	-10.4681
▁dust	-10.4681
▁early	-10.4681
▁elegant	-10.4681
▁enhancer	-10.4681
▁enjoying	-10.4681
▁evening	-10.4681
▁exotic	-10.4681
▁extreme	-10.4681
▁fashioned	-10.4681
▁finish	-10.4681
▁fluffy	-10.4681
▁freshest	-10.4681
▁frontier	-10.4681
▁frosting	-10.4681
▁frozen	-10.4681
▁gelatin	-10.4681
▁general	-10.4681
▁gentle	-10.4681
▁gifts	-10.4681
▁goldfish	-10.4681
▁goodbye	-10.4681
▁gooey	-10.4681
▁goood	-10.4681
▁grits	-10.4681
▁growing	-10.4681
▁gu	-10.4681
▁halloween	-10.4681
▁harney	-10.4681
▁healthiest	-10.4681
▁herbs	-10.4681
▁hfcs	-10.4681
▁holistic	-10.4681
▁honest	-10.4681
▁indoor	-10.4681
▁insane	-10.4681
▁italy	-10.4681
▁izze	-10.4681
▁key	-10.4681
▁kiwi	-10.4681
▁lamb	-10.4681
▁lil	-10.4681
▁lindt	-10.4681
▁listed	-10.4681
▁lo	-10.4681
▁lobster	-10.4681
▁loyal	-10.4681
▁mary	-10.4681
▁mighty	-10.4681
▁molasses	-10.4681
▁moms	-10.4681
▁mr	-10.4681
▁ms	-10.4681
▁muesli	-10.4681
▁multiple	-10.4681
▁mushroom	-10.4681
▁nantucket	-10.4681
▁naturally	-10.4681
▁nestle	-10.4681
▁news	-10.4681
▁nicely	-10.4681
▁northern	-10.4681
▁nostalgia	-10.4681
▁nylabone	-10.4681
▁oils	-10.4681
▁ordinary	-10.4681
▁packet	-10.4681
▁pear	-10.4681
▁ph	-10.4681
▁pistachios	-10.4681
▁planters	-10.4681
▁pleaser	-10.4681
▁popular	-10.4681
▁pouch	-10.4681
▁present	-10.4681
▁recipes	-10.4681
▁reviewers	-10.4681
▁revised	-10.4681
▁ripped	-10.4681
▁sample	-10.4681
▁saves	-10.4681
▁savory	-10.4681
▁season	-10.4681
▁senior	-10.4681
▁sensation	-10.4681
▁smelly	-10.4681
▁smoky	-10.4681
▁someone	-10.4681
▁soooooo	-10.4681
▁spring	-10.4681
▁sprinkles	-10.4681
▁stomachs	-10.4681
▁suppose	-10.4681
▁sweeter	-10.4681
▁tastiest	-10.4681
▁train	-10.4681
▁trans	-10.4681
▁turkish	-10.4681
▁van	-10.4681
▁walmart	-10.4681
▁walnut	-10.4681
▁warned	-10.4681
▁yummiest	-10.4681
▁acceptable	-10.5634
▁additive	-10.5634
▁age	-10.5634
▁aggressive	-10.5634
▁ah	-10.5634
▁alot	-10.5634
▁ask	-10.5634
▁assorted	-10.5634
▁aware	-10.5634
▁bananas	-10.5634
▁basmati	-10.5634
▁benecol	-10.5634
▁bergamot	-10.5634
▁boston	-10.5634
▁bottom	-10.5634
▁burst	-10.5634
▁calming	-10.5634
▁caveat	-10.5634
▁certified	-10.5634
▁chalky	-10.5634
▁chihuahua	-10.5634
▁combo	-10.5634
▁created	-10.5634
▁damn	-10.5634
▁deceiving	-10.5634
▁depends	-10.5634
▁describe	-10.5634
▁direct	-10.5634
▁directions	-10.5634
▁disaster	-10.5634
▁dove	-10.5634
▁drinkable	-10.5634
▁empty	-10.5634
▁entire	-10.5634
▁excelent	-10.5634
▁excited	-10.5634
▁expresso	-10.5634
▁face	-10.5634
▁folks	-10.5634
▁freaking	-10.5634
▁friskies	-10.5634
▁funky	-10.5634
▁german	-10.5634
▁ghee	-10.5634
▁gingerbread	-10.5634
▁grapefruit	-10.5634
▁greek	-10.5634
▁habanero	-10.5634
▁hairball	-10.5634
▁hawaiian	-10.5634
▁hey	-10.5634
▁hungry	-10.5634
▁hygiene	-10.5634
▁inferior	-10.5634
▁insanely	-10.5634
▁jamaica	-10.5634
▁jell	-10.5634
▁jello	-10.5634
▁kefir	-10.5634
▁kill	-10.5634
▁kirkland	-10.5634
▁knorr	-10.5634
▁korean	-10.5634
▁larabar	-10.5634
▁lasts	-10.5634
▁lbs	-10.5634
▁leaks	-10.5634
▁left	-10.5634
▁level	-10.5634
▁loaded	-10.5634
▁lol	-10.5634
▁magnesium	-10.5634
▁major	-10.5634
▁malted	-10.5634
▁marketing	-10.5634
▁mashed	-10.5634
▁mean	-10.5634
▁num	-10.5634
▁oral	-10.5634
▁pears	-10.5634
▁photo	-10.5634
▁pickles	-10.5634
▁plenty	-10.5634
▁pooch	-10.5634
▁preserves	-10.5634
▁prime	-10.5634
▁processed	-10.5634
▁properly	-10.5634
▁protien	-10.5634
▁pump	-10.5634
▁questionable	-10.5634
▁ranch	-10.5634
▁reasonably	-10.5634
▁repeat	-10.5634
▁retail	-10.5634
▁rings	-10.5634
▁salami	-10.5634
▁salted	-10.5634
▁satisfy	-10.5634
▁sealed	-10.5634
▁several	-10.5634
▁shopping	-10.5634
▁sip	-10.5634
▁smokehouse	-10.5634
▁soap	-10.5634
▁sodas	-10.5634
▁sort	-10.5634
▁soul	-10.5634
▁south	-10.5634
▁sprout	-10.5634
▁stir	-10.5634
▁superfood	-10.5634
▁system	-10.5634
▁title	-10.5634
▁tofu	-10.5634
▁transaction	-10.5634
▁turns	-10.5634
▁umm	-10.5634
▁under	-10.5634
▁unhappy	-10.5634
▁useless	-10.5634
▁vermont	-10.5634
▁woof	-10.5634
▁worse	-10.5634
▁yummie	-10.5634
▁alkaline	-10.6688
▁aloe	-10.6688
▁along	-10.6688
▁angel	-10.6688
▁apparently	-10.6688
▁approve	-10.6688
▁bait	-10.6688
▁beach	-10.6688
▁bloody	-10.6688
▁book	-10.6688
▁boot	-10.6688
▁bowls	-10.6688
▁brewer	-10.6688
▁broccoli	-10.6688
▁bunch	-10.6688
▁cacao	-10.6688
▁caffeinated	-10.6688
▁capsules	-10.6688
▁cereals	-10.6688
▁choices	-10.6688
▁citric	-10.6688
▁clif	-10.6688
▁clusters	-10.6688
▁cornbread	-10.6688
▁correct	-10.6688
▁cotton	-10.6688
▁cranberries	-10.6688
▁cubes	-10.6688
▁cure	-10.6688
▁curls	-10.6688
▁da	-10.6688
▁death	-10.6688
▁delicioso	-10.6688
▁delivers	-10.6688
▁dents	-10.6688
▁desserts	-10.6688
▁dipping	-10.6688
▁dirty	-10.6688
▁discs	-10.6688
▁doing	-10.6688
▁drawer	-10.6688
▁ehh	-10.6688
▁everywhere	-10.6688
▁ew	-10.6688
▁filler	-10.6688
▁firm	-10.6688
▁fits	-10.6688
▁fly	-10.6688
▁follow	-10.6688
▁france	-10.6688
▁fresher	-10.6688
▁fruits	-10.6688
▁ghirardelli	-10.6688
▁glaze	-10.6688
▁gorgeous	-10.6688
▁grams	-10.6688
▁greenie	-10.6688
▁gritty	-10.6688
▁heinz	-10.6688
▁hell	-10.6688
▁helper	-10.6688
▁him	-10.6688
▁hip	-10.6688
▁hmm	-10.6688
▁hummus	-10.6688
▁international	-10.6688
▁itself	-10.6688
▁java	-10.6688
▁jerk	-10.6688
▁jims	-10.6688
▁kong	-10.6688
▁labeling	-10.6688
▁lasted	-10.6688
▁lids	-10.6688
▁literally	-10.6688
▁madagascar	-10.6688
▁main	-10.6688
▁marley	-10.6688
▁marmite	-10.6688
▁masala	-10.6688
▁melitta	-10.6688
▁melts	-10.6688
▁michael	-10.6688
▁mildly	-10.6688
▁minute	-10.6688
▁mixer	-10.6688
▁mole	-10.6688
▁mornings	-10.6688
▁mum	-10.6688
▁naked	-10.6688
▁normally	-10.6688
▁otherwise	-10.6688
▁ounces	-10.6688
▁paris	-10.6688
▁pea	-10.6688
▁peaches	-10.6688
▁peppery	-10.6688
▁personal	-10.6688
▁pit	-10.6688
▁plan	-10.6688
▁poo	-10.6688
▁positive	-10.6688
▁pressure	-10.6688
▁rave	-10.6688
▁reduced	-10.6688
▁risk	-10.6688
▁russell	-10.6688
▁sadly	-10.6688
▁seen	-10.6688
▁servings	-10.6688
▁shrimp	-10.6688
▁silky	-10.6688
▁sinful	-10.6688
▁slices	-10.6688
▁smoke	-10.6688
▁smoothie	-10.6688
▁soo	-10.6688
▁soon	-10.6688
▁sounds	-10.6688
▁soups	-10.6688
▁southern	-10.6688
▁sports	-10.6688
▁squares	-10.6688
▁steaks	-10.6688
▁strength	-10.6688
▁success	-10.6688
▁supermarket	-10.6688
▁tablets	-10.6688
▁taster	-10.6688
▁teabags	-10.6688
▁temptations	-10.6688
▁ten	-10.6688
▁term	-10.6688
▁tim	-10.6688
▁tootsie	-10.6688
▁town	-10.6688
▁traveling	-10.6688
▁trip	-10.6688
▁turned	-10.6688
▁twizzlers	-10.6688
▁unless	-10.6688
▁watchers	-10.6688
▁watered	-10.6688
▁wraps	-10.6688
▁write	-10.6688
▁yucky	-10.6688
▁zukes	-10.6688
▁according	-10.7866
▁adding	-10.7866
▁aerogarden	-10.7866
▁afraid	-10.7866
▁amazed	-10.7866
▁anti	-10.7866
▁auto	-10.7866
▁badly	-10.7866
▁bang	-10.7866
▁became	-10.7866
▁blast	-10.7866
▁blech	-10.7866
▁board	-10.7866
▁booster	-10.7866
▁boys	-10.7866
▁bucks	-10.7866
▁bunnies	-10.7866
▁cajun	-10.7866
▁california	-10.7866
▁camper	-10.7866
▁cancer	-10.7866
▁catfood	-10.7866
▁caused	-10.7866
▁celiac	-10.7866
▁celiacs	-10.7866
▁cents	-10.7866
▁chemicals	-10.7866
▁chex	-10.7866
▁choose	-10.7866
▁chowder	-10.7866
▁clam	-10.7866
▁cleaner	-10.7866
▁cleans	-10.7866
▁commercial	-10.7866
▁compare	-10.7866
▁concentrated	-10.7866
▁cooks	-10.7866
▁cow	-10.7866
▁crave	-10.7866
▁delights	-10.7866
▁desert	-10.7866
▁detox	-10.7866
▁diaper	-10.7866
▁dill	-10.7866
▁dispenser	-10.7866
▁distinctive	-10.7866
▁doubled	-10.7866
▁dough	-10.7866
▁ears	-10.7866
▁equal	-10.7866
▁etc	-10.7866
▁everytime	-10.7866
▁exquisite	-10.7866
▁filled	-10.7866
▁floral	-10.7866
▁flower	-10.7866
▁fool	-10.7866
▁fortune	-10.7866
▁fuss	-10.7866
▁gag	-10.7866
▁girls	-10.7866
▁glycemic	-10.7866
▁gooood	-10.7866
▁grew	-10.7866
▁grill	-10.7866
▁happiness	-10.7866
▁hated	-10.7866
▁hidden	-10.7866
▁hide	-10.7866
▁holidays	-10.7866
▁hooray	-10.7866
▁horribly	-10.7866
▁horse	-10.7866
▁houtte	-10.7866
▁hurry	-10.7866
▁iams	-10.7866
▁ii	-10.7866
▁imagine	-10.7866
▁indulgence	-10.7866
▁internet	-10.7866
▁j	-10.7866
▁japan	-10.7866
▁jerkey	-10.7866
▁jimmies	-10.7866
▁jumbo	-10.7866
▁kellogg	-10.7866
▁kidney	-10.7866
▁kitchens	-10.7866
▁lickety	-10.7866
▁lighter	-10.7866
▁living	-10.7866
▁macadamia	-10.7866
▁malt	-10.7866
▁mama	-10.7866
▁marmalade	-10.7866
▁mart	-10.7866
▁meds	-10.7866
▁memory	-10.7866
▁milder	-10.7866
▁mineral	-10.7866
▁mojito	-10.7866
▁mommy	-10.7866
▁multigrain	-10.7866
▁near	-10.7866
▁nor	-10.7866
▁numi	-10.7866
▁onions	-10.7866
▁oreos	-10.7866
▁owner	-10.7866
▁palate	-10.7866
▁palm	-10.7866
▁pan	-10.7866
▁parents	-10.7866
▁partially	-10.7866
▁pastry	-10.7866
▁paul	-10.7866
▁peace	-10.7866
▁pedigree	-10.7866
▁pepsi	-10.7866
▁pies	-10.7866
▁poop	-10.7866
▁portions	-10.7866
▁potent	-10.7866
▁question	-10.7866
▁rainforest	-10.7866
▁rare	-10.7866
▁rasberry	-10.7866
▁rated	-10.7866
▁recalled	-10.7866
▁recieved	-10.7866
▁refreshingly	-10.7866
▁refried	-10.7866
▁response	-10.7866
▁road	-10.7866
▁rotten	-10.7866
▁rules	-10.7866
▁running	-10.7866
▁saturated	-10.7866
▁saving	-10.7866
▁science	-10.7866
▁seafood	-10.7866
▁sharp	-10.7866
▁shirataki	-10.7866
▁shocked	-10.7866
▁show	-10.7866
▁soggy	-10.7866
▁space	-10.7866
▁splendid	-10.7866
▁sprouting	-10.7866
▁stains	-10.7866
▁starch	-10.7866
▁started	-10.7866
▁stink	-10.7866
▁strawberries	-10.7866
▁stuck	-10.7866
▁sugarfree	-10.7866
▁sweets	-10.7866
▁switched	-10.7866
▁tacos	-10.7866
▁tahini	-10.7866
▁tast	-10.7866
▁tastier	-10.7866
▁tested	-10.7866
▁texas	-10.7866
▁tic	-10.7866
▁tip	-10.7866
▁tonic	-10.7866
▁tops	-10.7866
▁trouble	-10.7866
▁trust	-10.7866
▁unsalted	-10.7866
▁vienna	-10.7866
▁view	-10.7866
▁volume	-10.7866
▁waaaay	-10.7866
▁watching	-10.7866
▁weather	-10.7866
▁week	-10.7866
▁weruva	-10.7866
▁west	-10.7866
▁whatever	-10.7866
▁wing	-10.7866
▁women	-10.7866
▁wonders	-10.7866
▁worms	-10.7866
▁yep	-10.7866
▁yorkies	-10.7866
▁yr	-10.7866
▁yumminess	-10.7866
▁adequate	-10.9201
▁african	-10.9201
▁ahoy	-10.9201
▁alcohol	-10.9201
▁already	-10.9201
▁amish	-10.9201
▁answer	-10.9201
▁anyway	-10.9201
▁apricot	-10.9201
▁aspartame	-10.9201
▁ass	-10.9201
▁attractive	-10.9201
▁aweful	-10.9201
▁baker	-10.9201
▁baronet	-10.9201
▁batman	-10.9201
▁believer	-10.9201
▁benefit	-10.9201
▁bentley	-10.9201
▁bet	-10.9201
▁blues	-10.9201
▁boxed	-10.9201
▁boxer	-10.9201
▁breads	-10.9201
▁breed	-10.9201
▁brewing	-10.9201
▁brews	-10.9201
▁brulee	-10.9201
▁buster	-10.9201
▁calcium	-10.9201
▁canada	-10.9201
▁cane	-10.9201
▁caramels	-10.9201
▁carousel	-10.9201
▁carries	-10.9201
▁celtic	-10.9201
▁changing	-10.9201
▁charge	-10.9201
▁citrus	-10.9201
▁city	-10.9201
▁cofee	-10.9201
▁competition	-10.9201
▁complaints	-10.9201
▁complex	-10.9201
▁considering	-10.9201
▁constipation	-10.9201
▁contents	-10.9201
▁couple	-10.9201
▁cracked	-10.9201
▁crown	-10.9201
▁crunchies	-10.9201
▁crystals	-10.9201
▁cube	-10.9201
▁cuisine	-10.9201
▁custard	-10.9201
▁cytomax	-10.9201
▁damage	-10.9201
▁dandruff	-10.9201
▁dandy	-10.9201
▁danish	-10.9201
▁dee	-10.9201
▁definite	-10.9201
▁depending	-10.9201
▁deserves	-10.9201
▁despite	-10.9201
▁digestion	-10.9201
▁digestive	-10.9201
▁disc	-10.9201
▁dissapointing	-10.9201
▁dissolve	-10.9201
▁donuts	-10.9201
▁drank	-10.9201
▁dunkin	-10.9201
▁earthy	-10.9201
▁edge	-10.9201
▁effort	-10.9201
▁emerald	-10.9201
▁enjoys	-10.9201
▁environmentally	-10.9201
▁european	-10.9201
▁explosion	-10.9201
▁fail	-10.9201
▁failure	-10.9201
▁farm	-10.9201
▁favourite	-10.9201
▁feelings	-10.9201
▁fence	-10.9201
▁fenugreek	-10.9201
▁flaxseed	-10.9201
▁flies	-10.9201
▁flu	-10.9201
▁fondant	-10.9201
▁forever	-10.9201
▁forming	-10.9201
▁foul	-10.9201
▁frosted	-10.9201
▁genuine	-10.9201
▁gevalia	-10.9201
▁gfcf	-10.9201
▁ghost	-10.9201
▁giant	-10.9201
▁glazed	-10.9201
▁goat	-10.9201
▁godsend	-10.9201
▁grab	-10.9201
▁grahams	-10.9201
▁grilled	-10.9201
▁grind	-10.9201
▁halo	-10.9201
▁hcg	-10.9201
▁head	-10.9201
▁healing	-10.9201
▁hello	-10.9201
▁hi	-10.9201
▁hike	-10.9201
▁hmmm	-10.9201
▁hoo	-10.9201
▁hormel	-10.9201
▁horseradish	-10.9201
▁hunger	-10.9201
▁hydration	-10.9201
▁icing	-10.9201
▁ick	-10.9201
▁imitation	-10.9201
▁included	-10.9201
▁jacks	-10.9201
▁jeans	-10.9201
▁joint	-10.9201
▁joke	-10.9201
▁killer	-10.9201
▁kills	-10.9201
▁krispies	-10.9201
▁lack	-10.9201
▁lady	-10.9201
▁lattes	-10.9201
▁leaking	-10.9201
▁lemony	-10.9201
▁lentils	-10.9201
▁levels	-10.9201
▁libby	-10.9201
▁lie	-10.9201
▁listened	-10.9201
▁listing	-10.9201
▁lowest	-10.9201
▁lowrey	-10.9201
▁machines	-10.9201
▁maid	-10.9201
▁means	-10.9201
▁mega	-10.9201
▁mg	-10.9201
▁mine	-10.9201
▁missed	-10.9201
▁moisture	-10.9201
▁moth	-10.9201
▁mug	-10.9201
▁nespresso	-10.9201
▁newmans	-10.9201
▁nibs	-10.9201
▁notch	-10.9201
▁notice	-10.9201
▁number	-10.9201
▁nutella	-10.9201
▁nutrients	-10.9201
▁offered	-10.9201
▁omega	-10.9201
▁outside	-10.9201
▁overseas	-10.9201
▁passion	-10.9201
▁paw	-10.9201
▁pellets	-10.9201
▁perfume	-10.9201
▁person	-10.9201
▁petite	-10.9201
▁pickle	-10.9201
▁points	-10.9201
▁popping	-10.9201
▁preferred	-10.9201
▁prince	-10.9201
▁process	-10.9201
▁produce	-10.9201
▁prompt	-10.9201
▁pugs	-10.9201
▁purina	-10.9201
▁purrfectly	-10.9201
▁rancher	-10.9201
▁reaction	-10.9201
▁reasons	-10.9201
▁reflux	-10.9201
▁relatively	-10.9201
▁rescue	-10.9201
▁restaurants	-10.9201
▁return	-10.9201
▁reward	-10.9201
▁roland	-10.9201
▁rope	-10.9201
▁sandwiches	-10.9201
▁santa	-10.9201
▁searching	-10.9201
▁seaweed	-10.9201
▁select	-10.9201
▁sell	-10.9201
▁send	-10.9201
▁served	-10.9201
▁shelled	-10.9201
▁shih	-10.9201
▁shower	-10.9201
▁sickness	-10.9201
▁skinny	-10.9201
▁skip	-10.9201
▁skippy	-10.9201
▁smile	-10.9201
▁soldiers	-10.9201
▁somewhere	-10.9201
▁sooner	-10.9201
▁spam	-10.9201
▁spinach	-10.9201
▁spray	-10.9201
▁starbuck	-10.9201
▁stella	-10.9201
▁stik	-10.9201
▁stinks	-10.9201
▁straight	-10.9201
▁suck	-10.9201
▁tabasco	-10.9201
▁table	-10.9201
▁tangerine	-10.9201
▁tap	-10.9201
▁teeccino	-10.9201
▁terrier	-10.9201
▁thinking	-10.9201
▁toasted	-10.9201
▁toaster	-10.9201
▁tom	-10.9201
▁tons	-10.9201
▁tortillas	-10.9201
▁tradition	-10.9201
▁tray	-10.9201
▁tricky	-10.9201
▁twins	-10.9201
▁udon	-10.9201
▁un	-10.9201
▁unbelievable	-10.9201
▁unsweetened	-10.9201
▁varieties	-10.9201
▁vegetables	-10.9201
▁video	-10.9201
▁vile	-10.9201
▁vines	-10.9201
▁vitality	-10.9201
▁wafer	-10.9201
▁warehouse	-10.9201
▁wasa	-10.9201
▁wasted	-10.9201
▁waxy	-10.9201
▁wedding	-10.9201
▁wierd	-10.9201
▁wise	-10.9201
▁words	-10.9201
▁ww	-10.9201
▁zevia	-10.9201
▁zing	-10.9201
▁zoe	-10.9201
▁ad	-11.0743
▁addicts	-11.0743
▁adore	-11.0743
▁ages	-11.0743
▁ahead	-11.0743
▁alone	-11.0743
▁anchovies	-11.0743
▁antioxidants	-11.0743
▁appears	-11.0743
▁applesauce	-11.0743
▁apricots	-11.0743
▁arizona	-11.0743
▁arrival	-11.0743
▁arsenic	-11.0743
▁arthritis	-11.0743
▁awfully	-11.0743
▁bam	-11.0743
▁bamboo	-11.0743
▁bath	-11.0743
▁beverages	-11.0743
▁biggest	-11.0743
▁biscoff	-11.0743
▁blind	-11.0743
▁brazil	-11.0743
▁breakers	-11.0743
▁breaks	-11.0743
▁brothers	-11.0743
▁buckwheat	-11.0743
▁budget	-11.0743
▁bunny	-11.0743
▁burton	-11.0743
▁caffe	-11.0743
▁camping	-11.0743
▁candied	-11.0743
▁cap	-11.0743
▁car	-11.0743
▁carmel	-11.0743
▁carry	-11.0743
▁carrying	-11.0743
▁certainly	-11.0743
▁cesar	-11.0743
▁charms	-11.0743
▁cheesecake	-11.0743
▁cheez	-11.0743
▁chest	-11.0743
▁chocolately	-11.0743
▁chocolaty	-11.0743
▁chutney	-11.0743
▁cleaning	-11.0743
▁cleanser	-11.0743
▁cocaine	-11.0743
▁cocktail	-11.0743
▁colorful	-11.0743
▁comforting	-11.0743
▁comment	-11.0743
▁comparison	-11.0743
▁competitive	-11.0743
▁confused	-11.0743
▁confusing	-11.0743
▁constant	-11.0743
▁course	-11.0743
▁creek	-11.0743
▁crispbread	-11.0743
▁crumbled	-11.0743
▁cured	-11.0743
▁dang	-11.0743
▁danger	-11.0743
▁dave	-11.0743
▁decadence	-11.0743
▁definately	-11.0743
▁del	-11.0743
▁destroyed	-11.0743
▁died	-11.0743
▁dieting	-11.0743
▁digest	-11.0743
▁dirt	-11.0743
▁disapointment	-11.0743
▁disappoint	-11.0743
▁discontinued	-11.0743
▁discovered	-11.0743
▁dissappointed	-11.0743
▁dude	-11.0743
▁dye	-11.0743
▁ear	-11.0743
▁easter	-11.0743
▁egyptian	-11.0743
▁el	-11.0743
▁ended	-11.0743
▁entirely	-11.0743
▁entree	-11.0743
▁error	-11.0743
▁exceeded	-11.0743
▁execution	-11.0743
▁exercise	-11.0743
▁fails	-11.0743
▁father	-11.0743
▁fatty	-11.0743
▁favors	-11.0743
▁fed	-11.0743
▁fire	-11.0743
▁fizz	-11.0743
▁formulation	-11.0743
▁freezer	-11.0743
▁frog	-11.0743
▁furry	-11.0743
▁fusion	-11.0743
▁future	-11.0743
▁gatorade	-11.0743
▁genius	-11.0743
▁germany	-11.0743
▁gi	-11.0743
▁gingery	-11.0743
▁ginseng	-11.0743
▁glucosamine	-11.0743
▁glucose	-11.0743
▁grandma	-11.0743
▁gumballs	-11.0743
▁gunpowder	-11.0743
▁gusto	-11.0743
▁harsh	-11.0743
▁hawaii	-11.0743
▁healty	-11.0743
▁heartburn	-11.0743
▁herring	-11.0743
▁hexane	-11.0743
▁hextra	-11.0743
▁holds	-11.0743
▁hotter	-11.0743
▁household	-11.0743
▁illegal	-11.0743
▁imho	-11.0743
▁immediately	-11.0743
▁impossible	-11.0743
▁improve	-11.0743
▁interest	-11.0743
▁ireland	-11.0743
▁jamaican	-11.0743
▁jiffy	-11.0743
▁jug	-11.0743
▁kahlua	-11.0743
▁keeper	-11.0743
▁kernels	-11.0743
▁knows	-11.0743
▁lasagna	-11.0743
▁lawry	-11.0743
▁lazy	-11.0743
▁leg	-11.0743
▁lid	-11.0743
▁lifestyle	-11.0743
▁linda	-11.0743
▁listen	-11.0743
▁lite	-11.0743
▁loa	-11.0743
▁london	-11.0743
▁looked	-11.0743
▁lucy	-11.0743
▁luscious	-11.0743
▁macaroni	-11.0743
▁makers	-11.0743
▁mallomars	-11.0743
▁maltese	-11.0743
▁marshmallows	-11.0743
▁mask	-11.0743
▁masterpiece	-11.0743
▁math	-11.0743
▁maypo	-11.0743
▁meet	-11.0743
▁min	-11.0743
▁mon	-11.0743
▁mona	-11.0743
▁monitor	-11.0743
▁monkey	-11.0743
▁moon	-11.0743
▁necta	-11.0743
▁net	-11.0743
▁newtons	-11.0743
▁nine	-11.0743
▁nori	-11.0743
▁nostalgic	-11.0743
▁occasional	-11.0743
▁occasions	-11.0743
▁ocean	-11.0743
▁offer	-11.0743
▁ole	-11.0743
▁opening	-11.0743
▁orleans	-11.0743
▁overweight	-11.0743
▁passable	-11.0743
▁pearls	-11.0743
▁peppercorns	-11.0743
▁pero	-11.0743
▁pez	-11.0743
▁pickled	-11.0743
▁plump	-11.0743
▁pocket	-11.0743
▁poison	-11.0743
▁postum	-11.0743
▁potential	-11.0743
▁practical	-11.0743
▁preference	-11.0743
▁pregnant	-11.0743
▁press	-11.0743
▁prevent	-11.0743
▁princess	-11.0743
▁professional	-11.0743
▁pulp	-11.0743
▁puree	-11.0743
▁rainbow	-11.0743
▁redbull	-11.0743
▁rejected	-11.0743
▁relish	-11.0743
▁reviewer	-11.0743
▁revolution	-11.0743
▁ride	-11.0743
▁risotto	-11.0743
▁river	-11.0743
▁rockstar	-11.0743
▁rolled	-11.0743
▁roses	-11.0743
▁safer	-11.0743
▁sage	-11.0743
▁sahale	-11.0743
▁satisfies	-11.0743
▁saw	-11.0743
▁scam	-11.0743
▁scratch	-11.0743
▁seasoned	-11.0743
▁seasons	-11.0743
▁sencha	-11.0743
▁sense	-11.0743
▁shim	-11.0743
▁shown	-11.0743
▁shows	-11.0743
▁shredded	-11.0743
▁silk	-11.0743
▁similac	-11.0743
▁sinfully	-11.0743
▁sipping	-11.0743
▁sleeping	-11.0743
▁slice	-11.0743
▁smelled	-11.0743
▁smoking	-11.0743
▁snickers	-11.0743
▁spanish	-11.0743
▁speedy	-11.0743
▁spelt	-11.0743
▁spoon	-11.0743
▁station	-11.0743
▁stays	-11.0743
▁stellar	-11.0743
▁stocking	-11.0743
▁students	-11.0743
▁stuffed	-11.0743
▁substitue	-11.0743
▁suitable	-11.0743
▁support	-11.0743
▁surprising	-11.0743
▁tac	-11.0743
▁tamarind	-11.0743
▁tang	-11.0743
▁teabag	-11.0743
▁teenie	-11.0743
▁temperature	-11.0743
▁testing	-11.0743
▁theatre	-11.0743
▁third	-11.0743
▁thirst	-11.0743
▁thru	-11.0743
▁tot	-11.0743
▁tract	-11.0743
▁trader	-11.0743
▁trident	-11.0743
▁truth	-11.0743
▁turmeric	-11.0743
▁tzu	-11.0743
▁uncle	-11.0743
▁undrinkable	-11.0743
▁unexpected	-11.0743
▁unsatisfied	-11.0743
▁unusable	-11.0743
▁updated	-11.0743
▁urinary	-11.0743
▁utterly	-11.0743
▁valentine	-11.0743
▁venison	-11.0743
▁vera	-11.0743
▁verona	-11.0743
▁waiting	-11.0743
▁walkers	-11.0743
▁washington	-11.0743
▁waters	-11.0743
▁ways	-11.0743
▁web	-11.0743
▁wheats	-11.0743
▁whey	-11.0743
▁wilton	-11.0743
▁worthy	-11.0743
▁writing	-11.0743
▁yo	-11.0743
▁yorkshire	-11.0743
▁yummies	-11.0743
▁z	-11.0743
▁act	-11.2566
▁additives	-11.2566
▁adores	-11.2566
▁aerator	-11.2566
▁ago	-11.2566
▁ahmad	-11.2566
▁although	-11.2566
▁aluminum	-11.2566
▁amber	-11.2566
▁among	-11.2566
▁anxiety	-11.2566
▁appletini	-11.2566
▁appreciated	-11.2566
▁approves	-11.2566
▁area	-11.2566
▁arrive	-11.2566
▁artificially	-11.2566
▁asia	-11.2566
▁athletes	-11.2566
▁atomic	-11.2566
▁aunt	-11.2566
▁backpacking	-11.2566
▁barbeque	-11.2566
▁barney	-11.2566
▁batter	-11.2566
▁beauty	-11.2566
▁bff	-11.2566
▁birch	-11.2566
▁birds	-11.2566
▁blackberry	-11.2566
▁bleh	-11.2566
▁blender	-11.2566
▁blossom	-11.2566
▁bogus	-11.2566
▁bonus	-11.2566
▁bourbon	-11.2566
▁breast	-11.2566
▁bug	-11.2566
▁bumble	-11.2566
▁burger	-11.2566
▁burning	-11.2566
▁buttermilk	-11.2566
▁cabinet	-11.2566
▁caff	-11.2566
▁caffine	-11.2566
▁campbell	-11.2566
▁canin	-11.2566
▁canine	-11.2566
▁cappucino	-11.2566
▁cardamom	-11.2566
▁carefully	-11.2566
▁carnation	-11.2566
▁carob	-11.2566
▁carrot	-11.2566
▁catch	-11.2566
▁cause	-11.2566
▁causes	-11.2566
▁cento	-11.2566
▁ch	-11.2566
▁changes	-11.2566
▁charm	-11.2566
▁chebe	-11.2566
▁chick	-11.2566
▁chicory	-11.2566
▁chile	-11.2566
▁choco	-11.2566
▁cholesterol	-11.2566
▁chow	-11.2566
▁clove	-11.2566
▁clumps	-11.2566
▁coarse	-11.2566
▁coast	-11.2566
▁coating	-11.2566
▁comparable	-11.2566
▁compares	-11.2566
▁complement	-11.2566
▁constipated	-11.2566
▁consumption	-11.2566
▁costly	-11.2566
▁counter	-11.2566
▁cuban	-11.2566
▁dale	-11.2566
▁dangerously	-11.2566
▁davidson	-11.2566
▁daybreak	-11.2566
▁deception	-11.2566
▁delighted	-11.2566
▁deluxe	-11.2566
▁dentist	-11.2566
▁depth	-11.2566
▁desired	-11.2566
▁devil	-11.2566
▁dilmah	-11.2566
▁disappeared	-11.2566
▁disease	-11.2566
▁dislike	-11.2566
▁dogfood	-11.2566
▁dollars	-11.2566
▁douwe	-11.2566
▁dreadful	-11.2566
▁dreams	-11.2566
▁drip	-11.2566
▁drive	-11.2566
▁drug	-11.2566
▁due	-11.2566
▁dutch	-11.2566
▁dvd	-11.2566
▁dyes	-11.2566
▁eagle	-11.2566
▁eden	-11.2566
▁edition	-11.2566
▁ehhh	-11.2566
▁ella	-11.2566
▁emptor	-11.2566
▁en	-11.2566
▁entertained	-11.2566
▁entertainment	-11.2566
▁environment	-11.2566
▁erh	-11.2566
▁escapes	-11.2566
▁everybody	-11.2566
▁evo	-11.2566
▁evoo	-11.2566
▁ewww	-11.2566
▁ex	-11.2566
▁excellence	-11.2566
▁exp	-11.2566
▁expires	-11.2566
▁expiry	-11.2566
▁eye	-11.2566
▁eyes	-11.2566
▁factor	-11.2566
▁facts	-11.2566
▁falls	-11.2566
▁famous	-11.2566
▁fault	-11.2566
▁fell	-11.2566
▁fennel	-11.2566
▁finger	-11.2566
▁fingers	-11.2566
▁flawed	-11.2566
▁flimsy	-11.2566
▁flops	-11.2566
▁foil	-11.2566
▁forward	-11.2566
▁fur	-11.2566
▁further	-11.2566
▁gain	-11.2566
▁goodies	-11.2566
▁goods	-11.2566
▁gotten	-11.2566
▁grilling	-11.2566
▁guava	-11.2566
▁gums	-11.2566
▁halves	-11.2566
▁hamburger	-11.2566
▁handle	-11.2566
▁happybellies	-11.2566
▁hassle	-11.2566
▁hazlenut	-11.2566
▁heck	-11.2566
▁hempseed	-11.2566
▁hickory	-11.2566
▁hodgson	-11.2566
▁hold	-11.2566
▁hopes	-11.2566
▁icky	-11.2566
▁inaccurate	-11.2566
▁individually	-11.2566
▁infant	-11.2566
▁infections	-11.2566
▁inner	-11.2566
▁instinct	-11.2566
▁intact	-11.2566
▁intolerant	-11.2566
▁invented	-11.2566
▁invention	-11.2566
▁italiano	-11.2566
▁john	-11.2566
▁jr	-11.2566
▁juices	-11.2566
▁jump	-11.2566
▁kaps	-11.2566
▁keeping	-11.2566
▁kenya	-11.2566
▁kept	-11.2566
▁known	-11.2566
▁labeled	-11.2566
▁lactose	-11.2566
▁lame	-11.2566
▁lemongrass	-11.2566
▁lentil	-11.2566
▁lickin	-11.2566
▁lift	-11.2566
▁lisa	-11.2566
▁lively	-11.2566
▁losing	-11.2566
▁lunches	-11.2566
▁lush	-11.2566
▁macadamias	-11.2566
▁magical	-11.2566
▁mainstream	-11.2566
▁maltodextrin	-11.2566
▁manna	-11.2566
▁manufacturer	-11.2566
▁margaritas	-11.2566
▁mark	-11.2566
▁mars	-11.2566
▁martinis	-11.2566
▁mass	-11.2566
▁master	-11.2566
▁medication	-11.2566
▁medicinal	-11.2566
▁medley	-11.2566
▁merrick	-11.2566
▁metallic	-11.2566
▁mexico	-11.2566
▁mid	-11.2566
▁midnight	-11.2566
▁mills	-11.2566
▁millstone	-11.2566
▁minis	-11.2566
▁minus	-11.2566
▁mocktail	-11.2566
▁moderately	-11.2566
▁moderation	-11.2566
▁moisturizer	-11.2566
▁moisturizing	-11.2566
▁mtn	-11.2566
▁mums	-11.2566
▁namaste	-11.2566
▁names	-11.2566
▁nana	-11.2566
▁nausea	-11.2566
▁necco	-11.2566
▁newton	-11.2566
▁nobody	-11.2566
▁nong	-11.2566
▁nonni	-11.2566
▁noticed	-11.2566
▁nummy	-11.2566
▁obsessed	-11.2566
▁occasion	-11.2566
▁october	-11.2566
▁offering	-11.2566
▁omaha	-11.2566
▁oooh	-11.2566
▁outdated	-11.2566
▁oven	-11.2566
▁overwhelming	-11.2566
▁pacific	-11.2566
▁palatable	-11.2566
▁paleo	-11.2566
▁particularly	-11.2566
▁parties	-11.2566
▁passed	-11.2566
▁path	-11.2566
▁patients	-11.2566
▁peanutbutter	-11.2566
▁pectin	-11.2566
▁peel	-11.2566
▁performance	-11.2566
▁phenomenal	-11.2566
▁pho	-11.2566
▁pictures	-11.2566
▁pita	-11.2566
▁pleases	-11.2566
▁plocky	-11.2566
▁poodle	-11.2566
▁positively	-11.2566
▁print	-11.2566
▁production	-11.2566
▁proof	-11.2566
▁pu	-11.2566
▁reading	-11.2566
▁recommendation	-11.2566
▁recovery	-11.2566
▁reese	-11.2566
▁refill	-11.2566
▁relax	-11.2566
▁required	-11.2566
▁retro	-11.2566
▁ribs	-11.2566
▁rocket	-11.2566
▁rosemary	-11.2566
▁rubber	-11.2566
▁rule	-11.2566
▁runs	-11.2566
▁russian	-11.2566
▁saeco	-11.2566
▁salts	-11.2566
▁sardine	-11.2566
▁sausage	-11.2566
▁scented	-11.2566
▁scotch	-11.2566
▁seattle	-11.2566
▁seemed	-11.2566
▁self	-11.2566
▁sells	-11.2566
▁sensational	-11.2566
▁sensitivity	-11.2566
▁seven	-11.2566
▁shame	-11.2566
▁shaped	-11.2566
▁shepherd	-11.2566
▁shock	-11.2566
▁shockingly	-11.2566
▁site	-11.2566
▁sleepy	-11.2566
▁slimy	-11.2566
▁smashed	-11.2566
▁smoothest	-11.2566
▁snails	-11.2566
▁snapea	-11.2566
▁sodastream	-11.2566
▁spicey	-11.2566
▁sprouted	-11.2566
▁stable	-11.2566
▁starting	-11.2566
▁stated	-11.2566
▁steep	-11.2566
▁stix	-11.2566
▁stopped	-11.2566
▁straws	-11.2566
▁strongest	-11.2566
▁stuffer	-11.2566
▁sturdy	-11.2566
▁substantial	-11.2566
▁successful	-11.2566
▁sucker	-11.2566
▁suggested	-11.2566
▁suisse	-11.2566
▁sunshine	-11.2566
▁supplier	-11.2566
▁suppliment	-11.2566
▁suprisingly	-11.2566
▁swiss	-11.2566
▁taken	-11.2566
▁talking	-11.2566
▁tartar	-11.2566
▁terra	-11.2566
▁therapy	-11.2566
▁thinks	-11.2566
▁tiki	-11.2566
▁timely	-11.2566
▁tins	-11.2566
▁tiramisu	-11.2566
▁tired	-11.2566
▁together	-11.2566
▁ton	-11.2566
▁tortuga	-11.2566
▁toss	-11.2566
▁traverse	-11.2566
▁trick	-11.2566
▁tullys	-11.2566
▁turn	-11.2566
▁twin	-11.2566
▁twists	-11.2566
▁types	-11.2566
▁uh	-11.2566
▁ummm	-11.2566
▁unimpressed	-11.2566
▁unlike	-11.2566
▁ups	-11.2566
▁variable	-11.2566
▁veg	-11.2566
▁vino	-11.2566
▁violet	-11.2566
▁vote	-11.2566
▁waistline	-11.2566
▁walden	-11.2566
▁warmed	-11.2566
▁wary	-11.2566
▁weaker	-11.2566
▁welcome	-11.2566
▁whoa	-11.2566
▁wolf	-11.2566
▁worlds	-11.2566
▁wrapped	-11.2566
▁wtf	-11.2566
▁yikes	-11.2566
▁york	-11.2566
▁yummers	-11.2566
▁yup	-11.2566
▁zesty	-11.2566
▁zinger	-11.2566
▁acids	-11.4797
▁across	-11.4797
▁active	-11.4797
▁addictively	-11.4797
▁adorable	-11.4797
▁advertise	-11.4797
▁advertized	-11.4797
▁against	-11.4797
▁al	-11.4797
▁alaskan	-11.4797
▁alfredo	-11.4797
▁alive	-11.4797
▁allergen	-11.4797
▁allergens	-11.4797
▁allows	-11.4797
▁amaretto	-11.4797
▁ambrosia	-11.4797
▁amy	-11.4797
▁antioxidant	-11.4797
▁apart	-11.4797
▁appear	-11.4797
▁appearance	-11.4797
▁appetite	-11.4797
▁au	-11.4797
▁ay	-11.4797
▁bagels	-11.4797
▁bai	-11.4797
▁band	-11.4797
▁banged	-11.4797
▁barbecue	-11.4797
▁barilla	-11.4797
▁bark	-11.4797
▁barry	-11.4797
▁batches	-11.4797
▁bedtime	-11.4797
▁bees	-11.4797
▁begin	-11.4797
▁below	-11.4797
▁bichon	-11.4797
▁bill	-11.4797
▁bing	-11.4797
▁bird	-11.4797
▁bisquick	-11.4797
▁bisto	-11.4797
▁blk	-11.4797
▁blonde	-11.4797
▁blooming	-11.4797
▁blow	-11.4797
▁blows	-11.4797
▁bolder	-11.4797
▁bonito	-11.4797
▁booty	-11.4797
▁born	-11.4797
▁bouillon	-11.4797
▁bow	-11.4797
▁breaking	-11.4797
▁breathe	-11.4797
▁brits	-11.4797
▁brought	-11.4797
▁bubbles	-11.4797
▁bun	-11.4797
▁burgers	-11.4797
▁caf	-11.4797
▁calling	-11.4797
▁camp	-11.4797
▁campfire	-11.4797
▁canola	-11.4797
▁card	-11.4797
▁carnivores	-11.4797
▁carrots	-11.4797
▁cayenne	-11.4797
▁celery	-11.4797
▁center	-11.4797
▁challenging	-11.4797
▁charges	-11.4797
▁charlie	-11.4797
▁cheapest	-11.4797
▁cheated	-11.4797
▁cheetos	-11.4797
▁chewey	-11.4797
▁choclate	-11.4797
▁chocoholics	-11.4797
▁cholula	-11.4797
▁cigarettes	-11.4797
▁clay	-11.4797
▁clever	-11.4797
▁concerned	-11.4797
▁condiment	-11.4797
▁cone	-11.4797
▁continues	-11.4797
▁cooker	-11.4797
▁coombs	-11.4797
▁correctly	-11.4797
▁crash	-11.4797
▁creamers	-11.4797
▁creative	-11.4797
▁croutons	-11.4797
▁crumble	-11.4797
▁crumbles	-11.4797
▁cry	-11.4797
▁cupcake	-11.4797
▁dachshund	-11.4797
▁dance	-11.4797
▁daughters	-11.4797
▁deals	-11.4797
▁decaff	-11.4797
▁december	-11.4797
▁decision	-11.4797
▁decorating	-11.4797
▁decoration	-11.4797
▁degree	-11.4797
▁dehydrated	-11.4797
▁delicacy	-11.4797
▁deliver	-11.4797
▁dent	-11.4797
▁deodorant	-11.4797
▁deserve	-11.4797
▁devour	-11.4797
▁dha	-11.4797
▁diego	-11.4797
▁dietary	-11.4797
▁dioxide	-11.4797
▁disapointing	-11.4797
▁disappoints	-11.4797
▁discovery	-11.4797
▁disgustingly	-11.4797
▁doubt	-11.4797
▁downright	-11.4797
▁dragon	-11.4797
▁dreamfields	-11.4797
▁durkee	-11.4797
▁dusty	-11.4797
▁eacute	-11.4797
▁east	-11.4797
▁eboost	-11.4797
▁eczema	-11.4797
▁eggnog	-11.4797
▁egrave	-11.4797
▁electrolytes	-11.4797
▁emergency	-11.4797
▁ener	-11.4797
▁enfamil	-11.4797
▁enzymatic	-11.4797
▁er	-11.4797
▁ese	-11.4797
▁esp	-11.4797
▁essentia	-11.4797
▁essentials	-11.4797
▁europe	-11.4797
▁evaporated	-11.4797
▁evil	-11.4797
▁exclusively	-11.4797
▁excuse	-11.4797
▁experiment	-11.4797
▁extraordinary	-11.4797
▁ez	-11.4797
▁fab	-11.4797
▁factory	-11.4797
▁faint	-11.4797
▁fats	-11.4797
▁fattening	-11.4797
▁faulty	-11.4797
▁fe	-11.4797
▁felines	-11.4797
▁figured	-11.4797
▁fillers	-11.4797
▁filters	-11.4797
▁fireballs	-11.4797
▁fl	-11.4797
▁flaky	-11.4797
▁flavorings	-11.4797
▁flaw	-11.4797
▁florida	-11.4797
▁forgot	-11.4797
▁frappe	-11.4797
▁freshly	-11.4797
▁front	-11.4797
▁fry	-11.4797
▁frying	-11.4797
▁fully	-11.4797
▁functional	-11.4797
▁gadget	-11.4797
▁galore	-11.4797
▁garbanzo	-11.4797
▁gassy	-11.4797
▁gels	-11.4797
▁generous	-11.4797
▁germination	-11.4797
▁gimmick	-11.4797
▁given	-11.4797
▁gm	-11.4797
▁godiva	-11.4797
▁goodlife	-11.4797
▁gormet	-11.4797
▁grace	-11.4797
▁grail	-11.4797
▁grainy	-11.4797
▁granddaughter	-11.4797
▁gray	-11.4797
▁grinder	-11.4797
▁gym	-11.4797
▁hanover	-11.4797
▁happens	-11.4797
▁happier	-11.4797
▁happily	-11.4797
▁harmony	-11.4797
▁harvest	-11.4797
▁heard	-11.4797
▁hill	-11.4797
▁hoisin	-11.4797
▁honestly	-11.4797
▁honeybush	-11.4797
▁hound	-11.4797
▁humans	-11.4797
▁ideas	-11.4797
▁identity	-11.4797
▁iffy	-11.4797
▁imported	-11.4797
▁increased	-11.4797
▁individual	-11.4797
▁intended	-11.4797
▁iron	-11.4797
▁issimo	-11.4797
▁itchy	-11.4797
▁jarred	-11.4797
▁jel	-11.4797
▁jittery	-11.4797
▁johnny	-11.4797
▁july	-11.4797
▁justin	-11.4797
▁kat	-11.4797
▁keebler	-11.4797
▁kelloggs	-11.4797
▁kicking	-11.4797
▁kiss	-11.4797
▁kups	-11.4797
▁law	-11.4797
▁lays	-11.4797
▁leak	-11.4797
▁leaked	-11.4797
▁learn	-11.4797
▁lego	-11.4797
▁lemons	-11.4797
▁licking	-11.4797
▁lies	-11.4797
▁lifetime	-11.4797
▁likely	-11.4797
▁lips	-11.4797
▁liquor	-11.4797
▁liquorice	-11.4797
▁lived	-11.4797
▁loaf	-11.4797
▁loma	-11.4797
▁loud	-11.4797
▁lundberg	-11.4797
▁luxury	-11.4797
▁luzianne	-11.4797
▁lychee	-11.4797
▁ma	-11.4797
▁maggi	-11.4797
▁magnificent	-11.4797
▁mahogany	-11.4797
▁mail	-11.4797
▁maine	-11.4797
▁manageable	-11.4797
▁mangoes	-11.4797
▁manufacturing	-11.4797
▁march	-11.4797
▁marshmallow	-11.4797
▁marvelous	-11.4797
▁mauna	-11.4797
▁mccoy	-11.4797
▁meant	-11.4797
▁meatballs	-11.4797
▁meatless	-11.4797
▁meets	-11.4797
▁merchant	-11.4797
▁met	-11.4797
▁metal	-11.4797
▁method	-11.4797
▁milo	-11.4797
▁misrepresented	-11.4797
▁mixing	-11.4797
▁mochas	-11.4797
▁modifications	-11.4797
▁mood	-11.4797
▁moths	-11.4797
▁mud	-11.4797
▁munchies	-11.4797
▁muscle	-11.4797
▁music	-11.4797
▁necessary	-11.4797
▁needing	-11.4797
▁nescafe	-11.4797
▁neutral	-11.4797
▁nirvana	-11.4797
▁notes	-11.4797
▁nourishing	-11.4797
▁nuggets	-11.4797
▁nutricious	-11.4797
▁nutritionally	-11.4797
▁obviously	-11.4797
▁often	-11.4797
▁om	-11.4797
▁oops	-11.4797
▁oranges	-11.4797
▁oregon	-11.4797
▁oriental	-11.4797
▁originals	-11.4797
▁oskri	-11.4797
▁ouch	-11.4797
▁outdoor	-11.4797
▁papaya	-11.4797
▁par	-11.4797
▁paradise	-11.4797
▁particular	-11.4797
▁pastries	-11.4797
▁pate	-11.4797
▁persian	-11.4797
▁pest	-11.4797
▁picked	-11.4797
▁pigs	-11.4797
▁pina	-11.4797
▁pinnacle	-11.4797
▁placebo	-11.4797
▁play	-11.4797
▁plum	-11.4797
▁pocky	-11.4797
▁poppers	-11.4797
▁porridge	-11.4797
▁potentially	-11.4797
▁pots	-11.4797
▁powering	-11.4797
▁practically	-11.4797
▁praise	-11.4797
▁pregnancy	-11.4797
▁prepared	-11.4797
▁primal	-11.4797
▁pringles	-11.4797
▁produced	-11.4797
▁proper	-11.4797
▁protection	-11.4797
▁proven	-11.4797
▁provide	-11.4797
▁provided	-11.4797
▁pucker	-11.4797
▁puffed	-11.4797
▁pull	-11.4797
▁purchasing	-11.4797
▁puts	-11.4797
▁q	-11.4797
▁quencher	-11.4797
▁rabbit	-11.4797
▁rabbits	-11.4797
▁rain	-11.4797
▁range	-11.4797
▁rash	-11.4797
▁reach	-11.4797
▁recently	-11.4797
▁recommends	-11.4797
▁reduce	-11.4797
▁refreshment	-11.4797
▁refrigerated	-11.4797
▁refrigeration	-11.4797
▁refused	-11.4797
▁rejoice	-11.4797
▁relaxation	-11.4797
▁remove	-11.4797
▁reorder	-11.4797
▁replace	-11.4797
▁report	-11.4797
▁repulsive	-11.4797
▁request	-11.4797
▁resist	-11.4797
▁restricted	-11.4797
▁retriever	-11.4797
▁reviewing	-11.4797
▁revolting	-11.4797
▁richer	-11.4797
▁richest	-11.4797
▁ring	-11.4797
▁rise	-11.4797
▁robbery	-11.4797
▁rocky	-11.4797
▁rootbeer	-11.4797
▁royce	-11.4797
▁ruff	-11.4797
▁rush	-11.4797
▁saccharin	-11.4797
▁saltines	-11.4797
▁sand	-11.4797
▁sassy	-11.4797
▁scary	-11.4797
▁schnauzer	-11.4797
▁scottish	-11.4797
▁scout	-11.4797
▁seasonal	-11.4797
▁sellers	-11.4797
▁sending	-11.4797
▁senna	-11.4797
▁serves	-11.4797
▁severe	-11.4797
▁shaker	-11.4797
▁share	-11.4797
▁sheltie	-11.4797
▁shiny	-11.4797
▁shipper	-11.4797
▁shocking	-11.4797
▁shopper	-11.4797
▁shrinking	-11.4797
▁siamese	-11.4797
▁signature	-11.4797
▁singles	-11.4797
▁skeptical	-11.4797
▁skimpy	-11.4797
▁slap	-11.4797
▁sleepytime	-11.4797
▁sloppy	-11.4797
▁smoker	-11.4797
▁smokin	-11.4797
▁snacker	-11.4797
▁snapple	-11.4797
▁sneaky	-11.4797
▁sno	-11.4797
▁snow	-11.4797
▁snyder	-11.4797
▁softer	-11.4797
▁sojos	-11.4797
▁sourced	-11.4797
▁sparingly	-11.4797
▁sparkly	-11.4797
▁spend	-11.4797
▁spent	-11.4797
▁sport	-11.4797
▁sprinkle	-11.4797
▁spry	-11.4797
▁stacks	-11.4797
▁standing	-11.4797
▁state	-11.4797
▁states	-11.4797
▁strongly	-11.4797
▁stupid	-11.4797
▁substance	-11.4797
▁substitutes	-11.4797
▁succulent	-11.4797
▁sufferers	-11.4797
▁sumatran	-11.4797
▁summertime	-11.4797
▁supermarkets	-11.4797
▁swears	-11.4797
▁sweeeeet	-11.4797
▁sweeten	-11.4797
▁sweetleaf	-11.4797
▁switching	-11.4797
▁syrups	-11.4797
▁tab	-11.4797
▁tails	-11.4797
▁taking	-11.4797
▁teeny	-11.4797
▁tequila	-11.4797
▁terribly	-11.4797
▁textured	-11.4797
▁thailand	-11.4797
▁thankfully	-11.4797
▁thicker	-11.4797
▁thirsty	-11.4797
▁thus	-11.4797
▁till	-11.4797
▁tongue	-11.4797
▁toothpicks	-11.4797
▁torn	-11.4797
▁toys	-11.4797
▁traps	-11.4797
▁trash	-11.4797
▁tripe	-11.4797
▁triple	-11.4797
▁trips	-11.4797
▁truvia	-11.4797
▁tubs	-11.4797
▁tug	-11.4797
▁tum	-11.4797
▁turtle	-11.4797
▁tv	-11.4797
▁twisted	-11.4797
▁udi	-11.4797
▁uk	-11.4797
▁ummmm	-11.4797
▁unacceptable	-11.4797
▁unappealing	-11.4797
▁unbeatable	-11.4797
▁understand	-11.4797
▁universe	-11.4797
▁unnecessary	-11.4797
▁unsure	-11.4797
▁upon	-11.4797
▁upper	-11.4797
▁valerian	-11.4797
▁vary	-11.4797
▁vegetarians	-11.4797
▁velveeta	-11.4797
▁vibrant	-11.4797
▁vomiting	-11.4797
▁waggin	-11.4797
▁wakes	-11.4797
▁wal	-11.4797
▁walk	-11.4797
▁wasteful	-11.4797
▁watcher	-11.4797
▁watering	-11.4797
▁watkins	-11.4797
▁westie	-11.4797
▁whatsoever	-11.4797
▁wheels	-11.4797
▁whip	-11.4797
▁wimpy	-11.4797
▁wings	-11.4797
▁winning	-11.4797
▁woman	-11.4797
▁woo	-11.4797
▁woody	-11.4797
▁worries	-11.4797
▁worthless	-11.4797
▁yea	-11.4797
▁yi	-11.4797
▁yummmmmy	-11.4797
▁yummmy	-11.4797
▁yums	-11.4797
▁zen	-11.4797
▁zip	-11.4797
▁absinthe	-11.7674
▁absurd	-11.7674
▁access	-11.7674
▁accurate	-11.7674
▁ache	-11.7674
▁aches	-11.7674
▁action	-11.7674
▁adagio	-11.7674
▁admit	-11.7674
▁adventure	-11.7674
▁aesthetically	-11.7674
▁aged	-11.7674
▁agressive	-11.7674
▁alba	-11.7674
▁albacore	-11.7674
▁alessi	-11.7674
▁alternate	-11.7674
▁ammonia	-11.7674
▁ancient	-11.7674
▁angry	-11.7674
▁anise	-11.7674
▁anna	-11.7674
▁annoying	-11.7674
▁anticipated	-11.7674
▁antler	-11.7674
▁ants	-11.7674
▁appealing	-11.7674
▁appetizing	-11.7674
▁apply	-11.7674
▁appreciate	-11.7674
▁aquired	-11.7674
▁areas	-11.7674
▁arf	-11.7674
▁aromat	-11.7674
▁arrives	-11.7674
▁ashamed	-11.7674
▁aside	-11.7674
▁asks	-11.7674
▁assam	-11.7674
▁atkins	-11.7674
▁autistic	-11.7674
▁automatic	-11.7674
▁award	-11.7674
▁awesomeness	-11.7674
▁bahlsen	-11.7674
▁bakers	-11.7674
▁bakery	-11.7674
▁baklava	-11.7674
▁barn	-11.7674
▁basically	-11.7674
▁bassett	-11.7674
▁beagle	-11.7674
▁bee	-11.7674
▁beefy	-11.7674
▁behind	-11.7674
▁belief	-11.7674
▁beneficial	-11.7674
▁beneful	-11.7674
▁bergamont	-11.7674
▁berrylicious	-11.7674
▁bertie	-11.7674
▁bettlejuice	-11.7674
▁beurre	-11.7674
▁bike	-11.7674
▁bil	-11.7674
▁bills	-11.7674
▁bio	-11.7674
▁bisque	-11.7674
▁bj	-11.7674
▁blackcurrant	-11.7674
▁blackstrap	-11.7674
▁blame	-11.7674
▁blending	-11.7674
▁blessing	-11.7674
▁block	-11.7674
▁blu	-11.7674
▁boat	-11.7674
▁boba	-11.7674
▁boles	-11.7674
▁bon	-11.7674
▁bonanza	-11.7674
▁bonkers	-11.7674
▁bonzai	-11.7674
▁booda	-11.7674
▁border	-11.7674
▁boss	-11.7674
▁bowel	-11.7674
▁boyfriend	-11.7674
▁brag	-11.7674
▁bragg	-11.7674
▁brainer	-11.7674
▁bravo	-11.7674
▁breadsticks	-11.7674
▁breaker	-11.7674
▁breastfeeding	-11.7674
▁britain	-11.7674
▁british	-11.7674
▁btn	-11.7674
▁bubbly	-11.7674
▁bueno	-11.7674
▁building	-11.7674
▁bulbs	-11.7674
▁bulldog	-11.7674
▁bulldogs	-11.7674
▁bummed	-11.7674
▁bunches	-11.7674
▁bundle	-11.7674
▁burned	-11.7674
▁bursting	-11.7674
▁bush	-11.7674
▁butler	-11.7674
▁butterscotch	-11.7674
▁ca	-11.7674
▁calamari	-11.7674
▁canceling	-11.7674
▁canes	-11.7674
▁canister	-11.7674
▁captain	-11.7674
▁carbers	-11.7674
▁cares	-11.7674
▁caribbean	-11.7674
▁carne	-11.7674
▁category	-11.7674
▁catkins	-11.7674
▁caught	-11.7674
▁causing	-11.7674
▁cent	-11.7674
▁certain	-11.7674
▁certo	-11.7674
▁chalk	-11.7674
▁champions	-11.7674
▁checked	-11.7674
▁checkups	-11.7674
▁chestnuts	-11.7674
▁chewys	-11.7674
▁chik	-11.7674
▁chill	-11.7674
▁chilled	-11.7674
▁chilli	-11.7674
▁chocalate	-11.7674
▁chupa	-11.7674
▁chups	-11.7674
▁cincinnati	-11.7674
▁claim	-11.7674
▁cleared	-11.7674
▁clearly	-11.7674
▁clementine	-11.7674
▁closet	-11.7674
▁clover	-11.7674
▁cocao	-11.7674
▁cocktails	-11.7674
▁coconutty	-11.7674
▁coins	-11.7674
▁colada	-11.7674
▁colds	-11.7674
▁comme	-11.7674
▁compact	-11.7674
▁companion	-11.7674
▁compatible	-11.7674
▁compleats	-11.7674
▁compromise	-11.7674
▁con	-11.7674
▁confection	-11.7674
▁confessions	-11.7674
▁conflicted	-11.7674
▁cons	-11.7674
▁conscience	-11.7674
▁consider	-11.7674
▁considered	-11.7674
▁controlled	-11.7674
▁conveniently	-11.7674
▁converted	-11.7674
▁convienent	-11.7674
▁cornflakes	-11.7674
▁cornmeal	-11.7674
▁cornnuts	-11.7674
▁cosmic	-11.7674
▁cramp	-11.7674
▁create	-11.7674
▁creation	-11.7674
▁crepes	-11.7674
▁crisis	-11.7674
▁critical	-11.7674
▁crock	-11.7674
▁crows	-11.7674
▁crunchiness	-11.7674
▁crusts	-11.7674
▁ct	-11.7674
▁cupboard	-11.7674
▁curbing	-11.7674
▁current	-11.7674
▁cutting	-11.7674
▁cycling	-11.7674
▁dab	-11.7674
▁dachshunds	-11.7674
▁dancing	-11.7674
▁dane	-11.7674
▁darker	-11.7674
▁darned	-11.7674
▁dash	-11.7674
▁dashi	-11.7674
▁david	-11.7674
▁davinci	-11.7674
▁deadly	-11.7674
▁deadman	-11.7674
▁decades	-11.7674
▁decafe	-11.7674
▁decay	-11.7674
▁decide	-11.7674
▁deeeeelicious	-11.7674
▁deer	-11.7674
▁deja	-11.7674
▁delacre	-11.7674
▁delicately	-11.7674
▁demand	-11.7674
▁dentyne	-11.7674
▁dependable	-11.7674
▁deployed	-11.7674
▁descriptions	-11.7674
▁designed	-11.7674
▁destroy	-11.7674
▁details	-11.7674
▁developed	-11.7674
▁devious	-11.7674
▁diabetes	-11.7674
▁diced	-11.7674
▁dieter	-11.7674
▁dingos	-11.7674
▁dips	-11.7674
▁directed	-11.7674
▁disappear	-11.7674
▁discolored	-11.7674
▁discriminating	-11.7674
▁disguise	-11.7674
▁disks	-11.7674
▁dispense	-11.7674
▁disposakups	-11.7674
▁dissatisfied	-11.7674
▁distinct	-11.7674
▁ditch	-11.7674
▁diy	-11.7674
▁doo	-11.7674
▁doomhammer	-11.7674
▁dorm	-11.7674
▁doubleshot	-11.7674
▁drawbacks	-11.7674
▁dressings	-11.7674
▁dukan	-11.7674
▁dumb	-11.7674
▁eagerly	-11.7674
▁earthborn	-11.7674
▁ease	-11.7674
▁eastern	-11.7674
▁eatin	-11.7674
▁economic	-11.7674
▁edema	-11.7674
▁egberts	-11.7674
▁elderberry	-11.7674
▁electric	-11.7674
▁emailed	-11.7674
▁emergencies	-11.7674
▁emerils	-11.7674
▁enchilada	-11.7674
▁energizer	-11.7674
▁engaging	-11.7674
▁equivalent	-11.7674
▁erythritol	-11.7674
▁escape	-11.7674
▁eww	-11.7674
▁excessive	-11.7674
▁exciting	-11.7674
▁exelent	-11.7674
▁expense	-11.7674
▁explosive	-11.7674
▁facial	-11.7674
▁failed	-11.7674
▁fajitas	-11.7674
▁fanatic	-11.7674
▁fashion	-11.7674
▁faves	-11.7674
▁favortie	-11.7674
▁fda	-11.7674
▁feet	-11.7674
▁fido	-11.7674
▁fiery	-11.7674
▁fight	-11.7674
▁figure	-11.7674
▁filet	-11.7674
▁fill	-11.7674
▁fillings	-11.7674
▁finishing	-11.7674
▁fishes	-11.7674
▁fixed	-11.7674
▁flashes	-11.7674
▁flavoured	-11.7674
▁flavours	-11.7674
▁fluff	-11.7674
▁fluid	-11.7674
▁fond	-11.7674
▁foot	-11.7674
▁former	-11.7674
▁forms	-11.7674
▁fountain	-11.7674
▁fragile	-11.7674
▁frank	-11.7674
▁fraud	-11.7674
▁freak	-11.7674
▁frequent	-11.7674
▁fromm	-11.7674
▁frothy	-11.7674
▁fruitcake	-11.7674
▁function	-11.7674
▁fussiest	-11.7674
▁gallon	-11.7674
▁gallons	-11.7674
▁ganoderma	-11.7674
▁garam	-11.7674
▁gem	-11.7674
▁generic	-11.7674
▁ghiradelli	-11.7674
▁gimborn	-11.7674
▁gin	-11.7674
▁gins	-11.7674
▁glasses	-11.7674
▁glue	-11.7674
▁glutenfree	-11.7674
▁gnats	-11.7674
▁gnocchi	-11.7674
▁gobble	-11.7674
▁golean	-11.7674
▁goooood	-11.7674
▁gosh	-11.7674
▁gouging	-11.7674
▁gout	-11.7674
▁grandkids	-11.7674
▁grandpa	-11.7674
▁grandson	-11.7674
▁granulated	-11.7674
▁granules	-11.7674
▁grated	-11.7674
▁gratification	-11.7674
▁greatly	-11.7674
▁greatness	-11.7674
▁greenbox	-11.7674
▁greyhounds	-11.7674
▁grocer	-11.7674
▁groceries	-11.7674
▁growth	-11.7674
▁grreat	-11.7674
▁gsd	-11.7674
▁hairballs	-11.7674
▁halva	-11.7674
▁halvah	-11.7674
▁handful	-11.7674
▁handling	-11.7674
▁happen	-11.7674
▁harder	-11.7674
▁harm	-11.7674
▁harry	-11.7674
▁hash	-11.7674
▁headaches	-11.7674
▁heads	-11.7674
▁hearts	-11.7674
▁henry	-11.7674
▁heroin	-11.7674
▁hides	-11.7674
▁hm	-11.7674
▁holes	-11.7674
▁hollow	-11.7674
▁hopefully	-11.7674
▁horrendous	-11.7674
▁hotdogs	-11.7674
▁hull	-11.7674
▁hunk	-11.7674
▁hurt	-11.7674
▁hurts	-11.7674
▁husbands	-11.7674
▁husky	-11.7674
▁hydrates	-11.7674
▁ibs	-11.7674
▁ignore	-11.7674
▁imagined	-11.7674
▁inconvenient	-11.7674
▁increases	-11.7674
▁indistinguishable	-11.7674
▁infants	-11.7674
▁inflammatory	-11.7674
▁infused	-11.7674
▁initially	-11.7674
▁innovative	-11.7674
▁intake	-11.7674
▁irresistible	-11.7674
▁ish	-11.7674
▁israeli	-11.7674
▁itch	-11.7674
▁jac	-11.7674
▁jams	-11.7674
▁jaw	-11.7674
▁jawbreakers	-11.7674
▁jazz	-11.7674
▁jazzed	-11.7674
▁jeff	-11.7674
▁jerry	-11.7674
▁jitters	-11.7674
▁joints	-11.7674
▁jolt	-11.7674
▁judy	-11.7674
▁juicer	-11.7674
▁jungle	-11.7674
▁junkie	-11.7674
▁junkies	-11.7674
▁junky	-11.7674
▁kalamata	-11.7674
▁keen	-11.7674
▁kellogs	-11.7674
▁kernals	-11.7674
▁kickin	-11.7674
▁kikkoman	-11.7674
▁killing	-11.7674
▁kinds	-11.7674
▁kipper	-11.7674
▁kippers	-11.7674
▁kits	-11.7674
▁knees	-11.7674
▁kombucha	-11.7674
▁krave	-11.7674
▁kup	-11.7674
▁labs	-11.7674
▁laffy	-11.7674
▁larry	-11.7674
▁latest	-11.7674
▁laughs	-11.7674
▁laxative	-11.7674
▁lead	-11.7674
▁leafy	-11.7674
▁learned	-11.7674
▁lebanese	-11.7674
▁lindor	-11.7674
▁liquids	-11.7674
▁lock	-11.7674
▁lollipop	-11.7674
▁loses	-11.7674
▁lotion	-11.7674
▁lotsa	-11.7674
▁lotta	-11.7674
▁lovin	-11.7674
▁luvs	-11.7674
▁maddie	-11.7674
▁madhava	-11.7674
▁madhouse	-11.7674
▁maggie	-11.7674
▁maggots	-11.7674
▁mangosteen	-11.7674
▁margaret	-11.7674
▁markers	-11.7674
▁martini	-11.7674
▁matters	-11.7674
▁maui	-11.7674
▁max	-11.7674
▁maya	-11.7674
▁mccormick	-11.7674
▁mcdougall	-11.7674
▁meats	-11.7674
▁meaty	-11.7674
▁med	-11.7674
▁member	-11.7674
▁menadione	-11.7674
▁mention	-11.7674
▁merchandise	-11.7674
▁merely	-11.7674
▁merlot	-11.7674
▁merry	-11.7674
▁mesquite	-11.7674
▁mi	-11.7674
▁migraine	-11.7674
▁mike	-11.7674
▁mikey	-11.7674
▁millet	-11.7674
▁million	-11.7674
▁minerals	-11.7674
▁minimal	-11.7674
▁minor	-11.7674
▁misses	-11.7674
▁ml	-11.7674
▁mmmmmmm	-11.7674
▁mmmmmmmmm	-11.7674
▁mmmmmmmmmmm	-11.7674
▁mo	-11.7674
▁mocafe	-11.7674
▁mojitos	-11.7674
▁moley	-11.7674
▁molly	-11.7674
▁moment	-11.7674
▁monin	-11.7674
▁monster	-11.7674
▁monte	-11.7674
▁mores	-11.7674
▁moroccan	-11.7674
▁morsels	-11.7674
▁motion	-11.7674
▁motts	-11.7674
▁mounds	-11.7674
▁munch	-11.7674
▁murray	-11.7674
▁mush	-11.7674
▁mutt	-11.7674
▁mystic	-11.7674
▁nabisco	-11.7674
▁natures	-11.7674
▁neat	-11.7674
▁necessity	-11.7674
▁neither	-11.7674
▁neuro	-11.7674
▁newbie	-11.7674
▁nightmare	-11.7674
▁nights	-11.7674
▁noh	-11.7674
▁nonetheless	-11.7674
▁nonfat	-11.7674
▁north	-11.7674
▁noticeable	-11.7674
▁nougat	-11.7674
▁nourishment	-11.7674
▁novelty	-11.7674
▁novice	-11.7674
▁nursing	-11.7674
▁nutmeg	-11.7674
▁nutrient	-11.7674
▁nutro	-11.7674
▁nylabones	-11.7674
▁oak	-11.7674
▁occassion	-11.7674
▁octopus	-11.7674
▁ohhhhh	-11.7674
▁oishii	-11.7674
▁olds	-11.7674
▁orangina	-11.7674
▁orbit	-11.7674
▁orders	-11.7674
▁ours	-11.7674
▁outrageously	-11.7674
▁ovaltine	-11.7674
▁overload	-11.7674
▁overrated	-11.7674
▁owners	-11.7674
▁pad	-11.7674
▁page	-11.7674
▁paid	-11.7674
▁pals	-11.7674
▁pamelas	-11.7674
▁panko	-11.7674
▁papillon	-11.7674
▁paragon	-11.7674
▁park	-11.7674
▁parts	-11.7674
▁pastas	-11.7674
▁pasty	-11.7674
▁pcs	-11.7674
▁peanutty	-11.7674
▁pearl	-11.7674
▁pecans	-11.7674
▁peppercorn	-11.7674
▁pepperidge	-11.7674
▁pepperoni	-11.7674
▁perfumy	-11.7674
▁pests	-11.7674
▁peter	-11.7674
▁petit	-11.7674
▁picker	-11.7674
▁pietro	-11.7674
▁pitbull	-11.7674
▁pitcher	-11.7674
▁pits	-11.7674
▁pk	-11.7674
▁placed	-11.7674
▁plate	-11.7674
▁pms	-11.7674
▁pointless	-11.7674
▁poke	-11.7674
▁policy	-11.7674
▁popchip	-11.7674
▁poppy	-11.7674
▁poptarts	-11.7674
▁porcini	-11.7674
▁port	-11.7674
▁postage	-11.7674
▁potatoe	-11.7674
▁potter	-11.7674
▁potty	-11.7674
▁pow	-11.7674
▁powders	-11.7674
▁powdery	-11.7674
▁precious	-11.7674
▁prefect	-11.7674
▁prefers	-11.7674
▁premier	-11.7674
▁prep	-11.7674
▁preserved	-11.7674
▁prestige	-11.7674
▁previous	-11.7674
▁prickly	-11.7674
▁prima	-11.7674
▁prison	-11.7674
▁prize	-11.7674
▁produces	-11.7674
▁profile	-11.7674
▁program	-11.7674
▁promises	-11.7674
▁promotes	-11.7674
▁proud	-11.7674
▁pub	-11.7674
▁pulls	-11.7674
▁pumkin	-11.7674
▁pumps	-11.7674
▁purchases	-11.7674
▁purrfect	-11.7674
▁putting	-11.7674
▁puzzle	-11.7674
▁quart	-11.7674
▁queen	-11.7674
▁quest	-11.7674
▁raised	-11.7674
▁raspberries	-11.7674
▁ratio	-11.7674
▁ravioli	-11.7674
▁ray	-11.7674
▁recipient	-11.7674
▁recycle	-11.7674
▁refills	-11.7674
▁refuses	-11.7674
▁regularly	-11.7674
▁remedy	-11.7674
▁removed	-11.7674
▁repeatedly	-11.7674
▁replaced	-11.7674
▁replaces	-11.7674
▁requires	-11.7674
▁rethink	-11.7674
▁returning	-11.7674
▁returns	-11.7674
▁reuse	-11.7674
▁revelation	-11.7674
▁reviewed	-11.7674
▁ribena	-11.7674
▁riceworks	-11.7674
▁riffic	-11.7674
▁rishi	-11.7674
▁roe	-11.7674
▁romaine	-11.7674
▁rotation	-11.7674
▁rough	-11.7674
▁routine	-11.7674
▁rubbery	-11.7674
▁rudy	-11.7674
▁ruins	-11.7674
▁runts	-11.7674
▁sams	-11.7674
▁sanity	-11.7674
▁saturday	-11.7674
▁savers	-11.7674
▁savior	-11.7674
▁scare	-11.7674
▁scone	-11.7674
▁scones	-11.7674
▁score	-11.7674
▁seals	-11.7674
▁searched	-11.7674
▁seeing	-11.7674
▁sees	-11.7674
▁seitenbacher	-11.7674
▁seltzer	-11.7674
▁semi	-11.7674
▁seneca	-11.7674
▁senses	-11.7674
▁sensible	-11.7674
▁sensitivities	-11.7674
▁shabby	-11.7674
▁sharing	-11.7674
▁shaved	-11.7674
▁shea	-11.7674
▁sheer	-11.7674
▁shelter	-11.7674
▁shift	-11.7674
▁shin	-11.7674
▁shops	-11.7674
▁shorted	-11.7674
▁shortly	-11.7674
▁sicilian	-11.7674
▁sight	-11.7674
▁sign	-11.7674
▁silly	-11.7674
▁silver	-11.7674
▁sir	-11.7674
▁sister	-11.7674
▁sit	-11.7674
▁sizes	-11.7674
▁skins	-11.7674
▁slivers	-11.7674
▁snackin	-11.7674
▁snackwell	-11.7674
▁snappy	-11.7674
▁sneak	-11.7674
▁soak	-11.7674
▁softener	-11.7674
▁soldier	-11.7674
▁solves	-11.7674
▁soooooooo	-11.7674
▁sore	-11.7674
▁souchong	-11.7674
▁sounded	-11.7674
▁soupy	-11.7674
▁sources	-11.7674
▁sourdough	-11.7674
▁southwest	-11.7674
▁soymilk	-11.7674
▁spain	-11.7674
▁sparkle	-11.7674
▁speed	-11.7674
▁spilled	-11.7674
▁spit	-11.7674
▁spoonful	-11.7674
▁sportea	-11.7674
▁spots	-11.7674
▁spreadable	-11.7674
▁sprite	-11.7674
▁sprouts	-11.7674
▁squirrels	-11.7674
▁stage	-11.7674
▁standards	-11.7674
▁starkist	-11.7674
▁status	-11.7674
▁stok	-11.7674
▁stong	-11.7674
▁stool	-11.7674
▁stools	-11.7674
▁story	-11.7674
▁stress	-11.7674
▁strike	-11.7674
▁stringy	-11.7674
▁strip	-11.7674
▁student	-11.7674
▁stuffing	-11.7674
▁stupendous	-11.7674
▁substituting	-11.7674
▁suckers	-11.7674
▁sugarless	-11.7674
▁sugars	-11.7674
▁suited	-11.7674
▁sulfites	-11.7674
▁sunbutter	-11.7674
▁sunkist	-11.7674
▁supplements	-11.7674
▁suprised	-11.7674
▁swallow	-11.7674
▁swedish	-11.7674
▁sweetners	-11.7674
▁sweetz	-11.7674
▁swimming	-11.7674
▁szeged	-11.7674
▁tam	-11.7674
▁tandoori	-11.7674
▁tao	-11.7674
▁target	-11.7674
▁tastebud	-11.7674
▁tastic	-11.7674
▁tasts	-11.7674
▁taylor	-11.7674
▁teavana	-11.7674
▁teddy	-11.7674
▁teething	-11.7674
▁texmati	-11.7674
▁textures	-11.7674
▁thanksgiving	-11.7674
▁thee	-11.7674
▁themselves	-11.7674
▁theory	-11.7674
▁thoughtful	-11.7674
▁thoughts	-11.7674
▁throwing	-11.7674
▁ticket	-11.7674
▁tierra	-11.7674
▁til	-11.7674
▁timothys	-11.7674
▁tinkyada	-11.7674
▁tlc	-11.7674
▁toasty	-11.7674
▁tomatoe	-11.7674
▁tones	-11.7674
▁topper	-11.7674
▁torrone	-11.7674
▁track	-11.7674
▁treatment	-11.7674
▁trio	-11.7674
▁triplets	-11.7674
▁trolli	-11.7674
▁troubles	-11.7674
▁trusted	-11.7674
▁tummies	-11.7674
▁tvp	-11.7674
▁twig	-11.7674
▁twining	-11.7674
▁twinnings	-11.7674
▁unable	-11.7674
▁undecided	-11.7674
▁underwhelming	-11.7674
▁uneven	-11.7674
▁unexpectedly	-11.7674
▁unfair	-11.7674
▁unflavored	-11.7674
▁unit	-11.7674
▁unnatural	-11.7674
▁unpalatable	-11.7674
▁unremarkable	-11.7674
▁unresponsive	-11.7674
▁usable	-11.7674
▁useable	-11.7674
▁uti	-11.7674
▁utz	-11.7674
▁valdosta	-11.7674
▁values	-11.7674
▁vegans	-11.7674
▁vege	-11.7674
▁vegi	-11.7674
▁velvet	-11.7674
▁vendors	-11.7674
▁verified	-11.7674
▁verry	-11.7674
▁vets	-11.7674
▁vietnamese	-11.7674
▁vinaigrette	-11.7674
▁vinci	-11.7674
▁vintage	-11.7674
▁vinturi	-11.7674
▁virtually	-11.7674
▁vodka	-11.7674
▁volumizing	-11.7674
▁vomit	-11.7674
▁vue	-11.7674
▁wabash	-11.7674
▁waited	-11.7674
▁wants	-11.7674
▁wheatena	-11.7674
▁whenever	-11.7674
▁whether	-11.7674
▁whiskey	-11.7674
▁wilderness	-11.7674
▁williams	-11.7674
▁willing	-11.7674
▁winery	-11.7674
▁wins	-11.7674
▁wisconsin	-11.7674
▁won	-11.7674
▁wonka	-11.7674
▁wood	-11.7674
▁workouts	-11.7674
▁worried	-11.7674
▁worthwhile	-11.7674
▁wound	-11.7674
▁wrap	-11.7674
▁wu	-11.7674
▁xmas	-11.7674
▁xtra	-11.7674
▁yam	-11.7674
▁yams	-11.7674
▁yerba	-11.7674
▁yours	-11.7674
▁yummmmmmmm	-11.7674
▁yummmmy	-11.7674
▁yumo	-11.7674
▁zhena	-11.7674
▁ziwipeak	-11.7674
▁aaah	-12.1729
▁abc	-12.1729
▁accepted	-12.1729
▁accident	-12.1729
▁acne	-12.1729
▁acquire	-12.1729
▁additional	-12.1729
▁additions	-12.1729
▁adhd	-12.1729
▁advance	-12.1729
▁advertisement	-12.1729
▁aero	-12.1729
▁afford	-12.1729
▁africa	-12.1729
▁agent	-12.1729
▁aging	-12.1729
▁agreed	-12.1729
▁ahhh	-12.1729
▁ahhhh	-12.1729
▁ahhhhh	-12.1729
▁airline	-12.1729
▁aka	-12.1729
▁alaea	-12.1729
▁alaska	-12.1729
▁albeit	-12.1729
▁alertness	-12.1729
▁alike	-12.1729
▁allen	-12.1729
▁allsorts	-12.1729
▁alphabets	-12.1729
▁altered	-12.1729
▁altering	-12.1729
▁alternatives	-12.1729
▁altoid	-12.1729
▁alton	-12.1729
▁altura	-12.1729
▁amd	-12.1729
▁americans	-12.1729
▁americolor	-12.1729
▁amino	-12.1729
▁amongst	-12.1729
▁amore	-12.1729
▁amost	-12.1729
▁amounts	-12.1729
▁amzaon	-12.1729
▁ancho	-12.1729
▁anchovy	-12.1729
▁animals	-12.1729
▁ann	-12.1729
▁answers	-12.1729
▁antiperspirant	-12.1729
▁anxious	-12.1729
▁apocalypse	-12.1729
▁appeal	-12.1729
▁appetizers	-12.1729
▁appley	-12.1729
▁appreciation	-12.1729
▁approach	-12.1729
▁appropriate	-12.1729
▁approval	-12.1729
▁approx	-12.1729
▁approximation	-12.1729
▁april	-12.1729
▁ar	-12.1729
▁archway	-12.1729
▁arco	-12.1729
▁argue	-12.1729
▁arnold	-12.1729
▁aromas	-12.1729
▁arrowhead	-12.1729
▁art	-12.1729
▁artic	-12.1729
▁artifical	-12.1729
▁ash	-12.1729
▁asked	-12.1729
▁aspen	-12.1729
▁asst	-12.1729
▁asthma	-12.1729
▁astoundingly	-12.1729
▁atrocious	-12.1729
▁august	-12.1729
▁australian	-12.1729
▁autism	-12.1729
▁autumn	-12.1729
▁avid	-12.1729
▁avoderm	-12.1729
▁awake	-12.1729
▁aways	-12.1729
▁awesomely	-12.1729
▁awhile	-12.1729
▁ayurvedic	-12.1729
▁az	-12.1729
▁baba	-12.1729
▁babe	-12.1729
▁babycook	-12.1729
▁backup	-12.1729
▁baconnaise	-12.1729
▁bacony	-12.1729
▁bailey	-12.1729
▁baja	-12.1729
▁bakes	-12.1729
▁bal	-12.1729
▁balm	-12.1729
▁bamba	-12.1729
▁ban	-12.1729
▁bangkok	-12.1729
▁bank	-12.1729
▁barfing	-12.1729
▁bargained	-12.1729
▁barista	-12.1729
▁barks	-12.1729
▁baseball	-12.1729
▁basis	-12.1729
▁basted	-12.1729
▁bathroom	-12.1729
▁beaba	-12.1729
▁beam	-12.1729
▁beanitos	-12.1729
▁bearing	-12.1729
▁beast	-12.1729
▁beatlejuice	-12.1729
▁becoming	-12.1729
▁beethoven	-12.1729
▁beets	-12.1729
▁beggin	-12.1729
▁begging	-12.1729
▁begs	-12.1729
▁behavior	-12.1729
▁bella	-12.1729
▁bellies	-12.1729
▁benne	-12.1729
▁berger	-12.1729
▁bergin	-12.1729
▁betcha	-12.1729
▁bialetti	-12.1729
▁bias	-12.1729
▁billy	-12.1729
▁birth	-12.1729
▁bischon	-12.1729
▁biscuts	-12.1729
▁bisquits	-12.1729
▁bitters	-12.1729
▁bittersweet	-12.1729
▁bizarre	-12.1729
▁blended	-12.1729
▁blenders	-12.1729
▁bleu	-12.1729
▁bloating	-12.1729
▁blockage	-12.1729
▁blondies	-12.1729
▁blowing	-12.1729
▁bo	-12.1729
▁bobs	-12.1729
▁boneless	-12.1729
▁bonk	-12.1729
▁bonne	-12.1729
▁bonnet	-12.1729
▁boo	-12.1729
▁boon	-12.1729
▁bottling	-12.1729
▁bottoms	-12.1729
▁botts	-12.1729
▁bouncy	-12.1729
▁bouquet	-12.1729
▁bowser	-12.1729
▁boylan	-12.1729
▁brachs	-12.1729
▁brazilian	-12.1729
▁breading	-12.1729
▁breeder	-12.1729
▁breeze	-12.1729
▁brezza	-12.1729
▁brick	-12.1729
▁bridge	-12.1729
▁bridgford	-12.1729
▁britt	-12.1729
▁brookly	-12.1729
▁brooklyn	-12.1729
▁brother	-12.1729
▁brush	-12.1729
▁bs	-12.1729
▁bubba	-12.1729
▁bubblegum	-12.1729
▁bubblicious	-12.1729
▁bud	-12.1729
▁buddies	-12.1729
▁buen	-12.1729
▁bugles	-12.1729
▁bulgaria	-12.1729
▁bulgur	-12.1729
▁bullet	-12.1729
▁buns	-12.1729
▁buon	-12.1729
▁burn	-12.1729
▁burns	-12.1729
▁busting	-12.1729
▁butcher	-12.1729
▁butt	-12.1729
▁buttered	-12.1729
▁butternut	-12.1729
▁butters	-12.1729
▁button	-12.1729
▁buyers	-12.1729
▁buys	-12.1729
▁cadbury	-12.1729
▁caesar	-12.1729
▁caffiene	-12.1729
▁cafix	-12.1729
▁caliente	-12.1729
▁calls	-12.1729
▁calms	-12.1729
▁cals	-12.1729
▁cameron	-12.1729
▁camerons	-12.1729
▁candybar	-12.1729
▁canning	-12.1729
▁cannoli	-12.1729
▁caps	-12.1729
▁capuccino	-12.1729
▁carba	-12.1729
▁carbonation	-12.1729
▁cardamon	-12.1729
▁carl	-12.1729
▁carnivorous	-12.1729
▁carpet	-12.1729
▁carried	-12.1729
▁cars	-12.1729
▁carton	-12.1729
▁cascadian	-12.1729
▁casera	-12.1729
▁cash	-12.1729
▁casing	-12.1729
▁casings	-12.1729
▁casserole	-12.1729
▁cassia	-12.1729
▁cassis	-12.1729
▁cavalier	-12.1729
▁caveats	-12.1729
▁cavender	-12.1729
▁celsius	-12.1729
▁ceral	-12.1729
▁cerelac	-12.1729
▁cha	-12.1729
▁changer	-12.1729
▁chantea	-12.1729
▁chapati	-12.1729
▁charger	-12.1729
▁charging	-12.1729
▁charlee	-12.1729
▁charly	-12.1729
▁charming	-12.1729
▁cheating	-12.1729
▁cheering	-12.1729
▁cheeze	-12.1729
▁chewier	-12.1729
▁chi	-12.1729
▁chicklets	-12.1729
▁chickpeas	-12.1729
▁chico	-12.1729
▁chihuahuas	-12.1729
▁chiles	-12.1729
▁chilis	-12.1729
▁chimes	-12.1729
▁chiplets	-12.1729
▁chippoisseur	-12.1729
▁chlorine	-12.1729
▁chocolat	-12.1729
▁chopped	-12.1729
▁chorizo	-12.1729
▁chronic	-12.1729
▁chuckles	-12.1729
▁chun	-12.1729
▁cima	-12.1729
▁cinn	-12.1729
▁cinnabon	-12.1729
▁circles	-12.1729
▁circus	-12.1729
▁cj	-12.1729
▁clams	-12.1729
▁clark	-12.1729
▁classy	-12.1729
▁cleanup	-12.1729
▁clicktastic	-12.1729
▁clogs	-12.1729
▁clothes	-12.1729
▁cloves	-12.1729
▁cloying	-12.1729
▁cluster	-12.1729
▁coach	-12.1729
▁coarser	-12.1729
▁coated	-12.1729
▁cockapoo	-12.1729
▁cocout	-12.1729
▁cod	-12.1729
▁cody	-12.1729
▁coffeee	-12.1729
▁coffer	-12.1729
▁cofffee	-12.1729
▁coin	-12.1729
▁coladas	-12.1729
▁coleslaw	-12.1729
▁colitis	-12.1729
▁collie	-12.1729
▁comedic	-12.1729
▁comfortable	-12.1729
▁comments	-12.1729
▁committed	-12.1729
▁competetive	-12.1729
▁competitors	-12.1729
▁complain	-12.1729
▁complicated	-12.1729
▁compostable	-12.1729
▁concern	-12.1729
▁concerns	-12.1729
▁condensed	-12.1729
▁conditions	-12.1729
▁cones	-12.1729
▁confections	-12.1729
▁confident	-12.1729
▁congestion	-12.1729
▁connoisseur	-12.1729
▁connoisseurs	-12.1729
▁consistant	-12.1729
▁constantly	-12.1729
▁construction	-12.1729
▁consumed	-12.1729
▁contamination	-12.1729
▁contest	-12.1729
▁continue	-12.1729
▁controls	-12.1729
▁controversial	-12.1729
▁conversation	-12.1729
▁convert	-12.1729
▁cookin	-12.1729
▁cooler	-12.1729
▁coolest	-12.1729
▁coon	-12.1729
▁corgi	-12.1729
▁corks	-12.1729
▁costa	-12.1729
▁county	-12.1729
▁crackin	-12.1729
▁cracklin	-12.1729
▁cracks	-12.1729
▁crappy	-12.1729
▁crawfords	-12.1729
▁creamiest	-12.1729
▁cries	-12.1729
▁crisco	-12.1729
▁crispbreads	-12.1729
▁crispies	-12.1729
▁crispiness	-12.1729
▁critters	-12.1729
▁cruncy	-12.1729
▁crystalized	-12.1729
▁crystallized	-12.1729
▁cucumber	-12.1729
▁culture	-12.1729
▁curious	-12.1729
▁currant	-12.1729
▁currants	-12.1729
▁customize	-12.1729
▁cyclist	-12.1729
▁cytosport	-12.1729
▁daddy	-12.1729
▁daisy	-12.1729
▁dal	-12.1729
▁dan	-12.1729
▁dare	-12.1729
▁darling	-12.1729
▁darlings	-12.1729
▁dated	-12.1729
▁dd	-12.1729
▁decline	-12.1729
▁deeee	-12.1729
▁deeeeeelicious	-12.1729
▁deeelicious	-12.1729
▁deelicious	-12.1729
▁deelish	-12.1729
▁def	-12.1729
▁delcious	-12.1729
▁deli	-12.1729
▁delic	-12.1729
▁delicios	-12.1729
▁delisious	-12.1729
▁dense	-12.1729
▁dentastix	-12.1729
▁dente	-12.1729
▁denting	-12.1729
▁deoderant	-12.1729
▁depend	-12.1729
▁designer	-12.1729
▁desk	-12.1729
▁development	-12.1729
▁device	-12.1729
▁devoured	-12.1729
▁devours	-12.1729
▁dew	-12.1729
▁di	-12.1729
▁differant	-12.1729
▁dig	-12.1729
▁digestible	-12.1729
▁dijon	-12.1729
▁dills	-12.1729
▁dilly	-12.1729
▁dilute	-12.1729
▁diner	-12.1729
▁dinners	-12.1729
▁direction	-12.1729
▁directly	-12.1729
▁disappearing	-12.1729
▁disappointingly	-12.1729
▁disclaimer	-12.1729
▁discontinue	-12.1729
▁dishonest	-12.1729
▁disolves	-12.1729
▁displeased	-12.1729
▁disposable	-12.1729
▁disposal	-12.1729
▁dissappointing	-12.1729
▁distribution	-12.1729
▁doberman	-12.1729
▁docs	-12.1729
▁doctors	-12.1729
▁doggone	-12.1729
▁dolce	-12.1729
▁domestic	-12.1729
▁don	-12.1729
▁dope	-12.1729
▁doritos	-12.1729
▁dorms	-12.1729
▁dots	-12.1729
▁doubles	-12.1729
▁downgraded	-12.1729
▁downhill	-12.1729
▁doxie	-12.1729
▁drastically	-12.1729
▁dreaming	-12.1729
▁dries	-12.1729
▁drowsy	-12.1729
▁drunk	-12.1729
▁dulce	-12.1729
▁dumpling	-12.1729
▁dumplings	-12.1729
▁durian	-12.1729
▁duty	-12.1729
▁dyeing	-12.1729
▁dynamite	-12.1729
▁earths	-12.1729
▁eatable	-12.1729
▁eclipse	-12.1729
▁eda	-12.1729
▁edit	-12.1729
▁edited	-12.1729
▁educational	-12.1729
▁effectiveness	-12.1729
▁efforts	-12.1729
▁ekobrew	-12.1729
▁elderly	-12.1729
▁eliminating	-12.1729
▁elixir	-12.1729
▁emergen	-12.1729
▁endless	-12.1729
▁endorsement	-12.1729
▁endurance	-12.1729
▁energetic	-12.1729
▁enhancement	-12.1729
▁enhances	-12.1729
▁enhancing	-12.1729
▁enormous	-12.1729
▁enthusiastic	-12.1729
▁envelope	-12.1729
▁envelopes	-12.1729
▁enzyme	-12.1729
▁erewhon	-12.1729
▁escabeche	-12.1729
▁escargot	-12.1729
▁escargots	-12.1729
▁esque	-12.1729
▁essence	-12.1729
▁estate	-12.1729
▁ethical	-12.1729
▁ethiopian	-12.1729
▁etouffee	-12.1729
▁eve	-12.1729
▁eventually	-12.1729
▁evolution	-12.1729
▁evolve	-12.1729
▁ewwww	-12.1729
▁exact	-12.1729
▁excelente	-12.1729
▁excellet	-12.1729
▁excellnt	-12.1729
▁exceptionally	-12.1729
▁excruciatingly	-12.1729
▁existent	-12.1729
▁exists	-12.1729
▁expectation	-12.1729
▁experation	-12.1729
▁experiencing	-12.1729
▁experimentation	-12.1729
▁expert	-12.1729
▁expire	-12.1729
▁explodes	-12.1729
▁explore	-12.1729
▁exquiste	-12.1729
▁extraction	-12.1729
▁fabuloso	-12.1729
▁faces	-12.1729
▁facility	-12.1729
▁fact	-12.1729
▁faith	-12.1729
▁familia	-12.1729
▁families	-12.1729
▁fantabulous	-12.1729
▁fantasic	-12.1729
▁fantastically	-12.1729
▁fantastico	-12.1729
▁fare	-12.1729
▁farmer	-12.1729
▁fastachi	-12.1729
▁faux	-12.1729
▁fear	-12.1729
▁feather	-12.1729
▁feedback	-12.1729
▁felix	-12.1729
▁felt	-12.1729
▁ferrara	-12.1729
▁ferrets	-12.1729
▁fettuccine	-12.1729
▁fever	-12.1729
▁fewer	-12.1729
▁fi	-12.1729
▁fibromyalgia	-12.1729
▁field	-12.1729
▁fiesta	-12.1729
▁fights	-12.1729
▁fillets	-12.1729
▁fills	-12.1729
▁filtered	-12.1729
▁final	-12.1729
▁finals	-12.1729
▁finding	-12.1729
▁finds	-12.1729
▁finer	-12.1729
▁finished	-12.1729
▁finncrisp	-12.1729
▁fizzies	-12.1729
▁flackers	-12.1729
▁flake	-12.1729
▁flatbread	-12.1729
▁flavorfull	-12.1729
▁fleas	-12.1729
▁flight	-12.1729
▁float	-12.1729
▁florentine	-12.1729
▁flours	-12.1729
▁flowery	-12.1729
▁fluids	-12.1729
▁flying	-12.1729
▁fo	-12.1729
▁focus	-12.1729
▁focused	-12.1729
▁fogbuster	-12.1729
▁foie	-12.1729
▁forest	-12.1729
▁formerly	-12.1729
▁forte	-12.1729
▁fortified	-12.1729
▁fourth	-12.1729
▁fox	-12.1729
▁frame	-12.1729
▁fran	-12.1729
▁frantoia	-12.1729
▁frappuccino	-12.1729
▁freakin	-12.1729
▁freight	-12.1729
▁fridge	-12.1729
▁fritos	-12.1729
▁frogs	-12.1729
▁frrrozen	-12.1729
▁fruitables	-12.1729
▁fulfilled	-12.1729
▁fulfilling	-12.1729
▁fulfillment	-12.1729
▁furniture	-12.1729
▁fusilli	-12.1729
▁fusions	-12.1729
▁fussie	-12.1729
▁fyi	-12.1729
▁gal	-12.1729
▁games	-12.1729
▁gaming	-12.1729
▁gardenia	-12.1729
▁gardening	-12.1729
▁geat	-12.1729
▁gelatinous	-12.1729
▁gems	-12.1729
▁genco	-12.1729
▁generally	-12.1729
▁generation	-12.1729
▁generously	-12.1729
▁gg	-12.1729
▁ghastly	-12.1729
▁gia	-12.1729
▁giants	-12.1729
▁giraffes	-12.1729
▁girlfriend	-12.1729
▁glace	-12.1729
▁glenny	-12.1729
▁glorified	-12.1729
▁glossy	-12.1729
▁glucotest	-12.1729
▁glutten	-12.1729
▁gmc	-12.1729
▁goddess	-12.1729
▁gogo	-12.1729
▁golly	-12.1729
▁goo	-12.1729
▁goodie	-12.1729
▁goof	-12.1729
▁gooooood	-12.1729
▁goooooood	-12.1729
▁gopher	-12.1729
▁gracie	-12.1729
▁gradually	-12.1729
▁graet	-12.1729
▁gram	-12.1729
▁gran	-12.1729
▁grandchildren	-12.1729
▁grandmas	-12.1729
▁grandmother	-12.1729
▁gras	-12.1729
▁grassy	-12.1729
▁grease	-12.1729
▁greed	-12.1729
▁greedy	-12.1729
▁greentea	-12.1729
▁grief	-12.1729
▁grinds	-12.1729
▁grit	-12.1729
▁grocers	-12.1729
▁grossly	-12.1729
▁grotesque	-12.1729
▁group	-12.1729
▁groups	-12.1729
▁grownup	-12.1729
▁grrrreat	-12.1729
▁grrrrreat	-12.1729
▁guacamole	-12.1729
▁guar	-12.1729
▁guidance	-12.1729
▁guinea	-12.1729
▁gumball	-12.1729
▁gun	-12.1729
▁gustaf	-12.1729
▁gypsy	-12.1729
▁ha	-12.1729
▁hail	-12.1729
▁hain	-12.1729
▁hallelujah	-12.1729
▁hammer	-12.1729
▁handed	-12.1729
▁hangover	-12.1729
▁hansens	-12.1729
▁happybaby	-12.1729
▁harbor	-12.1729
▁hardened	-12.1729
▁harvey	-12.1729
▁hatcho	-12.1729
▁hawaiin	-12.1729
▁hazel	-12.1729
▁hazelnuts	-12.1729
▁headache	-12.1729
▁healthiness	-12.1729
▁healthly	-12.1729
▁heartland	-12.1729
▁heath	-12.1729
▁heathful	-12.1729
▁heb	-12.1729
▁helix	-12.1729
▁helping	-12.1729
▁hempseeds	-12.1729
▁herbamare	-12.1729
▁herdez	-12.1729
▁heritage	-12.1729
▁hero	-12.1729
▁herr	-12.1729
▁hesitate	-12.1729
▁hiccup	-12.1729
▁hiding	-12.1729
▁highland	-12.1729
▁highway	-12.1729
▁hiking	-12.1729
▁history	-12.1729
▁ho	-12.1729
▁holding	-12.1729
▁hole	-12.1729
▁holla	-12.1729
▁hollandaise	-12.1729
▁homesick	-12.1729
▁homework	-12.1729
▁honk	-12.1729
▁hoof	-12.1729
▁hops	-12.1729
▁horchata	-12.1729
▁horizon	-12.1729
▁horn	-12.1729
▁horrid	-12.1729
▁horses	-12.1729
▁hotspots	-12.1729
▁hott	-12.1729
▁hounds	-12.1729
▁houses	-12.1729
▁housewife	-12.1729
▁hp	-12.1729
▁hr	-12.1729
▁hubba	-12.1729
▁hubbard	-12.1729
▁huckleberries	-12.1729
▁huckleberry	-12.1729
▁hugely	-12.1729
▁huli	-12.1729
▁hulled	-12.1729
▁hulless	-12.1729
▁hulls	-12.1729
▁hum	-12.1729
▁humbles	-12.1729
▁humidity	-12.1729
▁humor	-12.1729
▁hundreds	-12.1729
▁hunter	-12.1729
▁hurricane	-12.1729
▁husks	-12.1729
▁hydrate	-12.1729
▁hydrating	-12.1729
▁hydrolyzed	-12.1729
▁hypoallergenic	-12.1729
▁iam	-12.1729
▁ichiban	-12.1729
▁icy	-12.1729
▁idiot	-12.1729
▁illness	-12.1729
▁image	-12.1729
▁immune	-12.1729
▁impression	-12.1729
▁impressions	-12.1729
▁improvements	-12.1729
▁improves	-12.1729
▁improving	-12.1729
▁inconsistant	-12.1729
▁increasing	-12.1729
▁independent	-12.1729
▁indestructible	-12.1729
▁indicate	-12.1729
▁indus	-12.1729
▁infested	-12.1729
▁ingrediants	-12.1729
▁initial	-12.1729
▁insecticide	-12.1729
▁insects	-12.1729
▁install	-12.1729
▁installation	-12.1729
▁intestinal	-12.1729
▁intro	-12.1729
▁introduction	-12.1729
▁introductory	-12.1729
▁involved	-12.1729
▁iodine	-12.1729
▁ironic	-12.1729
▁irresistable	-12.1729
▁ist	-12.1729
▁ito	-12.1729
▁ja	-12.1729
▁jacobs	-12.1729
▁jade	-12.1729
▁jake	-12.1729
▁jalapenos	-12.1729
▁jalfrezi	-12.1729
▁jamica	-12.1729
▁jane	-12.1729
▁jeremiah	-12.1729
▁jerked	-12.1729
▁jif	-12.1729
▁jimmy	-12.1729
▁jobs	-12.1729
▁joel	-12.1729
▁jones	-12.1729
▁jordan	-12.1729
▁judge	-12.1729
▁julia	-12.1729
▁jumped	-12.1729
▁juniper	-12.1729
▁junket	-12.1729
▁jury	-12.1729
▁justice	-12.1729
▁ka	-12.1729
▁kadoya	-12.1729
▁kaffir	-12.1729
▁kale	-12.1729
▁kap	-12.1729
▁karo	-12.1729
▁kashmiri	-12.1729
▁kats	-12.1729
▁kava	-12.1729
▁kaviar	-12.1729
▁kay	-12.1729
▁kentucky	-12.1729
▁kibbles	-12.1729
▁kisses	-12.1729
▁kitkat	-12.1729
▁kix	-12.1729
▁kluski	-12.1729
▁knock	-12.1729
▁knott	-12.1729
▁knowing	-12.1729
▁kodiak	-12.1729
▁konriko	-12.1729
▁kopi	-12.1729
▁kopiko	-12.1729
▁korma	-12.1729
▁kravings	-12.1729
▁krazy	-12.1729
▁kringle	-12.1729
▁kringles	-12.1729
▁krinkle	-12.1729
▁krinos	-12.1729
▁kris	-12.1729
▁krusteaz	-12.1729
▁kuerig	-12.1729
▁labradoodle	-12.1729
▁laces	-12.1729
▁lacked	-12.1729
▁lactation	-12.1729
▁lakerol	-12.1729
▁lakewood	-12.1729
▁lance	-12.1729
▁land	-12.1729
▁lapped	-12.1729
▁lapsang	-12.1729
▁lara	-12.1729
▁lately	-12.1729
▁lather	-12.1729
▁lathers	-12.1729
▁lava	-12.1729
▁layer	-12.1729
▁leading	-12.1729
▁leads	-12.1729
▁leaky	-12.1729
▁leather	-12.1729
▁leaving	-12.1729
▁leche	-12.1729
▁lecithin	-12.1729
▁lee	-12.1729
▁lefse	-12.1729
▁leftovers	-12.1729
▁legal	-12.1729
▁legged	-12.1729
▁legs	-12.1729
▁lemonhead	-12.1729
▁leo	-12.1729
▁leonidas	-12.1729
▁lesson	-12.1729
▁lessons	-12.1729
▁letdown	-12.1729
▁lettuce	-12.1729
▁leucophylla	-12.1729
▁lg	-12.1729
▁libbys	-12.1729
▁licks	-12.1729
▁lifeless	-12.1729
▁lifting	-12.1729
▁lightweight	-12.1729
▁likeable	-12.1729
▁likey	-12.1729
▁lily	-12.1729
▁limey	-12.1729
▁limit	-12.1729
▁limp	-12.1729
▁lingering	-12.1729
▁lingonberries	-12.1729
▁linguine	-12.1729
▁lion	-12.1729
▁lip	-12.1729
▁liqueur	-12.1729
▁liters	-12.1729
▁liv	-12.1729
▁liven	-12.1729
▁loacker	-12.1729
▁localy	-12.1729
▁loco	-12.1729
▁lolipops	-12.1729
▁longest	-12.1729
▁los	-12.1729
▁lowered	-12.1729
▁lowery	-12.1729
▁lowfat	-12.1729
▁luck	-12.1729
▁lunchable	-12.1729
▁lunchbox	-12.1729
▁lung	-12.1729
▁luxurious	-12.1729
▁lynn	-12.1729
▁lyons	-12.1729
▁maca	-12.1729
▁macrobiotic	-12.1729
▁mad	-12.1729
▁madras	-12.1729
▁magnet	-12.1729
▁magnifying	-12.1729
▁malamute	-12.1729
▁maltesers	-12.1729
▁maltitol	-12.1729
▁malts	-12.1729
▁malty	-12.1729
▁maman	-12.1729
▁mangos	-12.1729
▁manhattans	-12.1729
▁manly	-12.1729
▁marcona	-12.1729
▁marginal	-12.1729
▁marked	-12.1729
▁marker	-12.1729
▁markup	-12.1729
▁maruchan	-12.1729
▁masquerading	-12.1729
▁massey	-12.1729
▁mastiff	-12.1729
▁mastiffs	-12.1729
▁matzo	-12.1729
▁maynard	-12.1729
▁mayonaise	-12.1729
▁mazing	-12.1729
▁mcanns	-12.1729
▁mcdonald	-12.1729
▁mcp	-12.1729
▁mcvities	-12.1729
▁md	-12.1729
▁measurements	-12.1729
▁meatloaf	-12.1729
▁medallions	-12.1729
▁medications	-12.1729
▁megafudge	-12.1729
▁melba	-12.1729
▁melon	-12.1729
▁members	-12.1729
▁menopause	-12.1729
▁menstrual	-12.1729
▁mentioned	-12.1729
▁mentos	-12.1729
▁menu	-12.1729
▁merguez	-12.1729
▁metromint	-12.1729
▁mex	-12.1729
▁mexicana	-12.1729
▁meyer	-12.1729
▁michigan	-12.1729
▁mickey	-12.1729
▁micro	-12.1729
▁microwavable	-12.1729
▁microwaved	-12.1729
▁midday	-12.1729
▁milano	-12.1729
▁milled	-12.1729
▁minced	-12.1729
▁minestrone	-12.1729
▁minority	-12.1729
▁mishandling	-12.1729
▁misinformation	-12.1729
▁mission	-12.1729
▁mississippi	-12.1729
▁mist	-12.1729
▁mistaken	-12.1729
▁mistakes	-12.1729
▁mister	-12.1729
▁misty	-12.1729
▁mmmmmmmmmmmmmmmmmmmmmmmm	-12.1729
▁mobility	-12.1729
▁moderate	-12.1729
▁modern	-12.1729
▁mojo	-12.1729
▁moka	-12.1729
▁moments	-12.1729
▁momma	-12.1729
▁moo	-12.1729
▁morton	-12.1729
▁mosquitos	-12.1729
▁mothers	-12.1729
▁mountian	-12.1729
▁moutain	-12.1729
▁movements	-12.1729
▁moving	-12.1729
▁moxie	-12.1729
▁mt	-12.1729
▁mudslide	-12.1729
▁mueslix	-12.1729
▁multipurpose	-12.1729
▁munchos	-12.1729
▁munchy	-12.1729
▁mustards	-12.1729
▁mutha	-12.1729
▁mystery	-12.1729
▁nacho	-12.1729
▁nada	-12.1729
▁nagging	-12.1729
▁named	-12.1729
▁nanas	-12.1729
▁nastiest	-12.1729
▁nathan	-12.1729
▁nation	-12.1729
▁natura	-12.1729
▁navitas	-12.1729
▁nb	-12.1729
▁ne	-12.1729
▁nearby	-12.1729
▁necessarily	-12.1729
▁neo	-12.1729
▁nerds	-12.1729
▁nervous	-12.1729
▁ness	-12.1729
▁nestles	-12.1729
▁newborns	-12.1729
▁newest	-12.1729
▁nibble	-12.1729
▁nibbles	-12.1729
▁nielsen	-12.1729
▁nifty	-12.1729
▁nobel	-12.1729
▁noise	-12.1729
▁noisy	-12.1729
▁nongshim	-12.1729
▁notable	-12.1729
▁noticable	-12.1729
▁novel	-12.1729
▁nowhere	-12.1729
▁ntilde	-12.1729
▁nu	-12.1729
▁nueske	-12.1729
▁nuff	-12.1729
▁nutbar	-12.1729
▁nutri	-12.1729
▁nutrious	-12.1729
▁nutrisentials	-12.1729
▁nutritiously	-12.1729
▁ny	-12.1729
▁oatbran	-12.1729
▁oberto	-12.1729
▁obese	-12.1729
▁obligate	-12.1729
▁obscene	-12.1729
▁occupied	-12.1729
▁oddly	-12.1729
▁ode	-12.1729
▁offerings	-12.1729
▁official	-12.1729
▁officially	-12.1729
▁ohhh	-12.1729
▁ointment	-12.1729
▁okra	-12.1729
▁olde	-12.1729
▁oldie	-12.1729
▁oom	-12.1729
▁oomph	-12.1729
▁ooooh	-12.1729
▁ooops	-12.1729
▁oothu	-12.1729
▁op	-12.1729
▁opposite	-12.1729
▁orchard	-12.1729
▁orchid	-12.1729
▁orchids	-12.1729
▁organically	-12.1729
▁organix	-12.1729
▁organizer	-12.1729
▁organo	-12.1729
▁orginal	-12.1729
▁origin	-12.1729
▁orignal	-12.1729
▁orijen	-12.1729
▁oro	-12.1729
▁orville	-12.1729
▁os	-12.1729
▁osem	-12.1729
▁ostrim	-12.1729
▁otis	-12.1729
▁ought	-12.1729
▁ova	-12.1729
▁overcharged	-12.1729
▁overcooked	-12.1729
▁overdo	-12.1729
▁overnight	-12.1729
▁overpowered	-12.1729
▁overpowers	-12.1729
▁pail	-12.1729
▁pakistan	-12.1729
▁palmer	-12.1729
▁pam	-12.1729
▁paneer	-12.1729
▁panettone	-12.1729
▁papers	-12.1729
▁parmesan	-12.1729
▁partner	-12.1729
▁passage	-12.1729
▁passionfruit	-12.1729
▁passover	-12.1729
▁pat	-12.1729
▁patch	-12.1729
▁patties	-12.1729
▁pau	-12.1729
▁peaceful	-12.1729
▁peak	-12.1729
▁peasy	-12.1729
▁peeps	-12.1729
▁peet	-12.1729
▁peggy	-12.1729
▁pekingese	-12.1729
▁pennies	-12.1729
▁pep	-12.1729
▁peppered	-12.1729
▁pepperminty	-12.1729
▁percentage	-12.1729
▁perfumed	-12.1729
▁perks	-12.1729
▁pernigotti	-12.1729
▁personally	-12.1729
▁peru	-12.1729
▁perugina	-12.1729
▁pesticide	-12.1729
▁pesto	-12.1729
▁petrodex	-12.1729
▁petsmart	-12.1729
▁phenominal	-12.1729
▁phosphorous	-12.1729
▁picante	-12.1729
▁picks	-12.1729
▁picnic	-12.1729
▁pikes	-12.1729
▁pilaf	-12.1729
▁pimento	-12.1729
▁pimentos	-12.1729
▁pin	-12.1729
▁pj	-12.1729
▁places	-12.1729
▁planter	-12.1729
▁platinum	-12.1729
▁plato	-12.1729
▁pleasent	-12.1729
▁pleasers	-12.1729
▁pls	-12.1729
▁popocorn	-12.1729
▁popover	-12.1729
▁popped	-12.1729
▁popper	-12.1729
▁poppin	-12.1729
▁popularity	-12.1729
▁possibilities	-12.1729
▁potassium	-12.1729
▁potatos	-12.1729
▁potpourri	-12.1729
▁pouched	-12.1729
▁pour	-12.1729
▁pouring	-12.1729
▁pr	-12.1729
▁pralines	-12.1729
▁prayers	-12.1729
▁preen	-12.1729
▁preparations	-12.1729
▁preschooler	-12.1729
▁preservative	-12.1729
▁preservatives	-12.1729
▁preserve	-12.1729
▁pressed	-12.1729
▁prik	-12.1729
▁primarily	-12.1729
▁pristine	-12.1729
▁private	-12.1729
▁proactive	-12.1729
▁probiotic	-12.1729
▁probiotics	-12.1729
▁prod	-12.1729
▁producto	-12.1729
▁progresso	-12.1729
▁promote	-12.1729
▁promptly	-12.1729
▁pronounce	-12.1729
▁properties	-12.1729
▁pros	-12.1729
▁protect	-12.1729
▁protects	-12.1729
▁provides	-12.1729
▁prudhomme	-12.1729
▁pt	-12.1729
▁puff	-12.1729
▁pulled	-12.1729
▁pulling	-12.1729
▁pumping	-12.1729
▁pumpkiny	-12.1729
▁punctured	-12.1729
▁pungent	-12.1729
▁purebites	-12.1729
▁purees	-12.1729
▁purely	-12.1729
▁purevia	-12.1729
▁purposes	-12.1729
▁purr	-12.1729
▁purrrfect	-12.1729
▁qc	-12.1729
▁quadratini	-12.1729
▁qualities	-12.1729
▁qualtiy	-12.1729
▁quanity	-12.1729
▁quantities	-12.1729
▁quarter	-12.1729
▁quench	-12.1729
▁questions	-12.1729
▁quicker	-12.1729
▁quicky	-12.1729
▁quik	-12.1729
▁quit	-12.1729
▁quot	-12.1729
▁quote	-12.1729
▁radical	-12.1729
▁raise	-12.1729
▁raises	-12.1729
▁raisinets	-12.1729
▁ran	-12.1729
▁ranchers	-12.1729
▁random	-12.1729
▁rates	-12.1729
▁ratings	-12.1729
▁rawhides	-12.1729
▁raya	-12.1729
▁razzpotle	-12.1729
▁rd	-12.1729
▁react	-12.1729
▁reactions	-12.1729
▁realistic	-12.1729
▁reall	-12.1729
▁rear	-12.1729
▁rebound	-12.1729
▁recalls	-12.1729
▁receiving	-12.1729
▁recent	-12.1729
▁reception	-12.1729
▁recipie	-12.1729
▁recipies	-12.1729
▁recognition	-12.1729
▁recomended	-12.1729
▁recurring	-12.1729
▁recyclable	-12.1729
▁redeeming	-12.1729
▁rediscovered	-12.1729
▁reduction	-12.1729
▁reeses	-12.1729
▁refillable	-12.1729
▁refined	-12.1729
▁reformulated	-12.1729
▁refreshed	-12.1729
▁refresher	-12.1729
▁refrigerate	-12.1729
▁refrigerator	-12.1729
▁refunded	-12.1729
▁rejects	-12.1729
▁rejuvenating	-12.1729
▁relationship	-12.1729
▁reliably	-12.1729
▁reliever	-12.1729
▁relieves	-12.1729
▁reluctant	-12.1729
▁remain	-12.1729
▁remarkable	-12.1729
▁remind	-12.1729
▁reminded	-12.1729
▁reminiscent	-12.1729
▁renal	-12.1729
▁rep	-12.1729
▁repeated	-12.1729
▁reported	-12.1729
▁reputation	-12.1729
▁require	-12.1729
▁resealable	-12.1729
▁reserve	-12.1729
▁residue	-12.1729
▁resolved	-12.1729
▁responsive	-12.1729
▁result	-12.1729
▁retailer	-12.1729
▁retrivers	-12.1729
▁returnable	-12.1729
▁returned	-12.1729
▁reusable	-12.1729
▁revisited	-12.1729
▁rewards	-12.1729
▁rhubarb	-12.1729
▁rican	-12.1729
▁richard	-12.1729
▁ridder	-12.1729
▁rinse	-12.1729
▁rippin	-12.1729
▁rising	-12.1729
▁risky	-12.1729
▁ritter	-12.1729
▁ritz	-12.1729
▁ro	-12.1729
▁roaches	-12.1729
▁roar	-12.1729
▁roasters	-12.1729
▁roastery	-12.1729
▁robert	-12.1729
▁robin	-12.1729
▁rodeo	-12.1729
▁roller	-12.1729
▁roman	-12.1729
▁romano	-12.1729
▁romantic	-12.1729
▁ron	-12.1729
▁roni	-12.1729
▁roof	-12.1729
▁ross	-12.1729
▁rossa	-12.1729
▁rotties	-12.1729
▁rounds	-12.1729
▁roxy	-12.1729
▁ruin	-12.1729
▁runner	-12.1729
▁runners	-12.1729
▁russa	-12.1729
▁sacrificing	-12.1729
▁safely	-12.1729
▁safron	-12.1729
▁saigon	-12.1729
▁sajia	-12.1729
▁sake	-12.1729
▁salame	-12.1729
▁salba	-12.1729
▁salmiak	-12.1729
▁salmonella	-12.1729
▁saltine	-12.1729
▁sammy	-12.1729
▁samples	-12.1729
▁sampling	-12.1729
▁sangria	-12.1729
▁sanka	-12.1729
▁sans	-12.1729
▁sapporo	-12.1729
▁sarracenia	-12.1729
▁sat	-12.1729
▁satisfactory	-12.1729
▁satisified	-12.1729
▁sause	-12.1729
▁saveurs	-12.1729
▁savor	-12.1729
▁saying	-12.1729
▁sbd	-12.1729
▁scale	-12.1729
▁scandinavian	-12.1729
▁scared	-12.1729
▁scd	-12.1729
▁schar	-12.1729
▁scharffen	-12.1729
▁schedule	-12.1729
▁scoop	-12.1729
▁scratcher	-12.1729
▁scratchy	-12.1729
▁screen	-12.1729
▁screw	-12.1729
▁scrumptuous	-12.1729
▁seas	-12.1729
▁seashells	-12.1729
▁seattles	-12.1729
▁secretly	-12.1729
▁secure	-12.1729
▁seedy	-12.1729
▁seeking	-12.1729
▁seemingly	-12.1729
▁seitan	-12.1729
▁selling	-12.1729
▁sen	-12.1729
▁senso	-12.1729
▁separate	-12.1729
▁separated	-12.1729
▁separation	-12.1729
▁sept	-12.1729
▁serendipitea	-12.1729
▁serviceable	-12.1729
▁sesmark	-12.1729
▁settle	-12.1729
▁severely	-12.1729
▁shall	-12.1729
▁shapes	-12.1729
▁sharon	-12.1729
▁shattering	-12.1729
▁shedding	-12.1729
▁sheila	-12.1729
▁shiba	-12.1729
▁shiitake	-12.1729
▁shine	-12.1729
▁shirt	-12.1729
▁shortage	-12.1729
▁shortcake	-12.1729
▁shorter	-12.1729
▁shots	-12.1729
▁shrunk	-12.1729
▁sickening	-12.1729
▁sickly	-12.1729
▁sigh	-12.1729
▁silicon	-12.1729
▁siljans	-12.1729
▁similiar	-12.1729
▁simplified	-12.1729
▁sippin	-12.1729
▁sirloin	-12.1729
▁sis	-12.1729
▁skeptic	-12.1729
▁ski	-12.1729
▁skillets	-12.1729
▁skinless	-12.1729
▁skinner	-12.1729
▁slavery	-12.1729
▁slicer	-12.1729
▁sludge	-12.1729
▁smackin	-12.1729
▁smallest	-12.1729
▁smarties	-12.1729
▁smiles	-12.1729
▁smiley	-12.1729
▁smokies	-12.1729
▁smokiness	-12.1729
▁smooooth	-12.1729
▁smoother	-12.1729
▁smores	-12.1729
▁snak	-12.1729
▁snapper	-12.1729
▁snapz	-12.1729
▁snikiddy	-12.1729
▁snobs	-12.1729
▁snuff	-12.1729
▁sockeye	-12.1729
▁socks	-12.1729
▁sol	-12.1729
▁sole	-12.1729
▁solids	-12.1729
▁solo	-12.1729
▁somehow	-12.1729
▁sooooooo	-12.1729
▁sooooooooo	-12.1729
▁soooooooooo	-12.1729
▁sophie	-12.1729
▁sorbet	-12.1729
▁sorghum	-12.1729
▁sorts	-12.1729
▁soynut	-12.1729
▁spangler	-12.1729
▁sparkles	-12.1729
▁spat	-12.1729
▁spd	-12.1729
▁speak	-12.1729
▁speaking	-12.1729
▁specialties	-12.1729
▁specific	-12.1729
▁spicing	-12.1729
▁spike	-12.1729
▁spills	-12.1729
▁spinal	-12.1729
▁spiral	-12.1729
▁spirit	-12.1729
▁spirited	-12.1729
▁spite	-12.1729
▁spitting	-12.1729
▁splash	-12.1729
▁splinters	-12.1729
▁split	-12.1729
▁spoil	-12.1729
▁spoils	-12.1729
▁sponge	-12.1729
▁spouse	-12.1729
▁sprouter	-12.1729
▁squash	-12.1729
▁squid	-12.1729
▁squirrel	-12.1729
▁squirts	-12.1729
▁sriracha	-12.1729
▁stain	-12.1729
▁stalks	-12.1729
▁standby	-12.1729
▁stands	-12.1729
▁staples	-12.1729
▁starburst	-12.1729
▁starts	-12.1729
▁stateside	-12.1729
▁steamed	-12.1729
▁steamer	-12.1729
▁steeping	-12.1729
▁stems	-12.1729
▁stephen	-12.1729
▁stevita	-12.1729
▁sticker	-12.1729
▁sticking	-12.1729
▁stiff	-12.1729
▁stimulant	-12.1729
▁stoked	-12.1729
▁stopping	-12.1729
▁stops	-12.1729
▁stormy	-12.1729
▁stove	-12.1729
▁stover	-12.1729
▁strangely	-12.1729
▁stream	-12.1729
▁street	-12.1729
▁stressful	-12.1729
▁stride	-12.1729
▁strikes	-12.1729
▁stripe	-12.1729
▁study	-12.1729
▁subscribed	-12.1729
▁subsitute	-12.1729
▁substitution	-12.1729
▁sucked	-12.1729
▁sucre	-12.1729
▁suddenly	-12.1729
▁suffer	-12.1729
▁sufferer	-12.1729
▁suffering	-12.1729
▁sugared	-12.1729
▁sumac	-12.1729
▁sunday	-12.1729
▁sunny	-12.1729
▁surgery	-12.1729
▁surprises	-12.1729
▁surprizingly	-12.1729
▁survive	-12.1729
▁suspect	-12.1729
▁suspicious	-12.1729
▁sustainable	-12.1729
▁swear	-12.1729
▁sweat	-12.1729
▁sweeties	-12.1729
▁sweety	-12.1729
▁symphony	-12.1729
▁systems	-12.1729
▁tabouli	-12.1729
▁tacs	-12.1729
▁tale	-12.1729
▁tales	-12.1729
▁tapioca	-12.1729
▁tastebuds	-12.1729
▁tasteful	-12.1729
▁tastiness	-12.1729
▁taters	-12.1729
▁tb	-12.1729
▁teacher	-12.1729
▁tears	-12.1729
▁teaspoon	-12.1729
▁teatime	-12.1729
▁tel	-12.1729
▁temp	-12.1729
▁temptation	-12.1729
▁tenderloin	-12.1729
▁tenders	-12.1729
▁tendons	-12.1729
▁tepid	-12.1729
▁terriers	-12.1729
▁tetley	-12.1729
▁tetra	-12.1729
▁tex	-12.1729
▁theses	-12.1729
▁thickening	-12.1729
▁thinkthin	-12.1729
▁thinner	-12.1729
▁thoroughly	-12.1729
▁thrill	-12.1729
▁thriving	-12.1729
▁thrown	-12.1729
▁thunk	-12.1729
▁thw	-12.1729
▁ti	-12.1729
▁tidy	-12.1729
▁tier	-12.1729
▁tight	-12.1729
▁timey	-12.1729
▁tingle	-12.1729
▁tobacco	-12.1729
▁tobasco	-12.1729
▁tokyo	-12.1729
▁told	-12.1729
▁tolerable	-12.1729
▁tolerate	-12.1729
▁tomatillo	-12.1729
▁tone	-12.1729
▁toner	-12.1729
▁tony	-12.1729
▁tooo	-12.1729
▁toooo	-12.1729
▁tooooo	-12.1729
▁toppers	-12.1729
▁tots	-12.1729
▁trading	-12.1729
▁transition	-12.1729
▁trays	-12.1729
▁treasures	-12.1729
▁treated	-12.1729
▁trek	-12.1729
▁trial	-12.1729
▁tries	-12.1729
▁trifle	-12.1729
▁trigger	-12.1729
▁triscuits	-12.1729
▁trivedi	-12.1729
▁trixie	-12.1729
▁troops	-12.1729
▁trout	-12.1729
▁truck	-12.1729
▁truely	-12.1729
▁tube	-12.1729
▁tucson	-12.1729
▁tweaks	-12.1729
▁twinkies	-12.1729
▁twizzler	-12.1729
▁uck	-12.1729
▁uhmmm	-12.1729
▁umame	-12.1729
▁unappetizing	-12.1729
▁unbearably	-12.1729
▁unbelivably	-12.1729
▁understatement	-12.1729
▁underweight	-12.1729
▁underwhelmed	-12.1729
▁unfortunate	-12.1729
▁uninspiring	-12.1729
▁uniquely	-12.1729
▁unmarked	-12.1729
▁unpasteurized	-12.1729
▁unreal	-12.1729
▁unreasonably	-12.1729
▁unsafe	-12.1729
▁unstable	-12.1729
▁untouched	-12.1729
▁updating	-12.1729
▁upscale	-12.1729
▁usda	-12.1729
▁users	-12.1729
▁ut	-12.1729
▁vacation	-12.1729
▁valuable	-12.1729
▁vaniilla	-12.1729
▁variation	-12.1729
▁varies	-12.1729
▁vastly	-12.1729
▁veggiedent	-12.1729
▁vegie	-12.1729
▁vending	-12.1729
▁vernors	-12.1729
▁verses	-12.1729
▁versitile	-12.1729
▁versus	-12.1729
▁vertical	-12.1729
▁veterinary	-12.1729
▁victor	-12.1729
▁vidalia	-12.1729
▁vinegary	-12.1729
▁visiting	-12.1729
▁vitakraft	-12.1729
▁vital	-12.1729
▁vitaminy	-12.1729
▁viva	-12.1729
▁vizsla	-12.1729
▁vomited	-12.1729
▁vroom	-12.1729
▁waaaaay	-12.1729
▁waaay	-12.1729
▁wales	-12.1729
▁wallet	-12.1729
▁waltz	-12.1729
▁warming	-12.1729
▁warn	-12.1729
▁warnings	-12.1729
▁wax	-12.1729
▁wayyy	-12.1729
▁wayyyy	-12.1729
▁wean	-12.1729
▁weaned	-12.1729
▁weapon	-12.1729
▁weaver	-12.1729
▁weavers	-12.1729
▁weber	-12.1729
▁website	-12.1729
▁wee	-12.1729
▁weightwatchers	-12.1729
▁weirdest	-12.1729
▁welch	-12.1729
▁whatta	-12.1729
▁wheaten	-12.1729
▁wheatgrass	-12.1729
▁whisker	-12.1729
▁whoppers	-12.1729
▁wicked	-12.1729
▁wide	-12.1729
▁widely	-12.1729
▁williamsburg	-12.1729
▁wines	-12.1729
▁wintergreen	-12.1729
▁wired	-12.1729
▁wisdom	-12.1729
▁wished	-12.1729
▁woofs	-12.1729
▁wooo	-12.1729
▁workable	-12.1729
▁worm	-12.1729
▁wowed	-12.1729
▁wp	-12.1729
▁wrapper	-12.1729
▁wrappers	-12.1729
▁wrigley	-12.1729
▁written	-12.1729
▁wt	-12.1729
▁wylde	-12.1729
▁wyler	-12.1729
▁xxx	-12.1729
▁yak	-12.1729
▁yakisoba	-12.1729
▁yesterday	-12.1729
▁yogourmet	-12.1729
▁yoo	-12.1729
▁yuch	-12.1729
▁yumberry	-12.1729
▁yummeh	-12.1729
▁yummi	-12.1729
▁yummilicious	-12.1729
▁yummmmmm	-12.1729
▁yummmmmmm	-12.1729
▁yummmmmmmmm	-12.1729
▁yummmmmmy	-12.1729
▁yuuum	-12.1729
▁zest	-12.1729
▁zeus	-12.1729
▁ziggies	-12.1729
▁zingy	-12.1729
▁zipfizz	-12.1729
▁ziplock	-12.1729
▁zippy	-12.1729
▁zola	-12.1729
▁zone	-12.1729
▁zoom	-12.1729
▁zots	-12.1729
▁zwieback	-12.1729
▁aa	-12.866
▁aaa	-12.866
▁aaaaaaaaaaacccckkkkk	-12.866
▁aaaah	-12.866
▁aaaarrrrrgggghhhhh	-12.866
▁aaaccchhh	-12.866
▁aaamazing	-12.866
▁aachener	-12.866
▁aaverage	-12.866
▁aawesome	-12.866
▁abandon	-12.866
▁abba	-12.866
▁abbott	-12.866
▁abby	-12.866
▁abd	-12.866
▁abit	-12.866
▁abject	-12.866
▁aboard	-12.866
▁abolutely	-12.866
▁abomination	-12.866
▁abominations	-12.866
▁aboslutely	-12.866
▁abound	-12.866
▁abroad	-12.866
▁absence	-12.866
▁absolutly	-12.866
▁absorbable	-12.866
▁absorbe	-12.866
▁absorbed	-12.866
▁absotively	-12.866
▁absoutely	-12.866
▁absurdly	-12.866
▁abundantly	-12.866
▁abused	-12.866
▁acacia	-12.866
▁accessorize	-12.866
▁accessory	-12.866
▁accidental	-12.866
▁accidently	-12.866
▁accoutrements	-12.866
▁accuracy	-12.866
▁ace	-12.866
▁acer	-12.866
▁acesulfame	-12.866
▁acheivement	-12.866
▁achiote	-12.866
▁achva	-12.866
▁acidity	-12.866
▁acini	-12.866
▁ack	-12.866
▁ackee	-12.866
▁acknowledged	-12.866
▁acquiring	-12.866
▁acre	-12.866
▁acres	-12.866
▁acting	-12.866
▁activate	-12.866
▁activities	-12.866
▁activity	-12.866
▁acually	-12.866
▁acute	-12.866
▁acv	-12.866
▁adam	-12.866
▁adams	-12.866
▁addatives	-12.866
▁addicition	-12.866
▁addictions	-12.866
▁addins	-12.866
▁addtion	-12.866
▁ade	-12.866
▁adequacy	-12.866
▁adjust	-12.866
▁adjustable	-12.866
▁adjustment	-12.866
▁adjustments	-12.866
▁administer	-12.866
▁administering	-12.866
▁adored	-12.866
▁ads	-12.866
▁adsvertised	-12.866
▁aduki	-12.866
▁advanced	-12.866
▁adventuresome	-12.866
▁adventurist	-12.866
▁advertises	-12.866
▁advertisment	-12.866
▁advertizing	-12.866
▁advice	-12.866
▁advise	-12.866
▁advising	-12.866
▁advocate	-12.866
▁advocated	-12.866
▁adzukis	-12.866
▁aeroshots	-12.866
▁affects	-12.866
▁afficionados	-12.866
▁afghanistan	-12.866
▁aficionado	-12.866
▁aficionados	-12.866
▁aftermath	-12.866
▁aftertase	-12.866
▁afterwards	-12.866
▁agava	-12.866
▁agavae	-12.866
▁agian	-12.866
▁agramonte	-12.866
▁agreeable	-12.866
▁agrees	-12.866
▁agro	-12.866
▁agua	-12.866
▁ahem	-12.866
▁ahh	-12.866
▁ahhhhhhh	-12.866
▁ahhhhhhhhhh	-12.866
▁ahhhhhhhhhhh	-12.866
▁aids	-12.866
▁ailments	-12.866
▁ails	-12.866
▁airplane	-12.866
▁airpop	-12.866
▁airport	-12.866
▁airtight	-12.866
▁airy	-12.866
▁aji	-12.866
▁ajinomoto	-12.866
▁ak	-12.866
▁akaline	-12.866
▁akita	-12.866
▁albanese	-12.866
▁albiet	-12.866
▁albums	-12.866
▁alchemy	-12.866
▁alcoholic	-12.866
▁alder	-12.866
▁alergies	-12.866
▁alergy	-12.866
▁ales	-12.866
▁alex	-12.866
▁alfalfa	-12.866
▁alien	-12.866
▁alkalinity	-12.866
▁allayed	-12.866
▁allegro	-12.866
▁allergenic	-12.866
▁allocation	-12.866
▁allright	-12.866
▁allspice	-12.866
▁alltime	-12.866
▁alo	-12.866
▁aloha	-12.866
▁alots	-12.866
▁alpen	-12.866
▁alphabet	-12.866
▁alpine	-12.866
▁alredy	-12.866
▁als	-12.866
▁alsosalt	-12.866
▁alterantive	-12.866
▁altitude	-12.866
▁altogether	-12.866
▁alvita	-12.866
▁alway	-12.866
▁amaaaaaaazing	-12.866
▁amaizing	-12.866
▁amaranth	-12.866
▁amarena	-12.866
▁amareno	-12.866
▁amarula	-12.866
▁amazeballs	-12.866
▁amazement	-12.866
▁amazes	-12.866
▁amazin	-12.866
▁amazinggggg	-12.866
▁amazingness	-12.866
▁amazom	-12.866
▁amazons	-12.866
▁amazubg	-12.866
▁amazzon	-12.866
▁ambassador	-12.866
▁ambitious	-12.866
▁ambrosial	-12.866
▁americana	-12.866
▁americano	-12.866
▁americas	-12.866
▁amiss	-12.866
▁amla	-12.866
▁amond	-12.866
▁amongus	-12.866
▁amonia	-12.866
▁amos	-12.866
▁amt	-12.866
▁amusement	-12.866
▁amyr	-12.866
▁amys	-12.866
▁amzn	-12.866
▁anal	-12.866
▁analysis	-12.866
▁anasazi	-12.866
▁anaya	-12.866
▁anchovettefan	-12.866
▁ancients	-12.866
▁andouille	-12.866
▁andy	-12.866
▁anemic	-12.866
▁anette	-12.866
▁angeles	-12.866
▁angelo	-12.866
▁anglina	-12.866
▁angrily	-12.866
▁anita	-12.866
▁annas	-12.866
▁anne	-12.866
▁anneeavon	-12.866
▁annies	-12.866
▁announcement	-12.866
▁annoyed	-12.866
▁annuum	-12.866
▁ans	-12.866
▁answered	-12.866
▁anthon	-12.866
▁antibiotics	-12.866
▁antifreeze	-12.866
▁anxiously	-12.866
▁anybody	-12.866
▁anyday	-12.866
▁anythign	-12.866
▁anythining	-12.866
▁ap	-12.866
▁apache	-12.866
▁apartment	-12.866
▁apartments	-12.866
▁ape	-12.866
▁apo	-12.866
▁apologize	-12.866
▁appalling	-12.866
▁appassionato	-12.866
▁appeals	-12.866
▁appetit	-12.866
▁appititizer	-12.866
▁applejacks	-12.866
▁applesauces	-12.866
▁applewood	-12.866
▁applications	-12.866
▁applied	-12.866
▁approachable	-12.866
▁approcable	-12.866
▁aproved	-12.866
▁aptly	-12.866
▁ara	-12.866
▁arabic	-12.866
▁arangement	-12.866
▁arare	-12.866
▁arcor	-12.866
▁ardbeg	-12.866
▁aren	-12.866
▁argan	-12.866
▁argentina	-12.866
▁argh	-12.866
▁arghh	-12.866
▁arguably	-12.866
▁arial	-12.866
▁arifoglu	-12.866
▁aristocrats	-12.866
▁arm	-12.866
▁armani	-12.866
▁armed	-12.866
▁army	-12.866
▁aromatherapy	-12.866
▁arram	-12.866
▁arrangement	-12.866
▁array	-12.866
▁arrowroot	-12.866
▁arsenc	-12.866
▁artemis	-12.866
▁artery	-12.866
▁artesanal	-12.866
▁artesian	-12.866
▁arthritic	-12.866
▁arthur	-12.866
▁artichoke	-12.866
▁article	-12.866
▁artificialish	-12.866
▁artisan	-12.866
▁artists	-12.866
▁artwork	-12.866
▁asada	-12.866
▁asbach	-12.866
▁ashes	-12.866
▁asheville	-12.866
▁ashtray	-12.866
▁ashwagandha	-12.866
▁asking	-12.866
▁asleep	-12.866
▁aspects	-12.866
▁asphalt	-12.866
▁aspie	-12.866
▁assault	-12.866
▁assembled	-12.866
▁associated	-12.866
▁assort	-12.866
▁assortments	-12.866
▁asthmatics	-12.866
▁astragalus	-12.866
▁astringent	-12.866
▁ateco	-12.866
▁ater	-12.866
▁atheletes	-12.866
▁athlete	-12.866
▁atlantic	-12.866
▁attached	-12.866
▁attack	-12.866
▁attacks	-12.866
▁attract	-12.866
▁attracted	-12.866
▁attracts	-12.866
▁attributes	-12.866
▁aug	-12.866
▁augmented	-12.866
▁augustine	-12.866
▁auralee	-12.866
▁austin	-12.866
▁australia	-12.866
▁austria	-12.866
▁authenic	-12.866
▁autolyzed	-12.866
▁automatics	-12.866
▁autoship	-12.866
▁auzzie	-12.866
▁av	-12.866
▁availability	-12.866
▁avaliable	-12.866
▁aveda	-12.866
▁avenue	-12.866
▁avocado	-12.866
▁avp	-12.866
▁await	-12.866
▁awaits	-12.866
▁awakener	-12.866
▁awat	-12.866
▁awe	-12.866
▁aweome	-12.866
▁aweseom	-12.866
▁awesom	-12.866
▁awesomest	-12.866
▁awesomness	-12.866
▁awkward	-12.866
▁awome	-12.866
▁awsomely	-12.866
▁awsone	-12.866
▁awsum	-12.866
▁awwesome	-12.866
▁awwwesom	-12.866
▁axe	-12.866
▁ayerim	-12.866
▁azar	-12.866
▁azeite	-12.866
▁azteca	-12.866
▁azuki	-12.866
▁ba	-12.866
▁baaaad	-12.866
▁bab	-12.866
▁babbling	-12.866
▁babie	-12.866
▁babs	-12.866
▁babyback	-12.866
▁babybmom	-12.866
▁babycat	-12.866
▁babyfood	-12.866
▁babygirl	-12.866
▁babymama	-12.866
▁babysitting	-12.866
▁bacalo	-12.866
▁backcountry	-12.866
▁backing	-12.866
▁backorders	-12.866
▁baconlicious	-12.866
▁badia	-12.866
▁badoit	-12.866
▁baggies	-12.866
▁baguettes	-12.866
▁baklawah	-12.866
▁bakto	-12.866
▁balalnced	-12.866
▁balances	-12.866
▁baldness	-12.866
▁ballerina	-12.866
▁ballin	-12.866
▁ballistic	-12.866
▁balloon	-12.866
▁ballpark	-12.866
▁balsamico	-12.866
▁bambinos	-12.866
▁bananamon	-12.866
▁bananna	-12.866
▁bandito	-12.866
▁bandits	-12.866
▁baneful	-12.866
▁bangalla	-12.866
▁bangin	-12.866
▁banned	-12.866
▁banyak	-12.866
▁barbara	-12.866
▁barbi	-12.866
▁barcelona	-12.866
▁bare	-12.866
▁barf	-12.866
▁barfy	-12.866
▁bargan	-12.866
▁bargin	-12.866
▁bargus	-12.866
▁bariani	-12.866
▁barking	-12.866
▁barlean	-12.866
▁barleygrass	-12.866
▁barolo	-12.866
▁barrel	-12.866
▁barrier	-12.866
▁barrista	-12.866
▁bartenders	-12.866
▁basalmic	-12.866
▁basement	-12.866
▁bases	-12.866
▁bashed	-12.866
▁basics	-12.866
▁basketeers	-12.866
▁basketwas	-12.866
▁basomic	-12.866
▁basque	-12.866
▁basset	-12.866
▁bassetts	-12.866
▁bast	-12.866
▁bastardized	-12.866
▁basting	-12.866
▁bathe	-12.866
▁baths	-12.866
▁battery	-12.866
▁bayer	-12.866
▁bayleaves	-12.866
▁bayside	-12.866
▁bbb	-12.866
▁bbo	-12.866
▁bbqed	-12.866
▁beachside	-12.866
▁beagles	-12.866
▁beano	-12.866
▁beauitful	-12.866
▁beautfiul	-12.866
▁beautifully	-12.866
▁beaver	-12.866
▁bebea	-12.866
▁bec	-12.866
▁becareful	-12.866
▁becomes	-12.866
▁bedding	-12.866
▁bedpost	-12.866
▁beeautiful	-12.866
▁beefaroni	-12.866
▁beefeater	-12.866
▁beefeaters	-12.866
▁beefed	-12.866
▁beefs	-12.866
▁beefsteak	-12.866
▁beekeeper	-12.866
▁beet	-12.866
▁beetle	-12.866
▁beetlegeuse	-12.866
▁beetles	-12.866
▁beeyond	-12.866
▁beg	-12.866
▁began	-12.866
▁begged	-12.866
▁beginner	-12.866
▁beginning	-12.866
▁begins	-12.866
▁begrudgingly	-12.866
▁belabor	-12.866
▁belch	-12.866
▁belgians	-12.866
▁belgium	-12.866
▁believing	-12.866
▁belive	-12.866
▁belize	-12.866
▁belizean	-12.866
▁bellagio	-12.866
▁belle	-12.866
▁bellini	-12.866
▁bells	-12.866
▁bellys	-12.866
▁belongs	-12.866
▁beloved	-12.866
▁belts	-12.866
▁ben	-12.866
▁bending	-12.866
▁bengal	-12.866
▁benji	-12.866
▁benny	-12.866
▁benocol	-12.866
▁benriach	-12.866
▁bent	-12.866
▁berbere	-12.866
▁berg	-12.866
▁bernese	-12.866
▁berritious	-12.866
▁berrymint	-12.866
▁besides	-12.866
▁bestest	-12.866
▁bestj	-12.866
▁beter	-12.866
▁betteer	-12.866
▁bev	-12.866
▁bevvie	-12.866
▁bewildering	-12.866
▁bewitching	-12.866
▁bex	-12.866
▁beyone	-12.866
▁bezos	-12.866
▁bf	-12.866
▁bht	-12.866
▁bhut	-12.866
▁bibi	-12.866
▁bible	-12.866
▁bicuits	-12.866
▁bien	-12.866
▁biermann	-12.866
▁bigfamilybound	-12.866
▁bigs	-12.866
▁biking	-12.866
▁bikram	-12.866
▁biltmore	-12.866
▁binghamton	-12.866
▁biobags	-12.866
▁biodegrable	-12.866
▁biodegrade	-12.866
▁biog	-12.866
▁bionaturae	-12.866
▁bionature	-12.866
▁bioneem	-12.866
▁bionutritional	-12.866
▁biotic	-12.866
▁biryani	-12.866
▁biscoti	-12.866
▁biscottis	-12.866
▁biscottti	-12.866
▁biscuitlets	-12.866
▁biscuiuts	-12.866
▁bisli	-12.866
▁bison	-12.866
▁bisphenol	-12.866
▁bisquik	-12.866
▁bissinger	-12.866
▁bisulfite	-12.866
▁bitty	-12.866
▁bizomb	-12.866
▁bk	-12.866
▁blaahh	-12.866
▁blackbox	-12.866
▁blackcat	-12.866
▁blade	-12.866
▁blam	-12.866
▁blanched	-12.866
▁blarhhhh	-12.866
▁blazin	-12.866
▁bleach	-12.866
▁bleah	-12.866
▁blechhhh	-12.866
▁bleckkkk	-12.866
▁bleech	-12.866
▁bleeech	-12.866
▁bleeps	-12.866
▁blehkhkhkhk	-12.866
▁blendz	-12.866
▁blenheim	-12.866
▁blent	-12.866
▁bless	-12.866
▁blew	-12.866
▁blissfully	-12.866
▁bloat	-12.866
▁blocks	-12.866
▁bloddy	-12.866
▁blooded	-12.866
▁blooms	-12.866
▁blosson	-12.866
▁blotto	-12.866
▁blown	-12.866
▁bluberry	-12.866
▁blueberrys	-12.866
▁bluffalo	-12.866
▁blurb	-12.866
▁boar	-12.866
▁boasts	-12.866
▁boatnik	-12.866
▁boccaccio	-12.866
▁bodywash	-12.866
▁bohemian	-12.866
▁boil	-12.866
▁boils	-12.866
▁boldest	-12.866
▁boldness	-12.866
▁boldo	-12.866
▁bolds	-12.866
▁boletus	-12.866
▁bolognese	-12.866
▁bomber	-12.866
▁bombs	-12.866
▁bombz	-12.866
▁bonai	-12.866
▁bonarda	-12.866
▁boney	-12.866
▁bong	-12.866
▁bonomo	-12.866
▁bons	-12.866
▁bonta	-12.866
▁boogers	-12.866
▁boogery	-12.866
▁boosters	-12.866
▁bootlegging	-12.866
▁booze	-12.866
▁boozie	-12.866
▁bordering	-12.866
▁borderline	-12.866
▁bore	-12.866
▁bored	-12.866
▁bosch	-12.866
▁boscoli	-12.866
▁bot	-12.866
▁botanica	-12.866
▁bothered	-12.866
▁bothering	-12.866
▁bots	-12.866
▁botulism	-12.866
▁bouchees	-12.866
▁boulder	-12.866
▁boulion	-12.866
▁boullion	-12.866
▁bovril	-12.866
▁bowlful	-12.866
▁bowtie	-12.866
▁boxers	-12.866
▁boyardee	-12.866
▁boycott	-12.866
▁br	-12.866
▁braaaaaiins	-12.866
▁bracing	-12.866
▁braggs	-12.866
▁brain	-12.866
▁brains	-12.866
▁bramahputra	-12.866
▁branch	-12.866
▁brandi	-12.866
▁brandie	-12.866
▁brandt	-12.866
▁brasa	-12.866
▁brass	-12.866
▁brats	-12.866
▁bratwurst	-12.866
▁brava	-12.866
▁breadcrumbs	-12.866
▁breadmaker	-12.866
▁breadshop	-12.866
▁breafast	-12.866
▁breajfast	-12.866
▁breakage	-12.866
▁brealfast	-12.866
▁breasfeeding	-12.866
▁breastfeed	-12.866
▁breastmilk	-12.866
▁breasts	-12.866
▁breathalicious	-12.866
▁breathies	-12.866
▁breathsaver	-12.866
▁bred	-12.866
▁breeders	-12.866
▁breeds	-12.866
▁breezes	-12.866
▁breezy	-12.866
▁brekkies	-12.866
▁bremner	-12.866
▁brewbot	-12.866
▁brewmaster	-12.866
▁bri	-12.866
▁brian	-12.866
▁brianna	-12.866
▁bribe	-12.866
▁bricks	-12.866
▁bridal	-12.866
▁brie	-12.866
▁brief	-12.866
▁briel	-12.866
▁brillant	-12.866
▁bringing	-12.866
▁brisket	-12.866
▁brisling	-12.866
▁brit	-12.866
▁brite	-12.866
▁britian	-12.866
▁britishness	-12.866
▁briton	-12.866
▁brm	-12.866
▁broadway	-12.866
▁brocolli	-12.866
▁brodies	-12.866
▁brojken	-12.866
▁brokedown	-12.866
▁bromley	-12.866
▁brontosaurus	-12.866
▁brookside	-12.866
▁brookstone	-12.866
▁brothu	-12.866
▁browie	-12.866
▁browns	-12.866
▁brunch	-12.866
▁brunswick	-12.866
▁bruschetta	-12.866
▁brussels	-12.866
▁brutal	-12.866
▁brutto	-12.866
▁bsn	-12.866
▁bubblemint	-12.866
▁bucket	-12.866
▁buckeye	-12.866
▁buckle	-12.866
▁buddie	-12.866
▁buena	-12.866
▁buffered	-12.866
▁buffet	-12.866
▁bugged	-12.866
▁buggy	-12.866
▁bugsy	-12.866
▁build	-12.866
▁builder	-12.866
▁bulb	-12.866
▁bulgogi	-12.866
▁bulldogge	-12.866
▁bulletin	-12.866
▁bullets	-12.866
▁bullion	-12.866
▁bullseye	-12.866
▁bullseyes	-12.866
▁bullys	-12.866
▁bullystick	-12.866
▁bullysticks	-12.866
▁bum	-12.866
▁bumbling	-12.866
▁bumbly	-12.866
▁bummer	-12.866
▁bumps	-12.866
▁bundt	-12.866
▁bungee	-12.866
▁bunn	-12.866
▁bunnell	-12.866
▁buono	-12.866
▁burgess	-12.866
▁burke	-12.866
▁burma	-12.866
▁burnout	-12.866
▁burp	-12.866
▁burritos	-12.866
▁bury	-12.866
▁bushes	-12.866
▁bushmills	-12.866
▁bust	-12.866
▁busted	-12.866
▁bustelo	-12.866
▁busymom	-12.866
▁buttercream	-12.866
▁butterscotches	-12.866
▁butterwort	-12.866
▁buttons	-12.866
▁butts	-12.866
▁buuter	-12.866
▁buuut	-12.866
▁bux	-12.866
▁buyyer	-12.866
▁buzz	-12.866
▁buzzz	-12.866
▁buzzzzzzzzzz	-12.866
▁bvi	-12.866
▁bylers	-12.866
▁byproducts	-12.866
▁byrd	-12.866
▁caamel	-12.866
▁cabbage	-12.866
▁cabernet	-12.866
▁cabinets	-12.866
▁cactus	-12.866
▁cadburys	-12.866
▁caddydaddy	-12.866
▁cadet	-12.866
▁cadillac	-12.866
▁cafeine	-12.866
▁caffeien	-12.866
▁caffene	-12.866
▁caffitaly	-12.866
▁cage	-12.866
▁cairn	-12.866
▁cak	-12.866
▁cakea	-12.866
▁caked	-12.866
▁caliopes	-12.866
▁callard	-12.866
▁caloric	-12.866
▁calumet	-12.866
▁camel	-12.866
▁camelbak	-12.866
▁camellia	-12.866
▁camouflaged	-12.866
▁campari	-12.866
▁campbells	-12.866
▁campervan	-12.866
▁canadian	-12.866
▁canadies	-12.866
▁cancel	-12.866
▁cancelled	-12.866
▁candida	-12.866
▁candle	-12.866
▁candycane	-12.866
▁canfield	-12.866
▁cani	-12.866
▁canines	-12.866
▁canisters	-12.866
▁cannedtomatoes	-12.866
▁cannellina	-12.866
▁cannellini	-12.866
▁cannibal	-12.866
▁canterbury	-12.866
▁canyon	-12.866
▁capacino	-12.866
▁capelin	-12.866
▁capers	-12.866
▁capital	-12.866
▁capitalizing	-12.866
▁cappaccina	-12.866
▁cappaccino	-12.866
▁cappachino	-12.866
▁cappacino	-12.866
▁cappucchino	-12.866
▁cappuccinos	-12.866
▁cappuccion	-12.866
▁cappuchino	-12.866
▁capsicum	-12.866
▁capsule	-12.866
▁capt	-12.866
▁captiva	-12.866
▁captivating	-12.866
▁capture	-12.866
▁carame	-12.866
▁carameliscious	-12.866
▁caramellos	-12.866
▁caravan	-12.866
▁carber	-12.866
▁carbon	-12.866
▁carbons	-12.866
▁carbquik	-12.866
▁cardemom	-12.866
▁cardia	-12.866
▁cardini	-12.866
▁cards	-12.866
▁cared	-12.866
▁career	-12.866
▁careless	-12.866
▁caries	-12.866
▁caring	-12.866
▁carmelo	-12.866
▁carmels	-12.866
▁carnivore	-12.866
▁carol	-12.866
▁carolina	-12.866
▁carpeting	-12.866
▁carraway	-12.866
▁carrie	-12.866
▁carrier	-12.866
▁carrs	-12.866
▁carrys	-12.866
▁carson	-12.866
▁cart	-12.866
▁carte	-12.866
▁cartoon	-12.866
▁cartridges	-12.866
▁casbah	-12.866
▁casein	-12.866
▁cases	-12.866
▁castmember	-12.866
▁castor	-12.866
▁castorum	-12.866
▁casue	-12.866
▁catcher	-12.866
▁catches	-12.866
▁catechin	-12.866
▁caterpillar	-12.866
▁cattie	-12.866
▁cattledogs	-12.866
▁cautions	-12.866
▁cautious	-12.866
▁caveman	-12.866
▁cavenders	-12.866
▁cavities	-12.866
▁cavity	-12.866
▁cbtl	-12.866
▁cburgett	-12.866
▁cc	-12.866
▁cccc	-12.866
▁cd	-12.866
▁cdm	-12.866
▁ceegars	-12.866
▁ceejay	-12.866
▁cel	-12.866
▁celcius	-12.866
▁celebrate	-12.866
▁celebrating	-12.866
▁cement	-12.866
▁cemt	-12.866
▁centerpiece	-12.866
▁centerpieces	-12.866
▁century	-12.866
▁cerial	-12.866
▁cerified	-12.866
▁certifiably	-12.866
▁certification	-12.866
▁certs	-12.866
▁cesaly	-12.866
▁cessna	-12.866
▁cfl	-12.866
▁cfls	-12.866
▁cft	-12.866
▁chachere	-12.866
▁chacun	-12.866
▁chaff	-12.866
▁chain	-12.866
▁chained	-12.866
▁chains	-12.866
▁chairs	-12.866
▁chais	-12.866
▁chakra	-12.866
▁chalkolate	-12.866
▁challenge	-12.866
▁chamomille	-12.866
▁chamonix	-12.866
▁champagne	-12.866
▁champion	-12.866
▁chana	-12.866
▁chanakara	-12.866
▁channa	-12.866
▁channels	-12.866
▁chanted	-12.866
▁chapli	-12.866
▁char	-12.866
▁character	-12.866
▁characteristic	-12.866
▁charcoal	-12.866
▁charged	-12.866
▁charity	-12.866
▁charles	-12.866
▁charleston	-12.866
▁charlies	-12.866
▁chcolate	-12.866
▁che	-12.866
▁cheapened	-12.866
▁cheaply	-12.866
▁cheapness	-12.866
▁cheat	-12.866
▁cheddars	-12.866
▁chee	-12.866
▁cheecha	-12.866
▁cheeeeeeeez	-12.866
▁cheeky	-12.866
▁cheerful	-12.866
▁cheeries	-12.866
▁cheerio	-12.866
▁cheers	-12.866
▁cheeses	-12.866
▁cheesoning	-12.866
▁cheesymac	-12.866
▁cheeta	-12.866
▁cheeto	-12.866
▁cheezit	-12.866
▁chefs	-12.866
▁chem	-12.866
▁chereos	-12.866
▁cheri	-12.866
▁cheries	-12.866
▁cherios	-12.866
▁cherrios	-12.866
▁cherrybrook	-12.866
▁cherryness	-12.866
▁cherryz	-12.866
▁chester	-12.866
▁chestnut	-12.866
▁chewable	-12.866
▁chewed	-12.866
▁chewie	-12.866
▁chewies	-12.866
▁chewiness	-12.866
▁chewrrific	-12.866
▁chez	-12.866
▁chg	-12.866
▁chichen	-12.866
▁chickedn	-12.866
▁chickenstrip	-12.866
▁chicket	-12.866
▁chickle	-12.866
▁chickne	-12.866
▁chickory	-12.866
▁chickpz	-12.866
▁chicldren	-12.866
▁chiclets	-12.866
▁chiken	-12.866
▁chikn	-12.866
▁chilada	-12.866
▁childs	-12.866
▁chileheads	-12.866
▁chilies	-12.866
▁chincoteague	-12.866
▁chino	-12.866
▁chipolte	-12.866
▁chipotles	-12.866
▁chipottle	-12.866
▁chipzorz	-12.866
▁chivey	-12.866
▁chix	-12.866
▁chloe	-12.866
▁chlorophyll	-12.866
▁chocalates	-12.866
▁chocholate	-12.866
▁choci	-12.866
▁chock	-12.866
▁choclatei	-12.866
▁chocmod	-12.866
▁chocoalte	-12.866
▁chococate	-12.866
▁chocoholic	-12.866
▁chocolage	-12.866
▁chocolatemint	-12.866
▁chocolite	-12.866
▁chocoloates	-12.866
▁chocophile	-12.866
▁chocula	-12.866
▁choise	-12.866
▁choked	-12.866
▁cholesteral	-12.866
▁choloate	-12.866
▁chooses	-12.866
▁chop	-12.866
▁choplet	-12.866
▁chops	-12.866
▁chopstick	-12.866
▁choy	-12.866
▁chriken	-12.866
▁chris	-12.866
▁chrisp	-12.866
▁chrisps	-12.866
▁christian	-12.866
▁christine	-12.866
▁christmastime	-12.866
▁chucks	-12.866
▁chug	-12.866
▁church	-12.866
▁ci	-12.866
▁ciabatta	-12.866
▁ciacco	-12.866
▁ciao	-12.866
▁cicco	-12.866
▁cichlids	-12.866
▁cielo	-12.866
▁cigar	-12.866
▁cigarette	-12.866
▁cigars	-12.866
▁cilantro	-12.866
▁cin	-12.866
▁cinammon	-12.866
▁cindy	-12.866
▁cinema	-12.866
▁cinnamin	-12.866
▁cinnammon	-12.866
▁cinnamony	-12.866
▁ciocolati	-12.866
▁circulation	-12.866
▁cirque	-12.866
▁civet	-12.866
▁civilization	-12.866
▁cjs	-12.866
▁claimed	-12.866
▁clamshell	-12.866
▁clara	-12.866
▁clarification	-12.866
▁clarity	-12.866
▁clarityconnect	-12.866
▁clas	-12.866
▁clash	-12.866
▁clasico	-12.866
▁classically	-12.866
▁classico	-12.866
▁classics	-12.866
▁classroom	-12.866
▁cleanest	-12.866
▁cleanse	-12.866
▁cleansing	-12.866
▁clerk	-12.866
▁cleverly	-12.866
▁clicky	-12.866
▁client	-12.866
▁cliff	-12.866
▁climb	-12.866
▁climbing	-12.866
▁clinic	-12.866
▁clinical	-12.866
▁clipper	-12.866
▁clippings	-12.866
▁cll	-12.866
▁clorets	-12.866
▁clorox	-12.866
▁closely	-12.866
▁cloth	-12.866
▁clothing	-12.866
▁cloud	-12.866
▁cloveaload	-12.866
▁cloyingly	-12.866
▁clue	-12.866
▁clueless	-12.866
▁clumpiness	-12.866
▁clumping	-12.866
▁clumpy	-12.866
▁coachman	-12.866
▁coats	-12.866
▁cocanut	-12.866
▁cocconut	-12.866
▁cock	-12.866
▁cocoanut	-12.866
▁cocoas	-12.866
▁cocolate	-12.866
▁coconuts	-12.866
▁code	-12.866
▁cofe	-12.866
▁coffeelicious	-12.866
▁coffeelover	-12.866
▁coffeemaker	-12.866
▁coffeemate	-12.866
▁coffemate	-12.866
▁coffrr	-12.866
▁cognac	-12.866
▁cognitive	-12.866
▁colas	-12.866
▁cole	-12.866
▁coleus	-12.866
▁colic	-12.866
▁collar	-12.866
▁collars	-12.866
▁collectables	-12.866
▁collecting	-12.866
▁collusion	-12.866
▁colman	-12.866
▁colon	-12.866
▁colorado	-12.866
▁colored	-12.866
▁colour	-12.866
▁colters	-12.866
▁columbia	-12.866
▁columbine	-12.866
▁columbus	-12.866
▁columela	-12.866
▁combined	-12.866
▁combs	-12.866
▁comeback	-12.866
▁comedy	-12.866
▁comieron	-12.866
▁comin	-12.866
▁commander	-12.866
▁commercially	-12.866
▁commercials	-12.866
▁commerically	-12.866
▁committee	-12.866
▁common	-12.866
▁communes	-12.866
▁communication	-12.866
▁comparatively	-12.866
▁comparing	-12.866
▁compenents	-12.866
▁competing	-12.866
▁competitions	-12.866
▁competiton	-12.866
▁competive	-12.866
▁compiment	-12.866
▁complaining	-12.866
▁complaint	-12.866
▁complements	-12.866
▁compliment	-12.866
▁complimented	-12.866
▁compliments	-12.866
▁compomise	-12.866
▁component	-12.866
▁composition	-12.866
▁compost	-12.866
▁composting	-12.866
▁compressed	-12.866
▁compromised	-12.866
▁compromising	-12.866
▁comvita	-12.866
▁concensus	-12.866
▁concessions	-12.866
▁conch	-12.866
▁concious	-12.866
▁concord	-12.866
▁concur	-12.866
▁condensor	-12.866
▁condiments	-12.866
▁conditioned	-12.866
▁coney	-12.866
▁confectionery	-12.866
▁confirm	-12.866
▁confirmed	-12.866
▁confirms	-12.866
▁conflicting	-12.866
▁confuses	-12.866
▁confusion	-12.866
▁congou	-12.866
▁conitioner	-12.866
▁connecticut	-12.866
▁connective	-12.866
▁conned	-12.866
▁conniebella	-12.866
▁connoiseur	-12.866
▁conoisseur	-12.866
▁conoscete	-12.866
▁conrbread	-12.866
▁conscientious	-12.866
▁considerate	-12.866
▁consideration	-12.866
▁considers	-12.866
▁consistancy	-12.866
▁constipating	-12.866
▁consul	-12.866
▁consult	-12.866
▁consumable	-12.866
▁consume	-12.866
▁consummate	-12.866
▁contact	-12.866
▁containing	-12.866
▁containment	-12.866
▁contaminated	-12.866
▁contend	-12.866
▁contessa	-12.866
▁context	-12.866
▁contolled	-12.866
▁contract	-12.866
▁contrast	-12.866
▁conumdrum	-12.866
▁conveient	-12.866
▁conveinient	-12.866
▁conveniet	-12.866
▁conveniient	-12.866
▁convention	-12.866
▁converting	-12.866
▁convienence	-12.866
▁convieniance	-12.866
▁convinced	-12.866
▁convincing	-12.866
▁convinient	-12.866
▁cooca	-12.866
▁cookingat	-12.866
▁cookyfied	-12.866
▁cooldown	-12.866
▁coolers	-12.866
▁coookie	-12.866
▁coooool	-12.866
▁cooper	-12.866
▁coopersmith	-12.866
▁cop	-12.866
▁copper	-12.866
▁copycat	-12.866
▁coral	-12.866
▁corazonas	-12.866
▁cords	-12.866
▁cored	-12.866
▁coriander	-12.866
▁cork	-12.866
▁corned	-12.866
▁corner	-12.866
▁corners	-12.866
▁cornucopia	-12.866
▁cornuts	-12.866
▁corporate	-12.866
▁corporation	-12.866
▁corraled	-12.866
▁corrosive	-12.866
▁corte	-12.866
▁costcos	-12.866
▁cote	-12.866
▁cottie	-12.866
▁couch	-12.866
▁coughing	-12.866
▁coulda	-12.866
▁counterpart	-12.866
▁counters	-12.866
▁countertop	-12.866
▁counting	-12.866
▁countries	-12.866
▁countrywild	-12.866
▁counts	-12.866
▁couples	-12.866
▁coupon	-12.866
▁courrant	-12.866
▁cousin	-12.866
▁coustomer	-12.866
▁cove	-12.866
▁covenient	-12.866
▁cover	-12.866
▁coverage	-12.866
▁coverature	-12.866
▁covering	-12.866
▁covers	-12.866
▁cowabunga	-12.866
▁cozy	-12.866
▁cp	-12.866
▁cr	-12.866
▁crabs	-12.866
▁crackertilla	-12.866
▁crackle	-12.866
▁craft	-12.866
▁crafting	-12.866
▁cranberriesi	-12.866
▁cranberrys	-12.866
▁crapes	-12.866
▁craved	-12.866
▁crawfish	-12.866
▁crawlers	-12.866
▁crawlies	-12.866
▁crawling	-12.866
▁crayons	-12.866
▁crea	-12.866
▁creapy	-12.866
▁creates	-12.866
▁creations	-12.866
▁creature	-12.866
▁cremes	-12.866
▁creole	-12.866
▁crepe	-12.866
▁crernchers	-12.866
▁crf	-12.866
▁cri	-12.866
▁criminally	-12.866
▁cringing	-12.866
▁crinkle	-12.866
▁crinklecut	-12.866
▁crips	-12.866
▁cripsy	-12.866
▁crispness	-12.866
▁crisy	-12.866
▁critic	-12.866
▁criticize	-12.866
▁criticized	-12.866
▁critter	-12.866
▁crix	-12.866
▁croatia	-12.866
▁crockpots	-12.866
▁crocks	-12.866
▁croissants	-12.866
▁crookers	-12.866
▁crop	-12.866
▁cross	-12.866
▁crossing	-12.866
▁crowns	-12.866
▁cruchy	-12.866
▁crud	-12.866
▁cruelty	-12.866
▁cruise	-12.866
▁crumbling	-12.866
▁crumby	-12.866
▁crummy	-12.866
▁cruncha	-12.866
▁crunched	-12.866
▁crunchers	-12.866
▁crunchier	-12.866
▁crunchmaster	-12.866
▁crush	-12.866
▁crushedcookies	-12.866
▁cruz	-12.866
▁crwon	-12.866
▁cs	-12.866
▁cubed	-12.866
▁cuddleycat	-12.866
▁cuevo	-12.866
▁cultured	-12.866
▁cumin	-12.866
▁cupajoe	-12.866
▁cupsbig	-12.866
▁curative	-12.866
▁curb	-12.866
▁curcumin	-12.866
▁curd	-12.866
▁cures	-12.866
▁curl	-12.866
▁curly	-12.866
▁currently	-12.866
▁curries	-12.866
▁currytastic	-12.866
▁custardy	-12.866
▁custom	-12.866
▁cuter	-12.866
▁cutest	-12.866
▁cutie	-12.866
▁cuts	-12.866
▁cvs	-12.866
▁cyanocobalamin	-12.866
▁cyclists	-12.866
▁cypress	-12.866
▁cystitis	-12.866
▁dabba	-12.866
▁daddies	-12.866
▁dadgummed	-12.866
▁dads	-12.866
▁dak	-12.866
▁dalmatian	-12.866
▁damanged	-12.866
▁damged	-12.866
▁damp	-12.866
▁dances	-12.866
▁dandelion	-12.866
▁danged	-12.866
▁dangerouse	-12.866
▁danielle	-12.866
▁dank	-12.866
▁dansk	-12.866
▁dapper	-12.866
▁darkchocolate	-12.866
▁darkness	-12.866
▁das	-12.866
▁dasaquin	-12.866
▁dashed	-12.866
▁data	-12.866
▁datacenter	-12.866
▁dating	-12.866
▁daugter	-12.866
▁davidoff	-12.866
▁davids	-12.866
▁daviola	-12.866
▁dawg	-12.866
▁dawgie	-12.866
▁dawgs	-12.866
▁dazzle	-12.866
▁dba	-12.866
▁dc	-12.866
▁dddddddddddelicious	-12.866
▁ddddddddddeeeeelicious	-12.866
▁ddlicious	-12.866
▁dea	-12.866
▁dealer	-12.866
▁dealing	-12.866
▁dean	-12.866
▁dear	-12.866
▁deaths	-12.866
▁debbie	-12.866
▁debbiec	-12.866
▁debby	-12.866
▁deborah	-12.866
▁dec	-12.866
▁decade	-12.866
▁decaffinated	-12.866
▁decal	-12.866
▁deceitful	-12.866
▁deceived	-12.866
▁decently	-12.866
▁decidedly	-12.866
▁deciding	-12.866
▁decietful	-12.866
▁decieving	-12.866
▁declicious	-12.866
▁declined	-12.866
▁decor	-12.866
▁decorate	-12.866
▁decorative	-12.866
▁decreased	-12.866
▁decreases	-12.866
▁deed	-12.866
▁deee	-12.866
▁deeeeee	-12.866
▁deeeeeeeeelicious	-12.866
▁deeeeelicios	-12.866
▁deeeeelishis	-12.866
▁deeeelicious	-12.866
▁deen	-12.866
▁default	-12.866
▁defect	-12.866
▁defend	-12.866
▁defines	-12.866
▁deflating	-12.866
▁defurr	-12.866
▁dela	-12.866
▁delallo	-12.866
▁delcicious	-12.866
▁delecious	-12.866
▁delectible	-12.866
▁delectilicious	-12.866
▁delete	-12.866
▁delfa	-12.866
▁delice	-12.866
▁deliciouis	-12.866
▁deliciuous	-12.866
▁delious	-12.866
▁deliscioso	-12.866
▁deliscious	-12.866
▁delishhhh	-12.866
▁delishious	-12.866
▁deliveries	-12.866
▁delivering	-12.866
▁delouse	-12.866
▁delsious	-12.866
▁deltona	-12.866
▁delvery	-12.866
▁demanding	-12.866
▁demands	-12.866
▁demerara	-12.866
▁demi	-12.866
▁demitri	-12.866
▁denmark	-12.866
▁denna	-12.866
▁denta	-12.866
▁dentabites	-12.866
▁dentals	-12.866
▁denture	-12.866
▁departure	-12.866
▁dependably	-12.866
▁deployments	-12.866
▁depression	-12.866
▁deprived	-12.866
▁derivative	-12.866
▁derived	-12.866
▁dermatologist	-12.866
▁descent	-12.866
▁describes	-12.866
▁descript	-12.866
▁descriptipon	-12.866
▁descripton	-12.866
▁deserved	-12.866
▁desir	-12.866
▁desolve	-12.866
▁despenser	-12.866
▁despised	-12.866
▁dessaux	-12.866
▁destoy	-12.866
▁destrooper	-12.866
▁destruction	-12.866
▁destructive	-12.866
▁detail	-12.866
▁detangle	-12.866
▁detangles	-12.866
▁detangling	-12.866
▁detect	-12.866
▁deterent	-12.866
▁detergent	-12.866
▁deterrent	-12.866
▁detest	-12.866
▁deutschland	-12.866
▁developing	-12.866
▁devils	-12.866
▁devliery	-12.866
▁devoid	-12.866
▁devonshire	-12.866
▁devotee	-12.866
▁dewclaws	-12.866
▁dexter	-12.866
▁dfr	-12.866
▁dfw	-12.866
▁dgs	-12.866
▁diagnosed	-12.866
▁diagnosis	-12.866
▁diahrea	-12.866
▁diameter	-12.866
▁dianaiv	-12.866
▁diapers	-12.866
▁diarhea	-12.866
▁diary	-12.866
▁dibetics	-12.866
▁dice	-12.866
▁dices	-12.866
▁dicey	-12.866
▁dick	-12.866
▁dictionary	-12.866
▁didnot	-12.866
▁dido	-12.866
▁dieta	-12.866
▁differ	-12.866
▁differenet	-12.866
▁differentiate	-12.866
▁differently	-12.866
▁differing	-12.866
▁differnt	-12.866
▁digestable	-12.866
▁digesting	-12.866
▁digestions	-12.866
▁digestives	-12.866
▁diggity	-12.866
▁digital	-12.866
▁digusting	-12.866
▁dijonnaise	-12.866
▁dilemma	-12.866
▁dim	-12.866
▁dimension	-12.866
▁diminishes	-12.866
▁dimond	-12.866
▁dinaosaurs	-12.866
▁diners	-12.866
▁dinky	-12.866
▁dino	-12.866
▁dinosaur	-12.866
▁dinty	-12.866
▁diont	-12.866
▁dipped	-12.866
▁dippin	-12.866
▁directgardening	-12.866
▁directmuz	-12.866
▁director	-12.866
▁dirtied	-12.866
▁dirties	-12.866
▁disagree	-12.866
▁disagreeable	-12.866
▁disappears	-12.866
▁disappointly	-12.866
▁disappointments	-12.866
▁disapponted	-12.866
▁discard	-12.866
▁discerning	-12.866
▁disconcerting	-12.866
▁discount	-12.866
▁discounted	-12.866
▁discover	-12.866
▁discovering	-12.866
▁discrepancy	-12.866
▁discription	-12.866
▁discripton	-12.866
▁discussion	-12.866
▁discusting	-12.866
▁disfigured	-12.866
▁disguised	-12.866
▁disgust	-12.866
▁disgusted	-12.866
▁dishwater	-12.866
▁disintegrates	-12.866
▁disliked	-12.866
▁disneyland	-12.866
▁disolve	-12.866
▁dispelled	-12.866
▁dispensing	-12.866
▁displaced	-12.866
▁disposakup	-12.866
▁disregard	-12.866
▁dissapointingly	-12.866
▁dissapointment	-12.866
▁dissappionted	-12.866
▁dissecting	-12.866
▁dissolvable	-12.866
▁distraction	-12.866
▁distractor	-12.866
▁distracts	-12.866
▁distress	-12.866
▁distribute	-12.866
▁distributor	-12.866
▁distrust	-12.866
▁ditto	-12.866
▁diverse	-12.866
▁divinity	-12.866
▁dixie	-12.866
▁djla	-12.866
▁dljardins	-12.866
▁dm	-12.866
▁dmrf	-12.866
▁dnazeck	-12.866
▁doa	-12.866
▁dob	-12.866
▁doc	-12.866
▁doctoring	-12.866
▁dodger	-12.866
▁doest	-12.866
▁doge	-12.866
▁dogfoodadvisor	-12.866
▁doggiemom	-12.866
▁doggon	-12.866
▁doggymom	-12.866
▁doglover	-12.866
▁dognutz	-12.866
▁dogsbar	-12.866
▁dogslove	-12.866
▁dogwell	-12.866
▁doh	-12.866
▁doll	-12.866
▁domatcha	-12.866
▁dome	-12.866
▁dominant	-12.866
▁dominated	-12.866
▁domino	-12.866
▁donate	-12.866
▁donau	-12.866
▁donkey	-12.866
▁donor	-12.866
▁donovan	-12.866
▁doodle	-12.866
▁doogswell	-12.866
▁doom	-12.866
▁doone	-12.866
▁doors	-12.866
▁doorstep	-12.866
▁dora	-12.866
▁dorkie	-12.866
▁dorming	-12.866
▁dorset	-12.866
▁dose	-12.866
▁doses	-12.866
▁dot	-12.866
▁douane	-12.866
▁doublemint	-12.866
▁doubling	-12.866
▁doubtful	-12.866
▁doubtlessly	-12.866
▁doubts	-12.866
▁doughnut	-12.866
▁doughy	-12.866
▁douglas	-12.866
▁downs	-12.866
▁downside	-12.866
▁downsize	-12.866
▁downsized	-12.866
▁doxies	-12.866
▁doy	-12.866
▁dozen	-12.866
▁drab	-12.866
▁dragging	-12.866
▁dragonfruit	-12.866
▁dragonwell	-12.866
▁drain	-12.866
▁drained	-12.866
▁dramatic	-12.866
▁drambuie	-12.866
▁drano	-12.866
▁drawers	-12.866
▁dreamafields	-12.866
▁dreamfield	-12.866
▁dreamiest	-12.866
▁dreamy	-12.866
▁dreary	-12.866
▁dress	-12.866
▁drfostersmith	-12.866
▁driest	-12.866
▁drikable	-12.866
▁drinkin	-12.866
▁dripping	-12.866
▁driver	-12.866
▁driving	-12.866
▁drizzled	-12.866
▁drool	-12.866
▁droppers	-12.866
▁drowsiness	-12.866
▁drugs	-12.866
▁drugstore	-12.866
▁drybyma	-12.866
▁dryed	-12.866
▁drying	-12.866
▁dubble	-12.866
▁dubious	-12.866
▁dublin	-12.866
▁ducky	-12.866
▁dud	-12.866
▁duds	-12.866
▁duke	-12.866
▁dull	-12.866
▁dummies	-12.866
▁dummy	-12.866
▁dumond	-12.866
▁dumonde	-12.866
▁dump	-12.866
▁dumped	-12.866
▁duncanwolfe	-12.866
▁dunk	-12.866
▁dunker	-12.866
▁dunking	-12.866
▁duplicates	-12.866
▁dura	-12.866
▁durability	-12.866
▁durango	-12.866
▁duration	-12.866
▁durn	-12.866
▁duster	-12.866
▁dusting	-12.866
▁dutchess	-12.866
▁dweller	-12.866
▁dwellers	-12.866
▁dxn	-12.866
▁dysplasia	-12.866
▁earlier	-12.866
▁earn	-12.866
▁earnest	-12.866
▁earthmate	-12.866
▁earthquake	-12.866
▁eased	-12.866
▁eases	-12.866
▁eathy	-12.866
▁eatible	-12.866
▁ebay	-12.866
▁ecellent	-12.866
▁eckodirect	-12.866
▁eco	-12.866
▁ecological	-12.866
▁ecology	-12.866
▁ecomonical	-12.866
▁economically	-12.866
▁ecstatic	-12.866
▁ecuador	-12.866
▁edaname	-12.866
▁edges	-12.866
▁edibles	-12.866
▁edogs	-12.866
▁educator	-12.866
▁edulis	-12.866
▁eeeeeewwwwwww	-12.866
▁eeeeewwww	-12.866
▁eeeehhh	-12.866
▁eeevvveeerrr	-12.866
▁eeeww	-12.866
▁eeewwww	-12.866
▁eehhh	-12.866
▁eek	-12.866
▁efagold	-12.866
▁eff	-12.866
▁effervescent	-12.866
▁effiecient	-12.866
▁effing	-12.866
▁egad	-12.866
▁egbert	-12.866
▁eggalicious	-12.866
▁eggling	-12.866
▁eggo	-12.866
▁eggos	-12.866
▁eggplant	-12.866
▁eggy	-12.866
▁egypt	-12.866
▁ehhhhhhhhh	-12.866
▁ehkkkkkkkkkkkkkkk	-12.866
▁einkorn	-12.866
▁ekobrewers	-12.866
▁elbirret	-12.866
▁electrocution	-12.866
▁electrolyte	-12.866
▁elegance	-12.866
▁elements	-12.866
▁eliminated	-12.866
▁eliminates	-12.866
▁elizabeth	-12.866
▁elk	-12.866
▁elm	-12.866
▁elno	-12.866
▁elusive	-12.866
▁elvis	-12.866
▁ely	-12.866
▁emails	-12.866
▁embark	-12.866
▁embarrassing	-12.866
▁emerill	-12.866
▁emerls	-12.866
▁emlee	-12.866
▁emma	-12.866
▁empaque	-12.866
▁emperor	-12.866
▁emphasis	-12.866
▁empties	-12.866
▁emril	-12.866
▁emulates	-12.866
▁emulsion	-12.866
▁encountered	-12.866
▁encourage	-12.866
▁endorsed	-12.866
▁endulgence	-12.866
▁enegry	-12.866
▁energize	-12.866
▁enery	-12.866
▁engineering	-12.866
▁englis	-12.866
▁enhance	-12.866
▁enhanced	-12.866
▁enjoyful	-12.866
▁enjoyment	-12.866
▁enought	-12.866
▁enoyment	-12.866
▁ensure	-12.866
▁entertain	-12.866
▁entertains	-12.866
▁enthusiasm	-12.866
▁enthusiast	-12.866
▁enthusiastically	-12.866
▁enticing	-12.866
▁entrega	-12.866
▁enviroment	-12.866
▁enviromentally	-12.866
▁envy	-12.866
▁eos	-12.866
▁epa	-12.866
▁ephedra	-12.866
▁epic	-12.866
▁epicurean	-12.866
▁epsom	-12.866
▁equals	-12.866
▁erin	-12.866
▁erlin	-12.866
▁ermahgerd	-12.866
▁erosion	-12.866
▁errands	-12.866
▁errr	-12.866
▁es	-12.866
▁escessive	-12.866
▁espanol	-12.866
▁essiac	-12.866
▁est	-12.866
▁estense	-12.866
▁etari	-12.866
▁eternal	-12.866
▁ether	-12.866
▁ethoxyquin	-12.866
▁etible	-12.866
▁etoufee	-12.866
▁etter	-12.866
▁eukanuba	-12.866
▁eureka	-12.866
▁eurogrocer	-12.866
▁eva	-12.866
▁evah	-12.866
▁evarrrrrr	-12.866
▁evenings	-12.866
▁evenly	-12.866
▁event	-12.866
▁events	-12.866
▁everday	-12.866
▁everlast	-12.866
▁everrrrrrrr	-12.866
▁everyonee	-12.866
▁everyway	-12.866
▁evian	-12.866
▁eviscerator	-12.866
▁evokes	-12.866
▁eware	-12.866
▁excagrot	-12.866
▁excallent	-12.866
▁excatally	-12.866
▁exceed	-12.866
▁exceeds	-12.866
▁excekkent	-12.866
▁excellency	-12.866
▁excellente	-12.866
▁excelllent	-12.866
▁excellnent	-12.866
▁exception	-12.866
▁exceptions	-12.866
▁excite	-12.866
▁excllent	-12.866
▁exclusive	-12.866
▁excpected	-12.866
▁excuses	-12.866
▁execellent	-12.866
▁executed	-12.866
▁executive	-12.866
▁exeedingly	-12.866
▁exelente	-12.866
▁exellent	-12.866
▁exfoliator	-12.866
▁exhisted	-12.866
▁exhorbitant	-12.866
▁existence	-12.866
▁exorbitant	-12.866
▁expand	-12.866
▁expanding	-12.866
▁expections	-12.866
▁expedited	-12.866
▁expen	-12.866
▁expensiv	-12.866
▁expensively	-12.866
▁experiece	-12.866
▁experienced	-12.866
▁experiments	-12.866
▁experts	-12.866
▁expesnive	-12.866
▁expierence	-12.866
▁expiratioin	-12.866
▁expiring	-12.866
▁explain	-12.866
▁explode	-12.866
▁exploded	-12.866
▁exploring	-12.866
▁expo	-12.866
▁export	-12.866
▁exposed	-12.866
▁expressions	-12.866
▁exprince	-12.866
▁extendbars	-12.866
▁extender	-12.866
▁external	-12.866
▁extinct	-12.866
▁extinguishing	-12.866
▁extortionate	-12.866
▁extrabland	-12.866
▁extrabold	-12.866
▁extras	-12.866
▁extravagance	-12.866
▁extrs	-12.866
▁exxxtra	-12.866
▁eyeballs	-12.866
▁eyelids	-12.866
▁ezekiel	-12.866
▁ezing	-12.866
▁fabalous	-12.866
▁fabbri	-12.866
▁fabullis	-12.866
▁fabulously	-12.866
▁faced	-12.866
▁facy	-12.866
▁fad	-12.866
▁fade	-12.866
▁faek	-12.866
▁fage	-12.866
▁fageolets	-12.866
▁failing	-12.866
▁fairness	-12.866
▁fairtrade	-12.866
▁faithful	-12.866
▁fajita	-12.866
▁falcon	-12.866
▁fallin	-12.866
▁falling	-12.866
▁falsely	-12.866
▁falvor	-12.866
▁familiar	-12.866
▁famoly	-12.866
▁famously	-12.866
▁fanastic	-12.866
▁fanasy	-12.866
▁fanatics	-12.866
▁fanfreakintastic	-12.866
▁fanstastico	-12.866
▁fantabulastical	-12.866
▁fantastice	-12.866
▁fantstic	-12.866
▁farmed	-12.866
▁farmers	-12.866
▁farro	-12.866
▁fart	-12.866
▁farts	-12.866
▁fascinate	-12.866
▁fascinating	-12.866
▁fashioneds	-12.866
▁fastic	-12.866
▁fasting	-12.866
▁fatal	-12.866
▁fatigue	-12.866
▁fatter	-12.866
▁fattier	-12.866
▁fattoria	-12.866
▁faucet	-12.866
▁favorable	-12.866
▁favorate	-12.866
▁favored	-12.866
▁favoritte	-12.866
▁favority	-12.866
▁favour	-12.866
▁favourites	-12.866
▁favs	-12.866
▁favulous	-12.866
▁fazermint	-12.866
▁fearing	-12.866
▁fearmongering	-12.866
▁fears	-12.866
▁feathers	-12.866
▁fect	-12.866
▁feeder	-12.866
▁feeders	-12.866
▁feeds	-12.866
▁feint	-12.866
▁felicity	-12.866
▁felidae	-12.866
▁fellas	-12.866
▁female	-12.866
▁fencing	-12.866
▁fentiman	-12.866
▁feodora	-12.866
▁fer	-12.866
▁fermented	-12.866
▁fern	-12.866
▁ferrero	-12.866
▁fertilizer	-12.866
▁festive	-12.866
▁feta	-12.866
▁fettuccini	-12.866
▁fettucini	-12.866
▁ff	-12.866
▁ffffiiiinnnnnaaaaallllyyyyy	-12.866
▁fiasco	-12.866
▁fica	-12.866
▁fickel	-12.866
▁fields	-12.866
▁fifi	-12.866
▁fifties	-12.866
▁fifty	-12.866
▁figgy	-12.866
▁fighting	-12.866
▁fiji	-12.866
▁filbert	-12.866
▁filberts	-12.866
▁filets	-12.866
▁filing	-12.866
▁film	-12.866
▁fils	-12.866
▁filthy	-12.866
▁fincky	-12.866
▁findings	-12.866
▁fined	-12.866
▁finely	-12.866
▁finland	-12.866
▁finn	-12.866
▁finniky	-12.866
▁finnish	-12.866
▁fiocchi	-12.866
▁fiore	-12.866
▁fisheater	-12.866
▁fishies	-12.866
▁fitastic	-12.866
▁fitness	-12.866
▁fixdhealthcare	-12.866
▁fixer	-12.866
▁fixin	-12.866
▁fixins	-12.866
▁fizzier	-12.866
▁flair	-12.866
▁flakey	-12.866
▁flame	-12.866
▁flamin	-12.866
▁flaming	-12.866
▁flan	-12.866
▁flaovr	-12.866
▁flap	-12.866
▁flapjacks	-12.866
▁flapper	-12.866
▁flare	-12.866
▁flash	-12.866
▁flatbreads	-12.866
▁flats	-12.866
▁flav	-12.866
▁flavacal	-12.866
▁flaver	-12.866
▁flavered	-12.866
▁flavorcol	-12.866
▁flavorite	-12.866
▁flavorles	-12.866
▁flavourful	-12.866
▁flaws	-12.866
▁flea	-12.866
▁flesh	-12.866
▁flexible	-12.866
▁flintstones	-12.866
▁flip	-12.866
▁floating	-12.866
▁floors	-12.866
▁flop	-12.866
▁flopl	-12.866
▁floppy	-12.866
▁flor	-12.866
▁floss	-12.866
▁flosser	-12.866
▁flossie	-12.866
▁flossies	-12.866
▁flourer	-12.866
▁flouride	-12.866
▁flovor	-12.866
▁flowering	-12.866
▁flowing	-12.866
▁flows	-12.866
▁fluctuations	-12.866
▁fluffypants	-12.866
▁fluoridated	-12.866
▁fluoride	-12.866
▁flushable	-12.866
▁flushed	-12.866
▁flyboy	-12.866
▁flyer	-12.866
▁foams	-12.866
▁foamy	-12.866
▁focaccia	-12.866
▁focussed	-12.866
▁fod	-12.866
▁foe	-12.866
▁fofanalana	-12.866
▁fogchaser	-12.866
▁folger	-12.866
▁followed	-12.866
▁fomula	-12.866
▁fondarific	-12.866
▁fondor	-12.866
▁foo	-12.866
▁fooddoestastegood	-12.866
▁foodie	-12.866
▁foodshouldtastethisgood	-12.866
▁fools	-12.866
▁foood	-12.866
▁footballs	-12.866
▁force	-12.866
▁forces	-12.866
▁forgiving	-12.866
▁forgotten	-12.866
▁fork	-12.866
▁format	-12.866
▁formed	-12.866
▁formular	-12.866
▁formulas	-12.866
▁formulated	-12.866
▁forsaken	-12.866
▁fortnightly	-12.866
▁fortunate	-12.866
▁foryou	-12.866
▁foulest	-12.866
▁foundational	-12.866
▁fourbucks	-12.866
▁fours	-12.866
▁foxie	-12.866
▁fracaso	-12.866
▁fraction	-12.866
▁fragmented	-12.866
▁fragments	-12.866
▁francais	-12.866
▁francaise	-12.866
▁frances	-12.866
▁frankenstein	-12.866
▁frankenwheat	-12.866
▁franks	-12.866
▁frap	-12.866
▁frappacino	-12.866
▁frappacinos	-12.866
▁frappes	-12.866
▁frapps	-12.866
▁frappucino	-12.866
▁fraps	-12.866
▁frapuccino	-12.866
▁fraudulent	-12.866
▁frdinker	-12.866
▁freah	-12.866
▁freaken	-12.866
▁freaks	-12.866
▁freaky	-12.866
▁frecuency	-12.866
▁freedom	-12.866
▁freehot	-12.866
▁freezing	-12.866
▁freezy	-12.866
▁frenchie	-12.866
▁frenchies	-12.866
▁frenchs	-12.866
▁frenzy	-12.866
▁fresca	-12.866
▁freshens	-12.866
▁fria	-12.866
▁frichik	-12.866
▁frickin	-12.866
▁friedman	-12.866
▁frieds	-12.866
▁frienly	-12.866
▁frijoles	-12.866
▁frills	-12.866
▁fringe	-12.866
▁frisbee	-12.866
▁frise	-12.866
▁frites	-12.866
▁fritters	-12.866
▁frizzy	-12.866
▁fro	-12.866
▁froth	-12.866
▁froze	-12.866
▁frst	-12.866
▁frugal	-12.866
▁fruitbasket	-12.866
▁fruitfly	-12.866
▁fruitless	-12.866
▁fruitofthecali	-12.866
▁frustrated	-12.866
▁frustrating	-12.866
▁frustratingly	-12.866
▁frustration	-12.866
▁ft	-12.866
▁ftw	-12.866
▁fudgetastic	-12.866
▁fufu	-12.866
▁fuhgeddaboudit	-12.866
▁fuji	-12.866
▁fukien	-12.866
▁fukushima	-12.866
▁ful	-12.866
▁fulvic	-12.866
▁functionality	-12.866
▁functions	-12.866
▁fund	-12.866
▁funds	-12.866
▁funfilled	-12.866
▁funfresh	-12.866
▁fungus	-12.866
▁fungusamongus	-12.866
▁funicello	-12.866
▁funnel	-12.866
▁funnier	-12.866
▁funyuns	-12.866
▁furballs	-12.866
▁fussiness	-12.866
▁futz	-12.866
▁fyis	-12.866
▁ga	-12.866
▁gaaaawwwwdddd	-12.866
▁gaaak	-12.866
▁gaggia	-12.866
▁gained	-12.866
▁galil	-12.866
▁gallbladder	-12.866
▁gallery	-12.866
▁gamble	-12.866
▁gamer	-12.866
▁gang	-12.866
▁gano	-12.866
▁ganola	-12.866
▁ganoush	-12.866
▁gansito	-12.866
▁garbanzos	-12.866
▁garbonzo	-12.866
▁gardener	-12.866
▁gardeners	-12.866
▁gardetto	-12.866
▁garibaldi	-12.866
▁garibalkdi	-12.866
▁garlicky	-12.866
▁garnish	-12.866
▁garynec	-12.866
▁gaseous	-12.866
▁gasm	-12.866
▁gasoline	-12.866
▁gastro	-12.866
▁gastronomic	-12.866
▁gate	-12.866
▁gather	-12.866
▁gathers	-12.866
▁gawd	-12.866
▁gayle	-12.866
▁gcoffee	-12.866
▁geber	-12.866
▁geckos	-12.866
▁gehl	-12.866
▁gelato	-12.866
▁gelee	-12.866
▁gelling	-12.866
▁genesis	-12.866
▁genetically	-12.866
▁geneva	-12.866
▁genie	-12.866
▁genitals	-12.866
▁genmaicha	-12.866
▁genova	-12.866
▁gensing	-12.866
▁gentlease	-12.866
▁genuinely	-12.866
▁george	-12.866
▁georgia	-12.866
▁gerald	-12.866
▁gerd	-12.866
▁gerda	-12.866
▁geriatrics	-12.866
▁germantown	-12.866
▁getcha	-12.866
▁getta	-12.866
▁gettin	-12.866
▁gfi	-12.866
▁gfinternational	-12.866
▁gfree	-12.866
▁ggts	-12.866
▁ghar	-12.866
▁ghc	-12.866
▁gheetastic	-12.866
▁gheez	-12.866
▁gherk	-12.866
▁ghirdelli	-12.866
▁ghosts	-12.866
▁giftable	-12.866
▁gifting	-12.866
▁gigantic	-12.866
▁giggle	-12.866
▁gimbals	-12.866
▁gingernaps	-12.866
▁gingersnap	-12.866
▁giod	-12.866
▁giveaway	-12.866
▁gjetost	-12.866
▁glaceau	-12.866
▁gladys	-12.866
▁glare	-12.866
▁glassjar	-12.866
▁glazes	-12.866
▁glee	-12.866
▁glico	-12.866
▁glistening	-12.866
▁glitch	-12.866
▁glitter	-12.866
▁globe	-12.866
▁glop	-12.866
▁glories	-12.866
▁glorious	-12.866
▁glued	-12.866
▁glueteen	-12.866
▁glutamate	-12.866
▁glutamic	-12.866
▁glutan	-12.866
▁glutatmates	-12.866
▁glute	-12.866
▁glutenated	-12.866
▁glutened	-12.866
▁glutin	-12.866
▁glutne	-12.866
▁glutton	-12.866
▁gma	-12.866
▁gmas	-12.866
▁gmos	-12.866
▁gnaw	-12.866
▁gnawhide	-12.866
▁gnawhides	-12.866
▁gnuts	-12.866
▁goatmilkdrinker	-12.866
▁goaty	-12.866
▁gobbled	-12.866
▁gobbles	-12.866
▁gobbling	-12.866
▁gobbs	-12.866
▁gobs	-12.866
▁gobstoppers	-12.866
▁gochujang	-12.866
▁godvia	-12.866
▁gojis	-12.866
▁golazo	-12.866
▁goldbaren	-12.866
▁goldens	-12.866
▁goldensrule	-12.866
▁goldilocks	-12.866
▁golf	-12.866
▁golfer	-12.866
▁golfers	-12.866
▁gon	-12.866
▁gones	-12.866
▁goobled	-12.866
▁goodi	-12.866
▁goodstuff	-12.866
▁goody	-12.866
▁goofed	-12.866
▁googlie	-12.866
▁gooodddd	-12.866
▁gooooooood	-12.866
▁goooooooood	-12.866
▁gooooooooood	-12.866
▁goop	-12.866
▁goopy	-12.866
▁gooseberries	-12.866
▁gooseberry	-12.866
▁gophers	-12.866
▁gopicnic	-12.866
▁gor	-12.866
▁goreng	-12.866
▁gorgonzola	-12.866
▁gotcha	-12.866
▁gotr	-12.866
▁gouda	-12.866
▁gouge	-12.866
▁gouged	-12.866
▁goulash	-12.866
▁gourmets	-12.866
▁goya	-12.866
▁gr	-12.866
▁gra	-12.866
▁grabbers	-12.866
▁gracee	-12.866
▁gracias	-12.866
▁gracio	-12.866
▁grackles	-12.866
▁graddsas	-12.866
▁graduates	-12.866
▁graduation	-12.866
▁grahms	-12.866
▁grammy	-12.866
▁grand	-12.866
▁grande	-12.866
▁grandkid	-12.866
▁grandmama	-12.866
▁grandpup	-12.866
▁granja	-12.866
▁granolas	-12.866
▁granoloa	-12.866
▁grant	-12.866
▁granularity	-12.866
▁grasses	-12.866
▁grat	-12.866
▁gratefruit	-12.866
▁grateful	-12.866
▁grater	-12.866
▁gratin	-12.866
▁gratitude	-12.866
▁graveyard	-12.866
▁gravies	-12.866
▁gravity	-12.866
▁grazin	-12.866
▁grazing	-12.866
▁grea	-12.866
▁greaaaaaaaaaaaaaat	-12.866
▁greag	-12.866
▁greate	-12.866
▁greater	-12.866
▁greathips	-12.866
▁greatindips	-12.866
▁greatmovie	-12.866
▁greatn	-12.866
▁greats	-12.866
▁greatt	-12.866
▁greattea	-12.866
▁greean	-12.866
▁greece	-12.866
▁greeeeaaaattttt	-12.866
▁greeen	-12.866
▁greeenies	-12.866
▁greekgirl	-12.866
▁greem	-12.866
▁greenbacks	-12.866
▁gregg	-12.866
▁grenadine	-12.866
▁gresock	-12.866
▁greta	-12.866
▁greyhound	-12.866
▁greys	-12.866
▁grillers	-12.866
▁grilln	-12.866
▁grills	-12.866
▁grinders	-12.866
▁grinding	-12.866
▁gringo	-12.866
▁gringos	-12.866
▁gristle	-12.866
▁grittiness	-12.866
▁groats	-12.866
▁groomer	-12.866
▁grooming	-12.866
▁grossest	-12.866
▁grounded	-12.866
▁grounhogs	-12.866
▁groves	-12.866
▁growl	-12.866
▁growls	-12.866
▁grownups	-12.866
▁grrrr	-12.866
▁grrrrrr	-12.866
▁grrrrrreat	-12.866
▁grrrrrrreat	-12.866
▁grrrrrrrreattt	-12.866
▁grunting	-12.866
▁guarantee	-12.866
▁guarentee	-12.866
▁guavas	-12.866
▁guave	-12.866
▁guayaki	-12.866
▁guayusa	-12.866
▁gud	-12.866
▁guessing	-12.866
▁guidelines	-12.866
▁guiltfree	-12.866
▁guinness	-12.866
▁guisada	-12.866
▁gulabjamuns	-12.866
▁gulf	-12.866
▁gullah	-12.866
▁gumbo	-12.866
▁gumdrops	-12.866
▁gummibursts	-12.866
▁gummier	-12.866
▁gummis	-12.866
▁gummys	-12.866
▁guppies	-12.866
▁gussie	-12.866
▁gussies	-12.866
▁gusta	-12.866
▁gustafs	-12.866
▁gut	-12.866
▁guzzle	-12.866
▁guzzler	-12.866
▁habenero	-12.866
▁habitat	-12.866
▁habla	-12.866
▁hack	-12.866
▁hade	-12.866
▁hagen	-12.866
▁haha	-12.866
▁haiga	-12.866
▁haircare	-12.866
▁hairs	-12.866
▁haiti	-12.866
▁halal	-12.866
▁halaleveryday	-12.866
▁haley	-12.866
▁halfs	-12.866
▁hallandale	-12.866
▁hallow	-12.866
▁hamlyn	-12.866
▁hampshire	-12.866
▁hamster	-12.866
▁handi	-12.866
▁handly	-12.866
▁handmade	-12.866
▁handouts	-12.866
▁handpresso	-12.866
▁hangovers	-12.866
▁hannah	-12.866
▁hansen	-12.866
▁hanu	-12.866
▁happpy	-12.866
▁happysqueezes	-12.866
▁happytot	-12.866
▁happytots	-12.866
▁hardart	-12.866
▁hardcore	-12.866
▁hardest	-12.866
▁hardtack	-12.866
▁hardware	-12.866
▁hardwood	-12.866
▁harina	-12.866
▁harley	-12.866
▁harrogate	-12.866
▁hartleys	-12.866
▁hartz	-12.866
▁harves	-12.866
▁hashbrown	-12.866
▁hat	-12.866
▁hatch	-12.866
▁hater	-12.866
▁haters	-12.866
▁haul	-12.866
▁hauling	-12.866
▁haupia	-12.866
▁havahart	-12.866
▁haves	-12.866
▁havestaple	-12.866
▁hawthorne	-12.866
▁hayashi	-12.866
▁hayfever	-12.866
▁hazardously	-12.866
▁hazards	-12.866
▁hazelnutz	-12.866
▁hazer	-12.866
▁hazlwnut	-12.866
▁hazzard	-12.866
▁hc	-12.866
▁heady	-12.866
▁heal	-12.866
▁heallthy	-12.866
▁heals	-12.866
▁healthey	-12.866
▁healthiful	-12.866
▁healtier	-12.866
▁healtthy	-12.866
▁heap	-12.866
▁hearburn	-12.866
▁heartache	-12.866
▁heartbeat	-12.866
▁hearted	-12.866
▁heartiest	-12.866
▁heartwarming	-12.866
▁heartworm	-12.866
▁heated	-12.866
▁heathy	-12.866
▁heavens	-12.866
▁heavier	-12.866
▁heavily	-12.866
▁hefy	-12.866
▁heh	-12.866
▁helen	-12.866
▁hella	-12.866
▁hellmann	-12.866
▁hempster	-12.866
▁hence	-12.866
▁herbalicious	-12.866
▁herbalife	-12.866
▁herbalist	-12.866
▁herbals	-12.866
▁herbash	-12.866
▁herlocher	-12.866
▁herman	-12.866
▁hernia	-12.866
▁herritage	-12.866
▁hers	-12.866
▁hersheys	-12.866
▁hesitation	-12.866
▁hetrbal	-12.866
▁heven	-12.866
▁hexxtra	-12.866
▁hfan	-12.866
▁hgc	-12.866
▁hh	-12.866
▁hiatus	-12.866
▁higgins	-12.866
▁highfat	-12.866
▁highlanders	-12.866
▁highlight	-12.866
▁highlighting	-12.866
▁highlights	-12.866
▁higly	-12.866
▁hikers	-12.866
▁hikes	-12.866
▁hilarious	-12.866
▁hilariously	-12.866
▁hills	-12.866
▁himalayn	-12.866
▁himalyan	-12.866
▁hinges	-12.866
▁hints	-12.866
▁hirt	-12.866
▁historic	-12.866
▁hitch	-12.866
▁hives	-12.866
▁hiziki	-12.866
▁hjv	-12.866
▁hmmmmmm	-12.866
▁hmmmmmmm	-12.866
▁hmo	-12.866
▁hnc	-12.866
▁hoarding	-12.866
▁hob	-12.866
▁hocus	-12.866
▁hoked	-12.866
▁holistique	-12.866
▁holland	-12.866
▁holle	-12.866
▁holmes	-12.866
▁holocaust	-12.866
▁homeade	-12.866
▁homemaker	-12.866
▁homeowner	-12.866
▁homer	-12.866
▁homerun	-12.866
▁homestyle	-12.866
▁hometown	-12.866
▁hominy	-12.866
▁hon	-12.866
▁honet	-12.866
▁honeycomb	-12.866
▁honeyeater	-12.866
▁honeys	-12.866
▁hong	-12.866
▁honored	-12.866
▁hoody	-12.866
▁hooey	-12.866
▁hook	-12.866
▁hoooray	-12.866
▁hoosiers	-12.866
▁hoot	-12.866
▁hop	-12.866
▁hopjes	-12.866
▁hopped	-12.866
▁hormone	-12.866
▁hormones	-12.866
▁horrble	-12.866
▁horrific	-12.866
▁horrifying	-12.866
▁hors	-12.866
▁horsetail	-12.866
▁hortons	-12.866
▁hosanna	-12.866
▁hotcakes	-12.866
▁hotel	-12.866
▁hotness	-12.866
▁hotte	-12.866
▁hottest	-12.866
▁hotties	-12.866
▁hotttttt	-12.866
▁hotwings	-12.866
▁houise	-12.866
▁housewarming	-12.866
▁howard	-12.866
▁hoy	-12.866
▁hs	-12.866
▁hse	-12.866
▁hue	-12.866
▁huggers	-12.866
▁hugo	-12.866
▁humble	-12.866
▁humbly	-12.866
▁humidification	-12.866
▁hummm	-12.866
▁hun	-12.866
▁hundenflocken	-12.866
▁hung	-12.866
▁hungarian	-12.866
▁hungary	-12.866
▁hungering	-12.866
▁hunt	-12.866
▁hunted	-12.866
▁hunting	-12.866
▁hurdle	-12.866
▁hurrah	-12.866
▁hurray	-12.866
▁hurries	-12.866
▁hurtin	-12.866
▁hurting	-12.866
▁husker	-12.866
▁huuuuuuuuuge	-12.866
▁hvr	-12.866
▁hyderabadi	-12.866
▁hydrated	-12.866
▁hydroginated	-12.866
▁hygrade	-12.866
▁hyperactivity	-12.866
▁hypersweet	-12.866
▁hypothryoid	-12.866
▁hypothyroidism	-12.866
▁hysterical	-12.866
▁ibt	-12.866
▁ices	-12.866
▁icings	-12.866
▁icon	-12.866
▁ics	-12.866
▁idahoan	-12.866
▁ie	-12.866
▁iever	-12.866
▁iexcl	-12.866
▁ific	-12.866
▁ignoramus	-12.866
▁ignored	-12.866
▁igourmet	-12.866
▁igredients	-12.866
▁ihop	-12.866
▁ijust	-12.866
▁ike	-12.866
▁ikea	-12.866
▁iliada	-12.866
▁illinois	-12.866
▁illogical	-12.866
▁illusion	-12.866
▁immediate	-12.866
▁immensely	-12.866
▁immersion	-12.866
▁immunity	-12.866
▁impact	-12.866
▁impacts	-12.866
▁imperfect	-12.866
▁implementation	-12.866
▁imply	-12.866
▁importfoodcom	-12.866
▁imports	-12.866
▁imposter	-12.866
▁imposters	-12.866
▁impostor	-12.866
▁impresed	-12.866
▁impress	-12.866
▁impressively	-12.866
▁improper	-12.866
▁inactive	-12.866
▁inadequate	-12.866
▁inappropriate	-12.866
▁inbetween	-12.866
▁inc	-12.866
▁inch	-12.866
▁include	-12.866
▁includes	-12.866
▁income	-12.866
▁incompetent	-12.866
▁incomplete	-12.866
▁incorrectly	-12.866
▁indescribable	-12.866
▁index	-12.866
▁indies	-12.866
▁indifferent	-12.866
▁indigo	-12.866
▁indispensable	-12.866
▁individuals	-12.866
▁indo	-12.866
▁indomie	-12.866
▁indonesian	-12.866
▁inducing	-12.866
▁indulgance	-12.866
▁indulge	-12.866
▁indulgent	-12.866
▁indulging	-12.866
▁industry	-12.866
▁ineffective	-12.866
▁inexpensively	-12.866
▁infallable	-12.866
▁inferno	-12.866
▁infestation	-12.866
▁influenster	-12.866
▁informative	-12.866
▁informed	-12.866
▁infusion	-12.866
▁infusions	-12.866
▁ing	-12.866
▁ingedients	-12.866
▁ingedrient	-12.866
▁inglehoffer	-12.866
▁ingred	-12.866
▁ingrediant	-12.866
▁inhaled	-12.866
▁inisulin	-12.866
▁inject	-12.866
▁ink	-12.866
▁inka	-12.866
▁inkos	-12.866
▁inn	-12.866
▁innocent	-12.866
▁innova	-12.866
▁innovation	-12.866
▁innovo	-12.866
▁inoffensive	-12.866
▁ins	-12.866
▁insanity	-12.866
▁insect	-12.866
▁insert	-12.866
▁insist	-12.866
▁insoluble	-12.866
▁insomnia	-12.866
▁insomniac	-12.866
▁inspectors	-12.866
▁inspired	-12.866
▁insta	-12.866
▁instate	-12.866
▁insufficient	-12.866
▁insult	-12.866
▁insurance	-12.866
▁intelligent	-12.866
▁intend	-12.866
▁intentions	-12.866
▁interchangeable	-12.866
▁interests	-12.866
▁interpretation	-12.866
▁interstitial	-12.866
▁intestine	-12.866
▁intolerable	-12.866
▁intolerance	-12.866
▁intolerances	-12.866
▁intolerent	-12.866
▁intollerances	-12.866
▁intoxicating	-12.866
▁intrigued	-12.866
▁intriqued	-12.866
▁intrusive	-12.866
▁intwo	-12.866
▁inu	-12.866
▁invade	-12.866
▁inventi	-12.866
▁investigation	-12.866
▁investment	-12.866
▁investments	-12.866
▁invincible	-12.866
▁invitehealth	-12.866
▁ionic	-12.866
▁ious	-12.866
▁ipecac	-12.866
▁iphone	-12.866
▁iraq	-12.866
▁irio	-12.866
▁iris	-12.866
▁irritated	-12.866
▁irritates	-12.866
▁isabella	-12.866
▁iscreamnut	-12.866
▁islands	-12.866
▁islay	-12.866
▁israel	-12.866
▁istevia	-12.866
▁italia	-12.866
▁ithing	-12.866
▁itious	-12.866
▁itsstriketime	-12.866
▁itty	-12.866
▁ivory	-12.866
▁ize	-12.866
▁izzie	-12.866
▁jablum	-12.866
▁jabuticaba	-12.866
▁jacking	-12.866
▁jacklink	-12.866
▁jacklinks	-12.866
▁jackpot	-12.866
▁jacob	-12.866
▁jacs	-12.866
▁jaguar	-12.866
▁jah	-12.866
▁jakemans	-12.866
▁jalape	-12.866
▁jalepeno	-12.866
▁jalepenos	-12.866
▁jamaca	-12.866
▁jammed	-12.866
▁jammy	-12.866
▁jan	-12.866
▁janes	-12.866
▁january	-12.866
▁japaneese	-12.866
▁japonica	-12.866
▁jarring	-12.866
▁jas	-12.866
▁jasmin	-12.866
▁jaws	-12.866
▁jax	-12.866
▁jaybird	-12.866
▁jazmin	-12.866
▁jazzie	-12.866
▁jazzy	-12.866
▁jb	-12.866
▁jbertsiesfavs	-12.866
▁jbm	-12.866
▁jclngbch	-12.866
▁jealous	-12.866
▁jeez	-12.866
▁jellies	-12.866
▁jellow	-12.866
▁jellybeans	-12.866
▁jellybellies	-12.866
▁jerimiah	-12.866
▁jerkee	-12.866
▁jerkie	-12.866
▁jerkies	-12.866
▁jetfuel	-12.866
▁jewels	-12.866
▁jfc	-12.866
▁jill	-12.866
▁jj	-12.866
▁jlhatfield	-12.866
▁jmac	-12.866
▁jocalat	-12.866
▁joes	-12.866
▁joey	-12.866
▁joining	-12.866
▁jokes	-12.866
▁jokingly	-12.866
▁jolokia	-12.866
▁joltin	-12.866
▁jonathan	-12.866
▁joray	-12.866
▁jose	-12.866
▁joseph	-12.866
▁journey	-12.866
▁jovial	-12.866
▁jovis	-12.866
▁joyeuse	-12.866
▁joyful	-12.866
▁joyous	-12.866
▁js	-12.866
▁jttodd	-12.866
▁jubilee	-12.866
▁juiced	-12.866
▁juleps	-12.866
▁jules	-12.866
▁julie	-12.866
▁julio	-12.866
▁jumbones	-12.866
▁jummy	-12.866
▁jumper	-12.866
▁jumps	-12.866
▁jumpstart	-12.866
▁june	-12.866
▁junior	-12.866
▁junkfood	-12.866
▁jura	-12.866
▁justifiably	-12.866
▁justify	-12.866
▁justlike	-12.866
▁juuuuust	-12.866
▁juuuuuust	-12.866
▁juvie	-12.866
▁jyoti	-12.866
▁kabab	-12.866
▁kabang	-12.866
▁kabobs	-12.866
▁kaffee	-12.866
▁kahvesi	-12.866
▁kaisers	-12.866
▁kaito	-12.866
▁kalua	-12.866
▁kame	-12.866
▁kamut	-12.866
▁kar	-12.866
▁karen	-12.866
▁kasha	-12.866
▁kashigirl	-12.866
▁kasih	-12.866
▁kasugai	-12.866
▁kato	-12.866
▁katsu	-12.866
▁katzenzungen	-12.866
▁kauai	-12.866
▁kavli	-12.866
▁kawaii	-12.866
▁kc	-12.866
▁kcl	-12.866
▁kds	-12.866
▁kedoherty	-12.866
▁kee	-12.866
▁keenan	-12.866
▁keepem	-12.866
▁keet	-12.866
▁kehrig	-12.866
▁kelp	-12.866
▁kelvins	-12.866
▁ken	-12.866
▁kenesaw	-12.866
▁kennys	-12.866
▁kenyan	-12.866
▁kerala	-12.866
▁kern	-12.866
▁kerns	-12.866
▁keruig	-12.866
▁keshua	-12.866
▁kettles	-12.866
▁khing	-12.866
▁khrys	-12.866
▁ki	-12.866
▁kickass	-12.866
▁kickn	-12.866
▁kicks	-12.866
▁kiddo	-12.866
▁kiddos	-12.866
▁kidz	-12.866
▁kielbasa	-12.866
▁kiesha	-12.866
▁kiev	-12.866
▁kikoman	-12.866
▁kili	-12.866
▁killed	-12.866
▁kim	-12.866
▁kimbo	-12.866
▁kimchee	-12.866
▁kin	-12.866
▁kinder	-12.866
▁kindergarten	-12.866
▁kindergartners	-12.866
▁kindle	-12.866
▁kindly	-12.866
▁kindness	-12.866
▁kindof	-12.866
▁kinetic	-12.866
▁kings	-12.866
▁kippered	-12.866
▁kir	-12.866
▁kittly	-12.866
▁kittties	-12.866
▁kiwipeak	-12.866
▁kleenex	-12.866
▁klein	-12.866
▁knee	-12.866
▁knight	-12.866
▁knockout	-12.866
▁knocks	-12.866
▁knorrs	-12.866
▁knotted	-12.866
▁knudsen	-12.866
▁koala	-12.866
▁koalas	-12.866
▁kobe	-12.866
▁koch	-12.866
▁kolaches	-12.866
▁koma	-12.866
▁konas	-12.866
▁kongs	-12.866
▁kookaburra	-12.866
▁koolaid	-12.866
▁koppers	-12.866
▁korea	-12.866
▁korintje	-12.866
▁kouldn	-12.866
▁kperez	-12.866
▁krack	-12.866
▁kracker	-12.866
▁krackers	-12.866
▁kramer	-12.866
▁kraziness	-12.866
▁krisps	-12.866
▁kroger	-12.866
▁kronung	-12.866
▁kuchen	-12.866
▁kuchenmeister	-12.866
▁kudos	-12.866
▁kukicha	-12.866
▁kurieg	-12.866
▁kurig	-12.866
▁kwan	-12.866
▁kwilson	-12.866
▁kyjen	-12.866
▁labelling	-12.866
▁labels	-12.866
▁labled	-12.866
▁labor	-12.866
▁labrada	-12.866
▁lackluster	-12.866
▁lactic	-12.866
▁laden	-12.866
▁ladie	-12.866
▁ladybug	-12.866
▁laflorentine	-12.866
▁lait	-12.866
▁lake	-12.866
▁lakes	-12.866
▁landfill	-12.866
▁landjaeger	-12.866
▁landlubbers	-12.866
▁landscapes	-12.866
▁lane	-12.866
▁language	-12.866
▁lanka	-12.866
▁lansinoh	-12.866
▁lap	-12.866
▁lapsong	-12.866
▁largish	-12.866
▁larks	-12.866
▁lasagne	-12.866
▁lash	-12.866
▁latency	-12.866
▁laters	-12.866
▁latice	-12.866
▁latin	-12.866
▁latkes	-12.866
▁lattees	-12.866
▁laugh	-12.866
▁laughing	-12.866
▁laura	-12.866
▁lawn	-12.866
▁lawrey	-12.866
▁laxmi	-12.866
▁layers	-12.866
▁ldh	-12.866
▁leader	-12.866
▁leafs	-12.866
▁leakage	-12.866
▁leap	-12.866
▁learning	-12.866
▁leash	-12.866
▁leathers	-12.866
▁leaze	-12.866
▁lecker	-12.866
▁leefsr	-12.866
▁leelee	-12.866
▁leeper	-12.866
▁leepers	-12.866
▁legacy	-12.866
▁legend	-12.866
▁legendary	-12.866
▁legitimate	-12.866
▁legume	-12.866
▁legumes	-12.866
▁lemom	-12.866
▁lemonotusade	-12.866
▁lemonylicious	-12.866
▁lemoon	-12.866
▁lent	-12.866
▁leonard	-12.866
▁leone	-12.866
▁leprechaun	-12.866
▁lesley	-12.866
▁lessly	-12.866
▁lethal	-12.866
▁letters	-12.866
▁leukemia	-12.866
▁lewis	-12.866
▁lexi	-12.866
▁lhasa	-12.866
▁li	-12.866
▁liars	-12.866
▁liberal	-12.866
▁lic	-12.866
▁lice	-12.866
▁lichee	-12.866
▁lick	-12.866
▁licked	-12.866
▁lickins	-12.866
▁licoricaliscious	-12.866
▁licous	-12.866
▁lied	-12.866
▁lieu	-12.866
▁lifegiving	-12.866
▁lifewater	-12.866
▁lifeway	-12.866
▁lifts	-12.866
▁lightbulbs	-12.866
▁lighten	-12.866
▁lightening	-12.866
▁lighting	-12.866
▁lightning	-12.866
▁lights	-12.866
▁lighty	-12.866
▁lignans	-12.866
▁lignum	-12.866
▁ligthening	-12.866
▁liitle	-12.866
▁likable	-12.866
▁likewise	-12.866
▁liking	-12.866
▁lima	-12.866
▁limeaid	-12.866
▁limerick	-12.866
▁limes	-12.866
▁limits	-12.866
▁limon	-12.866
▁limone	-12.866
▁lincang	-12.866
▁linden	-12.866
▁lindens	-12.866
▁lindts	-12.866
▁lined	-12.866
▁liner	-12.866
▁liners	-12.866
▁lines	-12.866
▁lineup	-12.866
▁lingham	-12.866
▁lingonberry	-12.866
▁lingonberrypreserves	-12.866
▁linguini	-12.866
▁lingzhi	-12.866
▁linked	-12.866
▁linketts	-12.866
▁linnyree	-12.866
▁lior	-12.866
▁lious	-12.866
▁lipitor	-12.866
▁lipomas	-12.866
▁liptons	-12.866
▁liquer	-12.866
▁liquibuy	-12.866
▁liquified	-12.866
▁liquour	-12.866
▁liquueurs	-12.866
▁liscious	-12.866
▁listerine	-12.866
▁liter	-12.866
▁littles	-12.866
▁littte	-12.866
▁liza	-12.866
▁lizano	-12.866
▁lizzie	-12.866
▁lj	-12.866
▁lke	-12.866
▁llave	-12.866
▁llike	-12.866
▁lloyds	-12.866
▁load	-12.866
▁lobsters	-12.866
▁locals	-12.866
▁location	-12.866
▁lodge	-12.866
▁lodi	-12.866
▁log	-12.866
▁loganberry	-12.866
▁logic	-12.866
▁logs	-12.866
▁lola	-12.866
▁lolas	-12.866
▁lollypop	-12.866
▁lollypops	-12.866
▁lond	-12.866
▁longevity	-12.866
▁lonnnnng	-12.866
▁looong	-12.866
▁looooong	-12.866
▁loooooves	-12.866
▁loooove	-12.866
▁looove	-12.866
▁loooved	-12.866
▁looovee	-12.866
▁loosen	-12.866
▁loran	-12.866
▁lord	-12.866
▁lorenzo	-12.866
▁lorna	-12.866
▁lotusade	-12.866
▁lou	-12.866
▁loubia	-12.866
▁louis	-12.866
▁lousey	-12.866
▁lovable	-12.866
▁lovbe	-12.866
▁loveeeee	-12.866
▁loveley	-12.866
▁loven	-12.866
▁lran	-12.866
▁ls	-12.866
▁ltd	-12.866
▁ltspdboy	-12.866
▁luau	-12.866
▁lucas	-12.866
▁luci	-12.866
▁luckey	-12.866
▁luckily	-12.866
▁lucuma	-12.866
▁lump	-12.866
▁lumpy	-12.866
▁lunchables	-12.866
▁lunchish	-12.866
▁lupini	-12.866
▁lurch	-12.866
▁luxardo	-12.866
▁luxe	-12.866
▁lvvvve	-12.866
▁ly	-12.866
▁lyon	-12.866
▁lysander	-12.866
▁maanuka	-12.866
▁mabel	-12.866
▁macademias	-12.866
▁macarons	-12.866
▁macarooni	-12.866
▁macaroons	-12.866
▁macaw	-12.866
▁macchiato	-12.866
▁mace	-12.866
▁machiato	-12.866
▁macintosh	-12.866
▁mack	-12.866
▁mackere	-12.866
▁mackerel	-12.866
▁mackintosh	-12.866
▁macro	-12.866
▁macros	-12.866
▁madam	-12.866
▁madden	-12.866
▁maddy	-12.866
▁madeeasy	-12.866
▁mae	-12.866
▁maeda	-12.866
▁mafia	-12.866
▁magically	-12.866
▁magma	-12.866
▁magnifique	-12.866
▁magnum	-12.866
▁magster	-12.866
▁mahalo	-12.866
▁mai	-12.866
▁mainecoons	-12.866
▁mainly	-12.866
▁mainstay	-12.866
▁mainstreamed	-12.866
▁maintain	-12.866
▁maintained	-12.866
▁maintenance	-12.866
▁maitais	-12.866
▁makara	-12.866
▁maki	-12.866
▁makin	-12.866
▁makings	-12.866
▁mal	-12.866
▁malabar	-12.866
▁malay	-12.866
▁maldon	-12.866
▁male	-12.866
▁malfunction	-12.866
▁malfunctions	-12.866
▁malinois	-12.866
▁malitol	-12.866
▁mallo	-12.866
▁mallow	-12.866
▁malta	-12.866
▁management	-12.866
▁mandarin	-12.866
▁mande	-12.866
▁mandy	-12.866
▁manhattan	-12.866
▁mania	-12.866
▁maniac	-12.866
▁manicardi	-12.866
▁manitoba	-12.866
▁mannheim	-12.866
▁mantova	-12.866
▁manufacture	-12.866
▁manufactured	-12.866
▁manufacturers	-12.866
▁manuks	-12.866
▁manx	-12.866
▁manybeers	-12.866
▁mapley	-12.866
▁marathan	-12.866
▁marathon	-12.866
▁marble	-12.866
▁mares	-12.866
▁margarine	-12.866
▁marges	-12.866
▁margherita	-12.866
▁margin	-12.866
▁maria	-12.866
▁mariani	-12.866
▁marie	-12.866
▁marinaded	-12.866
▁marinades	-12.866
▁marinara	-12.866
▁marinate	-12.866
▁marinated	-12.866
▁marinator	-12.866
▁marital	-12.866
▁marketed	-12.866
▁marketplace	-12.866
▁markets	-12.866
▁marking	-12.866
▁marmalades	-12.866
▁marmelade	-12.866
▁maroon	-12.866
▁marriage	-12.866
▁marriages	-12.866
▁marrobones	-12.866
▁marsh	-12.866
▁marshall	-12.866
▁marshalls	-12.866
▁marshmellow	-12.866
▁marshmellows	-12.866
▁marsipan	-12.866
▁martinson	-12.866
▁marvel	-12.866
▁maryjane	-12.866
▁maryland	-12.866
▁marys	-12.866
▁marzano	-12.866
▁mas	-12.866
▁masa	-12.866
▁masal	-12.866
▁masdtic	-12.866
▁mash	-12.866
▁masque	-12.866
▁massage	-12.866
▁masses	-12.866
▁massively	-12.866
▁masterpieces	-12.866
▁mastic	-12.866
▁mastro	-12.866
▁mat	-12.866
▁materia	-12.866
▁material	-12.866
▁mathmom	-12.866
▁matize	-12.866
▁matjies	-12.866
▁matte	-12.866
▁matzah	-12.866
▁mau	-12.866
▁maury	-12.866
▁maven	-12.866
▁maximus	-12.866
▁maxine	-12.866
▁maxwellhouse	-12.866
▁mayber	-12.866
▁maynards	-12.866
▁mayonnaise	-12.866
▁mays	-12.866
▁maze	-12.866
▁mberry	-12.866
▁mbslydog	-12.866
▁mcbutter	-12.866
▁mccament	-12.866
▁mccanns	-12.866
▁mcdonalds	-12.866
▁mcilhenny	-12.866
▁mclib	-12.866
▁mcnuggets	-12.866
▁mcvittie	-12.866
▁meadows	-12.866
▁mealie	-12.866
▁mealtimes	-12.866
▁mealy	-12.866
▁meaning	-12.866
▁meaningful	-12.866
▁measure	-12.866
▁measuring	-12.866
▁meatball	-12.866
▁meateater	-12.866
▁meatiest	-12.866
▁mechanically	-12.866
▁mecury	-12.866
▁medal	-12.866
▁medcation	-12.866
▁mediacore	-12.866
▁medical	-12.866
▁medicinals	-12.866
▁medicines	-12.866
▁mediocritiy	-12.866
▁medirerranean	-12.866
▁mediterranean	-12.866
▁medjool	-12.866
▁medleys	-12.866
▁meeee	-12.866
▁meeting	-12.866
▁meguez	-12.866
▁mehr	-12.866
▁mein	-12.866
▁meistersinger	-12.866
▁mejor	-12.866
▁melange	-12.866
▁meli	-12.866
▁melissa	-12.866
▁mellowed	-12.866
▁melow	-12.866
▁meltdown	-12.866
▁melting	-12.866
▁membership	-12.866
▁memorable	-12.866
▁memorys	-12.866
▁menards	-12.866
▁menopausal	-12.866
▁menos	-12.866
▁menraku	-12.866
▁mental	-12.866
▁mentioning	-12.866
▁mentoring	-12.866
▁meony	-12.866
▁meowingly	-12.866
▁meows	-12.866
▁mer	-12.866
▁mercado	-12.866
▁mere	-12.866
▁meringue	-12.866
▁merits	-12.866
▁merveilleux	-12.866
▁messed	-12.866
▁messes	-12.866
▁mestemacher	-12.866
▁metabolizer	-12.866
▁metabolizing	-12.866
▁methadone	-12.866
▁mewers	-12.866
▁meyenberg	-12.866
▁mfg	-12.866
▁mgs	-12.866
▁mhic	-12.866
▁miaiii	-12.866
▁miami	-12.866
▁mic	-12.866
▁michaels	-12.866
▁michelada	-12.866
▁microwaveable	-12.866
▁midcaffeine	-12.866
▁middling	-12.866
▁mideast	-12.866
▁midel	-12.866
▁midgees	-12.866
▁midland	-12.866
▁mignon	-12.866
▁mik	-12.866
▁mikki	-12.866
▁milani	-12.866
▁mile	-12.866
▁mileage	-12.866
▁military	-12.866
▁milkies	-12.866
▁milky	-12.866
▁millbourne	-12.866
▁millie	-12.866
▁milling	-12.866
▁millions	-12.866
▁millitary	-12.866
▁miltons	-12.866
▁mincemeat	-12.866
▁mindless	-12.866
▁miniature	-12.866
▁minichews	-12.866
▁minrt	-12.866
▁mintier	-12.866
▁minties	-12.866
▁miracles	-12.866
▁miraculous	-12.866
▁miro	-12.866
▁mis	-12.866
▁misadvertising	-12.866
▁misc	-12.866
▁misdirection	-12.866
▁misflavored	-12.866
▁misfortune	-12.866
▁mishmash	-12.866
▁misjudged	-12.866
▁misled	-12.866
▁misnomer	-12.866
▁misprint	-12.866
▁missb	-12.866
▁misshapen	-12.866
▁missy	-12.866
▁mistrial	-12.866
▁mistro	-12.866
▁mite	-12.866
▁mixability	-12.866
▁mixture	-12.866
▁mjummie	-12.866
▁mkt	-12.866
▁mm	-12.866
▁mmf	-12.866
▁mmmeeeeeeoooowwww	-12.866
▁mmmmh	-12.866
▁mmmmmgood	-12.866
▁mmmmmmfor	-12.866
▁mmmmmmmm	-12.866
▁mmmmmmmmmm	-12.866
▁mmmmmmmmmmmmm	-12.866
▁mmmmmmmmmmmmmmm	-12.866
▁mmmmmmmmmmmmmmmmm	-12.866
▁mmmmmmmmmmmmmmmmmmm	-12.866
▁mmmmmmmmmmmmmmmmmmmmmm	-12.866
▁mmmmmmmmmmmmmmmmmmmmmmmmm	-12.866
▁mmmmmmmmmmmmmmmmmmmmmmmmmm	-12.866
▁mmmmmmocha	-12.866
▁moccahino	-12.866
▁mochalicious	-12.866
▁mochi	-12.866
▁mocho	-12.866
▁mock	-12.866
▁mocktails	-12.866
▁models	-12.866
▁modestly	-12.866
▁modification	-12.866
▁modified	-12.866
▁modify	-12.866
▁modle	-12.866
▁modulated	-12.866
▁moffee	-12.866
▁moisturize	-12.866
▁moisturized	-12.866
▁moisturizes	-12.866
▁molar	-12.866
▁molassas	-12.866
▁molded	-12.866
▁molds	-12.866
▁molecule	-12.866
▁moleinator	-12.866
▁moles	-12.866
▁mollie	-12.866
▁moloney	-12.866
▁molten	-12.866
▁molto	-12.866
▁moly	-12.866
▁moma	-12.866
▁mominmontevallo	-12.866
▁mommie	-12.866
▁mongolian	-12.866
▁monitors	-12.866
▁monks	-12.866
▁mono	-12.866
▁monoliths	-12.866
▁monoloa	-12.866
▁monsters	-12.866
▁montana	-12.866
▁montauk	-12.866
▁montebello	-12.866
▁montepulciano	-12.866
▁monthly	-12.866
▁montreal	-12.866
▁mooglie	-12.866
▁moore	-12.866
▁moorish	-12.866
▁mop	-12.866
▁mopo	-12.866
▁mor	-12.866
▁moravian	-12.866
▁moregimmemore	-12.866
▁morin	-12.866
▁morkie	-12.866
▁morris	-12.866
▁mortals	-12.866
▁moscato	-12.866
▁moschofilero	-12.866
▁moseley	-12.866
▁moss	-12.866
▁mot	-12.866
▁motivatewd	-12.866
▁motla	-12.866
▁motorcycle	-12.866
▁motto	-12.866
▁mount	-12.866
▁mountains	-12.866
▁mouse	-12.866
▁moutarde	-12.866
▁mouthfuls	-12.866
▁mouths	-12.866
▁mouthwash	-12.866
▁mouthwatering	-12.866
▁moved	-12.866
▁mover	-12.866
▁mozzarella	-12.866
▁mozzerella	-12.866
▁mpaco	-12.866
▁mrfkia	-12.866
▁mrsts	-12.866
▁msc	-12.866
▁mtr	-12.866
▁muana	-12.866
▁muc	-12.866
▁muchas	-12.866
▁muchbetter	-12.866
▁muddy	-12.866
▁mueslis	-12.866
▁mugi	-12.866
▁mulberry	-12.866
▁muli	-12.866
▁mulling	-12.866
▁multiples	-12.866
▁multivitamin	-12.866
▁mumbai	-12.866
▁mumbo	-12.866
▁mummm	-12.866
▁mummmm	-12.866
▁munchers	-12.866
▁munching	-12.866
▁munchkins	-12.866
▁mungata	-12.866
▁muscles	-12.866
▁museli	-12.866
▁musky	-12.866
▁muss	-12.866
▁musselman	-12.866
▁musty	-12.866
▁mutch	-12.866
▁mutts	-12.866
▁muy	-12.866
▁mwahahahaha	-12.866
▁mwh	-12.866
▁myeh	-12.866
▁mylar	-12.866
▁myo	-12.866
▁myrtle	-12.866
▁naaaaaaaaassssssttttteeeeeee	-12.866
▁naan	-12.866
▁nack	-12.866
▁nacl	-12.866
▁nae	-12.866
▁nah	-12.866
▁nail	-12.866
▁nakano	-12.866
▁nance	-12.866
▁nando	-12.866
▁nantuckey	-12.866
▁naora	-12.866
▁napa	-12.866
▁napalm	-12.866
▁napkins	-12.866
▁napoleon	-12.866
▁nastyness	-12.866
▁nataliecullen	-12.866
▁native	-12.866
▁natur	-12.866
▁naturel	-12.866
▁navidad	-12.866
▁navy	-12.866
▁nc	-12.866
▁nds	-12.866
▁neatest	-12.866
▁necap	-12.866
▁neccesary	-12.866
▁nectasweet	-12.866
▁nector	-12.866
▁nectresse	-12.866
▁nee	-12.866
▁needle	-12.866
▁neighbor	-12.866
▁neighborhood	-12.866
▁neoguri	-12.866
▁neon	-12.866
▁neophyte	-12.866
▁nepresso	-12.866
▁nerrrrrrrrds	-12.866
▁nescaf	-12.866
▁nesquik	-12.866
▁nessie	-12.866
▁nestea	-12.866
▁nettle	-12.866
▁network	-12.866
▁newbies	-12.866
▁newgrandma	-12.866
▁newly	-12.866
▁nght	-12.866
▁nibbling	-12.866
▁nicaraguan	-12.866
▁nick	-12.866
▁nido	-12.866
▁niece	-12.866
▁niederegger	-12.866
▁niether	-12.866
▁nigel	-12.866
▁nightime	-12.866
▁nigris	-12.866
▁nipples	-12.866
▁nissin	-12.866
▁nitrite	-12.866
▁nj	-12.866
▁noble	-12.866
▁nobs	-12.866
▁noccialata	-12.866
▁nocella	-12.866
▁nofix	-12.866
▁noire	-12.866
▁nome	-12.866
▁noms	-12.866
▁nongluten	-12.866
▁nongmo	-12.866
▁nonherbal	-12.866
▁nonn	-12.866
▁nonsense	-12.866
▁nonsuch	-12.866
▁noonie	-12.866
▁nooodle	-12.866
▁nooodles	-12.866
▁nope	-12.866
▁noplace	-12.866
▁normale	-12.866
▁normies	-12.866
▁northwest	-12.866
▁nos	-12.866
▁nosey	-12.866
▁noticably	-12.866
▁noticeably	-12.866
▁notification	-12.866
▁notifying	-12.866
▁notsatisfied	-12.866
▁nous	-12.866
▁novus	-12.866
▁nowadays	-12.866
▁nsa	-12.866
▁nuala	-12.866
▁nucking	-12.866
▁nuclear	-12.866
▁numb	-12.866
▁numero	-12.866
▁nums	-12.866
▁nurserosado	-12.866
▁nurti	-12.866
▁nurtition	-12.866
▁nuss	-12.866
▁nutes	-12.866
▁nutive	-12.866
▁nutra	-12.866
▁nutricity	-12.866
▁nutriious	-12.866
▁nutrion	-12.866
▁nutrional	-12.866
▁nutritiousbar	-12.866
▁nutritive	-12.866
▁nutritous	-12.866
▁nutriva	-12.866
▁nutter	-12.866
▁nuttier	-12.866
▁nuturals	-12.866
▁nuturme	-12.866
▁nw	-12.866
▁nyguyen	-12.866
▁oakleysmom	-12.866
▁oatcakes	-12.866
▁oatmeak	-12.866
▁oatmeals	-12.866
▁oatmel	-12.866
▁oaty	-12.866
▁obedience	-12.866
▁oberon	-12.866
▁obey	-12.866
▁object	-12.866
▁objective	-12.866
▁obnoxious	-12.866
▁obscure	-12.866
▁obscuring	-12.866
▁observe	-12.866
▁obsession	-12.866
▁obtain	-12.866
▁obvious	-12.866
▁ocarinas	-12.866
▁occassionally	-12.866
▁occassions	-12.866
▁occupies	-12.866
▁occupy	-12.866
▁ocha	-12.866
▁ochatzukemono	-12.866
▁ocoee	-12.866
▁oct	-12.866
▁octie	-12.866
▁odiferous	-12.866
▁oeuvres	-12.866
▁offers	-12.866
▁offset	-12.866
▁offtaste	-12.866
▁og	-12.866
▁ohsawa	-12.866
▁oi	-12.866
▁oilever	-12.866
▁oishi	-12.866
▁okayyy	-12.866
▁oklahoma	-12.866
▁olay	-12.866
▁olden	-12.866
▁olewo	-12.866
▁olio	-12.866
▁olivella	-12.866
▁olivelover	-12.866
▁oliver	-12.866
▁olivier	-12.866
▁oloves	-12.866
▁olson	-12.866
▁omfg	-12.866
▁omgoodness	-12.866
▁omgz	-12.866
▁omit	-12.866
▁omits	-12.866
▁omnomnom	-12.866
▁onboard	-12.866
▁oneg	-12.866
▁ong	-12.866
▁oniony	-12.866
▁ono	-12.866
▁onslow	-12.866
▁oodles	-12.866
▁ooh	-12.866
▁ooooooh	-12.866
▁oooooooooo	-12.866
▁opine	-12.866
▁opion	-12.866
▁opportunity	-12.866
▁opposed	-12.866
▁optimal	-12.866
▁optimum	-12.866
▁optional	-12.866
▁orage	-12.866
▁orang	-12.866
▁orangic	-12.866
▁orbana	-12.866
▁orderable	-12.866
▁orderd	-12.866
▁oregano	-12.866
▁orfactory	-12.866
▁org	-12.866
▁orgainic	-12.866
▁organie	-12.866
▁organinc	-12.866
▁organis	-12.866
▁organit	-12.866
▁organizational	-12.866
▁organize	-12.866
▁orgasmic	-12.866
▁orgasnic	-12.866
▁orgoanic	-12.866
▁orgy	-12.866
▁orient	-12.866
▁origonal	-12.866
▁ortho	-12.866
▁orzo	-12.866
▁osteoarthritis	-12.866
▁ostrich	-12.866
▁ot	-12.866
▁otter	-12.866
▁ottimo	-12.866
▁otto	-12.866
▁ou	-12.866
▁oughtta	-12.866
▁ounc	-12.866
▁oustanding	-12.866
▁outcome	-12.866
▁outdid	-12.866
▁outlet	-12.866
▁outlets	-12.866
▁output	-12.866
▁outrage	-12.866
▁outrageious	-12.866
▁outragously	-12.866
▁outshine	-12.866
▁outsmarted	-12.866
▁outsmarts	-12.866
▁outta	-12.866
▁outtastes	-12.866
▁outthere	-12.866
▁outtings	-12.866
▁ouzo	-12.866
▁ovaeasy	-12.866
▁oval	-12.866
▁overated	-12.866
▁overbearing	-12.866
▁overboard	-12.866
▁overcharging	-12.866
▁overdue	-12.866
▁overflowed	-12.866
▁overloaded	-12.866
▁overnote	-12.866
▁overpowerd	-12.866
▁overrpriced	-12.866
▁oversize	-12.866
▁overstates	-12.866
▁oversweet	-12.866
▁overtones	-12.866
▁overwhelmed	-12.866
▁owe	-12.866
▁owen	-12.866
▁owl	-12.866
▁owned	-12.866
▁oxidized	-12.866
▁oxymoron	-12.866
▁oyster	-12.866
▁ozi	-12.866
▁pa	-12.866
▁pacake	-12.866
▁packates	-12.866
▁packer	-12.866
▁padding	-12.866
▁padfilter	-12.866
▁padroa	-12.866
▁paella	-12.866
▁paige	-12.866
▁painful	-12.866
▁painfully	-12.866
▁painless	-12.866
▁pains	-12.866
▁paint	-12.866
▁pair	-12.866
▁pairing	-12.866
▁pak	-12.866
▁pakaging	-12.866
▁paks	-12.866
▁pal	-12.866
▁palatability	-12.866
▁pale	-12.866
▁palmiers	-12.866
▁palms	-12.866
▁palpitations	-12.866
▁paltry	-12.866
▁panang	-12.866
▁panca	-12.866
▁pancetta	-12.866
▁panda	-12.866
▁paninis	-12.866
▁panni	-12.866
▁panosteitis	-12.866
▁pant	-12.866
▁pantene	-12.866
▁pao	-12.866
▁papad	-12.866
▁papillions	-12.866
▁papillons	-12.866
▁pappadam	-12.866
▁pappy	-12.866
▁parchment	-12.866
▁parent	-12.866
▁paring	-12.866
▁parisian	-12.866
▁parm	-12.866
▁parmalat	-12.866
▁parmigiano	-12.866
▁parrot	-12.866
▁parsley	-12.866
▁partial	-12.866
▁particles	-12.866
▁pas	-12.866
▁paso	-12.866
▁passes	-12.866
▁pastariso	-12.866
▁pastel	-12.866
▁pasteurization	-12.866
▁pasteurized	-12.866
▁pastillen	-12.866
▁pastime	-12.866
▁pastrami	-12.866
▁pasture	-12.866
▁patchi	-12.866
▁pates	-12.866
▁pathetic	-12.866
▁patience	-12.866
▁patient	-12.866
▁patios	-12.866
▁patrick	-12.866
▁patries	-12.866
▁patriotic	-12.866
▁patriotism	-12.866
▁patrons	-12.866
▁pattid	-12.866
▁patty	-12.866
▁paula	-12.866
▁pavesini	-12.866
▁pavilion	-12.866
▁pavo	-12.866
▁pawnaturaw	-12.866
▁paydirt	-12.866
▁paying	-12.866
▁payoff	-12.866
▁pdq	-12.866
▁peabody	-12.866
▁peachlicious	-12.866
▁peal	-12.866
▁peanizzle	-12.866
▁peary	-12.866
▁peat	-12.866
▁pebbles	-12.866
▁pebbs	-12.866
▁pection	-12.866
▁pediatrician	-12.866
▁pee	-12.866
▁peeled	-12.866
▁peeler	-12.866
▁peels	-12.866
▁peerless	-12.866
▁peg	-12.866
▁peiod	-12.866
▁pekigese	-12.866
▁pekoe	-12.866
▁pellegrino	-12.866
▁pelligrino	-12.866
▁pemmican	-12.866
▁pen	-12.866
▁pencil	-12.866
▁penguin	-12.866
▁penguins	-12.866
▁penne	-12.866
▁penta	-12.866
▁penut	-12.866
▁peony	-12.866
▁pepe	-12.866
▁peper	-12.866
▁pepermint	-12.866
▁peppy	-12.866
▁pepto	-12.866
▁percent	-12.866
▁percentages	-12.866
▁perche	-12.866
▁perciatelli	-12.866
▁percolated	-12.866
▁perfact	-12.866
▁perfected	-12.866
▁perfecto	-12.866
▁perfetto	-12.866
▁perffect	-12.866
▁perfomance	-12.866
▁performing	-12.866
▁performs	-12.866
▁perfumey	-12.866
▁perimeter	-12.866
▁perishable	-12.866
▁perky	-12.866
▁permanent	-12.866
▁perogy	-12.866
▁peroni	-12.866
▁persoanlly	-12.866
▁personality	-12.866
▁perspirant	-12.866
▁perspire	-12.866
▁pertains	-12.866
▁pescatarian	-12.866
▁peta	-12.866
▁petal	-12.866
▁petals	-12.866
▁petco	-12.866
▁pete	-12.866
▁peters	-12.866
▁petfect	-12.866
▁petrified	-12.866
▁petrochemical	-12.866
▁petrolatum	-12.866
▁petroleum	-12.866
▁petunia	-12.866
▁pf	-12.866
▁pgtips	-12.866
▁phase	-12.866
▁phat	-12.866
▁phenomenon	-12.866
▁phenylalanine	-12.866
▁phew	-12.866
▁pheweee	-12.866
▁philippine	-12.866
▁philips	-12.866
▁phillip	-12.866
▁philphan	-12.866
▁phiodendron	-12.866
▁phoenix	-12.866
▁phone	-12.866
▁phosphate	-12.866
▁photograph	-12.866
▁pi	-12.866
▁pia	-12.866
▁pic	-12.866
▁pica	-12.866
▁picard	-12.866
▁piccalilli	-12.866
▁pice	-12.866
▁pici	-12.866
▁picillilli	-12.866
▁pickapeppa	-12.866
▁pickey	-12.866
▁pickin	-12.866
▁picking	-12.866
▁pickling	-12.866
▁pickup	-12.866
▁pico	-12.866
▁pics	-12.866
▁picturing	-12.866
▁pigg	-12.866
▁piggy	-12.866
▁piggyslivers	-12.866
▁piglet	-12.866
▁pike	-12.866
▁pil	-12.866
▁pilao	-12.866
▁pile	-12.866
▁pillars	-12.866
▁pilling	-12.866
▁pilon	-12.866
▁pimiento	-12.866
▁pinenuts	-12.866
▁pinguicula	-12.866
▁pinhead	-12.866
▁pint	-12.866
▁pinterest	-12.866
▁pinto	-12.866
▁pintos	-12.866
▁pinwheels	-12.866
▁pipeline	-12.866
▁piping	-12.866
▁piquant	-12.866
▁pirate	-12.866
▁pirates	-12.866
▁pirouline	-12.866
▁piss	-12.866
▁pissed	-12.866
▁pistachio	-12.866
▁pistaschios	-12.866
▁pitifully	-12.866
▁pitted	-12.866
▁piture	-12.866
▁pity	-12.866
▁pkg	-12.866
▁pku	-12.866
▁placing	-12.866
▁plagued	-12.866
▁plane	-12.866
▁planks	-12.866
▁plantation	-12.866
▁plantersesque	-12.866
▁planting	-12.866
▁plaque	-12.866
▁plasmon	-12.866
▁plaster	-12.866
▁plastics	-12.866
▁platter	-12.866
▁playdoh	-12.866
▁playful	-12.866
▁pleasently	-12.866
▁pleasingly	-12.866
▁pleasurable	-12.866
▁pleasures	-12.866
▁pleasureville	-12.866
▁pleeze	-12.866
▁plentiful	-12.866
▁pleseantly	-12.866
▁ploy	-12.866
▁plug	-12.866
▁plugra	-12.866
▁plugs	-12.866
▁plums	-12.866
▁plush	-12.866
▁pluverized	-12.866
▁plz	-12.866
▁pmdd	-12.866
▁png	-12.866
▁poas	-12.866
▁pocketss	-12.866
▁pocus	-12.866
▁podravka	-12.866
▁poduct	-12.866
▁poinion	-12.866
▁pointy	-12.866
▁poisoning	-12.866
▁pok	-12.866
▁pole	-12.866
▁polenta	-12.866
▁police	-12.866
▁polisher	-12.866
▁politics	-12.866
▁poll	-12.866
▁pollen	-12.866
▁pollo	-12.866
▁pollux	-12.866
▁polo	-12.866
▁polyanna	-12.866
▁polynesian	-12.866
▁pomace	-12.866
▁pomade	-12.866
▁pomagranate	-12.866
▁pomegranet	-12.866
▁pomegranite	-12.866
▁pomeranian	-12.866
▁pomi	-12.866
▁pommie	-12.866
▁pomonas	-12.866
▁pond	-12.866
▁pooh	-12.866
▁pool	-12.866
▁pools	-12.866
▁pooly	-12.866
▁pooping	-12.866
▁poops	-12.866
▁pooptacularly	-12.866
▁poorely	-12.866
▁poorer	-12.866
▁poorest	-12.866
▁popcorm	-12.866
▁popcorners	-12.866
▁popeye	-12.866
▁poping	-12.866
▁poppie	-12.866
▁poppyseed	-12.866
▁popsicle	-12.866
▁popsicles	-12.866
▁poptart	-12.866
▁por	-12.866
▁porc	-12.866
▁porous	-12.866
▁porrige	-12.866
▁portability	-12.866
▁portables	-12.866
▁portioned	-12.866
▁portlander	-12.866
▁porto	-12.866
▁pose	-12.866
▁poser	-12.866
▁posilutely	-12.866
▁posole	-12.866
▁poss	-12.866
▁postal	-12.866
▁postive	-12.866
▁potion	-12.866
▁pototoe	-12.866
▁potted	-12.866
▁poulet	-12.866
▁poultry	-12.866
▁poupon	-12.866
▁poured	-12.866
▁pout	-12.866
▁powedered	-12.866
▁powers	-12.866
▁practice	-12.866
▁practicing	-12.866
▁praeventia	-12.866
▁prairie	-12.866
▁praline	-12.866
▁prayer	-12.866
▁precio	-12.866
▁predatory	-12.866
▁prednisone	-12.866
▁preemie	-12.866
▁preferable	-12.866
▁prefered	-12.866
▁premenstrual	-12.866
▁premix	-12.866
▁preparation	-12.866
▁preparedness	-12.866
▁prepares	-12.866
▁preparing	-12.866
▁preschool	-12.866
▁preschoolers	-12.866
▁prescribed	-12.866
▁prescription	-12.866
▁presels	-12.866
▁presented	-12.866
▁presents	-12.866
▁preservation	-12.866
▁president	-12.866
▁presses	-12.866
▁prestigious	-12.866
▁pretend	-12.866
▁prettier	-12.866
▁pretzles	-12.866
▁prev	-12.866
▁preventative	-12.866
▁preventer	-12.866
▁preventing	-12.866
▁previously	-12.866
▁prezel	-12.866
▁preztels	-12.866
▁prezzo	-12.866
▁pricei	-12.866
▁priduct	-12.866
▁primalspirit	-12.866
▁primary	-12.866
▁primitive	-12.866
▁primo	-12.866
▁primula	-12.866
▁princella	-12.866
▁printen	-12.866
▁priorities	-12.866
▁pritikin	-12.866
▁prive	-12.866
▁probabaly	-12.866
▁probaly	-12.866
▁problematic	-12.866
▁problemmatic	-12.866
▁proce	-12.866
▁proceed	-12.866
▁processes	-12.866
▁processor	-12.866
▁proctor	-12.866
▁prodect	-12.866
▁producct	-12.866
▁produck	-12.866
▁productf	-12.866
▁productivity	-12.866
▁productthis	-12.866
▁productvery	-12.866
▁produdt	-12.866
▁professor	-12.866
▁profit	-12.866
▁proflower	-12.866
▁profound	-12.866
▁profuse	-12.866
▁progressively	-12.866
▁prohibitive	-12.866
▁project	-12.866
▁prominent	-12.866
▁prominently	-12.866
▁promise	-12.866
▁promising	-12.866
▁prone	-12.866
▁pronounceable	-12.866
▁propel	-12.866
▁protecting	-12.866
▁proto	-12.866
▁prove	-12.866
▁provence	-12.866
▁provider	-12.866
▁providers	-12.866
▁pruduct	-12.866
▁prune	-12.866
▁pseudo	-12.866
▁psychiatrist	-12.866
▁psychic	-12.866
▁public	-12.866
▁puckering	-12.866
▁puckeroom	-12.866
▁puerh	-12.866
▁puffins	-12.866
▁puffy	-12.866
▁puglover	-12.866
▁puh	-12.866
▁puke	-12.866
▁pukes	-12.866
▁pukey	-12.866
▁pukka	-12.866
▁pulpy	-12.866
▁pulse	-12.866
▁pumpernickle	-12.866
▁pumpkins	-12.866
▁punches	-12.866
▁punkin	-12.866
▁puperonies	-12.866
▁pupper	-12.866
▁pupperoni	-12.866
▁pupply	-12.866
▁puppodums	-12.866
▁puppyhood	-12.866
▁puppys	-12.866
▁pur	-12.866
▁purcahse	-12.866
▁purchaser	-12.866
▁purchassed	-12.866
▁pureed	-12.866
▁purer	-12.866
▁purest	-12.866
▁purified	-12.866
▁purist	-12.866
▁puroast	-12.866
▁purple	-12.866
▁purring	-12.866
▁purrrrfect	-12.866
▁purrrrrrrrrr	-12.866
▁purrrrrrrrrrrrrrfect	-12.866
▁purse	-12.866
▁push	-12.866
▁puss	-12.866
▁pussing	-12.866
▁putrid	-12.866
▁puurrrfect	-12.866
▁puzzled	-12.866
▁puzzler	-12.866
▁puzzles	-12.866
▁pvcs	-12.866
▁pylori	-12.866
▁pyramid	-12.866
▁qa	-12.866
▁qaulity	-12.866
▁qestions	-12.866
▁qi	-12.866
▁qing	-12.866
▁qrganic	-12.866
▁qty	-12.866
▁quacker	-12.866
▁quaff	-12.866
▁quail	-12.866
▁quaility	-12.866
▁quaint	-12.866
▁quali	-12.866
▁qualified	-12.866
▁qualilty	-12.866
▁qualita	-12.866
▁quantified	-12.866
▁quantum	-12.866
▁quanty	-12.866
▁quark	-12.866
▁quatity	-12.866
▁quazy	-12.866
▁que	-12.866
▁quebec	-12.866
▁queso	-12.866
▁questo	-12.866
▁quickening	-12.866
▁quiet	-12.866
▁quintessential	-12.866
▁qulaity	-12.866
▁quota	-12.866
▁racconto	-12.866
▁raccoon	-12.866
▁raccoons	-12.866
▁racer	-12.866
▁rack	-12.866
▁raclette	-12.866
▁radtechmom	-12.866
▁ragu	-12.866
▁ragusa	-12.866
▁rains	-12.866
▁rainy	-12.866
▁raisen	-12.866
▁raising	-12.866
▁raisons	-12.866
▁rama	-12.866
▁ramens	-12.866
▁ramien	-12.866
▁ramyum	-12.866
▁ramyun	-12.866
▁rank	-12.866
▁raoul	-12.866
▁rap	-12.866
▁rapid	-12.866
▁rapidly	-12.866
▁rapper	-12.866
▁rarefy	-12.866
▁rascal	-12.866
▁rashers	-12.866
▁rashes	-12.866
▁rats	-12.866
▁raven	-12.866
▁rays	-12.866
▁razzle	-12.866
▁rb	-12.866
▁rc	-12.866
▁reached	-12.866
▁reaching	-12.866
▁reacted	-12.866
▁readily	-12.866
▁realemon	-12.866
▁reality	-12.866
▁realizations	-12.866
▁realize	-12.866
▁realized	-12.866
▁reallllllly	-12.866
▁realness	-12.866
▁realy	-12.866
▁reat	-12.866
▁rebar	-12.866
▁rebranded	-12.866
▁recaldent	-12.866
▁receipe	-12.866
▁receipes	-12.866
▁receipt	-12.866
▁receiver	-12.866
▁receives	-12.866
▁receommended	-12.866
▁recepie	-12.866
▁recevied	-12.866
▁recieve	-12.866
▁recipee	-12.866
▁recipients	-12.866
▁recive	-12.866
▁reckless	-12.866
▁recognizable	-12.866
▁recognize	-12.866
▁recomend	-12.866
▁recommed	-12.866
▁recommeded	-12.866
▁recommemded	-12.866
▁recommened	-12.866
▁record	-12.866
▁recording	-12.866
▁recovering	-12.866
▁rectangles	-12.866
▁rectified	-12.866
▁recurrence	-12.866
▁recycleable	-12.866
▁recycled	-12.866
▁recycling	-12.866
▁redbard	-12.866
▁redbutterfly	-12.866
▁redeemed	-12.866
▁redefines	-12.866
▁redenbacker	-12.866
▁redfish	-12.866
▁redhead	-12.866
▁redi	-12.866
▁rediculous	-12.866
▁redmond	-12.866
▁redolent	-12.866
▁redskin	-12.866
▁redskins	-12.866
▁reducer	-12.866
▁reduces	-12.866
▁reed	-12.866
▁reednikki	-12.866
▁reeeeaaaalyyyy	-12.866
▁reeeeeally	-12.866
▁reeks	-12.866
▁refer	-12.866
▁references	-12.866
▁refilling	-12.866
▁reflex	-12.866
▁reformed	-12.866
▁refridgerated	-12.866
▁refrieds	-12.866
▁refrito	-12.866
▁refuel	-12.866
▁refundable	-12.866
▁refuse	-12.866
▁refuting	-12.866
▁reg	-12.866
▁regal	-12.866
▁regatta	-12.866
▁regen	-12.866
▁regeneration	-12.866
▁reggiano	-12.866
▁reggie	-12.866
▁regional	-12.866
▁registered	-12.866
▁regret	-12.866
▁regualr	-12.866
▁regularity	-12.866
▁regulate	-12.866
▁reheated	-12.866
▁rehydrated	-12.866
▁rehydrating	-12.866
▁reign	-12.866
▁reindeer	-12.866
▁reisling	-12.866
▁rejection	-12.866
▁related	-12.866
▁relative	-12.866
▁relatives	-12.866
▁relaxed	-12.866
▁relaxer	-12.866
▁relaxxxxxx	-12.866
▁release	-12.866
▁released	-12.866
▁relied	-12.866
▁relieve	-12.866
▁relieved	-12.866
▁relived	-12.866
▁rely	-12.866
▁remakably	-12.866
▁reman	-12.866
▁remeber	-12.866
▁remedies	-12.866
▁remembrance	-12.866
▁reminisce	-12.866
▁remnants	-12.866
▁remote	-12.866
▁remover	-12.866
▁removes	-12.866
▁rename	-12.866
▁renamed	-12.866
▁rendang	-12.866
▁renfros	-12.866
▁reommend	-12.866
▁reordered	-12.866
▁repackage	-12.866
▁repeats	-12.866
▁repel	-12.866
▁repelled	-12.866
▁replacer	-12.866
▁replica	-12.866
▁replicating	-12.866
▁replicator	-12.866
▁repllent	-12.866
▁reply	-12.866
▁represent	-12.866
▁represented	-12.866
▁requested	-12.866
▁requests	-12.866
▁requirements	-12.866
▁rereview	-12.866
▁reseal	-12.866
▁researchers	-12.866
▁reseller	-12.866
▁reservation	-12.866
▁reservations	-12.866
▁resistance	-12.866
▁resisted	-12.866
▁resort	-12.866
▁resounding	-12.866
▁resource	-12.866
▁respect	-12.866
▁responses	-12.866
▁responsible	-12.866
▁restaraunts	-12.866
▁restful	-12.866
▁restockit	-12.866
▁restorative	-12.866
▁restored	-12.866
▁restuarant	-12.866
▁resturant	-12.866
▁resturaunts	-12.866
▁retailers	-12.866
▁retention	-12.866
▁retiree	-12.866
▁retraction	-12.866
▁retreat	-12.866
▁retrievers	-12.866
▁reults	-12.866
▁reunion	-12.866
▁rev	-12.866
▁revamped	-12.866
▁reveal	-12.866
▁reveals	-12.866
▁reverted	-12.866
▁revies	-12.866
▁revision	-12.866
▁revitalizer	-12.866
▁revived	-12.866
▁revolt	-12.866
▁revue	-12.866
▁revv	-12.866
▁rewarding	-12.866
▁rexie	-12.866
▁rexy	-12.866
▁rf	-12.866
▁rgw	-12.866
▁rib	-12.866
▁ribeye	-12.866
▁ribeyes	-12.866
▁ricemilk	-12.866
▁rices	-12.866
▁richardson	-12.866
▁richy	-12.866
▁rico	-12.866
▁rid	-12.866
▁rides	-12.866
▁ridges	-12.866
▁riesling	-12.866
▁riffick	-12.866
▁rigatonis	-12.866
▁rightfully	-12.866
▁rihanna	-12.866
▁rillettes	-12.866
▁rind	-12.866
▁ringer	-12.866
▁rinsed	-12.866
▁rinses	-12.866
▁rio	-12.866
▁riot	-12.866
▁ripe	-12.866
▁ripping	-12.866
▁ripple	-12.866
▁risers	-12.866
▁riserva	-12.866
▁ritif	-12.866
▁ritual	-12.866
▁rk	-12.866
▁rme	-12.866
▁roaring	-12.866
▁roaster	-12.866
▁roasting	-12.866
▁roasts	-12.866
▁roasty	-12.866
▁robbing	-12.866
▁robusta	-12.866
▁rockstars	-12.866
▁rodelle	-12.866
▁rojo	-12.866
▁rolan	-12.866
▁romance	-12.866
▁romat	-12.866
▁romo	-12.866
▁roo	-12.866
▁roobios	-12.866
▁rook	-12.866
▁rool	-12.866
▁roomates	-12.866
▁ropes	-12.866
▁rosebud	-12.866
▁roshke	-12.866
▁rosie	-12.866
▁rosso	-12.866
▁rosy	-12.866
▁rotini	-12.866
▁rougie	-12.866
▁roulette	-12.866
▁rounded	-12.866
▁roux	-12.866
▁rover	-12.866
▁roy	-12.866
▁rpice	-12.866
▁rpoduct	-12.866
▁rrific	-12.866
▁rtd	-12.866
▁rubies	-12.866
▁rubrum	-12.866
▁rubs	-12.866
▁ruby	-12.866
▁rude	-12.866
▁rug	-12.866
▁rugged	-12.866
▁ruining	-12.866
▁ruit	-12.866
▁ruler	-12.866
▁runt	-12.866
▁rupture	-12.866
▁russel	-12.866
▁rust	-12.866
▁ruta	-12.866
▁ruth	-12.866
▁rx	-12.866
▁ryvita	-12.866
▁saaaaavvvve	-12.866
▁saag	-12.866
▁saba	-12.866
▁sabor	-12.866
▁sabroso	-12.866
▁sacheres	-12.866
▁sachets	-12.866
▁sack	-12.866
▁sacramento	-12.866
▁sacrifices	-12.866
▁saddest	-12.866
▁sadistic	-12.866
▁sadmama	-12.866
▁saf	-12.866
▁safest	-12.866
▁safety	-12.866
▁safeway	-12.866
▁sagistar	-12.866
▁sahales	-12.866
▁sail	-12.866
▁sal	-12.866
▁salada	-12.866
▁saladitos	-12.866
▁salamandra	-12.866
▁sales	-12.866
▁salisbury	-12.866
▁salon	-12.866
▁salsas	-12.866
▁salsifis	-12.866
▁salsify	-12.866
▁salteines	-12.866
▁salteye	-12.866
▁saltier	-12.866
▁saltiest	-12.866
▁salting	-12.866
▁saltly	-12.866
▁saltozza	-12.866
▁salubrious	-12.866
▁salute	-12.866
▁sama	-12.866
▁sami	-12.866
▁sammys	-12.866
▁samoa	-12.866
▁samplers	-12.866
▁sanck	-12.866
▁sanctuary	-12.866
▁sandies	-12.866
▁sanding	-12.866
▁sandwhiches	-12.866
▁sandy	-12.866
▁sandyritterstuff	-12.866
▁sane	-12.866
▁sara	-12.866
▁sardinia	-12.866
▁sarsaparilla	-12.866
▁sassafras	-12.866
▁sassparilla	-12.866
▁satan	-12.866
▁satay	-12.866
▁satchels	-12.866
▁satcy	-12.866
▁sate	-12.866
▁satisfier	-12.866
▁satisfiying	-12.866
▁satisflying	-12.866
▁satisifys	-12.866
▁satsfied	-12.866
▁sauage	-12.866
▁saucers	-12.866
▁saucy	-12.866
▁sauerbraten	-12.866
▁sauerkraut	-12.866
▁saurkraut	-12.866
▁sausages	-12.866
▁sauvignon	-12.866
▁savina	-12.866
▁savoring	-12.866
▁savouries	-12.866
▁savu	-12.866
▁sawdust	-12.866
▁sbux	-12.866
▁sc	-12.866
▁scack	-12.866
▁scalps	-12.866
▁scammed	-12.866
▁scanned	-12.866
▁scarey	-12.866
▁scarf	-12.866
▁scarfed	-12.866
▁scarlet	-12.866
▁scarpetta	-12.866
▁scars	-12.866
▁scheweppes	-12.866
▁schnauzers	-12.866
▁schoko	-12.866
▁schooler	-12.866
▁schoolers	-12.866
▁schrumshist	-12.866
▁sci	-12.866
▁scientific	-12.866
▁scientifically	-12.866
▁scientists	-12.866
▁scissor	-12.866
▁scissors	-12.866
▁scooores	-12.866
▁scooper	-12.866
▁scoops	-12.866
▁scorchingly	-12.866
▁scores	-12.866
▁scot	-12.866
▁scotish	-12.866
▁scotland	-12.866
▁scouts	-12.866
▁scraed	-12.866
▁scramble	-12.866
▁scrambled	-12.866
▁scraps	-12.866
▁scratching	-12.866
▁scream	-12.866
▁screwed	-12.866
▁screws	-12.866
▁scrooge	-12.866
▁scrub	-12.866
▁scrummy	-12.866
▁scrumpalicious	-12.866
▁scrumpdidlicious	-12.866
▁scrumptiously	-12.866
▁scrumptous	-12.866
▁scrumscious	-12.866
▁scrumy	-12.866
▁scurro	-12.866
▁se	-12.866
▁seagull	-12.866
▁sealing	-12.866
▁seamless	-12.866
▁seaoning	-12.866
▁searing	-12.866
▁seasame	-12.866
▁seasickness	-12.866
▁seasnax	-12.866
▁seasong	-12.866
▁seasonng	-12.866
▁seasonning	-12.866
▁seat	-12.866
▁seattlelee	-12.866
▁seb	-12.866
▁sebastopol	-12.866
▁sec	-12.866
▁seca	-12.866
▁sechung	-12.866
▁sed	-12.866
▁sediment	-12.866
▁seductive	-12.866
▁seductively	-12.866
▁seedlander	-12.866
▁seekanswers	-12.866
▁seggiano	-12.866
▁seizure	-12.866
[...]
